{
  "version": "1.0",
  "truncation": null,
  "padding": null,
  "added_tokens": [],
  "normalizer": null,
  "pre_tokenizer": {
    "type": "Sequence",
    "pretokenizers": [
      {
        "type": "Split",
        "pattern": {
          "Regex": "\\p{N}{1,3}"
        },
        "behavior": "Isolated",
        "invert": false
      },
      {
        "type": "Split",
        "pattern": {
          "Regex": "[一-龥぀-ゟ゠-ヿ]+"
        },
        "behavior": "Isolated",
        "invert": false
      },
      {
        "type": "Split",
        "pattern": {
          "Regex": "[!\\\"#$%&'()*+,\\-./:;<=>?@\\[\\\\\\]^_`{|}~][A-Za-z]+|[^\\r\\n\\p{L}\\p{P}\\p{S}]?[\\p{L}\\p{M}]+| ?[\\p{P}\\p{S}]+[\\r\\n]*|\\s*[\\r\\n]+|\\s+(?!\\S)|\\s+"
        },
        "behavior": "Isolated",
        "invert": false
      },
      {
        "type": "ByteLevel",
        "add_prefix_space": false,
        "trim_offsets": true,
        "use_regex": false
      }
    ]
  },
  "post_processor": {
    "type": "ByteLevel",
    "add_prefix_space": true,
    "trim_offsets": false,
    "use_regex": true
  },
  "decoder": {
    "type": "ByteLevel",
    "add_prefix_space": true,
    "trim_offsets": true,
    "use_regex": true
  },
  "model": {
    "type": "BPE",
    "dropout": null,
    "unk_token": null,
    "continuing_subword_prefix": null,
    "end_of_word_suffix": null,
    "fuse_unk": false,
    "byte_fallback": false,
    "ignore_merges": false,
    "vocab": {
      "!": 0,
      "\"": 1,
      "#": 2,
      "$": 3,
      "%": 4,
      "&": 5,
      "'": 6,
      "(": 7,
      ")": 8,
      "*": 9,
      "+": 10,
      ",": 11,
      "-": 12,
      ".": 13,
      "/": 14,
      "0": 15,
      "1": 16,
      "2": 17,
      "3": 18,
      "4": 19,
      "5": 20,
      "6": 21,
      "7": 22,
      "8": 23,
      "9": 24,
      ":": 25,
      ";": 26,
      "<": 27,
      "=": 28,
      ">": 29,
      "?": 30,
      "@": 31,
      "A": 32,
      "B": 33,
      "C": 34,
      "D": 35,
      "E": 36,
      "F": 37,
      "G": 38,
      "H": 39,
      "I": 40,
      "J": 41,
      "K": 42,
      "L": 43,
      "M": 44,
      "N": 45,
      "O": 46,
      "P": 47,
      "Q": 48,
      "R": 49,
      "S": 50,
      "T": 51,
      "U": 52,
      "V": 53,
      "W": 54,
      "X": 55,
      "Y": 56,
      "Z": 57,
      "[": 58,
      "\\": 59,
      "]": 60,
      "^": 61,
      "_": 62,
      "`": 63,
      "a": 64,
      "b": 65,
      "c": 66,
      "d": 67,
      "e": 68,
      "f": 69,
      "g": 70,
      "h": 71,
      "i": 72,
      "j": 73,
      "k": 74,
      "l": 75,
      "m": 76,
      "n": 77,
      "o": 78,
      "p": 79,
      "q": 80,
      "r": 81,
      "s": 82,
      "t": 83,
      "u": 84,
      "v": 85,
      "w": 86,
      "x": 87,
      "y": 88,
      "z": 89,
      "{": 90,
      "|": 91,
      "}": 92,
      "~": 93,
      "¡": 94,
      "¢": 95,
      "£": 96,
      "¤": 97,
      "¥": 98,
      "¦": 99,
      "§": 100,
      "¨": 101,
      "©": 102,
      "ª": 103,
      "«": 104,
      "¬": 105,
      "®": 106,
      "¯": 107,
      "°": 108,
      "±": 109,
      "²": 110,
      "³": 111,
      "´": 112,
      "µ": 113,
      "¶": 114,
      "·": 115,
      "¸": 116,
      "¹": 117,
      "º": 118,
      "»": 119,
      "¼": 120,
      "½": 121,
      "¾": 122,
      "¿": 123,
      "À": 124,
      "Á": 125,
      "Â": 126,
      "Ã": 127,
      "Ä": 128,
      "Å": 129,
      "Æ": 130,
      "Ç": 131,
      "È": 132,
      "É": 133,
      "Ê": 134,
      "Ë": 135,
      "Ì": 136,
      "Í": 137,
      "Î": 138,
      "Ï": 139,
      "Ð": 140,
      "Ñ": 141,
      "Ò": 142,
      "Ó": 143,
      "Ô": 144,
      "Õ": 145,
      "Ö": 146,
      "×": 147,
      "Ø": 148,
      "Ù": 149,
      "Ú": 150,
      "Û": 151,
      "Ü": 152,
      "Ý": 153,
      "Þ": 154,
      "ß": 155,
      "à": 156,
      "á": 157,
      "â": 158,
      "ã": 159,
      "ä": 160,
      "å": 161,
      "æ": 162,
      "ç": 163,
      "è": 164,
      "é": 165,
      "ê": 166,
      "ë": 167,
      "ì": 168,
      "í": 169,
      "î": 170,
      "ï": 171,
      "ð": 172,
      "ñ": 173,
      "ò": 174,
      "ó": 175,
      "ô": 176,
      "õ": 177,
      "ö": 178,
      "÷": 179,
      "ø": 180,
      "ù": 181,
      "ú": 182,
      "û": 183,
      "ü": 184,
      "ý": 185,
      "þ": 186,
      "ÿ": 187,
      "Ā": 188,
      "ā": 189,
      "Ă": 190,
      "ă": 191,
      "Ą": 192,
      "ą": 193,
      "Ć": 194,
      "ć": 195,
      "Ĉ": 196,
      "ĉ": 197,
      "Ċ": 198,
      "ċ": 199,
      "Č": 200,
      "č": 201,
      "Ď": 202,
      "ď": 203,
      "Đ": 204,
      "đ": 205,
      "Ē": 206,
      "ē": 207,
      "Ĕ": 208,
      "ĕ": 209,
      "Ė": 210,
      "ė": 211,
      "Ę": 212,
      "ę": 213,
      "Ě": 214,
      "ě": 215,
      "Ĝ": 216,
      "ĝ": 217,
      "Ğ": 218,
      "ğ": 219,
      "Ġ": 220,
      "ġ": 221,
      "Ģ": 222,
      "ģ": 223,
      "Ĥ": 224,
      "ĥ": 225,
      "Ħ": 226,
      "ħ": 227,
      "Ĩ": 228,
      "ĩ": 229,
      "Ī": 230,
      "ī": 231,
      "Ĭ": 232,
      "ĭ": 233,
      "Į": 234,
      "į": 235,
      "İ": 236,
      "ı": 237,
      "Ĳ": 238,
      "ĳ": 239,
      "Ĵ": 240,
      "ĵ": 241,
      "Ķ": 242,
      "ķ": 243,
      "ĸ": 244,
      "Ĺ": 245,
      "ĺ": 246,
      "Ļ": 247,
      "ļ": 248,
      "Ľ": 249,
      "ľ": 250,
      "Ŀ": 251,
      "ŀ": 252,
      "Ł": 253,
      "ł": 254,
      "Ń": 255,
      "Ð°": 256,
      "ĠÐ": 257,
      "Ð½": 258,
      "ÑĢ": 259,
      "ÑĤ": 260,
      "Ñĭ": 261,
      "Ðµ": 262,
      "Ð»": 263,
      "Ð¸": 264,
      "Ñĥ": 265,
      "Ðº": 266,
      "Ð´": 267,
      "Ð¾": 268,
      "Ð³": 269,
      "Ò¯": 270,
      "Ñģ": 271,
      "Ó©": 272,
      "Ð¼": 273,
      "ĠÐº": 274,
      "Ð°Ð½": 275,
      "Ð°ÑĢ": 276,
      "ÑĪ": 277,
      "Ð¹": 278,
      "ĠÐ±": 279,
      "ÑĭÐ½": 280,
      "Ð°Ð»": 281,
      "Ð¿": 282,
      "Ñĩ": 283,
      "Ð·": 284,
      "ĠÐ¶": 285,
      "ÐµÐ½": 286,
      "Ð±": 287,
      "ĠÑĤ": 288,
      "Ð°ÑĤ": 289,
      "Ð¸Ð½": 290,
      "ÐµÑĢ": 291,
      "ĠÐ¼": 292,
      "Ð°Ð¹": 293,
      "Ð´Ð°": 294,
      "ÑĥÑĥ": 295,
      "Ñį": 296,
      "ÐºÑĤ": 297,
      "Ñı": 298,
      "Ð¾Ð»": 299,
      "ĠÑģ": 300,
      "ÑĭÐ»": 301,
      "Ò¯Ð½": 302,
      "ÑĥÐ½": 303,
      "ĠÐ´": 304,
      "ĠÑį": 305,
      "Ð¸ÑĢ": 306,
      "Ð²": 307,
      "Ð¾Ð½": 308,
      "Ð¾ÑĢ": 309,
      "ÐµÑĤ": 310,
      "Ð°Ñģ": 311,
      "Ð³Ð°Ð½": 312,
      "ÑĥÑĢ": 313,
      "ÑĭÐº": 314,
      "Ð³Ñĭ": 315,
      "ÑĭÑĢ": 316,
      "Ð¸Ð»": 317,
      "ĠÐ°": 318,
      "ÑĥÐ»": 319,
      "Ð¸Ñı": 320,
      "ÐµÐº": 321,
      "ĠÐ¾": 322,
      "ĠÑĩ": 323,
      "Ð°ÑĪ": 324,
      "Ð°Ð¼": 325,
      "ÑģÑĤ": 326,
      "ĠÓ©": 327,
      "Ò£": 328,
      "ĠÐ°Ð»": 329,
      "ĠÐĲ": 330,
      "ÐµÐ»": 331,
      ".Ċ": 332,
      "ĠÐ¸": 333,
      "ĠÐļ": 334,
      "Ð¸Ðº": 335,
      "Ó©ÑĢ": 336,
      "âĢ": 337,
      "Ò¯Ò¯": 338,
      "Ð°Ðº": 339,
      "Ð°Ð½Ð°": 340,
      "Ð³Ð°": 341,
      "Ð°ÑĢÑĭ": 342,
      "Ð¶": 343,
      "Ð´Ñĭ": 344,
      "ĠÐĳ": 345,
      "Ó©Ð½": 346,
      "ÑĪÑĤ": 347,
      "ĠÐ±Ð¾Ð»": 348,
      "Ð´ÑĭÐ½": 349,
      "Ð¾Ð¾": 350,
      "ĠÐ¶Ð°Ð½Ð°": 351,
      "Ñİ": 352,
      "ÑĭÐ¿": 353,
      "Ð´Ðµ": 354,
      "ĠÐ¼ÐµÐ½": 355,
      "ĠÐ°Ð¹": 356,
      "ĠÐ¿": 357,
      "Ò¯ÑĢ": 358,
      "Ð¸Ð·": 359,
      "ĠâĢ": 360,
      "Ð´Ð¸": 361,
      "ÑĨ": 362,
      "ÑĭÐ·": 363,
      "ĠÐ´Ðµ": 364,
      "ÑĤÑĤ": 365,
      "ÑĭÐ½Ð´Ð°": 366,
      "ĠÐ¼ÐµÐ½ÐµÐ½": 367,
      "ÑĥÐº": 368,
      "Ð°Ð¿": 369,
      "Ð³ÐµÐ½": 370,
      "Ð´Ð°ÑĢ": 371,
      "Ð°Ð±": 372,
      "ÐµÑģ": 373,
      "Ðļ": 374,
      "ĠÐ±Ð¸ÑĢ": 375,
      "ÐºÐ°Ð½": 376,
      "ĠÐľ": 377,
      "Ð´Ó©": 378,
      "ÑĦ": 379,
      "ĠÐºÐ¾": 380,
      "Ð¾Ð²": 381,
      "ÑĭÐ¼": 382,
      "ÑĭÐ½ÑĭÐ½": 383,
      "Ð¾Ð³": 384,
      "Ð¸Ð¼": 385,
      "ĠÑįÐ»": 386,
      "Ð´Ð°Ð½": 387,
      "Ð¸Ð¹": 388,
      "ĠÐ°ÑĢ": 389,
      "ÐµÐ¹": 390,
      "ĠÑĥ": 391,
      "Ó©Ð»": 392,
      "ÑĭÑĪ": 393,
      "ÐºÐ°": 394,
      "Ò¯Ð»": 395,
      "Ð°ÑĤÑĤ": 396,
      "ĠÐºÐ°ÑĢ": 397,
      "ÑĩÐ°": 398,
      "Ġ(": 399,
      "ĠÐ±Ð°ÑĪ": 400,
      "Ð¾Ðº": 401,
      "ĠÒ¯": 402,
      "ÑĭÐ¹": 403,
      "Ð°Ð·": 404,
      "ĠÐ¢": 405,
      "ĠÐºÓ©": 406,
      "Ð¸Ð¿": 407,
      "ÑĥÐ¿": 408,
      "Ð³ÑĭÐ·": 409,
      "Ð°ÐºÑĤ": 410,
      "ĠÐ±ÐµÑĢ": 411,
      "ĠÐ¡": 412,
      "ĠÑĢ": 413,
      "Ð´Ñĥ": 414,
      "ÐĲ": 415,
      "ÐµÐ¼": 416,
      "ÐµÐºÑĤ": 417,
      "ĠÐ´Ð°": 418,
      "ĠâĢĶ": 419,
      "Ñħ": 420,
      "ĠÐĸ": 421,
      "ÑĭÑĢÐ³ÑĭÐ·": 422,
      "Ð¸ÑĪ": 423,
      "Ð´Ð¸Ð½": 424,
      "ÑĭÐ½Ð°": 425,
      "Ð¸ÑĤ": 426,
      "Ó©ÑĤ": 427,
      "ĠÐ½": 428,
      "ĠÑĪ": 429,
      "ÑİÐ½": 430,
      "ĠÐ±Ð¾": 431,
      "ÑĨÐ¸Ñı": 432,
      "ĠÐºÐµÐ»": 433,
      "ÑĮ": 434,
      "Ð»Ð°ÑĢ": 435,
      "ÐµÐ²": 436,
      "ÐµÑĤÑĤ": 437,
      "Ò¯Ð·": 438,
      "ĠÐ°Ð½": 439,
      "20": 440,
      "Ð¾Ð¼": 441,
      "Ð´ÑĭÐº": 442,
      "Ð³Ð¸": 443,
      "Ð¾ÑĤ": 444,
      "ĠÐ°ÑĤ": 445,
      "Â«": 446,
      "ÐµÐ·": 447,
      "Â»": 448,
      "ĠÑįÐº": 449,
      "ĠÐŀ": 450,
      "ĠÑĤÑĥÑĢ": 451,
      "Ð³Ó©": 452,
      "ĠÓ©Ð·": 453,
      "ĠÑįÐ¼": 454,
      "ĠÐ´ÐµÐ¿": 455,
      "ĠÑĤÐ°ÑĢ": 456,
      "ÑĥÑģ": 457,
      "ÑģÑĤÐ°Ð½": 458,
      "ĠÐ¼Ð°": 459,
      "Ð³Ð¾Ð½": 460,
      "ĠÐºÑĭÐ·": 461,
      "Ðĳ": 462,
      "Ð°Ð»ÑĭÐº": 463,
      "ĠÐºÐ°Ð»": 464,
      "ÐµÐ¿": 465,
      "ÐºÑĭ": 466,
      "Ð¸Ð½Ð¸Ð½": 467,
      "Ð³Ðµ": 468,
      "Ð¸ÑģÑĤ": 469,
      "ĠÒ¯Ñĩ": 470,
      "ÑĥÐ¼": 471,
      "ĠÐ±Ð¾ÑİÐ½": 472,
      "ÐµÑĢÐ¸": 473,
      "ÑĭÐºÑĤ": 474,
      "ĠÐ±Ð¾ÑİÐ½ÑĩÐ°": 475,
      "ĠÐ±Ð°ÑĢ": 476,
      "ÑĥÑĪ": 477,
      "Ð¶ÑĭÐ»": 478,
      "Ð´Ð°Ð¹": 479,
      "Ð½ÑĭÐ½": 480,
      "Ð´ÐµÐ½": 481,
      "Ò¯Ð¿": 482,
      "ĠÐ¾ÑĢ": 483,
      "ĠÂ«": 484,
      "19": 485,
      "ĠÐ¶Ð°ÑĤ": 486,
      "Ġ-": 487,
      "Ð¸Ð½Ð´Ðµ": 488,
      "Ðľ": 489,
      "ĠÑįÐ»Ðµ": 490,
      "Ð³Ó©Ð½": 491,
      "Ð´Ð°Ð¼": 492,
      "ĠÐ¸ÑĪ": 493,
      "ĠÐ±Ð¸Ð»": 494,
      "ÑĭÐ³": 495,
      "ĠÐ³": 496,
      "Ð´Ð°Ð³Ñĭ": 497,
      "Ð»Ð°Ð½": 498,
      "Ð´Ð¾": 499,
      "ĠÒ¯ÑĩÒ¯Ð½": 500,
      "Ò¯ÑĪ": 501,
      "ĠÐ¿ÑĢ": 502,
      "Ð°Ð³Ð°Ð½": 503,
      "Ð°Ð³": 504,
      "ĠÐºÐ°ÑĤ": 505,
      "ĠÐºÓ©ÑĢ": 506,
      "ĠÐºÑĭÐ»": 507,
      "ÑģÑĭ": 508,
      "Ò¯Ð¼": 509,
      "ÑĢÐ°": 510,
      "ĠÐĲÐ»": 511,
      "ÑĤÐº": 512,
      "ÑĥÐ·": 513,
      "Ð±Ð»": 514,
      "ĠÐ¶Ð°ÑĢ": 515,
      "ÐµÒ£": 516,
      "ĠÐŃ": 517,
      "ĠÐ°Ð¹ÑĤ": 518,
      "Ð¡": 519,
      "ÐµÐ³": 520,
      "Ò¯Ðº": 521,
      "Ð°ÑģÑĭ": 522,
      "ĠÐ±Ð¾Ð»Ð³Ð¾Ð½": 523,
      "Ð¾Ñģ": 524,
      "Ð°Ð»ÑĥÑĥ": 525,
      "Ð³Ð¸Ð»": 526,
      "Ò¯Ð³": 527,
      "ĠÐļÑĭÑĢÐ³ÑĭÐ·": 528,
      "ĠÐł": 529,
      "Ò¯Ð¹": 530,
      "Ð¼Ð°ÑĤ": 531,
      "ĠÐ¸ÑĪÑĤ": 532,
      "ĠÐºÐ¾Ð»": 533,
      "ĠÑĤÑĥÑĥ": 534,
      "Ð±ÐµÐº": 535,
      "Ò¯Ð½Ð´Ó©": 536,
      "ÑĥÑĤ": 537,
      "ÑĭÐ½Ð°Ð½": 538,
      "Ð°Ð°ÑĢ": 539,
      "ĠÑĦ": 540,
      "ĠÐ¾Ðº": 541,
      "Ð»ÐµÐº": 542,
      "Ð°Ð»ÑĭÐ¼": 543,
      "ÑĩÑĥ": 544,
      "Ð¸Ñģ": 545,
      "Ð´ÑĥÐ½": 546,
      "Ð°Ð»Ð°ÑĢ": 547,
      "Ð´ÐµÑĢ": 548,
      "Ð±Ð°": 549,
      "ÑĥÐ½ÑĥÐ½": 550,
      "ĠÐ±ÑĥÐ»": 551,
      "ĠÐ¶ÑĭÐ»": 552,
      "Ð°Ð»Ð³Ð°Ð½": 553,
      "Ð¢": 554,
      "Ð°Ð¼Ð»ÐµÐº": 555,
      "ÐµÑĩ": 556,
      "Ð¸Ð½Ðµ": 557,
      "ĠÐĺ": 558,
      "Ð»ÑĭÐº": 559,
      "ÐºÐµÑĢ": 560,
      "Ð»Ð¸": 561,
      "ĠÐ¶ÐµÑĢ": 562,
      "ÐºÐµ": 563,
      "ĠÐ¶Ð¾Ð»": 564,
      "ÑĤÐ°": 565,
      "Ð¼Ð°Ð½": 566,
      "ĠÓ©Ð»": 567,
      "ĠÐ£": 568,
      "ĠÐ±Ð¾Ð»ÑĥÐ¿": 569,
      "Ð¾Ð¿": 570,
      "ÐµÑĪ": 571,
      "ĠÐºÐ°Ð¹": 572,
      "Ð°Ò£": 573,
      "Ð´ÑĥÐº": 574,
      "ÑĥÐ³": 575,
      "ĠÐ¶Ò¯ÑĢ": 576,
      "ĠÐĶ": 577,
      "ĠÐĳÑĥÐ»": 578,
      "ÑĥÐ½Ð°": 579,
      "Ð³Ð¾": 580,
      "ĠÐ¶Ð°ÑĪ": 581,
      "Ð´Ð¸ÑĢ": 582,
      "ĠÐºÑĥÑĢ": 583,
      "ĠÐºÐ°Ð½": 584,
      "ÑĭÑĪÑĤ": 585,
      "ĠÐ¼Ð°Ð°Ð»ÑĭÐ¼": 586,
      "ÑĩÑĭÐ»": 587,
      "Ð¼Ð°": 588,
      "ÑĭÐ³Ñĭ": 589,
      "Ð´Ð¸Ðº": 590,
      "Ó©Ó©": 591,
      "ĠÐ¶ÐµÑĤ": 592,
      "Ò¯Ð½Ò¯Ð½": 593,
      "Ð´Ð¾Ð½": 594,
      "ÐºÐµÐ½": 595,
      "ĠÐ±Ð°": 596,
      "Ð±Ð°Ð¹": 597,
      "Ðĺ": 598,
      "Ó¨": 599,
      "âĢĿ": 600,
      "Ó©Ð¼": 601,
      "ĠÐ±Ð°Ñģ": 602,
      "ÑĩÑĭ": 603,
      "ĠÐ°Ð´Ð°Ð¼": 604,
      "ÑįÑį": 605,
      "ĠÐ°Ðº": 606,
      "ĠâĢĵ": 607,
      "ĠÑĩÑĭÐ³": 608,
      "ÑıÐ½": 609,
      "Ò¯Ñĩ": 610,
      "ÐµÐ±": 611,
      "ĠÐºÑĭÐ·Ð¼Ð°ÑĤ": 612,
      "ĠÐ±ÐµÐ»": 613,
      "ĠÐ·": 614,
      "Ð°ÑĢÐ´ÑĭÐ½": 615,
      "ĠÐ±Ð¸Ð»Ð´Ð¸ÑĢ": 616,
      "ÐµÐ¹Ð¸Ð½": 617,
      "ÑĥÐºÑĤ": 618,
      "Ò¯Ð½Ó©": 619,
      "Ðŀ": 620,
      "ĠÐ±Ð°Ð¹": 621,
      "Ð°Ð¼Ð»ÐµÐºÐµÑĤÑĤ": 622,
      "ĠÐĿ": 623,
      "ĠÐºÐµÑĤ": 624,
      "ĠÐ±Ó©Ð»": 625,
      "ÐºÐ°ÑĢ": 626,
      "ĠÐºÐ¸ÑĢ": 627,
      "Ð´Ò¯": 628,
      "ĠÐŁ": 629,
      "00": 630,
      "ĠÐºÐ¸Ð¹": 631,
      "ÑĥÑĥÐ³Ð°": 632,
      "Ð¸Ð²": 633,
      "ĠÐºÐ¾ÑĢ": 634,
      "ĠÑĩÐµÐ¹Ð¸Ð½": 635,
      "Ð»ÐµÑĢ": 636,
      "Ð¾ÑĢÑĥ": 637,
      "ÑĥÐ½Ð´Ð°": 638,
      "ĠÐºÐµÑĢ": 639,
      "Ð¸ÐºÑĤ": 640,
      "ÐºÐ¸": 641,
      "ĠÑĤÒ¯Ð·": 642,
      "Ð¸Ð½Ð¸ÑģÑĤ": 643,
      "ĠÑĥÑĩ": 644,
      "ĠÑĤÐ°": 645,
      "ĠÑĤÑĥÑĥÑĢ": 646,
      "ĠÑģÐ°Ð»": 647,
      "ĠÑĤÐ°Ð»": 648,
      "Ð´ÑĥÑĥ": 649,
      "Ðĸ": 650,
      "Ð¾Ð¹": 651,
      "ĠÐºÐ¾Ð¼": 652,
      "Ġ\"": 653,
      "ĠÐ´ÐµÐ³ÐµÐ½": 654,
      "ĠÐ¶Ð°Ðº": 655,
      "ĠÑģÐ¾": 656,
      "ĠÐļÑĭÑĢÐ³ÑĭÐ·ÑģÑĤÐ°Ð½": 657,
      "ĠâĢľ": 658,
      "ĠÐ±Ð°Ð»": 659,
      "ĠÐ¶Ð°Ð¹": 660,
      "ÑĩÐ¸": 661,
      "ĠÑįÐ¼ÐµÑģ": 662,
      "ÐºÓ©": 663,
      "ĠÑĪÐ°Ð°ÑĢ": 664,
      "ÑĪÐ¾Ð½": 665,
      "Ð´ÑĭÑĢ": 666,
      "Ð°Ð½Ñĭ": 667,
      "ĠÑįÑģ": 668,
      "ĠÐ¶Ð¾Ðº": 669,
      "Ð°Ð¹Ð¾Ð½": 670,
      "ÑĭÐ»Ð³Ð°Ð½": 671,
      "ÑĩÑĥÐ»": 672,
      "ĠÐ§": 673,
      "Ð¸Ð½Ð¸ÑģÑĤÑĢ": 674,
      "ÐºÑĥ": 675,
      "ÑĥÑĥÐ½": 676,
      "Ð¸ÐºÐ°Ð»ÑĭÐº": 677,
      "ÐµÐ·Ð¸": 678,
      "ĠÐ¸Ñĩ": 679,
      "Ð°ÑĢÐ´Ñĭ": 680,
      "ĠÓ©Ð½": 681,
      "ĠÐ²": 682,
      "ÑĤÐµÑĢ": 683,
      "ĠÐºÐ°Ð±": 684,
      "ĠÑĤÑĥÑĥÑĢÐ°Ð»ÑĥÑĥ": 685,
      "ĠÑĢÐ°Ð¹Ð¾Ð½": 686,
      "Ð°ÑĢÑĭÑı": 687,
      "Ð°ÑģÑĭÐ½ÑĭÐ½": 688,
      "ĠÐ¶Ó©Ð½": 689,
      "Ð°Ð½ÑĭÐ½": 690,
      "ÑĪÑĭ": 691,
      "Ð°ÑĢÑĤ": 692,
      "ĠÓ©ÑĤ": 693,
      "ÐµÐ³Ð¸Ð·": 694,
      "ĠÐ¶Ð°Ð·": 695,
      "Ð¾ÐºÑĤ": 696,
      "Ð³Ò¯": 697,
      "201": 698,
      "Ó©Ð·": 699,
      "ĠÐ°Ð·": 700,
      "Ð´Ð°ÑĢÑĭ": 701,
      "ĠÑĥÐ»": 702,
      "Ð¸Ò£": 703,
      "Ð´Ó©ÑĢ": 704,
      "ĠÐ¶Ðµ": 705,
      "ĠÐºÓ©Ð¿": 706,
      "ĠÐ¿Ð°Ð¹": 707,
      "ÑĥÐ±Ð»": 708,
      "ÑĤÑĭ": 709,
      "ĠÐºÒ¯Ð½": 710,
      "Ð¸ÑıÐ»ÑĭÐº": 711,
      "Ðł": 712,
      "ÑĭÐ½Ð´Ð°Ð³Ñĭ": 713,
      "ĠÐºÐ¸Ð¹Ð¸Ð½": 714,
      "ĠÐºÐ°": 715,
      "Ð¶ÑĭÐ»Ñĭ": 716,
      "ĠÐ¶Ð°ÑĤÐºÐ°Ð½": 717,
      "ÐµÐ·Ð¸Ð´ÐµÐ½": 718,
      "ĠÑĤÑĥÑĢÐ³Ð°Ð½": 719,
      "ĠÐĲÐ½": 720,
      "ĠÑįÐºÐµÐ½": 721,
      "ÐµÑģÐ¿": 722,
      "ĠÐĳÐ¸ÑĢ": 723,
      "Ð´Ð°ÑĢÐ´ÑĭÐ½": 724,
      "Ð°Ð¼Ð»ÐµÐºÐµÑĤÑĤÐ¸Ðº": 725,
      "ĠÒ¯Ð¹": 726,
      "ĠÐ°Ð»ÑĭÐ¿": 727,
      "ĠÐ±ÐµÐ»Ð³Ð¸Ð»": 728,
      "Ð´Ò¯Ò¯": 729,
      "Ð¸Ð½ÐµÐ½": 730,
      "ĠÐĵ": 731,
      "ÑģÑĭÐ·": 732,
      "ÑĥÑĥÐ»": 733,
      "ĠÓ©Ðº": 734,
      "ĠÐ¸Ð½": 735,
      "ÐµÑģÐ¿ÑĥÐ±Ð»": 736,
      "ĠÓ©ÑĤÐº": 737,
      "ĠÑĤÒ¯ÑĪ": 738,
      "ĠÑģÐ°": 739,
      "ĠÐºÐ¾Ð¾": 740,
      "ĠÓ¨": 741,
      "200": 742,
      "ĠÑĥÑĩÑĥÑĢ": 743,
      "ĠÑģÑĥÑĥ": 744,
      "ÑĥÑĪÑĤ": 745,
      "ĠÑĤÒ¯ÑĢ": 746,
      "ÑĩÒ¯": 747,
      "ĠÑĤÐ°ÑĢÑĤ": 748,
      "Ð¾Ð±": 749,
      "ĠÐºÐµÑĢÐµÐº": 750,
      "Ð¸ÑıÐ½ÑĭÐ½": 751,
      "ĠÐ°Ð½ÑĭÐ½": 752,
      "Ð¸ÑĪÐ¸": 753,
      "ÐŃ": 754,
      "Ð´Ð¾Ð¾": 755,
      "Ð£": 756,
      "Ð°Ð¹ÑĤ": 757,
      "Ð°ÑĢÑĭÐ½": 758,
      "ĠÐ±Ð°ÑĪÑĤ": 759,
      "Ð°Ð²": 760,
      "ÑģÑĭÐ½ÑĭÐ½": 761,
      "ĠÐ±Ð¸Ð·": 762,
      "ÐµÐ½ÑĤ": 763,
      "Ð¸Ð³": 764,
      "ĠÐ¾Ð±Ð»": 765,
      "ÐµÑģÐ¿ÑĥÐ±Ð»Ð¸Ðº": 766,
      "ĠÐ±Ð¾Ð»Ð¾ÑĤ": 767,
      "Ð·Ð°Ð¼": 768,
      "ĠÐºÓ©Ð·": 769,
      "Ò¯ÐºÑĤ": 770,
      "ĠÐ½ÐµÐ³Ð¸Ð·": 771,
      "ĠÐºÑĭÑĢÐ³ÑĭÐ·": 772,
      "Ð°Ð»Ð´ÑĭÐº": 773,
      "ĠÐ°Ð¹ÑĭÐ»": 774,
      "ĠÑĩÑĭÐ³Ð°ÑĢ": 775,
      "ĠÐºÐ°Ð¼": 776,
      "Ð°ÑĪÑĤ": 777,
      "Ð¨": 778,
      "Ð¾Ò£": 779,
      "Ð¾Ð·": 780,
      "ÐµÑģÑĤ": 781,
      "ĠÑģÓ©Ð·": 782,
      "Ð´Ò¯Ð½": 783,
      "ÐºÓ©Ð½": 784,
      "Ð¾Ð³Ð¾ÑĢ": 785,
      "ĠÐ±Ð°ÑĪÐºÐ°": 786,
      "ĠÐºÓ©ÑĢÑģ": 787,
      "Ó©Ð»Ó©ÑĢ": 788,
      "Ð°Ð¶": 789,
      "ÐµÐ»ÐµÑĢ": 790,
      "ÑĥÑĤÑĤ": 791,
      "Ð°Ð³Ñĭ": 792,
      "ÑĭÐ»ÑĥÑĥ": 793,
      "ĠÐ¼Ð¸Ð»": 794,
      "ĠÑĢÐµ": 795,
      "Ð¸Ð½ÑĩÐ¸": 796,
      "ÑĭÐ¹Ð·Ð°Ð¼": 797,
      "ÐºÒ¯Ð½": 798,
      "ĠÑįÑĢ": 799,
      "Ð°ÑģÑĤ": 800,
      "Ó©Ð¹": 801,
      "ĠÐ°Ð»Ð³Ð°Ð½": 802,
      "ĠÐ¤": 803,
      "ĠÐ¨": 804,
      "ĠÐ¼Ð°Ð°Ð»ÑĭÐ¼Ð°ÑĤ": 805,
      "Ð±Ð°ÐµÐ²": 806,
      "ÐĶ": 807,
      "ÐµÑĢÑģ": 808,
      "ĠÐ°Ñı": 809,
      "Ð´Ð¾Ð¹": 810,
      "Ð¸ÑĪÐº": 811,
      "ÐŁ": 812,
      "ÑĭÑģ": 813,
      "ĠÐ°ÑĪ": 814,
      "Ð´Ð°Ð»": 815,
      "ĠÐºÓ©ÑĢÑģÓ©ÑĤ": 816,
      "ĠÐºÐ¾ÑĪ": 817,
      "ĠÐ°Ð±": 818,
      "Ò¯Ò¯Ð³Ó©": 819,
      "ĠÑįÐºÐ¸": 820,
      "ĠÐ±Ð¸Ð¹": 821,
      "ĠÑĥÐº": 822,
      "ÑĩÒ¯Ð»": 823,
      "Ð¸Ð±": 824,
      "ĠÑĤÐ¸Ð»": 825,
      "ÑĥÐ±": 826,
      "Ð¸ÐµÐ²": 827,
      "ĠÐłÐµÑģÐ¿ÑĥÐ±Ð»Ð¸Ðº": 828,
      "Ð°ÑĨÐ¸Ñı": 829,
      "Ð¾Ð»Ð¾Ð³": 830,
      "ĠÐ°Ð¹Ð¼": 831,
      "Ð°Ð¹Ð»": 832,
      "ĠÑĥÑİ": 833,
      "Ò¯Ð¼ÐºÒ¯Ð½": 834,
      "ÑĩÐ¸Ð»": 835,
      "ĠÐ´Ð°Ð³Ñĭ": 836,
      "ĠÐ¼Ð°Ðº": 837,
      "ÑģÐ¾": 838,
      "Ò¯ÑĤ": 839,
      "Ò¯Ð³Ò¯Ð½": 840,
      "ÑıÑģ": 841,
      "ĠÐ¼Ò¯Ð¼ÐºÒ¯Ð½": 842,
      "Ð´Ó©Ð½": 843,
      "ĠÐ¼Ð°Ð¼Ð»ÐµÐºÐµÑĤÑĤÐ¸Ðº": 844,
      "ĠÐ¶Ð°Ò£": 845,
      "Ð¾ÑĢÐ±": 846,
      "Ð±ÑĢ": 847,
      "Ð°Ð¹ÑĭÐ½": 848,
      "10": 849,
      "ÑĨÐ¸": 850,
      "ĠÑįÐ¼Ð¸": 851,
      "ÑĭÑĤ": 852,
      "ÑĩÓ©": 853,
      "ĠÐ¼Ð°Ñģ": 854,
      "Ð¾Ð³Ð¾ÑĢÐºÑĥ": 855,
      "ÐµÐ¿ÑĤ": 856,
      "ĠÐ±Ð°Ð¹Ð»Ð°Ð½": 857,
      "ÑģÒ¯": 858,
      "Ð°ÑģÑĭÐ½Ð´Ð°": 859,
      "ĠÐ¼Ð¸Ð½Ð¸ÑģÑĤÑĢ": 860,
      "ÐĿ": 861,
      "ĠÐºÐµÐ»Ð³ÐµÐ½": 862,
      "ĠÐ¶Ð°Ñģ": 863,
      "Ð°Ð¿ÑĤ": 864,
      "Ð´Ð¾ÑĢ": 865,
      "ÑĭÐ¹ÑĭÐ½": 866,
      "ÐµÐ¹ÑĤ": 867,
      "ĠÐ¼ÑĭÐ¹Ð·Ð°Ð¼": 868,
      "ÑĥÑĥÑĩÑĥ": 869,
      "ÑģÐ°": 870,
      "ĠÑĭÑĢ": 871,
      "ĠÐºÐ¾Ð»Ð´Ð¾Ð½": 872,
      "ĠÐºÐ°Ð½Ð´Ð°Ð¹": 873,
      "ĠÐ»": 874,
      "ĠÐ¼ÑĥÑĢ": 875,
      "Ð¼Ó©": 876,
      "Ðĵ": 877,
      "ĠÑĥÑĪ": 878,
      "ĠÐ³Ð°Ð½Ð°": 879,
      "Ð°Ð»Ñĭ": 880,
      "ÑĤÑĥÑĢ": 881,
      "ĠÐ¼Ð¸Ò£": 882,
      "ĠÐ´Ð¾Ð»": 883,
      "ĠÐ¶Ð°ÑĤÐ°ÑĤ": 884,
      "ĠÐĴ": 885,
      "ÑĪÐ¾Ð»": 886,
      "ĠÐ¿ÑĢÐµÐ·Ð¸Ð´ÐµÐ½": 887,
      "Ð»Ó©ÑĢ": 888,
      "ÐµÐ½Ð¸": 889,
      "ĠÐºÐ¸ÑĪÐ¸": 890,
      "ĠÐ¶Ð°Ð»": 891,
      "Ð°ÑĢÐ³Ð°": 892,
      "Ð°ÑĢÐ°": 893,
      "ĠÐŀÑĢ": 894,
      "ÑĤÓ©ÑĢ": 895,
      "ĠÑĩÐµÑĩ": 896,
      "ĠÐºÐ¾Ð½": 897,
      "ĠÐºÐµÒ£": 898,
      "ÐµÐ´Ð¸": 899,
      "ÑĢÐ°Ð½": 900,
      "ĠÐºÒ¯Ñĩ": 901,
      "ÑĭÑĢÐºÑĭ": 902,
      "ÑĪÐ¾Ð½Ð´Ð¾Ð¹": 903,
      "Ð»Ð¸Ð¼": 904,
      "ÑĢÐ°Ð¼": 905,
      "),": 906,
      "Ð¸Ð»Ð³ÐµÐ½": 907,
      "Ð¾Ð¾ÑĢ": 908,
      "ĠÑĤÐµÑĢ": 909,
      "Ð³ÐµÑĢ": 910,
      "ĠÐ°Ñģ": 911,
      "ĠÐ¾Ð±Ð»ÑĥÑģ": 912,
      "ÑıÑĢ": 913,
      "ĠÐ¾Ð¹": 914,
      "ÐµÐ³ÐµÐ½": 915,
      "ĠÑĩÑĭÐº": 916,
      "Ð¼Ð°Ð»": 917,
      "ĠÐĲÐ¹": 918,
      "Ò¯Ð¹Ð½": 919,
      "Ð¸ÐºÐ°": 920,
      "Ð±ÑĭÐ·": 921,
      "Ó©ÑĪ": 922,
      ":Ċ": 923,
      "ĠÑĩÑĭÐ³Ñĭ": 924,
      "ÑģÑĥ": 925,
      "ĠÐ¶Ó©Ð½Ò¯Ð½Ð´Ó©": 926,
      "Ò¯ÑĪÑĤ": 927,
      "ĠÐĳÐ¸ÑĪÐº": 928,
      "ĠÑįÑį": 929,
      "ÑĭÑĪÑĭ": 930,
      "ÐµÐ´": 931,
      "ĠÑĤÓ©ÑĢ": 932,
      "Ð°ÑģÑĭÐ½": 933,
      "ĠÐ¸Ð·": 934,
      "15": 935,
      "ĠÐ¾Ð¾ÑĢ": 936,
      "ĠÑģÑĤ": 937,
      "ÑĥÑĥÐ´Ð°": 938,
      "Ð°ÑĢÐ»": 939,
      "ÑıÐ±ÑĢ": 940,
      "ĠÑģÐ°ÐºÑĤ": 941,
      "ĠÐłÐµÑģÐ¿ÑĥÐ±Ð»Ð¸ÐºÐ°ÑģÑĭÐ½ÑĭÐ½": 942,
      "Ð°Ð´Ñĭ": 943,
      "Ò¯Ð³Ò¯": 944,
      "ÑĭÐºÑĤÑĭ": 945,
      "ÐļÑĭÑĢÐ³ÑĭÐ·": 946,
      "ÑĥÑģÑĤ": 947,
      "ĠÐĲÐ·": 948,
      "Ð°ÑĤÑĭ": 949,
      "ÑģÐ¿": 950,
      "ĠÑĭÐ»": 951,
      "ÑĭÑĪÐºÐ°Ð½": 952,
      "ĠÐ°Ð»ÑĭÐ½": 953,
      "ÑĢÐ¸": 954,
      "ĠÐ¶ÑĥÐ¼": 955,
      "ĠÑģÐ°ÑıÑģ": 956,
      "ĠÐºÐ°ÑĤÐ°ÑĢÑĭ": 957,
      "Â»,": 958,
      "ĠÐ¾ÑĢÑĤ": 959,
      "Ð°Ð´Ð°": 960,
      "Ð¸ÑĨÐ¸Ñı": 961,
      "ĠÐ±Ð¾Ð»ÑģÐ¾": 962,
      "ĠÐºÐ°Ð»Ð³Ð°Ð½": 963,
      "ĠÐ°Ð»Ð´ÑĭÐ½": 964,
      "ĠÑģÑĥÑĢ": 965,
      "ĠÑģÐ°Ð½": 966,
      "Ð³Ð¸Ð·": 967,
      "ÐµÑģÐ¸": 968,
      "Ð°Ð»Ð°ÑĤ": 969,
      "Ð¾Ð¾Ð¿": 970,
      "ĠÐĳÐ¸ÑĢÐ¾Ðº": 971,
      "ĠÓ©ÑĤÐºÓ©ÑĢ": 972,
      "ÑĩÑĭÑģÑĭ": 973,
      "ĠÐ±ÐµÑĢÒ¯Ò¯": 974,
      "ÐºÐ¾": 975,
      "Ð»Ð°ÑĢÐ´ÑĭÐ½": 976,
      "ĠÐ¸ÑĪÑĤÐµÑĢ": 977,
      "ĠÑĤÐ¾Ð»": 978,
      "ÑĭÒ£": 979,
      "ĠÑģÒ¯Ð¹": 980,
      "18": 981,
      "ÑģÐ¸": 982,
      "ÐµÐ»Ðµ": 983,
      "..": 984,
      "ĠÐĽ": 985,
      "ĠÐºÐ¾Ñİ": 986,
      "ĠÑĥÐ±": 987,
      "ĠÐ±Ð¸Ð»Ð´Ð¸ÑĢÐ´Ð¸": 988,
      "Ð½Ðµ": 989,
      "Ð°ÑĤÑĤÐ°ÑĢ": 990,
      "ĠÐºÐ¾Ð¾Ð¼": 991,
      "ĠÑĥÑĢ": 992,
      "Ð°ÑĤÐ°": 993,
      "ÐµÐ½ÑĤÑĤ": 994,
      "Ò¯Ð»Ð³Ó©Ð½": 995,
      "ĠÐ°Ð»ÑĥÑĥ": 996,
      "ĠÐ°Ñĩ": 997,
      "ĠÐ¶Ò¯ÑĢÐ³": 998,
      "ÑĥÐ»Ð³Ð°Ð½": 999,
      "ĠÐºÐ¾Ð¼Ð¿": 1000,
      "Ð¶ÑĭÐ»Ð´ÑĭÐ½": 1001,
      "Ð¾ÑĢÐ±Ð¾ÑĢ": 1002,
      "Ð´Ò¯ÑĢ": 1003,
      "ĠÑĤÐ¾Ð¿": 1004,
      "Ð¸Ð·Ð¼": 1005,
      "Ð´Ó©Ó©": 1006,
      "ÑĭÐ½Ð´Ð°Ð¹": 1007,
      "ÐµÑħ": 1008,
      "Ð³ÑĥÐ½": 1009,
      "ĠÐ¾ÑĢÑĥÐ½": 1010,
      "ÐºÒ¯": 1011,
      "Ð¸ÑĪÑĤ": 1012,
      "Ð°ÑĪÐºÐ°Ð½": 1013,
      "ĠÑĩÐ°ÑĢ": 1014,
      "12": 1015,
      "ĠÑĤÐ°Ð±": 1016,
      "ĠÐ±Ñĥ": 1017,
      "ĠÐ¶Ð°Ò£Ñĭ": 1018,
      "Ð¸Ð³Ð¸": 1019,
      "ĠÐºÐ¼": 1020,
      "Ð´Ð°ÑĢÐ´Ñĭ": 1021,
      "Ð¾ÑĢÑĤ": 1022,
      "ÑĥÐ½Ð´Ð°Ð³Ñĭ": 1023,
      "ĠÐºÐ°Ð±ÑĭÐ»": 1024,
      "ĠÐ¿ÑĢÐ¾": 1025,
      "ĠÐºÐµÐ·": 1026,
      "Ð±ÐµÐºÐ¾Ð²": 1027,
      "ĠÐ°Ð½Ñĭ": 1028,
      "ĠÐĲÐº": 1029,
      "Ð°Ñħ": 1030,
      "ĠÐºÑĭÐ¹": 1031,
      "ĠÐ¸ÑĩÐ¸Ð½Ð´Ðµ": 1032,
      "Ð¸ÑĨ": 1033,
      "Ð°ÐºÑĭÑĢ": 1034,
      "ÐµÐ³Ð¸": 1035,
      "ĠÐ°ÑĢÐ°Ðº": 1036,
      "ÐºÑĤÐ°Ð½": 1037,
      "ÑĥÑĥÐ½Ñĥ": 1038,
      "Ð¸ÑĤÐµÑĤ": 1039,
      "ĠÐ´Ò¯Ð¹Ð½": 1040,
      "ĠÐºÑĭÑĢ": 1041,
      "ÑĥÑĤÑĤÑĥÐº": 1042,
      "Ð¼Ð°ÑĤÑĤ": 1043,
      "Ð¾Ð¾Ð³Ð¾": 1044,
      "ÐĲÐ»": 1045,
      "ĠÓ©Ð»ÐºÓ©": 1046,
      "ĠÐ¶Ð°ÑĢÐ°Ð½": 1047,
      "Ð¸ÑıÑģÑĭ": 1048,
      "ĠÐ´Ð°ÑĢÑĭÑı": 1049,
      "ĠÑĩÑĭÐºÐºÐ°Ð½": 1050,
      "ĠÐºÐ°ÑĢÑĪÑĭ": 1051,
      "ĠÐĲÑĢ": 1052,
      "ÑĭÐ»ÑĭÐ¿": 1053,
      "ĠÐ°Ð²": 1054,
      "ĠÐºÐ¾Ð¹": 1055,
      "ĠÐ¶Ò¯ÑĢÐ³Ò¯Ð·": 1056,
      "ĠÐºÐ¾Ð´Ñĥ": 1057,
      "ÐµÑĪÑĤ": 1058,
      "ĠÐ°ÑĢÐ°Ð»ÑĭÐº": 1059,
      "ÐµÑĢÐ´Ð¸": 1060,
      "ĠÐ¾ÐºÑĥ": 1061,
      "Ð¸Ñĩ": 1062,
      "ĠÑĪÐ°Ð¹Ð»": 1063,
      "ÑģÑĥÐ·": 1064,
      "ĠÑģÐ¾Ð¼": 1065,
      "ĠÐ°ÑĢÐº": 1066,
      "Ð¾Ð½Ð¾Ð¼": 1067,
      "ĠÑĤÐ°ÑĢÐ°Ð±": 1068,
      "ĠÑĭÐ»Ð°Ð¹": 1069,
      "ÑĤÐ¾ÑĢ": 1070,
      "Ð´Ò¯Ðº": 1071,
      "ÑģÐº": 1072,
      "ĠÐ±Ð°Ð¹Ð»Ð°Ð½ÑĭÑĪÑĤ": 1073,
      "Ð»Ð¸Ðº": 1074,
      "ĠÐºÐ°Ð·": 1075,
      "Ð°ÑĢÑĭÐ»": 1076,
      "Ð»Ð¾ÑĢ": 1077,
      "Ð´ÑĭÐ³": 1078,
      "ĠÐ´Ð°ÑıÑĢ": 1079,
      "ĠÑĩÐ¾Ò£": 1080,
      "30": 1081,
      "Ð¿Ñĭ": 1082,
      "ĠÐ±Ð¾Ð»Ð´Ñĥ": 1083,
      "Ð°Ð³Ð°": 1084,
      "ÐµÐ½Ð¸Ð½": 1085,
      "ÑĥÑĪÑĥ": 1086,
      "202": 1087,
      "Ó©Ðº": 1088,
      "ÑĥÑĥÑĩÑĥÐ»": 1089,
      "Ð°ÑĢÑĭÐ¿": 1090,
      "Ó©Ó©Ð½": 1091,
      "ĠÐ±Ð°ÑĪÐºÐ°ÑĢ": 1092,
      "ĠÐ´ÐµÐ¿ÑĥÑĤ": 1093,
      "ĠÐ¾ÑĢÐ³Ð°Ð½": 1094,
      "Ò¯Ð½Ò¯": 1095,
      "Ó©Ð¿": 1096,
      "ĠÑĤÐ°Ð¿": 1097,
      "âĢĵ": 1098,
      "Ð³Ó©ÑĢ": 1099,
      "ĠÐ¶ÑĭÐ¹ÑĭÐ½": 1100,
      "ĠÐŀÑĪ": 1101,
      "ĠÑĥÑĩÑĥÑĢÐ´Ð°": 1102,
      "ĠÐ¶Ð°Ð½": 1103,
      "ÑĭÑĪÐ°ÑĤ": 1104,
      "Ð°ÑĤÑĤÑĭÐº": 1105,
      "ĠÐ¶Ð°ÑĢÐ´Ð°Ð¼": 1106,
      "ĠÑįÒ£": 1107,
      "ĠÐºÑĥ": 1108,
      "Ð¼Ó©ÑĤ": 1109,
      "ĠÐºÐµÐ»Ð¸Ð¿": 1110,
      "Ð¸ÑıÑģÑĭÐ½ÑĭÐ½": 1111,
      "ĠÐ±Ð¸ÑĢÐ¸": 1112,
      "ÐµÑĢÐ´Ð¸Ð½": 1113,
      "ĠÑĤÐ°Ð»Ð°Ð¿": 1114,
      "ĠÐºÐ°ÑĢÐ°Ð³Ð°Ð½": 1115,
      "199": 1116,
      "ĠÑįÑĩ": 1117,
      "ĠÐ¶Ð¾Ð»Ñĥ": 1118,
      "Ð¾ÑģÑĤ": 1119,
      "ÑĤÐ¸": 1120,
      "ÑĥÐ½Ñĥ": 1121,
      "Ð§": 1122,
      "âĢĶ": 1123,
      "ĠÐ±Ð¾Ð»Ð±": 1124,
      "ĠÐĲÑĤ": 1125,
      "ÐºÐ¸Ð½": 1126,
      "ĠÑĤÒ¯ÑĪÒ¯Ð½": 1127,
      "ĠÐ¼ÐµÐºÑĤ": 1128,
      "ĠÑģÐ°ÑĤ": 1129,
      "ĠÐ¶Ð¾Ð¾Ð¿": 1130,
      "Ð»Ð¸ÐºÑĤ": 1131,
      "Ð°Ð¼Ð»ÐµÐºÐµÑĤ": 1132,
      "ĠÐ¥": 1133,
      "ĠÑĤÐ¾ÐºÑĤ": 1134,
      "ĠÐ¸Ð»Ð¸Ð¼": 1135,
      "ĠÐ°Ð¹ÑĢ": 1136,
      "ĠÐ¼Ð°ÑģÐµÐ»": 1137,
      "ĠÐ¶Ð°ÐºÑĤ": 1138,
      "Ð´ÐµÐ¹": 1139,
      "Ò®": 1140,
      "ĠÑģÑĥÐ½": 1141,
      "ĠÓ©Ð·Ð³Ó©ÑĢ": 1142,
      "Ð¼ÐµÑĢ": 1143,
      "ĠÐ¶Ð°ÐºÑĪÑĭ": 1144,
      "ĠÑĤÐ°ÑĢÐ°Ð±ÑĭÐ½Ð°Ð½": 1145,
      "ĠÐ¼Ð°Ð°Ð½": 1146,
      "ĠÐĳÐ¸ÑĪÐºÐµÐº": 1147,
      "ÑģÑĭÐ½": 1148,
      "ĠÐ¼Ð°Ð¹": 1149,
      "ĠÐºÐ°ÑĤÑĤ": 1150,
      "ĠÑĤÐ°Ð¼": 1151,
      "ĠÐ°Ð¹Ð¼Ð°ÐºÑĤ": 1152,
      "ĠÐĲÐ½ÑĭÐ½": 1153,
      "ĠÓ©ÐºÒ¯Ð»": 1154,
      "Ðķ": 1155,
      "ĠÑĤÐ°Ð°Ð½": 1156,
      "ĠÐ¾ÑĪÐ¾Ð»": 1157,
      "Ò¯Ò¯Ð´Ó©": 1158,
      "ĠÐ±ÐµÐº": 1159,
      "ĠÐ±Ð¸ÑĢÐ¾Ðº": 1160,
      ").": 1161,
      "ĠÐºÐµÑģ": 1162,
      "ÑĪÑĤÑĥÑĢ": 1163,
      "ĠÐ´ÐµÐ´Ð¸": 1164,
      "ÑĥÐ³Ñĥ": 1165,
      "Ð¾Ð²Ð°": 1166,
      "ÑĩÑĤ": 1167,
      "ĠÐ°ÑĤÐºÐ°ÑĢ": 1168,
      "ĠÐ°ÑĢÐºÑĭÐ»ÑĥÑĥ": 1169,
      "ĠÐ¶Ð°Ð¹Ð³": 1170,
      "ÐºÐµÑĢÐ»ÐµÑĢ": 1171,
      "ĠÐºÐ°Ð¹ÑĢÐ°": 1172,
      "ĠÐºÐ¾ÑĢÐ³": 1173,
      "ÐļÐ¨": 1174,
      "ĠÓ¨Ð·": 1175,
      "Ð°ÑģÐ¼": 1176,
      "Ð°ÑĢÑĭÑħ": 1177,
      "ĠÑįÐ½": 1178,
      "Ð¸ÑģÑģ": 1179,
      "ĠÑĭÐ»Ð°Ð¹ÑĭÐº": 1180,
      "Ð°Ð»Ð´Ñĭ": 1181,
      "ĠÑħ": 1182,
      "Ð¾Ð´": 1183,
      "Ð¼Ò¯ÑĢ": 1184,
      "Ð´Ð°ÑĢÐ³Ð°": 1185,
      "ĠÐ±ÐµÑĢÐ³ÐµÐ½": 1186,
      "ÑĩÑĭÐ»ÑĭÐº": 1187,
      "ÐµÐ¹Ð½": 1188,
      "Ð¾Ð½ÑĥÐ½": 1189,
      "ĠÐ°Ð½ÑĭÐºÑĤ": 1190,
      "ĠÓ©Ð·Ò¯": 1191,
      "ĠÐ°Ð»Ð°ÑĢÐ´ÑĭÐ½": 1192,
      "Ð¸ÑģÐ¸": 1193,
      "Ð¾Ð»Ð¾ÑĢ": 1194,
      "ĠÓ©ÑĤÐºÓ©Ð½": 1195,
      "ĠÐºÑĭÐ»Ð¼": 1196,
      "ĠÐĲÐ±": 1197,
      "Ð°Ð¼Ð°Ð½": 1198,
      "ĠÐ°Ð»Ð°ÑĢ": 1199,
      "Ð°ÑĢÑĭÐ¼": 1200,
      "ĠÐ«": 1201,
      "ÑĭÑı": 1202,
      "ĠÐºÓ©Ð±": 1203,
      "Ð¸ÐºÑĤÒ¯Ò¯": 1204,
      "ĠÐĳÐ°ÑĪ": 1205,
      "ĠÑģÐ¾ÑĤ": 1206,
      "Ð°Ð½ÑĤ": 1207,
      "Ð¾Ð²Ð´ÑĥÐ½": 1208,
      "Ð¸Ð´": 1209,
      "ÑģÑĥÐ½": 1210,
      "ĠÐ°Ð¹ÑĤÐºÐ°Ð½": 1211,
      "Ó©Ð³Ó©Ð½": 1212,
      "ĠÐ´ÐµÐ¼": 1213,
      "Ð»Ð°ÑĢÐ´Ñĭ": 1214,
      "ĠÑĩÐµÐº": 1215,
      "Ð°Ð»Ð¸ÐµÐ²": 1216,
      "ĠÐ¶Ð°Ð±": 1217,
      "ĠÐºÑĭÐ·Ð¼Ð°ÑĤÑĤ": 1218,
      "ĠÐ´Ð¾Ð»Ð±": 1219,
      "ĠÐ±Ð°ÑĢÐ´ÑĭÐº": 1220,
      "ĠÐ¿Ð°ÑĢÑĤ": 1221,
      "ĠÐºÐ°ÑĤÑĭÑĪ": 1222,
      "14": 1223,
      ")Ċ": 1224,
      "Ð°Ð¿Ð°ÑĢ": 1225,
      "ĠÐ¼Ð°ÐºÑģ": 1226,
      "ĠÐºÐ°Ð¹ÑĢ": 1227,
      "ÐµÐºÐµ": 1228,
      "ÑģÑĤÐ°Ð½Ð´ÑĭÐ½": 1229,
      "ĠÐ´ÐµÒ£": 1230,
      "ĠÑĩÐ°ÐºÑĭÑĢ": 1231,
      "ĠÐ¶ÐµÑĤÐµÐº": 1232,
      "ĠÐ°ÑıÐ»": 1233,
      "ĠÐ¿Ð°Ð¹Ð´Ð°": 1234,
      "Ò¯Ò¯ÑĩÒ¯": 1235,
      "ĠÐºÐ¸ÑĢÐ³Ð¸Ð·": 1236,
      "ĠÑĥÑĪÑĥÐ»": 1237,
      "ĠÐºÐ°ÑĢÐ¼": 1238,
      "Ð»Ð¸Ð³": 1239,
      "Ð°Ð»ÑĭÐ¿": 1240,
      "ĠÐĳÐ¸Ð·": 1241,
      "ĠÐºÐµÑĤÐºÐµÐ½": 1242,
      "ÐµÐºÑĤÑĢ": 1243,
      "ĠÑĤÑĥÑĢÐ°ÑĤ": 1244,
      "ĠÐķ": 1245,
      "Ð°Ð±ÑĭÐ·": 1246,
      "ĠÐŀÑĢÑĥÑģ": 1247,
      "ĠÐ±Ð¸Ð»Ð¸Ð¼": 1248,
      "ĠÐ£Ð»": 1249,
      "ĠÐ¾ÑĪÐ¾Ð½Ð´Ð¾Ð¹": 1250,
      "ĠÐ°Ð´": 1251,
      "ĠÐ±Ð°ÑĪÑĩÑĭÑģÑĭ": 1252,
      "ĠÑģÒ¯Ð¹Ð»": 1253,
      "ĠÐºÐµÐ»Ð¸ÑĪ": 1254,
      "Ð´ÑĭÐ³Ñĭ": 1255,
      "Ð°ÑģÑĭÐ½Ð°": 1256,
      "11": 1257,
      "Ó©Ð¼Ó©Ð½": 1258,
      "ĠÑģÑĭÐ¹": 1259,
      "ÑĭÐ»Ð°ÑĤ": 1260,
      "ÑĤÑĭÐ½": 1261,
      "ĠÐ°ÐºÑĤ": 1262,
      "ĠÑĥÑİÐ¼": 1263,
      "Ò¯Ò¯Ð»Ó©ÑĢ": 1264,
      "Ð¹ÑĤ": 1265,
      "ĠÑĤÐ¸Ð¹": 1266,
      "ĠÐ¶Ð°ÐºÑĭÐ½": 1267,
      "ĠÐ°Ð¹ÑĤÑĭÐ¿": 1268,
      "ĠÐ±Ð¸ÑĢÐ¸Ð½ÑĩÐ¸": 1269,
      "Ð±Ò¯Ð·": 1270,
      "ÑĥÑĥÐ½ÑĥÐ½": 1271,
      "Ð¾ÑĪ": 1272,
      "ÑĭÑĢÑĤ": 1273,
      "ĠÐ°Ð»Ð´Ñĭ": 1274,
      "ĠÐ¼Ð¸Ð»Ð»Ð¸": 1275,
      "ÐĴ": 1276,
      "ĠÐĲÐļÐ¨": 1277,
      "ĠÑįÑģÐµÐ¿ÑĤ": 1278,
      "ĠÐ±Ð°Ð³Ñĭ": 1279,
      "Ð´Ð°Ð»Ð°Ð½": 1280,
      "ĠÐļÑĭÑĢÐ³ÑĭÐ·ÑģÑĤÐ°Ð½Ð´ÑĭÐ½": 1281,
      "ĠÑįÑĤ": 1282,
      "ĠÐ¾ÑĤÑĥÑĢ": 1283,
      "ÐĽ": 1284,
      "Ð¿ÐµÑĢ": 1285,
      "17": 1286,
      "16": 1287,
      "Ð°ÑĤÑĤÑĥÑĥ": 1288,
      "Ð¤": 1289,
      "Ð¾Ð³Ð¾Ð½": 1290,
      "Ñĳ": 1291,
      "ĠÐŃÐ»": 1292,
      "ĠÑģÒ¯ÑĢ": 1293,
      "ĠÐ¼Ð°Ð°Ð»ÑĭÐ¼Ð°ÑĤÑĤ": 1294,
      "Ð´ÐµÐº": 1295,
      "ĠÐ±ÐµÑĢÐ¸": 1296,
      "ÑĭÐ½Ð´Ð°Ð½": 1297,
      "ĠÐ°Ð¿": 1298,
      "ÐµÑģÑģ": 1299,
      "Ð°Ð½Ð¸Ñı": 1300,
      "ĠÑĥÐ·": 1301,
      "ÑĭÑĪÑĤÑĭ": 1302,
      "ĠÐºÐ°ÑĢÐ°ÑĤÐ°": 1303,
      "ĠÐĸÐ¾Ð³Ð¾ÑĢÐºÑĥ": 1304,
      "ÐµÑħÐ½": 1305,
      "ÑĭÐ¼ÑĭÐ½Ð´Ð°": 1306,
      "Ò¯ÑĪÒ¯": 1307,
      "Ð»ÐµÑĢÐ¸": 1308,
      "ĠÐºÐµÐ»ÐµÑĤ": 1309,
      "ÑĥÐ»Ð°ÑĤ": 1310,
      "ĠÐ¶ÐµÒ£": 1311,
      "ĠÐºÐ°ÑĢÐ°Ð¶": 1312,
      "ÑģÑĤÐ¸ÑĤ": 1313,
      "ĠÐ¿Ð°Ð¹Ð´Ð°Ð»Ð°Ð½": 1314,
      "ĠÐ±Ð¾ÑĢÐ±Ð¾ÑĢ": 1315,
      "ĠÐļÐ°ÑĢ": 1316,
      "ÑĭÑĤÐ°Ð¹": 1317,
      "ĠÐ½ÐµÑĢÑģ": 1318,
      "ĠÐ±Ð°Ð¹Ð»Ð°Ð½ÑĭÑĪÑĤÑĥÑĥ": 1319,
      "ĠÐ°Ð¹Ð»Ð°Ð½": 1320,
      "?Ċ": 1321,
      "Ð¼Ð°Ð»Ð°ÑĢ": 1322,
      "Ð¸Ð²Ð´Ð¸Ðº": 1323,
      "Ð½Ñĭ": 1324,
      "ĠÐ¼Ò¯Ñĩ": 1325,
      "ĠÐ°ÑĢÐ°Ð»": 1326,
      "ĠÐºÐ°Ð¼ÑģÑĭÐ·": 1327,
      "ĠÐļÐµÒ£": 1328,
      "ÐµÐ»ÑĮ": 1329,
      "ĠÑĥÐ½": 1330,
      "Ð´Ó©ÑĢÒ¯": 1331,
      "ĠÐŁÑĢ": 1332,
      "ĠÑįÐºÐµÐ½Ð¸Ð½": 1333,
      "Ó©Ð»Ò¯Ðº": 1334,
      "ÑģÐ¸Ð·": 1335,
      "ÑĭÐ¿ÑĤ": 1336,
      "Ð´ÐµÐ¼": 1337,
      "ÐµÑĤÐ¸": 1338,
      "ĠÐ°ÑĢÑĭ": 1339,
      "Ð¸ÑģÑĤÐµÐ¼": 1340,
      "Ð¾Ð½Ñĥ": 1341,
      "ĠÑĤÑĭÑĪ": 1342,
      "ÑĢÐ°ÑĦ": 1343,
      "ĠÐ¸Ð·Ð¸Ð»": 1344,
      "Ð´ÑĭÐºÑĤ": 1345,
      "ÑįÑĢ": 1346,
      "ĠÐºÐ¾Ð¾Ð¿": 1347,
      ";Ċ": 1348,
      "Ð³Ð¸Ð»Ð¸ÐºÑĤÒ¯Ò¯": 1349,
      "ĠÐ°Ð³Ð°": 1350,
      "ĠÐºÒ¯Ð½Ò¯": 1351,
      "Ð¸ÑĢÐ¸": 1352,
      "ĠÐ¶Ð°ÑĢÑĭÑı": 1353,
      "Ð´Ð°Ð¿": 1354,
      "ĠÐ°Ð»Ð±Ð°Ð¹": 1355,
      "Ð¼Ð°ÑĢ": 1356,
      "Ð»Ð°": 1357,
      "13": 1358,
      "Ò¯ÑĢÐº": 1359,
      "Ð±Ð¸Ñı": 1360,
      "ĠÐ¾ÐºÑĥÑĥ": 1361,
      "Ð°Ð»ÑĮ": 1362,
      "ĠÑģÐ¿": 1363,
      "Ð½Ð°Ð»": 1364,
      "ÐµÑĢÐ¸Ð½": 1365,
      "Ð°Ð½Ð°Ñģ": 1366,
      "ĠÓ©Ð»Ðº": 1367,
      "ĠÑĥÑĥÐ»": 1368,
      "ĠÐ°ÑıÐ½": 1369,
      "er": 1370,
      "ĠÐ¾Ò£": 1371,
      "Ð³Ð°Ñĩ": 1372,
      "Ð´ÐµÐ³Ð¸": 1373,
      "Ð´Ð¸ÐºÑĤ": 1374,
      "ĠÑįÐ¼Ð³": 1375,
      "ĠÑĩÐµÑĩÐ¸Ð¼": 1376,
      "50": 1377,
      "ĠÐ°Ð¹ÑĤÑĭÐ¼ÑĭÐ½Ð´Ð°": 1378,
      "ĠÐ¶Ð°Ð»Ð¿Ñĭ": 1379,
      "ĠÐºÐ¸Ð¼": 1380,
      "ĠÑĤÐ°ÑĢÑĭÑħ": 1381,
      "ĠS": 1382,
      "ĠÐºÐ¾ÑĢÐ³Ð¾Ð¾": 1383,
      "Ð³Ñĥ": 1384,
      "ÐµÐ·Ð³Ð¸Ð»": 1385,
      "Ò¯Ò¯Ð½Ò¯": 1386,
      "Ð¸Ð½Ð³": 1387,
      "Ð´Ó©Ð³Ò¯": 1388,
      "ĠÐºÒ¯ÑĢ": 1389,
      "ĠÑĤÐ°ÑĢÐ¼": 1390,
      "ĠÐ±Ò¯ÑĤ": 1391,
      "Ð°Ð³ÑĭÐ½Ð´Ð°": 1392,
      "ĠÐ±ÐµÑĢÐ¸Ð»": 1393,
      "ĠÐ¶Ð°Ð¹Ð³Ð°ÑĪÐºÐ°Ð½": 1394,
      "ĠÐ¾ÑİÐ½": 1395,
      "ĠÓ©Ñģ": 1396,
      "ĠÑĩÑĭÐ³ÑĭÐ¿": 1397,
      "ĠÑģÐ¸ÑģÑĤÐµÐ¼": 1398,
      "Ð°ÑĤÐºÐ°": 1399,
      "ĠÑĪÐ°Ð¹Ð»Ð¾Ð¾": 1400,
      ",Ċ": 1401,
      "ĠÐºÓ©ÑĤÓ©ÑĢ": 1402,
      "ĠÐºÐµÒ£ÐµÑĪ": 1403,
      "ÑģÐ°Ðº": 1404,
      "Ð¾Ð»Ð¾Ð³Ð¸ÑıÐ»ÑĭÐº": 1405,
      "ÑĤÐ¸Ðº": 1406,
      "Ð°ÑģÐ¼Ð¸Ð¹": 1407,
      "ĠÐ¸ÑĪÐºÐµ": 1408,
      "ĠÐºÐ°Ð¹ÑĤ": 1409,
      "ĠÐ°ÑĢÑĤ": 1410,
      "Ð¼Ð¸Ð½Ð¸ÑģÑĤÑĢ": 1411,
      "ĠÐ´Ð¾Ð»Ð±Ð¾Ð¾ÑĢ": 1412,
      "Ð¸Ð½Ð°": 1413,
      "Ð²ÑĢ": 1414,
      "ĠÐ¸ÑĪÑĤÐµÐ¿": 1415,
      "ÐļÐ°Ð»": 1416,
      "Ð¿Ð¸": 1417,
      "ÐºÑĤÑĥÑĥ": 1418,
      "ĠÑĥÐºÑĥÐºÑĤ": 1419,
      "ÑģÐµ": 1420,
      "Ð°ÑĢÐ»Ð°Ð¼": 1421,
      "Ð°Ð·Ð°Ðº": 1422,
      "ĠÐ¾ÐºÑĥÑı": 1423,
      "ÐĳÑĥÐ»": 1424,
      "ÑĨÐ¸Ð°Ð»Ð´ÑĭÐº": 1425,
      "ÑĤÑĤÑĭ": 1426,
      "ĠÐ±ÑĥÐ·": 1427,
      "Ð´Ð¸Ð³": 1428,
      "ĠÐ´Ò¯Ð¹Ð½Ó©": 1429,
      "ĠÐ¶ÑĥÑĢ": 1430,
      "ĠÑĩÐµÑĤ": 1431,
      "ÑİÐ»": 1432,
      "ĠÐ¼ÑĭÐ½Ð´Ð°Ð¹": 1433,
      "ĠÐ¡Ð°": 1434,
      "ÐµÑĢÐ³": 1435,
      "ÑĬ": 1436,
      "ĠÓ©ÑĢ": 1437,
      "ÑĤÒ¯Ò¯": 1438,
      "ĠÑģÐµÐ±": 1439,
      "Ð¾Ñĩ": 1440,
      "ÑĭÐ»Ð´Ñĭ": 1441,
      "ĠÑįÐ¼Ð½Ðµ": 1442,
      "ĠÓ©Ð·Ð³Ó©": 1443,
      "ĠÑĤÓ©Ð»": 1444,
      "ĠÑĤÓ©Ð¼Ó©Ð½": 1445,
      "ÑĤÐ¸ÑĢ": 1446,
      "ĠÑįÐºÐ¾Ð½Ð¾Ð¼": 1447,
      "Ð¸Ð½Ð´ÐµÐ³Ð¸": 1448,
      "ÑģÐµÐ¹Ð½": 1449,
      "ĠÐ¼ÐµÐ·Ð³Ð¸Ð»": 1450,
      "ĠÐľÐµÐ½": 1451,
      "Ð°Ð»Ð´ÑĥÑĥ": 1452,
      "ĠÑĤÐµÐ¼": 1453,
      "ÐºÑĥÐ»": 1454,
      "ĠÐ¶Ð¾Ð³": 1455,
      "ĠÐ±ÐµÐ»Ð³Ð¸Ð»Ò¯Ò¯": 1456,
      "ÐµÑĩÐµ": 1457,
      "ĠÐºÑĭÐ»ÑĭÐ¿": 1458,
      "Ð¶Ð¾Ð»": 1459,
      "ĠÐºÑĭÐ·Ð¼Ð°ÑĤÑĭ": 1460,
      "ĠÐ¸ÑĪÐµÐ½": 1461,
      "ÑĥÐ½Ð°Ð½": 1462,
      "ĠÐ°ÑĢÐ°": 1463,
      "ĠÐ¸Ð¹": 1464,
      "ĠÐºÐ°Ð»Ð´Ñĭ": 1465,
      "ĠÐ±Ó©Ð»Ò¯Ð¼": 1466,
      "ĠÐ¼ÐµÐº": 1467,
      "ĠÐŃÐ¼": 1468,
      "ĠÓ©ÐºÐ¼Ó©ÑĤ": 1469,
      "Ð«": 1470,
      "Ð°Ð»Ð°": 1471,
      "Ð°Ð¼Ð¸Ð»": 1472,
      "Ð´ÑĥÐºÑĤÐ°Ð½": 1473,
      "ĠÐĲÐ»Ð°ÑĢ": 1474,
      "ÑĥÑģÑĥ": 1475,
      "ĠÐĹ": 1476,
      "Ò¯Ð½Ó©Ð½": 1477,
      "ĠÐºÐ°ÑĤÐ°ÑĢ": 1478,
      "Ð¾Ð³ÑĢÐ°Ð¼": 1479,
      "ĠÐĳÐ°ÑĤ": 1480,
      "ĠÑįÐ»ÐµÐºÑĤÑĢ": 1481,
      "Ð¸ÑĪÑĤÐ¸": 1482,
      "in": 1483,
      "ĠÐ½ÐµÐ³Ð¸Ð·Ð³Ð¸": 1484,
      "ĠÑĤÐµÐº": 1485,
      "Ð°Ñĩ": 1486,
      "ĠÑĥÑİÑĪÑĤÑĥÑĢ": 1487,
      "ÑĥÐ³Ð°": 1488,
      "ĠÐ±ÐµÑĢÐµÑĤ": 1489,
      "ĠÑģÐ¸Ð·": 1490,
      "ÐµÐ´ÐµÑĢ": 1491,
      "ĠÐ¶ÐµÑĢÐ´Ðµ": 1492,
      "ĠÐ´Ð°ÑĢ": 1493,
      "24": 1494,
      "ÐºÑĭÐ»": 1495,
      "ÑĦÐ¾ÑĢ": 1496,
      "ĠÑĤÑĥÑĥÑĢÐ°": 1497,
      "ĠÓ©ÑĤÓ©": 1498,
      "Ð²Ð°ÑĢ": 1499,
      "198": 1500,
      "Ð½Ð¾": 1501,
      "Ð±Ñĭ": 1502,
      "ĠÐºÐ¸ÑĤ": 1503,
      "ĠÐĲÑģ": 1504,
      "ĠÐ¾Ð±": 1505,
      "Ð°Ð¹ÑĭÐ¼": 1506,
      "ĠÐºÐ¾Ð¾Ð¿ÑģÑĥÐ·": 1507,
      "Ð°Ð¼Ð°": 1508,
      "ÐŀÑĢ": 1509,
      "Ð»Ð°ÑĢÑĭ": 1510,
      "ÑĪÑĭÑĢ": 1511,
      "ĠÐŀÑĪÐ¾Ð½": 1512,
      "ĠÐ°Ð²ÑĤ": 1513,
      "ĠÑģÐ¾Ð³": 1514,
      "ĠÑĥÐ»Ð°Ð¼": 1515,
      "ĠÓ©Ð»ÐºÓ©Ð»Ó©ÑĢ": 1516,
      "ĠÐ¼Ð¸Ð»Ð´": 1517,
      "ÐľÐļ": 1518,
      "ĠÐ°Ð»ÑĭÐ½Ð³Ð°Ð½": 1519,
      "es": 1520,
      "ĠÐĳÐ¾Ð»": 1521,
      "ĠÑģÑĭÐ½": 1522,
      "ĠÐºÑĭÐ»Ð³Ð°Ð½": 1523,
      "ĠÐ¼Ð¸Ð»Ð»Ð¸Ð¾Ð½": 1524,
      "ĠÐ¼Ð°Ð¼Ð»ÐµÐºÐµÑĤÑĤ": 1525,
      "Ð´Ð°ÑĢÑĭÐ½ÑĭÐ½": 1526,
      "Ð°ÑĢÑĭÐ½ÑĭÐ½": 1527,
      "Ð±Ò¯Ð»": 1528,
      "Ð°ÑĪÑĤÑĭÑĢ": 1529,
      "ĠÐºÑĭÐ»Ð¼ÑĭÑĪ": 1530,
      "ĠÐ¼Ð°ÑĤ": 1531,
      "Ð°ÑĤÐºÐ°Ð½": 1532,
      "ĠÐºÐµÑĩ": 1533,
      "Ò¯ÑĢÒ¯Ò¯": 1534,
      "ĠÐ¾ÑĢÑĤÐ¾Ñģ": 1535,
      "ÐºÓ©Ð½Ò¯Ð½": 1536,
      "ĠÑĤÐ°Ð°Ñģ": 1537,
      "ĠÐºÐ°ÑĢÐ°Ð³Ð°Ð½Ð´Ð°": 1538,
      "ĠÑĢÐ°ÑģÐ¼Ð¸Ð¹": 1539,
      "Ð»Ð³Ð°Ð½": 1540,
      "ĠÐºÐ°Ñĩ": 1541,
      "ĠÐ°Ð½Ð´Ð°Ð½": 1542,
      "Ð±ÐµÐ¹": 1543,
      "Ð¾Ð³Ñĥ": 1544,
      "Ó©ÑĢÒ¯": 1545,
      "ĠÑĤÐµÑħÐ½": 1546,
      "Ð°ÐºÐºÐ°": 1547,
      "Ð°ÑĤÑĥÑĢ": 1548,
      "Ð¿Ð°Ð¹": 1549,
      "ÑİÐ¼": 1550,
      "ĠÐĸÐ°Ð»": 1551,
      "ÐļÐ°Ð»ÐºÑĭ": 1552,
      "ĠÐ°ÑĤÐ°": 1553,
      "ĠÐ°ÑĤÐ°Ð¹ÑĭÐ½": 1554,
      "ĠÐ°ÑģÐºÐµÑĢ": 1555,
      "ĠÐºÓ©ÑĢÒ¯Ð½": 1556,
      "ĠÐ±Ò¯Ð³Ò¯Ð½": 1557,
      "ĠÑĪÐ°ÑĢ": 1558,
      "ÑģÑĭÐº": 1559,
      "ĠÑĥÐ±Ð°ÐºÑĤ": 1560,
      "ĠÐºÓ©Ñĩ": 1561,
      "Ð°Ð¼Ð±": 1562,
      "Ð°Ð»Ð´Ð°": 1563,
      "ĠÐºÐ»": 1564,
      "Ð½Ð°": 1565,
      "ĠÐ¼Ð°Ð¼Ð»ÐµÐºÐµÑĤ": 1566,
      "Ð°Ð³ÑĭÐ½": 1567,
      "ĠÐ°Ð³ÐµÐ½": 1568,
      "ÑĨÐ¸ÑıÐ»ÑĭÐº": 1569,
      "ĠÐ¶Ò¯Ð·": 1570,
      "197": 1571,
      "25": 1572,
      "Ð°Ð°ÑĢÑĭ": 1573,
      "ĠÐ¶Ð°": 1574,
      "ĠÐ°Ð·ÑĭÑĢ": 1575,
      "Ð»Ð°Ð½Ð³Ð°Ð½": 1576,
      "ĠÑģÑĥÐ½ÑĥÑĪÑĤ": 1577,
      "ÐµÑĤÑĤÐ¸": 1578,
      "Ð¾Ð»Ð¾Ð³Ð¸Ñı": 1579,
      "ĠÑģÐ°ÑıÑģÐ¸Ð¹": 1580,
      "ÑĥÑĥÑģÑĥ": 1581,
      "Ð´ÑĭÐ³ÑĭÐ½": 1582,
      "ĠÐ¿ÑĢÐµÐ·Ð¸Ð´ÐµÐ½ÑĤ": 1583,
      "Ð°Ð±ÑĢ": 1584,
      "ĠÐºÑĥÑĢÑĥÐ»": 1585,
      "ĠÐ¼ÐµÑĤ": 1586,
      "ĠÓ©Ð·Ò¯Ð½Ò¯Ð½": 1587,
      "ĠÓ©Ð½Ð´Ò¯ÑĢ": 1588,
      "ĠÐ±ÑĥÑĢ": 1589,
      "Ð¾Ð³ÑĢÐ°ÑĦ": 1590,
      "ĠÐŀÑĢÑĥÑģÐ¸Ñı": 1591,
      "ÐºÐ°Ð»": 1592,
      "ĠÐ½ÐµÑĩÐµ": 1593,
      "Ð´Ò¯Ò¯Ð»": 1594,
      "Ð¼Ð°ÑģÑĭ": 1595,
      "Ó©ÑĤÑĤ": 1596,
      "ÑĢÐ°ÑĤ": 1597,
      "ĠÐ±Ð°Ð½": 1598,
      "ÑĤÐ°Ð½": 1599,
      "ĠÐ¶Ð¾Ð³Ð¾ÑĢÐºÑĥ": 1600,
      "ĠÐ°Ð¹ÑĢÑĭÐ¼": 1601,
      "ĠÑĭÐ¹": 1602,
      "ĠÑĤÐ¸": 1603,
      "Ð¸ÑĪÐºÐµÐ½": 1604,
      "ĠÐ±Ð¸Ð·Ð´Ð¸Ð½": 1605,
      "ĠÐ°ÑĤÐ°Ð»Ð³Ð°Ð½": 1606,
      "ĠÐ´ÐµÐ½": 1607,
      "Ð¼ÑĭÐ»": 1608,
      "ĠÑģÑĭÑı": 1609,
      "ĠÐ¼Ð°Ð¼Ð¸Ð»": 1610,
      "ĠÐ¿Ð°ÑĢÐ»Ð°Ð¼": 1611,
      "ĠÑģÐ°Ð½Ñĭ": 1612,
      "Ġ()": 1613,
      "ĠÑģÐ¾ÑĨÐ¸Ð°Ð»Ð´ÑĭÐº": 1614,
      "ÑĩÐ¸ÑģÐ¸": 1615,
      "ĠÐ¶ÑĭÐ¹ÑĭÐ½ÑĤ": 1616,
      "ĠÐ¶Ò¯ÑĢÐ³Ó©Ð½": 1617,
      "Ð¸ÐºÐ¸ÑĢ": 1618,
      "ĠÐ´Ð¸Ð½": 1619,
      "ĠÐľÐ°": 1620,
      "Ò¯Ð»Ò¯Ð¿": 1621,
      "ÑĤÑĤÐ¸Ðº": 1622,
      "kg": 1623,
      "ĠÐºÑĢ": 1624,
      "ÑĤÐºÐµÐ½Ð¸": 1625,
      "ĠC": 1626,
      "Ð°Ð»Ð´Ð°ÑĢ": 1627,
      "Ð¸ÑĨÐ¸Ð¿": 1628,
      "Ð°Ð»Ð°ÑĢÐ´Ñĭ": 1629,
      "on": 1630,
      "Ð³ÑįÑį": 1631,
      "ÑĥÐ½Ð¸ÑĨÐ¸Ð¿": 1632,
      "an": 1633,
      "Ð¾ÑģÑģ": 1634,
      "ĠI": 1635,
      "ĠÐ¼Ð°Ð´Ð°Ð½": 1636,
      "ĠÐºÐ¸ÑĢÐµÑĤ": 1637,
      "ĠÑĥÐ»ÑĥÑĤÑĤÑĥÐº": 1638,
      "Ð¸Ð²ÐµÑĢÑģ": 1639,
      "ÑĤÑĭÑĢ": 1640,
      "ĠÑĤÑĥÑĢÐ³ÑĥÐ½": 1641,
      "ĠÐļÐ°Ð·Ð°Ðº": 1642,
      "Ð¾Ð¹ÑĤ": 1643,
      "Ð°ÑĤÑĭÐ¹": 1644,
      "ÐĲÐ·": 1645,
      "ÐµÑģÑĤÑĢ": 1646,
      "Ñ³": 1647,
      "ĠÑĪÐ°Ð°ÑĢÑĭÐ½Ð´Ð°": 1648,
      "Ð¶ÑĭÑĢ": 1649,
      "ĠÐ¼ÑĥÐ·": 1650,
      "ĠÑģÐ¾Ò£": 1651,
      "ĠÒ®": 1652,
      "Ð°ÑĤÐ¸Ð²Ð´Ð¸Ðº": 1653,
      "ĠÑĤÐ°ÑĪ": 1654,
      "ĠÐŃÑĢ": 1655,
      "Ð°Ð½Ð´Ñĭ": 1656,
      "Ð°ÑĤÑĭÐ¹Ð¶": 1657,
      "ĠÑģÐ°ÐºÑĤÐ¾Ð¾": 1658,
      "ÑģÑĭÐ½Ð°": 1659,
      "ÑĥÑħ": 1660,
      "ĠÑĩÑĭÐ½": 1661,
      "ĠÐ±Ð°ÑģÐ¼Ð°": 1662,
      "ÑģÒ¯Ð½": 1663,
      "ÐµÐ±Ð¸": 1664,
      "ÑģÑĤÑĢ": 1665,
      "ÑĥÑĥÐ»Ð°ÑĢ": 1666,
      "ĠÑģÑĭÑıÐºÑĤÑĥÑĥ": 1667,
      "ĠÐ±Ð°ÑĪÐºÑĭ": 1668,
      "Ð´Ð°ÑĪ": 1669,
      "ĠÐ¾Ð¹Ð»": 1670,
      "ĠÑģÐ¾ÑĤÑĤ": 1671,
      "ĠÑģÑĭÑĢ": 1672,
      "ĠÐ·Ð°ÑĢÑĭÐ»": 1673,
      "ĠÐ¶ÐµÐºÐµ": 1674,
      "ÑĮÐµÑĢ": 1675,
      "ĠF": 1676,
      "Ð¾ÐºÑĥÐ¼": 1677,
      "ĠÐ´ÐµÐ¹ÑĤ": 1678,
      "ĠÐ¼Ð»": 1679,
      "ĠÐ¶Ð°Ð³": 1680,
      "ĠÑĤÐ°Ð¿ÑĪÑĭÑĢ": 1681,
      "196": 1682,
      "ĠÑĤÓ©ÑĢÐ°Ð³": 1683,
      "ĠÒ¯ÑģÑĤ": 1684,
      "ĠÐĸÐ°Ð¿Ð°ÑĢ": 1685,
      "ĠÐ°Ð³ÐµÐ½ÑĤÑĤ": 1686,
      "ĠÑĢÐµÐµÑģÑĤÑĢ": 1687,
      "Ð»Ð¸Ð³Ð¸": 1688,
      "ĠÐ¾Ð½": 1689,
      "Ð´ÐµÐ¿": 1690,
      "ĠÐºÐµÐ»ÑĤÐ¸ÑĢ": 1691,
      "Ð¾ÑĢÑĤÑĤ": 1692,
      "ĠÐ±ÐµÑĢÐ¸Ð¿": 1693,
      "Ð¾ÑģÐº": 1694,
      "ĠÐºÑĭÐ·Ð¼Ð°ÑĤÐºÐµÑĢ": 1695,
      "ÐµÑĪÑĤÐ¸Ð½": 1696,
      "ĠÐ°Ð½Ð´Ð°": 1697,
      "ÑıÐ±ÑĢÐ´Ð°": 1698,
      "ĠÐºÑĭÐ¹Ð¼ÑĭÐ»": 1699,
      "ÐºÐ°ÑĢÑĭ": 1700,
      "ĠÐ¶ÐµÑĢÐ³Ð¸Ð»Ð¸ÐºÑĤÒ¯Ò¯": 1701,
      "Ð¾Ð¾Ð»Ð¾ÑĢ": 1702,
      "ĠÐºÐ¾ÑĢÐº": 1703,
      "ĠÐ±Ó©Ð»Ò¯Ð½": 1704,
      "Ð¼Ð°Ðº": 1705,
      "Ð¾Ð³ÑĥÐ»": 1706,
      "100": 1707,
      "ĠÐ¿Ð»Ð°Ð½": 1708,
      "ĠÐ´ÐµÒ£Ð³ÑįÑį": 1709,
      "Ð°Ð»Ð°ÑĢÑĭ": 1710,
      "Ð¸Ð´Ðµ": 1711,
      "ÐµÑĢÐ³Ðµ": 1712,
      "ÑĤÐ°Ð³Ñĭ": 1713,
      "Ð½Ð°Ð»Ð¸ÑģÑĤ": 1714,
      "ÑĥÐ½Ð´Ñĥ": 1715,
      "Ð´ÑĢ": 1716,
      "ĠÑĪÑĤ": 1717,
      "Ð¿ÑĢ": 1718,
      "ĠÑģÐ°Ð¿": 1719,
      "Ð±Ð°Ð´": 1720,
      "ĠÑĤÐ°Ð½": 1721,
      "ĠÑģÐµÐ·": 1722,
      "Ð°Ð·Ð°ÑĢ": 1723,
      "Ò¯Ð±": 1724,
      "Ó©Ð³": 1725,
      "ÐĵÐĺ": 1726,
      "Ð´Ð°Ð³Ð°Ð½": 1727,
      "Ð°ÑĤÑĭÐ½Ð´Ð°": 1728,
      "ĠÐ´Ð°Ð»": 1729,
      "ĠÐºÐ¾ÑĪÑĥÐ¼": 1730,
      "ĠÐ±Ð¾Ð»ÑĥÑĪÑĥ": 1731,
      "ÑĩÒ¯Ð»Ò¯Ðº": 1732,
      "ĠÐ¾ÑĤ": 1733,
      "ti": 1734,
      "Ò£Ò¯Ð»": 1735,
      "ĠÐ°ÑĢÐ°ÐºÐµÑĤ": 1736,
      ".kg": 1737,
      "ÐµÐ»Ò¯Ò¯": 1738,
      "ÑįÐ½": 1739,
      "ĠÐ¶ÑĭÐ¹": 1740,
      "Â²": 1741,
      "ĠÑįÐºÑģÐ¿": 1742,
      "ÐµÐ¶": 1743,
      "Ð°Ð·Ð°": 1744,
      "ĠÑĤÐ°ÑĢÐ°Ð¿ÑĤ": 1745,
      "ĠÐºÐ¾Ð¾Ð¼Ð´ÑĥÐº": 1746,
      "ĠÐ¢ÑĥÑĢ": 1747,
      "ĠÐ¶Ð°ÑĪÐ¾Ð¾": 1748,
      "ĠÐºÐ°Ð°Ð»": 1749,
      "ĠÐ°ÑĪÑĭÑĢ": 1750,
      "Ð¸ÑıÐ´Ð°": 1751,
      "Ð¶ÑĭÐ»Ð´Ð°Ð½": 1752,
      "ĠÐ¿ÑĢÐ¾Ð³ÑĢÐ°Ð¼": 1753,
      "ĠÑĤÐ°Ð°ÑģÐ¸ÑĢ": 1754,
      "Ð°ÑĤÑĭÐ½ÑĭÐ½": 1755,
      "ÑĤÑĤÐ°": 1756,
      "ĠÓ©Ð½Ò¯ÐºÑĤ": 1757,
      "ĠÐ¢Ò¯ÑĢÐº": 1758,
      "Ð·Ð³": 1759,
      "ĠÐ±ÐµÑĢÐ´Ð¸": 1760,
      "ĠÐ´ÐµÐ»Ðµ": 1761,
      "âĢľ": 1762,
      "ĠÐ´Ð¾Ð»Ð»Ð°ÑĢ": 1763,
      "ÑĥÐ³ÑĥÐ½Ð°": 1764,
      "ĠÐĶÐ°ÑĢÑĭÑı": 1765,
      "ĠÐ¼Ð¸Ð½Ð¸ÑģÑĤÑĢÐ»Ð¸Ð³": 1766,
      ".,": 1767,
      "Ð°ÑĤÐ¾ÑĢ": 1768,
      "ar": 1769,
      "ĠÐ¼ÐµÐºÑĤÐµÐ¿": 1770,
      "ÑĤÑĤÐ¸Ð½": 1771,
      "Ò¯ÑĪÑĤÒ¯Ðº": 1772,
      "Ð°ÐºÑĤÐ°ÑĢ": 1773,
      "ĠÐºÒ¯ÑĢÓ©ÑĪ": 1774,
      "ÐºÐ¾Ð½": 1775,
      "ĠÐ¼ÑĥÑĢÐ´Ð°Ð³Ñĭ": 1776,
      "Ð´Ð°ÑĢÑĭÐ½": 1777,
      "Ò¯Ð½Ð´Ó©Ð³Ò¯": 1778,
      "ĠÐºÓ©Ð»": 1779,
      "ĠÐ°Ð»Ð°ÑĤ": 1780,
      "ĠÐ°ÐºÑĩÐ°": 1781,
      "ÐµÑĢÐµÐ½": 1782,
      "ĠÐ±Ð°ÑģÑģÐµÐ¹Ð½": 1783,
      "Ð¾Ð³Ð¾": 1784,
      "Ð°ÑĢÐº": 1785,
      "Ð³ÑĭÐ½Ð´Ð°": 1786,
      "ĠÐºÑĥÑĢÐ°Ð¼": 1787,
      "ÑģÐµÐº": 1788,
      "ÑĩÒ¯Ð»Ó©ÑĢ": 1789,
      "ĠÑĤÑĭÐ½": 1790,
      "Ð°ÑĤÑĤÑĭ": 1791,
      "ĠÐ±Ð°Ð°ÑĢÑĭ": 1792,
      "ĠÐ±Ð°Ð°ÑĢ": 1793,
      "ĠÐ¾ÑĢÑĥÑģ": 1794,
      "Ó©ÐºÑĤ": 1795,
      "Ó©Ð¼Ó©Ð»": 1796,
      "ĠÐļÑĥÑĢ": 1797,
      "ÑĭÐ³ÑĭÐ½": 1798,
      "ĠÑģÒ¯Ð¹Ð»Ó©ÑĪ": 1799,
      "ÐµÑĤÑĤÐ¸Ð½": 1800,
      "ĠÐ°Ð±Ð°Ð»": 1801,
      "ĠÑĤÐµÒ£": 1802,
      "Ð°ÑĢÐ´ÑĭÐº": 1803,
      "ĠÐ¼Ð°ÑĤÐµÑĢÐ¸": 1804,
      "ÑıÐ½Ð²Ð°ÑĢ": 1805,
      "ÑĤÐµ": 1806,
      "ĠÑĤÐ°ÑĢÑĤÑĭÐ¿": 1807,
      "Ð²Ð°": 1808,
      "ĠÐ°Ð´Ð°Ð¼Ð´Ð°ÑĢ": 1809,
      "ĠÐ±Ð°ÑĪÑĤÐ°Ð³Ð°Ð½": 1810,
      "ĠÐºÐµÐ»Ð¸ÑĪÐ¸Ð¼": 1811,
      "Ð°ÑĤÑĭÑĢ": 1812,
      "Ð¼Ó©ÑĤÑĤ": 1813,
      "ĠÐ°ÑĢÐ°ÐºÐµÑĤÑĤ": 1814,
      "Ð°Ð»Ð°ÑĢÐ´ÑĭÐ½": 1815,
      "Ð°Ð»Ð¸Ð¼": 1816,
      "ĠÐ¿Ð¸ÐºÐ¸ÑĢ": 1817,
      "ĠÐļÑĭÑĤÐ°Ð¹": 1818,
      "Ó©ÑģÒ¯": 1819,
      "ÑĭÐºÑĤÐ°ÑĢ": 1820,
      "ĠÑĥÐ½Ð¸Ð²ÐµÑĢÑģ": 1821,
      "ÐĳÐ¸ÑĢ": 1822,
      "ĠÐ¶ÑĥÐ¼ÑĥÑĪ": 1823,
      "Ð¾ÐºÑĥÑĢ": 1824,
      "ĠÐŀÑĪÐ¾Ð½Ð´Ð¾Ð¹": 1825,
      "ĠÐºÑĭÑģ": 1826,
      "Ð´ÐµÑĢÐ´Ð¸Ð½": 1827,
      "ÑĥÐ´": 1828,
      "ĠÑĤÐ°Ðº": 1829,
      "ÐµÑĢÐ¼Ð°Ð½": 1830,
      "ÐµÐ»Ð³ÐµÐ½": 1831,
      "Ð±Ð°Ð³Ð°Ð½": 1832,
      "ÐºÐ°ÑĤ": 1833,
      "ĠÐºÑĥÐ¹": 1834,
      "ĠÑģÐ°ÑĤÑĭÐ¿": 1835,
      "ĠÐ¶Ð¾Ð»ÑĥÐ³": 1836,
      "ÐļÓ©Ð»": 1837,
      "ĠÑĩÐµÐºÑĤ": 1838,
      "Ð±Ð¸Ð·": 1839,
      "ĠÓ©Ð»ÐºÓ©Ð½Ò¯Ð½": 1840,
      "ĠÑĦÐ¾ÑĢ": 1841,
      "ÑĨÐ¸Ð½": 1842,
      "ĠÐ¼ÐµÐ´Ð¸": 1843,
      "ĠÐ°ÑıÐ½ÑĤÑĭ": 1844,
      "ÐµÑģÐ¸Ð½": 1845,
      "\",": 1846,
      "ĠÐºÐ¾Ð¼Ð¸ÑģÑģ": 1847,
      "Ð»Ð¾Ð¾": 1848,
      "195": 1849,
      "ĠÐĺÐ½": 1850,
      "ĠÐ¢Ð°Ð»": 1851,
      "ĠÐļÐ¾Ð½": 1852,
      "ĠÑĩÐµÐ¹Ð¸Ð½ÐºÐ¸": 1853,
      "ĠÐ¶ÐµÑĤÐº": 1854,
      "ĠÓ©Ð·Ð³Ó©ÑĩÓ©": 1855,
      "ĠÐķÐ²ÑĢ": 1856,
      "Ð¾ÑĦ": 1857,
      "ĠÐ±Ó©Ð»Ò¯Ð³Ò¯": 1858,
      "Ò¯Ð»Ó©ÑĤ": 1859,
      "ĠÑĤÐµ": 1860,
      "ĠÐ±Ð°Ð»Ð°": 1861,
      "ÐŀÑĢÑĥÑģ": 1862,
      "22": 1863,
      "ĠÐ°Ð»Ð³Ð°Ñĩ": 1864,
      "ÑĤÐ¸Ð¿": 1865,
      "Ð°Ð³ÑĭÐ»": 1866,
      "ÑĪÐµÑĢ": 1867,
      "ĠÐºÑĥÐ±": 1868,
      "ĠÑĤÐ¾Ð¾": 1869,
      "Ò¯Ò¯Ð½Ò¯Ð½": 1870,
      "ĠÐºÓ©Ò£Ò¯Ð»": 1871,
      "Ð³Ó©Ó©": 1872,
      "ĠÐ±Ð¾Ð»ÑĩÑĥ": 1873,
      "ĠÑĤÐ¾Ð»ÑĥÐº": 1874,
      "ÐµÐºÑĤÐµ": 1875,
      "ĠÐ±Ð¸Ð¹Ð»Ð¸Ðº": 1876,
      "ĠÐ±Ð°ÑĤ": 1877,
      "ĠÑĭÐº": 1878,
      "ĠÐŀÑĪÐ¾Ð»": 1879,
      "ĠÐ°Ð»Ð°": 1880,
      "ĠÑĤÒ¯Ð½": 1881,
      "ĠÑĤÑĭÑĪÐºÐ°ÑĢÑĭ": 1882,
      "ĠÑĪÐ°Ð°ÑĢÑĭ": 1883,
      "Ð¼Ð°Ð¹": 1884,
      "ĠÐŃÐ³ÐµÑĢ": 1885,
      "ĠÓ©Ð½Ò¯Ð³": 1886,
      "ÐĲÐ±Ð°Ð´": 1887,
      "ĠÑĥÐ½Ð°": 1888,
      "ĠÑĩÐ°ÑĢÐ±Ð°": 1889,
      "ĠÐ´Ð¾ÐºÑĥÐ¼": 1890,
      "Ð¸Ð»Ò¯Ò¯": 1891,
      "Ð´Ð¸Ð³Ð¸": 1892,
      "ĠÐºÓ©Ð·Ó©Ð¼Ó©Ð»": 1893,
      "Ó©Ò£": 1894,
      "ĠÐ¿ÑĢÐ¾ÑĨ": 1895,
      "ĠÐ¸Ð·Ð¸Ð»Ð´Ó©Ó©": 1896,
      "23": 1897,
      "Ð°ÑĤÑĤÑĭÐ½": 1898,
      "ĠÐºÐ°ÑĢÐ°Ð¿": 1899,
      "ÐµÐ¼ÑĮÐµÑĢ": 1900,
      "ĠÐ¾ÐºÑĢ": 1901,
      "ĠÐ¿Ð°Ð¹ÑĭÐ·": 1902,
      "ĠÑĤÐ¾Ð¿ÑĤ": 1903,
      "or": 1904,
      "ĠÑģÐ°Ð±": 1905,
      "en": 1906,
      "ĠÐºÐµÐ·Ð´Ðµ": 1907,
      "ĠÐ±ÐµÑĤ": 1908,
      "ĠÐ¾Ð±Ð»ÑĥÑģÑĥÐ½ÑĥÐ½": 1909,
      "ÑĥÐ»ÑĮ": 1910,
      "ÑĥÐ»ÑĥÐ¿": 1911,
      "Ð¾Ð»ÑĮ": 1912,
      "ĠÐ°Ð´Ð°": 1913,
      "ĠÐĲÑĤÐ°Ð¼": 1914,
      "ÑĤÑĤÐ°ÑĢ": 1915,
      "ĠÐºÐµÐ¼": 1916,
      "ĠÐ½Ð°ÑĤÑĭÐ¹Ð¶": 1917,
      "ĠÐ¸ÑĩÐºÐ¸": 1918,
      "ĠÑĥÐ±Ð°Ðº": 1919,
      "Ð´ÐµÑĢÐ¸": 1920,
      "ĠÐ±Ð¸Ð»Ð´Ð¸ÑĢÐ³ÐµÐ½": 1921,
      "ĠÐ°ÑĩÑĭÐº": 1922,
      "Ð¡Ðł": 1923,
      "ÑįÑįÐ½": 1924,
      "ĠÑĪÐ°Ð°ÑĢÐ´ÑĭÐº": 1925,
      "...": 1926,
      "ÑĥÐ½Ð´Ð°Ð¹": 1927,
      "ÐļÐľÐļ": 1928,
      "ÑĢÑĥÐ¿": 1929,
      "Ð°ÑģÐ°": 1930,
      "ĠÐ°ÑĢÐ°ÑģÑĭÐ½Ð´Ð°": 1931,
      "Ð´Ó©Ð¹": 1932,
      "28": 1933,
      "ĠÐ´ÐµÒ£Ð³ÑįÑįÐ»": 1934,
      "ĠÐ¶Ð°ÑĤÐºÐ°Ð½ÑĭÐ½": 1935,
      "Ð´ÑĥÐºÑĤ": 1936,
      "ĠÐ¸ÑĪÐ¸": 1937,
      "194": 1938,
      "ĠÑĤÐ¸ÐµÑĪ": 1939,
      "ĠÐ±Ð¾Ð»ÑĥÑĪ": 1940,
      "ĠÐŁÑĢÐµÐ·Ð¸Ð´ÐµÐ½": 1941,
      "ĠÐ±Ð°ÑĢÑĭÐ¿": 1942,
      "ĠÐļÑĭÐ·": 1943,
      "ÑĥÑĥÑģ": 1944,
      "ĠÓ©Ð½Ó©ÑĢ": 1945,
      "ĠÐ£Ð»ÑĥÑĤÑĤÑĥÐº": 1946,
      "ĠÑĥÑĥÐ»Ñĥ": 1947,
      "ÑĥÐ½Ð¸ÑĨÐ¸Ð¿Ð°Ð»": 1948,
      "ĠÑģÐ°Ð»ÑĥÑĥ": 1949,
      "ĠÐ°ÑĪÑĭÐº": 1950,
      "ÑĥÑĢÐ´Ð°": 1951,
      "Ð¼Ð¾Ð½": 1952,
      "ĠÐĳÐ°Ðº": 1953,
      "ĠÐ¸ÑĪÑĤÐµÐ³ÐµÐ½": 1954,
      "Ð¸ÑıÑĤ": 1955,
      "ÑĬÐµÐºÑĤ": 1956,
      "ĠÐºÒ¯Ð¹": 1957,
      "ĠÑĤÐ°Ð¶": 1958,
      "Ð¸ÑıÐ³Ð°": 1959,
      "Ò£ÑĭÐ·": 1960,
      "ÐļÑĭÑĢÐ³ÑĭÐ·ÑģÑĤÐ°Ð½": 1961,
      "ĠÐ¼Ð°ÐºÑĥÐ»": 1962,
      "Ð°Ð´Ð¸": 1963,
      "Ð¸ÑģÐ°Ð»Ñĭ": 1964,
      "Ò¯ÐºÑĤÓ©ÑĢ": 1965,
      "Ð°ÑĪÑĭ": 1966,
      "ĠÐ¶ÐµÑĤÐµÐºÑĩÐ¸Ð»": 1967,
      "ĠÐ½ÐµÑĢÑģÐµ": 1968,
      "Ð¾Ð»Ð³Ð¾Ð½": 1969,
      "ÑĢÐ¸ÑĤ": 1970,
      "ĠÐ¼Ð°Ð°Ð»ÑĭÐ¼Ð°ÑĤÑĭ": 1971,
      "ĠÐºÐµÑĢÐµÐºÑĤ": 1972,
      "27": 1973,
      "Ò¯ÑĤÐº": 1974,
      "ĠÐļÑĭÑĢÐ³ÑĭÐ·ÑģÑĤÐ°Ð½Ð´Ð°": 1975,
      "ĠÐºÐ°Ð·Ð°": 1976,
      "Ð°ÐºÑĤÑĭ": 1977,
      "ĠA": 1978,
      "ĠÐļÑĥ": 1979,
      "ĠÐ¼Ð°ÑĪ": 1980,
      "ĠÐ£ÑĪ": 1981,
      "ĠÐĸÐ°Ð¿Ð°ÑĢÐ¾Ð²": 1982,
      "ĠÐºÑĭÑĢÐ´Ð°": 1983,
      "ĠÓ©Ð·Ò¯Ð½": 1984,
      "40": 1985,
      "Ð¸Ð²Ð´Ò¯Ò¯": 1986,
      "Ð´Ð¸Ð³Ð¸Ð½": 1987,
      "ĠÑģÐ°ÑıÑģÐ°ÑĤ": 1988,
      "ĠÑĤÐ¾Ð±": 1989,
      "Ð°Ð·Ñĭ": 1990,
      "ĠÐļÐ°ÑĢÐ°": 1991,
      "ĠÐ¸Ð»": 1992,
      "ĠÐºÐµÐ½": 1993,
      "ĠÐ±ÑĥÐ³Ð°": 1994,
      "ĠÐļÐ°Ð½": 1995,
      "ĠÐ¶ÑĥÑĢÐ½Ð°Ð»Ð¸ÑģÑĤ": 1996,
      "ĠÑĤÐ°Ð»Ðº": 1997,
      "ÐµÐ½Ð³ÐµÐ½": 1998,
      "26": 1999,
      "ĠÐĲÐ½Ð´Ð°Ð½": 2000,
      "Ð¸Ð»ÑĮ": 2001,
      "ÐĲÑĢ": 2002,
      "âĢĿ,": 2003,
      ").Ċ": 2004,
      "ĠÑĤÑĭ": 2005,
      "ĠÐ¼Ò¯Ð½Ó©": 2006,
      "ĠÐ¾ÑĪÐ¾Ð½": 2007,
      "ĠÐ±ÐµÐºÐ¸ÑĤ": 2008,
      "ĠÐĲÐ»Ð¼": 2009,
      "ÑģÐ°Ð½": 2010,
      "Ð³Ð»": 2011,
      "Ó©Ñģ": 2012,
      "ĠÐłÐ¾ÑģÑģ": 2013,
      "Ð¹ÑĢ": 2014,
      "ĠÐ¼Ó©Ó©Ð½": 2015,
      "ĠT": 2016,
      "Ð¸ÑĦ": 2017,
      "ĠÐ°ÑĤÑĭÐ½Ð´Ð°Ð³Ñĭ": 2018,
      "ĠÐ°ÑĩÑĭÐ»": 2019,
      "Ð´Ð¶": 2020,
      "ĠÑĤÐ¾ÐºÑĤÐ¾ÑĤ": 2021,
      "ĠÓ©ÑĤÒ¯Ð¿": 2022,
      "ĠÐ°Ð´Ð¸": 2023,
      "ĠÐ±ÐµÑĢÐ¸Ð»Ð³ÐµÐ½": 2024,
      "Ó©Ð¹ÑĢ": 2025,
      "Ð´ÐµÐºÐ°Ð±ÑĢ": 2026,
      "ĠÐ¼ÑĥÑĢÑĥÐ½": 2027,
      "31": 2028,
      "Ð°ÑģÑĭÐ·": 2029,
      "ĠÐĲÐ»Ð°ÑĢÐ´ÑĭÐ½": 2030,
      "ĠÐºÐ¾Ð»Ð´Ð¾Ð¾": 2031,
      "ĠÑģÐ¾Ð¾": 2032,
      "Ð°ÑĤÑĢ": 2033,
      "ĠÐ±Ð°ÑģÐ°ÑĢÑĭ": 2034,
      "ĠÑĦÐ¾Ð½": 2035,
      "ĠÐ±ÐµÐ»Ð³Ð¸Ð»ÐµÐ´Ð¸": 2036,
      "Ð°ÑĪÐ°": 2037,
      "ÑĤÑĥÑĥ": 2038,
      "ÑĥÒ£": 2039,
      "ĠÑįÐ»ÐµÐº": 2040,
      "ĠÐ³Ðµ": 2041,
      "ĠÑĢÐ°Ð¹Ð¾Ð½Ð´ÑĥÐº": 2042,
      "ĠÐ°Ð»Ð´ÑĭÐ½Ð´Ð°": 2043,
      "ĠÑįÐºÐ¸Ð½ÑĩÐ¸": 2044,
      "ĠÐĵÐµÑĢÐ¼Ð°Ð½": 2045,
      "ĠÑįÐ½ÐµÑĢÐ³": 2046,
      "ÑĤÐµÑĢÐ½": 2047,
      "ĠÐºÐ¾ÑĤÐ¾ÑĢ": 2048,
      "Ð¶Ñĭ": 2049,
      "Ð»Ð°Ð¼": 2050,
      "ÑĭÐ»ÑĭÐº": 2051,
      "ĠÑĤÑĥÑĥÐ³Ð°Ð½": 2052,
      "Ð°Ð¶Ð¸Ðº": 2053,
      "Ð°ÑģÑĤÐ°Ð½": 2054,
      "ĠÑĤÐµÐºÑĪÐµÑĢ": 2055,
      "Ð¶Ð°Ð½": 2056,
      "ĠÐ¿ÑĢÐ¾ÐºÑĥÑĢ": 2057,
      "ĠÑĥÑĩÑĥÑĢÑĥÐ½Ð´Ð°": 2058,
      "ÑİÑĥ": 2059,
      "ĠÐ¶Ð¸Ð±": 2060,
      "ĠÐĿÑĥÑĢ": 2061,
      "ÐĹ": 2062,
      "ÑĩÑĥÐ»Ð°ÑĢ": 2063,
      "ĠÐ«ÑģÑĭÐº": 2064,
      "ĠÐ¼ÑĥÑĢÐ´Ð°": 2065,
      "ĠÐ±Ð°Ð¹Ðº": 2066,
      "Ó©Ð½Ò¯Ð½": 2067,
      "ĠÐ°Ð¹ÑĤÑĤÑĭ": 2068,
      "Ð¸ÑĢÐµÐºÑĤ": 2069,
      "ĠÐĲÑĤÐ°Ð¼Ð±Ð°ÐµÐ²": 2070,
      "ĠÐ¾Ð±Ð»ÑĥÑģÑĥ": 2071,
      "ĠÐ±Ð°Ð»Ð´Ð°ÑĢ": 2072,
      "Ò¯Ò£": 2073,
      "Ð°Ð½ÑĭÐ¿": 2074,
      "ÑĩÐ°Ð»": 2075,
      "ÑģÒ¯Ð·": 2076,
      "ĠÐ¼Ð°Ð°Ð½Ð¸Ð»Ò¯Ò¯": 2077,
      "ÑĤÑĤÐµÑĢ": 2078,
      "ÑĭÑĪÑĤÑĭÑĢ": 2079,
      "ĠÐ°Ð»Ð¼": 2080,
      "ĠÐºÓ©Ð¿ÑĤ": 2081,
      "ÐĲÐº": 2082,
      "Ð¾Ð¾ÑĩÑĥ": 2083,
      "ĠÐ¸ÑĪÑĤÐµÑĢÐ¸": 2084,
      "ĠÐ¾Ð¾ÑĢÑĥÐº": 2085,
      "ĠÓ©ÑĤÓ©ÑĤ": 2086,
      "ĠÑĥÐºÑĥÐº": 2087,
      "ĠÐ¸Ð»Ð¸Ð¼Ð¸Ð¹": 2088,
      "Ð³ÑĥÑģÑĤ": 2089,
      "ĠÓ¨Ð·Ð±ÐµÐº": 2090,
      "Ð¡ÑĥÑĥ": 2091,
      "ÐµÑĢÑĤ": 2092,
      "ĠÐ°ÑĤÑĤÑĥÑĥ": 2093,
      "ÑĥÐ³ÑĥÐ½": 2094,
      "ĠÐ´Ð°ÑĢÑĭ": 2095,
      "ĠÑģÐ°Ð½Ð°Ð»Ð°ÑĤ": 2096,
      "Ð³Ð°Ð·": 2097,
      "ÑĭÑģÑĤ": 2098,
      "al": 2099,
      "ĠÑĤÐ°ÑĪÑĤ": 2100,
      "ĠÐ±Ð¾ÑĪ": 2101,
      "ut": 2102,
      "ĠÐºÒ¯ÑĤ": 2103,
      "Ð¾Ð¾Ð½ÑĥÐ½": 2104,
      "ĠÐ¸ÑĪÐºÐ°Ð½": 2105,
      "ĠÑģÐ°Ð°ÑĤ": 2106,
      "ĠÐ¼Ð»Ð½": 2107,
      "ÑĥÐ³Ð°Ð»Ð¸Ð¼": 2108,
      "ĠÑįÑĢÐº": 2109,
      "ĠÒ¯Ð»": 2110,
      "80": 2111,
      "ĠÐľÐ¾ÑģÐº": 2112,
      "ÐµÐ²ÑĢ": 2113,
      "ĠÑĤÐµÐ·": 2114,
      "ĠÐ¼ÐµÐºÐµÐ¼": 2115,
      "ĠÑĤÓ©ÑĢÑĤ": 2116,
      "ĠÐ¶Ð°ÑĪÑĤÐ°Ð³Ñĭ": 2117,
      "ĠÐ°Ð»ÐºÐ°": 2118,
      "ĠÐºÐµÑģÐ¸Ð¿": 2119,
      "ĠÑĤÒ¯ÑĢÐ´Ó©": 2120,
      "Ð´Ð°Ðº": 2121,
      "ĠÐ°Ð³Ñĭ": 2122,
      "ĠÐļÐµÒ£ÐµÑĪÑĤÐ¸Ð½": 2123,
      "ĠÐ°ÑĢÑĭÐ·": 2124,
      "Ġâ": 2125,
      "ĠÐ¾Ð±Ð»ÑĥÑģÑĤ": 2126,
      "ĠÐ¶ÑĭÐ»Ñĭ": 2127,
      "ÑĥÑĥÑĩÑĥÐ»Ð°ÑĢ": 2128,
      "ĠÐĺÑģ": 2129,
      "ĠÐ°Ð»Ð°ÑĢÐ´Ñĭ": 2130,
      "ÑĨÐ¸ÑıÑģÑĭ": 2131,
      "Ð¸Ð³Ð¸Ð½": 2132,
      "ĠÑĤÐ°ÑĢÐ°Ð¿": 2133,
      "Ð±Ð¸ÑĢ": 2134,
      "ĠÐºÐ°Ð¿": 2135,
      "ĠÐ±ÐµÑĪ": 2136,
      "ÑĩÑĥÑģÑĥ": 2137,
      "ĠÐ¼Ð¸Ð½": 2138,
      "ĠÐ¶Ð°ÑĢÑĭÐ¼": 2139,
      "Ð±Ð¸": 2140,
      "ĠÐ°Ð·ÑĭÑĢÐºÑĭ": 2141,
      "Ð°Ð´": 2142,
      "ĠÐºÐ°Ð±Ð°ÑĢ": 2143,
      "ÑģÑĤÐ²": 2144,
      "Ð°Ð»Ð°Ð¼": 2145,
      "ĠÐļÐł": 2146,
      "ÑıÐ±ÑĢÑĮ": 2147,
      "Ð½ÑĥÐ½": 2148,
      "Ð¸ÑĢÒ¯Ò¯": 2149,
      "ĠÐŃÑģ": 2150,
      "ĠÑįÐ¿": 2151,
      "ĠÐ½ÐµÐ³Ð¸Ð·Ð¸Ð½Ð´Ðµ": 2152,
      "ĠÑĤÒ¯ÑĪÒ¯Ð½Ð´Ò¯ÑĢ": 2153,
      "Ð°ÑĢÐ¸": 2154,
      "21": 2155,
      "Ð°Ð¹Ð½": 2156,
      "ÐºÑĤÑĭÐ½": 2157,
      "ÑģÑĤÐ¸ÑĤÑĥ": 2158,
      "ĠV": 2159,
      "ĠÐĳÐ°ÑĤÐºÐµÐ½": 2160,
      "ĠÐ¾Ð¿ÐµÑĢ": 2161,
      "ÑĥÑĥÑĢ": 2162,
      "ĠÓ©Ð¼Ò¯ÑĢ": 2163,
      "ÑģÐ¸Ð½": 2164,
      "Ð¾ÑĢÐ±Ð¾ÑĢÑĥ": 2165,
      "ĠÐ°Ð±Ð´Ð°Ð½": 2166,
      "ĠÐ¸Ð¼": 2167,
      "ĠÐ°Ð¶ÑĭÑĢ": 2168,
      "ĠÐ¶Ð°ÑĢÐ°ÑĤ": 2169,
      "ÐºÑĭÑĢ": 2170,
      "ĠÐ¼Ò¯Ð½Ó©Ð·": 2171,
      "ĠÐºÓ©Ð±Ó©Ð¹": 2172,
      "ĠÐļÐ¾ÑĢ": 2173,
      "ĠÐŃÐº": 2174,
      "ÑĤÐ°ÑĢ": 2175,
      "ĠÐºÐ¾Ð¹Ð³Ð¾Ð½": 2176,
      "ĠÓ©ÐºÐ¼Ó©ÑĤÑĤ": 2177,
      "ÑįÑįÑĢ": 2178,
      "ÐºÐµÑĢÐ¸": 2179,
      "ĠÐºÐ¸ÑĤÐµÐ¿": 2180,
      "ĠÐºÐµÐ»Ð´Ð¸": 2181,
      "Ġ/": 2182,
      "ĠÑĤÒ¯Ð·Ò¯Ð»Ð³Ó©Ð½": 2183,
      "ĠÐ¼Ð°ÑģÐµÐ»ÐµÐ»ÐµÑĢ": 2184,
      "ĠÐ¼Ð¸Ð»Ð¸ÑĨÐ¸Ñı": 2185,
      "ĠÐ°ÐºÑĭÑĢÐºÑĭ": 2186,
      "ĠÐ¿Ð¾Ð»": 2187,
      "ĠÑĢÐ°Ð¹Ð¾Ð½ÑĥÐ½ÑĥÐ½": 2188,
      "Ð¸ÑĢÑĥÑģ": 2189,
      "ĠÐ¾ÑĢÐ´ÑĥÐ½": 2190,
      "ĠÐ´Ð¸ÑĢÐµÐºÑĤ": 2191,
      "ĠÐ¼ÑĭÐºÑĤÑĭ": 2192,
      "ĠÐºÐ°Ð±Ð°ÑĢÐ»": 2193,
      "ÑĭÐºÑĤÑĥÑĥ": 2194,
      "Ħĸ": 2195,
      "Ð°ÑĢÐ°Ðº": 2196,
      "Ð±Ó©Ð¹": 2197,
      "Ð¥": 2198,
      "ÑĤÒ¯ÑĢ": 2199,
      "ĠÐºÐ°ÑĤÑĥÑĥ": 2200,
      "Ð¾Ð½Ð°Ð²": 2201,
      "ÐµÐºÑĤÐ¸Ð½": 2202,
      "ÑĩÐµ": 2203,
      "ĠÐ¸ÑĢ": 2204,
      "ni": 2205,
      "ÐºÓ©Ð¼": 2206,
      "ÐµÐ»Ð´Ðµ": 2207,
      "ĠÐ½Ð¾Ð¼": 2208,
      "ĠM": 2209,
      "ĠÐºÐ¾Ð·Ð³": 2210,
      "Ð°ÐµÐ²": 2211,
      "ĠÐ£ÐļÐľÐļ": 2212,
      "ĠÐ¶Ð°ÑĢÑĭÑıÐ»": 2213,
      "ĠÐ¿Ð°ÑĢÑĤÐ¸Ñı": 2214,
      "ÐŁÑĢ": 2215,
      "ĠÑĤÐµÑĢÐ³Ó©Ó©": 2216,
      "ĠÐºÐ¾Ð¼Ð¸ÑĤÐµÑĤ": 2217,
      "29": 2218,
      "ĠÑįÑģÐºÐµÑĢ": 2219,
      "ĠÐºÑĥÐ»": 2220,
      "Ð¼Ð¸Ð½": 2221,
      "ĠÐ±Ð°ÑĪÐºÐ°ÑĢÐ¼Ð°Ð»": 2222,
      "Ð±ÑĥÑĢ": 2223,
      "Ð±ÐµÐ¹ÑĤ": 2224,
      "ĠÐ¸Ð½ÑģÑĤÐ¸ÑĤ": 2225,
      "ĠÐľÑĭÐ½Ð´Ð°Ð½": 2226,
      "ĠÐºÐ¾Ð¼Ð¿Ð°Ð½Ð¸Ñı": 2227,
      "ÐµÐ»ÐµÑĢÐ¸": 2228,
      "ĠÐ°Ð³": 2229,
      "ĠÐ¾Ð±ÑĬÐµÐºÑĤ": 2230,
      "193": 2231,
      "ĠÑįÑĢÐºÐ¸Ð½": 2232,
      "ĠÐ¶Ò¯ÑĢÒ¯Ð¿": 2233,
      "ĠÐľÑĭÐ½Ð´Ð°Ð¹": 2234,
      "ÑĭÐºÑĤÑĭÐ½": 2235,
      "ĠÐºÑĭÐ·Ð¼Ð°ÑĤÐºÐµÑĢÐ»ÐµÑĢ": 2236,
      "Ð¼ÑĥÐ½": 2237,
      "ĠÑĤÐ°ÐºÑĤ": 2238,
      "ĠÐ´Ð°ÑĢÑĭÐ»": 2239,
      "ĠÐ°Ð»ÑĥÑĥÐ³Ð°": 2240,
      "ÐŀÑĢÑĥÑģÐ¸ÑıÐ½ÑĭÐ½": 2241,
      "ĠÑįÐ¼Ð³ÐµÐº": 2242,
      "Ð¶Ð¾Ð»Ð´ÑĥÑĥ": 2243,
      "ĠÑģÐ°Ð»ÑĭÐ½": 2244,
      "ĠÐ¾ÑĢÑĤÐ¾": 2245,
      "ĠÐĸÐ°Ð»Ð°Ð»": 2246,
      "ĠÐ¸ÑĢÐ¸": 2247,
      "ĠÑĢÐ°Ð¹Ð¾Ð½ÑĥÐ½Ð´Ð°Ð³Ñĭ": 2248,
      "60": 2249,
      "ĠÐ¸Ð»Ð¸ÐºÑĤ": 2250,
      "Ð°ÑĤÑĤÐ°Ð½": 2251,
      "ĠÑĥÐ½Ð¸Ð²ÐµÑĢÑģÐ¸ÑĤÐµÑĤ": 2252,
      "Ð°ÑĤÑĭÐ½": 2253,
      "ĠÐ¼Ð¸Ð»Ð´ÐµÑĤÑĤ": 2254,
      "ĠÑĤÓ©ÑĢÐ°Ð³Ð°ÑģÑĭ": 2255,
      "Ð±Ð¾Ð»": 2256,
      "ĠÐºÑĭÐ·ÑĭÐº": 2257,
      "ĠÐºÑĭÐ»ÑĥÑĥ": 2258,
      "Ð³Ó©Ð¹": 2259,
      "ĠÐ¶ÑįÑį": 2260,
      "Ð¾Ð¾Ð½Ñĥ": 2261,
      "ÐºÑĭÐ½": 2262,
      "ĠÑĤÑĥÑĢÐ¼": 2263,
      "Ð´ÐµÑĢÐ´Ð¸": 2264,
      "ÐĳÐ¸ÑĪÐº": 2265,
      "ĠÑĪÐ°Ð°ÑĢÑĭÐ½ÑĭÐ½": 2266,
      "ĠÐĳÐµÐ»": 2267,
      "ÑĭÐ»ÑĭÑĪ": 2268,
      "ĠÑĩÑĭ": 2269,
      "ĠÐ¶ÐµÑĢÐ¸": 2270,
      "ÑĤÐ¸Ð½": 2271,
      "Ð°ÑĤÑĤÐ°ÑĢÑĭ": 2272,
      "ĠÐ°Ð´Ð°Ð±Ð¸Ñı": 2273,
      "Ð¸Ð±Ð¸Ð·": 2274,
      "ĠÐ¿Ð°ÑĢÐ»Ð°Ð¼ÐµÐ½ÑĤÑĤ": 2275,
      "ÐµÑĤÑĤÐµ": 2276,
      "Ð¿Ð°ÑĢ": 2277,
      "ÑİÐ·": 2278,
      "ĠÐ§Ò¯Ð¹": 2279,
      "Ð°Ð³ÑĭÐ½Ð°": 2280,
      "Ð´Ð°ÑĢÑĭÐ½Ð°": 2281,
      "ÑĨÐ¸ÑıÐ½ÑĭÐ½": 2282,
      "ĠÐ´Ð¾Ð±": 2283,
      "ÑĤÑĤÒ¯": 2284,
      "ĠÐºÑĭÐ·Ð¼Ð°ÑĤÐºÐµÑĢÐ»ÐµÑĢÐ¸": 2285,
      "ĠÑĪÐ°ÑĢÑĤ": 2286,
      "Ð¶ÑĭÐ»Ð´Ð°ÑĢÑĭ": 2287,
      "ĠÑģÑĭÐ¹Ð»": 2288,
      "ĠÑĤÑĥÑĢÑĥÐºÑĤ": 2289,
      "ÑĩÑĥÑĢÐ´Ð°": 2290,
      "Ð°Ò£Ñĭ": 2291,
      "ĠÐºÐ¸ÑĪ": 2292,
      "âĢ¦": 2293,
      "ĠÐ±ÐµÐ»Ð³Ð¸": 2294,
      "ĠÐ¶Ó©Ð½Ò¯Ð½Ð´Ó©Ð³Ò¯": 2295,
      "ÑĭÐ»ÑĭÑĪÑĭ": 2296,
      "ĠÐ±Ð¸ÑĢÐ³Ðµ": 2297,
      "ĠÐľÐ°Ð¼Ð»ÐµÐºÐµÑĤÑĤÐ¸Ðº": 2298,
      "ĠÐĶÐ°ÑĢÑĭÑıÐ½ÑĭÐ½": 2299,
      "ÑĭÐ³ÑĭÐ½ÑĭÐ½": 2300,
      "ÐĲÐ½": 2301,
      "ĠÐ±Ð°Ðº": 2302,
      "ĠÑĤÒ¯Ð·Ò¯Ð»": 2303,
      "ĠÑĤÒ¯Ð·Ó©ÑĤ": 2304,
      "Ð°ÑĪÑĤÑĭ": 2305,
      "ĠÑģÒ¯ÑĢÓ©ÑĤ": 2306,
      "ĠÐ¢Ð¾ÐºÑĤ": 2307,
      "Ð±Ð°Ð¹ÑĤ": 2308,
      "ÑĩÐ°ÑĢ": 2309,
      "ĠÐ¢Ð°Ð¶Ð¸Ðº": 2310,
      "ĠÑģÐ°Ð¹": 2311,
      "ÐµÐ³Ð¸Ð½Ð´Ðµ": 2312,
      "ĠÐ¶ÑĭÐ»Ð´ÑĭÐ½": 2313,
      "ĠÐ¼ÑĥÐ³Ð°Ð»Ð¸Ð¼": 2314,
      "ĠÑĤÒ¯ÑĪÐºÓ©Ð½": 2315,
      "ĠÐ±Ð¸Ð¹Ð»Ð¸ÐºÑĤ": 2316,
      "ĠÐ¶Ð¾Ð³Ð¾ÑĢÑĥ": 2317,
      "ĠÐ¡Ð°Ð´ÑĭÑĢ": 2318,
      "ĠÑĤÑĥÑĥÐ»Ð³Ð°Ð½": 2319,
      "ÑĥÑĢÑģÑĤ": 2320,
      "ÑİÑĢ": 2321,
      "ĠÐ±Ð°ÑģÑĭÐ¿": 2322,
      "Ð³ÐµÐ»": 2323,
      "ĠÐ¾Ð»": 2324,
      "ĠÑįÐºÐ¾Ð½Ð¾Ð¼Ð¸ÐºÐ°Ð»ÑĭÐº": 2325,
      "Ð´ÑĭÐºÑĤÐ°Ð½": 2326,
      "ĠÐºÐ°ÑĢÐ°": 2327,
      "ĠÐ¿ÑĢÐµÐ·Ð¸Ð´ÐµÐ½ÑĤÐ¸": 2328,
      "ĠÐĸÑįÑįÐ½": 2329,
      "ĠÐºÑĭÐ»Ð°ÑĤ": 2330,
      "ĠÐ¾ÐºÑĪ": 2331,
      "ĠÐ°Ð¹ÑĭÐ¿ÑĤ": 2332,
      "Ð¨Ðļ": 2333,
      "ĠÐĲÐ½Ð´Ð°": 2334,
      "ĠÐ±Ð¾ÑĢÐ±Ð¾ÑĢÑĥ": 2335,
      "ĠÑģÐ¿Ð¾ÑĢÑĤ": 2336,
      "ĠÐĿÐ°ÑĢÑĭÐ½": 2337,
      "ĠÐºÐµÐ»Ðµ": 2338,
      "ĠÑĥÑĪÑĥÐ½Ð´Ð°Ð¹": 2339,
      "ĠÐ°ÑıÐºÑĤ": 2340,
      "ÑĨÐ¸Ð¾Ð½": 2341,
      "ĠÑģÐ¾Ð³ÑĥÑĪ": 2342,
      "ĠÑģÐ¾Ð¾Ð´Ð°": 2343,
      "ĠÐ±Ð°ÑĪÑĤÐ°Ð¿": 2344,
      "ĠÐ¿Ð°Ð¹Ð´Ð°Ð»Ð°Ð½ÑĥÑĥ": 2345,
      "70": 2346,
      "Ð´ÐµÐ³ÐµÐ½": 2347,
      "ĠÐºÐ¾Ð¼Ð°Ð½": 2348,
      "ĠÐºÐµÑĤÑĤÐ¸": 2349,
      "ĠÐºÓ©ÑĢÐ³Ó©Ð½": 2350,
      "ÑĥÑĥÐ»ÑĥÐº": 2351,
      "ĠÑģÐ°Ð¹ÑĭÐ½": 2352,
      "ĠÐºÑįÑį": 2353,
      "Ð´Ð°ÑĤ": 2354,
      "ÐľÐ°": 2355,
      "ÑĭÑıÐ½": 2356,
      "ĠÐ°Ð´Ð°Ð¼Ð´ÑĭÐ½": 2357,
      "ĠÐ±Ð°Ð³ÑĭÑĤÑĤ": 2358,
      "ĠÑĤÐ¸ÐµÑĪÐµÐ»Ò¯Ò¯": 2359,
      "ĠÐ¶ÑĭÐ»Ð´Ð°Ð½": 2360,
      "Ó©Ð±": 2361,
      "Ð´Ò¯ÐºÑĤ": 2362,
      "ĠÐ¼Ð¸Ð½Ð¸ÑģÑĤÑĢÐ»Ð¸Ð³Ð¸Ð½Ð¸Ð½": 2363,
      "ĠÑĤÐ¸Ð·Ð¼": 2364,
      "ĠÑģÐ°Ð¹ÑĤ": 2365,
      "Ð¾Ð¾Ð»": 2366,
      "Ð°ÑģÑĭÐ½Ð´Ð°Ð³Ñĭ": 2367,
      "ĠÐĲÐ·Ð¸Ñı": 2368,
      "ĠÐ¶Ð¾Ð»ÑĥÐ³ÑĥÑĪ": 2369,
      "ĠÐĳÐ¾ÑĢÐ±Ð¾ÑĢ": 2370,
      "Ð°Ð»ÑĭÐ¼Ð°ÑĤÐºÐ°": 2371,
      "ĠÐĸÐ¾Ð»": 2372,
      "ĠÐ¾Ð¿": 2373,
      "ĠÐ´Ð°Ð¹ÑĭÐ½": 2374,
      "ĠÐ¢Ð°ÑĪ": 2375,
      "ÓĬ": 2376,
      "ĠÐĳÐ¾Ð»Ð¶Ð¾Ð»Ð´ÑĥÑĥ": 2377,
      "Ð°ÑģÑĭÐ½Ð°Ð½": 2378,
      "Ò¯ÑĪÑĤÒ¯": 2379,
      "ĠÑįÐ¼Ð³ÐµÐºÑĤ": 2380,
      "ĠÐ¾ÑĢÐ½": 2381,
      "ĠÐ½Ð°": 2382,
      "ÑĩÐ¸Ð»Ð¸Ðº": 2383,
      "Ð¸Ð»ÐµÑĢ": 2384,
      "ÐºÐ°Ð»Ð°ÑĢ": 2385,
      "Ð°Ð»Ð»": 2386,
      "ĠÐ±Ð¸Ð»Ð´Ð¸ÑĢÐ¸ÑĪÑĤÐ¸": 2387,
      "ĠÐºÓ©Ð¹": 2388,
      "ĠÐ¶Ð°ÑĤÑĭÑĪÐ°ÑĤ": 2389,
      "ĠÐ¼Ò¯Ð¼ÐºÒ¯Ð½ÑĩÒ¯Ð»": 2390,
      "ĠÑįÐ»Ð´Ð¸Ð½": 2391,
      "ĠÐºÐ¸ÑĢÐ³ÐµÐ½": 2392,
      "ĠÐļÐ°Ð·Ð°ÐºÑģÑĤÐ°Ð½": 2393,
      "ĠÐ²Ð¸Ð´Ðµ": 2394,
      "ĠÑįÑģÑĤ": 2395,
      "ĠÑĤÑĥÑĤ": 2396,
      "ĠÐ°Ð»Ð³Ð°ÑĩÐºÑĭ": 2397,
      "ĠÐĳÐ°Ð»": 2398,
      "Ð´Ð°Ð»Ð³Ð°Ð½": 2399,
      "ĠÐ¼Ð°ÐºÑģÐ°ÑĤÑĭÐ½Ð´Ð°": 2400,
      "ĠÐ´ÐµÒ£Ð¸Ð·": 2401,
      "ĠÐĳÑĥÐ³Ð°": 2402,
      "ĠÐ¶Ð°Ð·Ð³Ð°Ð½": 2403,
      "Ð»ÑĥÑĥ": 2404,
      "ĠÐ¼Ð°Ð»": 2405,
      "ĠÐ°Ð¹ÑĭÐ½Ð´Ð°": 2406,
      "ĠÐ¸ÑĪÐ¼ÐµÑĢ": 2407,
      "ĠÐ±Ð°ÑĪÑĩÑĭ": 2408,
      "ĠÓ©Ð»Ñĩ": 2409,
      "Ð°ÑĪÑĭÐ¿": 2410,
      "Ð°Ð¿ÑĢ": 2411,
      "ÑĨÐ¸Ð½Ð°Ð»ÑĭÐº": 2412,
      "ĠÑĢÐµÐµÑģÑĤÑĢÐ¸Ð½Ð¸Ð½": 2413,
      "ĠÐºÒ¯Ð½Ð´Ó©": 2414,
      "ÑĩÑĭÐ»Ð°ÑĢ": 2415,
      "ĠÑĤÐ¾Ñģ": 2416,
      "ÐºÒ¯Ñĩ": 2417,
      "ĠÐľÐ°Ð½Ð°Ñģ": 2418,
      "Ð¾Ð½Ð´ÑĥÐº": 2419,
      "ĠÐ¤ÐµÐ´ÐµÑĢ": 2420,
      "ÐµÑĢÐ»ÐµÑĢ": 2421,
      "000": 2422,
      "Ð°Ð½Ð³Ð°Ð½": 2423,
      "ĠÐ´Ð¾ÐºÑĥÐ¼ÐµÐ½ÑĤÑĤ": 2424,
      "ĠÐ¶Ð°ÐºÑĤÐ°Ð½": 2425,
      "ĠÓ©Ð½Ò¯ÐºÑĤÒ¯ÑĢÒ¯Ò¯": 2426,
      "Ð¸Ð¹Ð¸Ð½": 2427,
      "ÑĤÐ¾": 2428,
      "ĠÐºÐ¾Ð¾Ð¿ÑģÑĥÐ·Ð´ÑĥÐº": 2429,
      "ĠÐ¶Ð°ÑĪÐ°Ð³Ð°Ð½": 2430,
      "ĠÐķÐ²ÑĢÐ¾Ð¿": 2431,
      "ÐĲÑĤÐ°": 2432,
      "Ð¸ÐºÐ»": 2433,
      "ĠÑĩÑĭÐºÑĤÑĭ": 2434,
      "ĠâĦĸ": 2435,
      "ĠÐļÐ°Ð»": 2436,
      "||": 2437,
      "ĠÐ¡Ð¾": 2438,
      "ĠÐľÐ°Ð¼Ð»ÐµÐºÐµÑĤ": 2439,
      "ĠÐ±Ð¾Ð¹": 2440,
      "ĠÐ¶ÐµÑĢÐ³Ðµ": 2441,
      "ĠÐ°Ð»ÐºÐ°Ð³ÑĭÐ½Ð´Ð°": 2442,
      "ÐĲÐ¹": 2443,
      "ĠÐºÓ©ÑĩÓ©": 2444,
      "ĠÐ¸ÑĩÐ¸Ð½ÐµÐ½": 2445,
      "ĠÑĩÑĭÐ³ÑĭÑĪ": 2446,
      "Ð¸ÑİÐ½": 2447,
      "at": 2448,
      "ĠP": 2449,
      "ĠÐĸÑįÑįÐ½Ð±ÐµÐºÐ¾Ð²": 2450,
      "ĠÐ¶Ò¯ÑĢÒ¯ÑĪ": 2451,
      "ÑĤÐ°Ð´Ñĭ": 2452,
      "ÑĭÐºÑĤÐ°": 2453,
      "ĠÐ¶Ð°Ð±ÑĭÑĢ": 2454,
      "ĠÐºÐ¾Ð¼Ð¿Ð°Ð½": 2455,
      "ĠÐºÐµÑĤÑģÐµÐº": 2456,
      "ĠÐ¼Ð¸Ð½Ð¸ÑģÑĤÑĢÐ¸": 2457,
      "ĠÐ¾ÐºÑĥÑĤ": 2458,
      "ĠÐ¶ÐµÒ£Ð¸Ð»": 2459,
      "ĠÓ©ÐºÒ¯Ð»Ð´Ó©ÑĢÒ¯": 2460,
      "Ð¼Ó©Ð½": 2461,
      "ĠÑĢÐµÑģ": 2462,
      "ĠÐ¼Ð¸Ð½Ð¸ÑģÑĤÑĢÐ»Ð¸Ð³Ð¸": 2463,
      "Ð¸ÑİÐ»": 2464,
      "Ð¸Ð»ÐµÑĤ": 2465,
      "ĠÐĵÐµÑĢÐ¼Ð°Ð½Ð¸Ñı": 2466,
      "ĠÐºÐ°ÑĢÐ°Ð±": 2467,
      "ÐĺÐľ": 2468,
      "ĠÑĭÐ¹Ð³": 2469,
      "ÑĥÐ´ÐµÐ½": 2470,
      "ÐºÐ¾ÑĢ": 2471,
      "Ð¾Ð·Ð¸ÑĨÐ¸Ñı": 2472,
      "Ð½ÐµÑģ": 2473,
      "ĠÐºÐ°Ð»Ð°ÑĤ": 2474,
      "ÐµÑĤÐ¸Ð½": 2475,
      "!Ċ": 2476,
      "ÑģÐµÐ½ÑĤ": 2477,
      "ĠÐļÐ¾Ð¼": 2478,
      "Ð°ÑĤÑĤÐ°": 2479,
      "ĠÑįÐ»Ð´Ð¸Ðº": 2480,
      "ĠÐ°Ð»ÑĤÑĭÐ½": 2481,
      "ÐºÑĭÐ»ÑĭÐ¼": 2482,
      "ĠÑĪÐµÐºÑĤ": 2483,
      "ĠÐ¶Ð¸Ð±ÐµÑĢ": 2484,
      "ĠÐ®": 2485,
      "ÑĭÑĪÑĭÐ¿": 2486,
      "ĠÐºÓ©Ð¿ÑĤÓ©Ð³Ó©Ð½": 2487,
      "ÐµÑĤÑĢ": 2488,
      "ĠÐĲÐ·ÑĭÑĢ": 2489,
      "ÑĭÐ³ÑĭÐ½Ð´Ð°": 2490,
      "ĠÐºÐ¾ÑĢÐ¾Ð½Ð°Ð²": 2491,
      "ĠÐºÐ¸Ð½": 2492,
      "ĠÐ¾ÐºÑĢÑĥÐ³ÑĥÐ½Ð°": 2493,
      "ĠÑģÐ°Ð»ÑĭÐ¿": 2494,
      "ÑĦÐ¾Ð½": 2495,
      "ĠÐ°Ð¹ÑĤÑĭÐ»Ð°ÑĤ": 2496,
      "ÑİÐ´Ð¶": 2497,
      "le": 2498,
      "ÐľÐ°Ð½Ð°Ñģ": 2499,
      "ĠÐ¸ÑĪÐ¸Ð½": 2500,
      "ÐµÑĤÑĤÐ¸Ðº": 2501,
      "ÐµÐ»Ð¸Ð¿": 2502,
      "Ð³ÐµÐ¼": 2503,
      "ĠÐºÐ°Ð¹ÑģÑĭ": 2504,
      "Ð´Ð¾Ð³Ñĥ": 2505,
      "ĠÑĩÓ©Ð¹ÑĢ": 2506,
      "ĠÐ£Ðº": 2507,
      "ÑģÑĭÐ½Ð´Ð°": 2508,
      "Ð»ÑĥÐº": 2509,
      "ĠÐ¼Ó©Ó©Ð½Ó©ÑĤ": 2510,
      "ÑģÐ°ÑĤ": 2511,
      "ĠÐ¾Ð¹Ð½": 2512,
      "192": 2513,
      "ĠÑĥÐ³": 2514,
      "ĠÐºÐ°Ð»Ðº": 2515,
      "ĠÑĤÒ¯": 2516,
      "ÑĨÐ¸ÑıÐ»Ð°ÑĢ": 2517,
      "Ð±ÑĥÐ»": 2518,
      "ĠÐĲÐ»Ð¼Ð°Ð·": 2519,
      "Ð¾ÑĢÐ»Ð¾ÑĢ": 2520,
      "Ð°Ð½Ð¾Ð²": 2521,
      "ĠÑĩÐ¾Ð³ÑĥÐ»": 2522,
      "Ð°Ð¹Ð¼": 2523,
      "45": 2524,
      "ĠÐ±Ð°ÑĢÐ³Ð°Ð½": 2525,
      "ĠÐ±Ð¾Ð»Ð±Ð¾Ñģ": 2526,
      "ĠÐºÓ©ÑĢÒ¯Ð¿": 2527,
      "Ð¼Ð°Ð³Ñĭ": 2528,
      "ĠÐ±Ð°ÑĪÐºÐ°ÑĢÑĥÑĥ": 2529,
      "ĠÐ¶ÐµÑĢÐ»ÐµÑĢ": 2530,
      "Ð¸ÑĤÐµÑĤÑĤÐ¸Ð½": 2531,
      "ĠÐ´Ð°Ð¹ÑĭÐ¼": 2532,
      "ÐµÐ¼Ð¸ÑĢ": 2533,
      "ĠÐ¸ÑĪÐµÐ½Ð¸Ð¼": 2534,
      "ÑĮÑİ": 2535,
      "Ð´Ð¸Ð¼": 2536,
      "ÑĤÐ°Ð»": 2537,
      "ĠB": 2538,
      "ĠÐºÑĭÑĢÐ³ÑĭÐ·ÑģÑĤÐ°Ð½": 2539,
      "Ð°ÐºÑĤÐ°": 2540,
      "put": 2541,
      "ĠÑĩÑĭÐ³Ð°ÑĢÐ¼Ð°": 2542,
      "ÑĭÐ±": 2543,
      "ĠÐĲÐ½ÑĤÐºÐµÐ½Ð¸": 2544,
      "ĠÐºÐ°ÑĤÑĭÑĪÐºÐ°Ð½": 2545,
      "ÑĢÐ°Ðº": 2546,
      "Ð³ÑĭÐ»": 2547,
      "ĠÐºÑĭÐ¹ÑĭÐ½": 2548,
      "ÑĭÑĩ": 2549,
      "ĠÐºÐµÑĤÐ¸Ð¿": 2550,
      "ĠÒ¯Ð¹ÑĢ": 2551,
      "nik": 2552,
      "ĠÐºÐ°Ð½ÑĩÐ°": 2553,
      "ĠÑĢÐµÐ¶": 2554,
      "Ò¯Ò¯Ñģ": 2555,
      "ÐºÐ°Ð´ÐµÐ¼": 2556,
      "ĠÐĲÐ³Ð°": 2557,
      "ĠÑģÐµÐ±ÐµÐ¿": 2558,
      "ĠÑĪÐ°Ð¹": 2559,
      "ĠÓ©ÐºÒ¯Ð»Ò¯": 2560,
      "ÐµÐ±Ð¸Ð·": 2561,
      "ĠÐ±Ð¾Ð»Ð¾": 2562,
      "ĠÑĤÐ¾Ðº": 2563,
      "ÐĳÐ¸Ð·": 2564,
      "ĠÐļÐ°": 2565,
      "ĠÐ¸ÑĪÑĤÐµÑĤ": 2566,
      "ĠÐ°ÐºÑĭ": 2567,
      "Ð°ÐºÑĤÑĭÐ½": 2568,
      "ĠÐ¶Ð¾Ð³Ð¾ÑĢ": 2569,
      "ĠÐ±Ð°Ð°Ð»": 2570,
      "ĠÑĤÑĥÑĢÑĥÐ¿": 2571,
      "ĠÐ±Ð°ÑıÐ½": 2572,
      "putnik": 2573,
      "ĠÐ°Ð´Ð¸ÑģÑĤ": 2574,
      "Ñī": 2575,
      "ĠÐºÐ¸Ð¹Ð¸Ð½ÐºÐ¸": 2576,
      "ÑĥÐºÑĤÑĥÑĢ": 2577,
      "ÑĨÐ¸ÑıÑģÑĭÐ½ÑĭÐ½": 2578,
      "ĠÐ°Ð¹ÑĭÑĢ": 2579,
      ".:": 2580,
      "ÐµÐ»ÐµÑĤ": 2581,
      "ĠÐºÐµÒ£Ð¸ÑĢÐ¸": 2582,
      "ĠÐ±ÐµÐºÐ¸ÑĤÐ¸Ð»Ð³ÐµÐ½": 2583,
      "ĠÐĳÐ°ÑĪÐºÑĭ": 2584,
      "ĠÐ¸Ð¼Ð°ÑĢ": 2585,
      "ĠÐ¶ÐµÑĤÐ¸ÑĪ": 2586,
      "Ð°ÑģÑģ": 2587,
      "Ð³Ò¯Ð»": 2588,
      "ĠÐºÐµÐ¿": 2589,
      "us": 2590,
      "ĠÑĢÐ°Ð¹Ð¾Ð½Ñĥ": 2591,
      "ĠÐ´ÐµÐ¿ÑĥÑĤÐ°ÑĤ": 2592,
      "ÑĥÐ½Ð´ÑĥÐ³Ñĥ": 2593,
      "ÑĤÐ¾Ð½": 2594,
      "Ð¼Ð¾": 2595,
      "Ð²ÐµÑģÑĤ": 2596,
      "ĠÐĸÑĥÐ¼": 2597,
      "Ð¸ÑģÑĤÑĤÐ¸Ðº": 2598,
      "ĠÑĢÐ°Ð¹Ð¾Ð½ÑĥÐ½Ð°": 2599,
      "ÑĨÐ¸ÐºÐ»": 2600,
      "ĠÐĸÐ°Ðº": 2601,
      "ĠÑĤÒ¯ÑĢÐ´Ò¯Ò¯": 2602,
      "ĠÐŀÑĪÐ¾Ð½Ð´ÑĥÐºÑĤÐ°Ð½": 2603,
      "Ó©ÑĪÑĤ": 2604,
      "Ð´Ð°ÑĪÑĤ": 2605,
      "ĠÐ°Ð¹ÑĤÐºÐ°Ð½Ð´Ð°": 2606,
      "ĠÐ¼ÑįÑĢ": 2607,
      "ĠÐºÓ©Ð»Ó©Ð¼": 2608,
      "ĠÐ¼ÐµÐºÑĤÐµÐ¿ÑĤ": 2609,
      "ÑĤÑĢ": 2610,
      "ĠÐºÐ¾ÑĢÑĢÑĥÐ¿": 2611,
      "ĠÐ·Ð°Ð¼Ð°Ð½": 2612,
      "ĠÓ¨Ðº": 2613,
      "Ð¸ÑĪÑĤÒ¯Ò¯": 2614,
      "ĠÐĲÐ¹ÑĤ": 2615,
      "ÑĭÐ³ÑĭÐ½Ð°": 2616,
      "ÐµÐºÑĤÐµÑĢ": 2617,
      "ĠÐ¼ÑĭÐ¹Ð·Ð°Ð¼ÑģÑĭÐ·": 2618,
      "ĠÐ¶ÐµÑĤÐµÐºÑĩÐ¸ÑģÐ¸": 2619,
      "ĠÐºÐ°Ð»ÑĤÑĭÑĢ": 2620,
      "ĠÐ¿ÑĢÐ¾ÑĦ": 2621,
      "Ó©Ð»Ó©ÑĢÒ¯": 2622,
      "ĠÐ¯": 2623,
      "Ð°Ð²Ð³ÑĥÑģÑĤ": 2624,
      "ĠÐ±Ò¯ÑĤÐº": 2625,
      "ĠÐ´Ð¸": 2626,
      "ÑıÐº": 2627,
      "ĠÐºÐ°ÑĢÐ°ÑĪÑĤ": 2628,
      "Ð°Ð»Ð°ÑĢÑĭÐ½": 2629,
      "ÐµÑĢÐ²": 2630,
      "ra": 2631,
      "ĠÑĤÐµÐ»Ðµ": 2632,
      "ĠÐ¾Ð±Ð»ÑĥÑģÑĥÐ½Ð´Ð°": 2633,
      "ĠÐ¶Ð°ÑĢÑĭÐº": 2634,
      "ÑĭÐ¹ÑĭÐ»": 2635,
      "ĠÐ¶Ð°ÐºÑĪ": 2636,
      "ĠÑĢÐµÑģÑĥÑĢÑģÑĤ": 2637,
      "ĠÑįÑģÐºÐµ": 2638,
      "03": 2639,
      "ÑģÓ©": 2640,
      "Ó©Ó©Ð³Ó©": 2641,
      "ÐµÐ³Ðµ": 2642,
      "Ð¾Ð¶": 2643,
      "ĠÐ¸Ð½ÑģÑĤÐ¸ÑĤÑĥÑĤ": 2644,
      "ÐµÐºÑĤÐµÐ³Ð¸": 2645,
      "ÑģÐºÐ¸Ð¹": 2646,
      "ÑĭÐ¼Ð°Ð»": 2647,
      "ĠÐ¶ÐµÑĢÐ¸Ð½Ð´Ðµ": 2648,
      "ĠÐĳÐ°Ð¹": 2649,
      "ĠÐ¶Ð¾Ð¾Ð¿ÐºÐµÑĢ": 2650,
      "ÐĸÐ°Ð»": 2651,
      "ĠÑĤÐµÐ»": 2652,
      "ÐºÓ©Ð¹": 2653,
      "ÑĨÐ¸ÑıÐ³Ð°": 2654,
      "ĠÐ¼Ò¯ÑĩÓ©ÑģÒ¯": 2655,
      "ĠÑĥÐ±Ð°ÐºÑĭÑĤ": 2656,
      "ĠÐ¼Ð°ÑģÐµÐ»Ðµ": 2657,
      "ĠÐ°ÐºÑĭÐ½": 2658,
      "ĠÐ±Ð¾ÑĪÐ¾ÑĤ": 2659,
      "ĠÐ±ÑİÐ´Ð¶": 2660,
      "ĠÑĭÑģ": 2661,
      "ÐµÑĤÑĤÐµÑĢ": 2662,
      "ĠÑĦÐ¸Ð½": 2663,
      "ÑĢÑĭÐ¹": 2664,
      "ĠÐ¸Ð´Ðµ": 2665,
      "ÐŃÐ»": 2666,
      "ĠÐ¡Ð¸Ð·": 2667,
      "ĠÐºÓ©Ð¹Ð³Ó©Ð¹": 2668,
      "ĠÐļÐµÒ£ÐµÑĪ": 2669,
      "ĠÑĦÐ¸Ð»": 2670,
      "ĠÑĤÐ°Ò£": 2671,
      "ĠÐ³Ð°Ð·": 2672,
      "ÑĤÐ°Ð¹": 2673,
      "ĠÐ°Ð¹ÑĤÑĭÐ»Ð³Ð°Ð½": 2674,
      "ÐµÐºÐµÐ½": 2675,
      "ĠÐ¶Ó©Ð½Ó©ÑĤ": 2676,
      "ĠÐ¾ÑĢÑĤÐ¾ÑģÑĥÐ½Ð´Ð°": 2677,
      "ĠÓ©Ð·Ð³Ó©ÑĢÑĤ": 2678,
      "ĠÑģÒ¯ÑĢÓ©ÑĤÑĤ": 2679,
      "Ð»Ð°ÑĤ": 2680,
      "ĠÐ·Ð¾ÑĢ": 2681,
      "ĠÑĦÐ°ÐºÑĤ": 2682,
      "ĠÐºÐ¾ÑĢÐºÑĥÐ½Ñĥ": 2683,
      "Ð¼ÐµÐ½": 2684,
      "ÐµÑģÐ¸Ð½Ðµ": 2685,
      "Ð»Ð°ÑĢÐ³Ð°": 2686,
      "ĠÑįÑĢÐµÐ¶": 2687,
      "ĠÐ¾Ð¾Ð·": 2688,
      "ĠÐ°ÐºÑĭÐ»": 2689,
      "ĠÐ¾ÑĢÑĤÐ¾ÑģÑĥÐ½Ð´Ð°Ð³Ñĭ": 2690,
      "Ð¼Ð¸Ð½Ð¸ÑģÑĤÑĢÐ°ÑĤÐ¸Ð²Ð´Ð¸Ðº": 2691,
      "ĠÐºÐ°ÑĢÐ¼Ð°Ð»": 2692,
      "Ð°ÑĪÐ°ÑĤ": 2693,
      "Ð»Ð°ÑĢÐ´Ð°": 2694,
      "ÑįÑįÐº": 2695,
      "ĠÐºÐ°ÑĢÑĭ": 2696,
      "ĠÐ¿Ð¾": 2697,
      "Ò¯Ò¯ÑģÒ¯": 2698,
      "ÐºÐ°Ð½Ð°": 2699,
      "ĠÑĤÑĢÐ°Ð½": 2700,
      "ĠÐ¢Ð°Ð»Ð°Ñģ": 2701,
      "Ð°Ð±Ñĭ": 2702,
      "ĠÐļÐ°Ð¹": 2703,
      "ÐĲÐ½ÑĭÐ½": 2704,
      "ÑĭÐ³ÑĭÑĪ": 2705,
      "ĠÐ±Ð°ÑģÑĭÐ¼": 2706,
      "ĠÐļÑĥÐ´Ð°Ð¹": 2707,
      "ÐµÑĤÐ¸Ð½Ð¸Ð½": 2708,
      "ĠÑįÑįÐ»": 2709,
      "Ð´ÑĭÑĢÑĥÑĥ": 2710,
      "Ð¾Ð¾ÑĢÐ¾Ð½": 2711,
      "ĠÐ´Ð¾Ð±ÑĥÑĪ": 2712,
      "ĠÐ¾ÑĢÐ½Ð¾ÑĤ": 2713,
      "ĠÑĤÐ°Ð»Ð°Ð¿ÐºÐµÑĢ": 2714,
      "ĠÐ¼ÑĭÐ½Ð´Ð°Ð½": 2715,
      "Ð¸Ð¼Ð¾Ð²": 2716,
      "ĠÐºÓ©ÑĢÑģÓ©ÑĤÐºÒ¯Ñĩ": 2717,
      "ĠÐ°Ð¹Ð¼Ð°Ð³ÑĭÐ½Ð´Ð°": 2718,
      "ÑĭÐ½ÑĩÐ°": 2719,
      "ĠÐ´Ò¯Ð¹Ð½Ó©Ð»Ò¯Ðº": 2720,
      "st": 2721,
      "ÐµÑģÐ¸Ð½Ð¸Ð½": 2722,
      "ĠÐ°Ð¹Ð¼Ð°ÐºÑĤÐ°ÑĢ": 2723,
      "ĠÐ¼ÑĥÐ·ÑĭÐº": 2724,
      "ĠÐºÐ¸ÑĢÐ¸Ð¿": 2725,
      "Ð¸ÑģÑĤÑĤÐµÑĢ": 2726,
      "ÑĥÑĪÑĤÑĥ": 2727,
      "ĠÐ½Ð°Ð°ÑĢ": 2728,
      "Ð·Ð°": 2729,
      "ĠÐĲÐ½Ñĭ": 2730,
      "ĠÐºÐ¾Ð¾Ð¼ÑĩÑĥÐ»": 2731,
      "Ð°Ð½Ð´ÑĭÐ½": 2732,
      "ĠÓ©ÑĤÑĤÒ¯": 2733,
      "ĠÐ¾Ð¾ÑĢÑĥ": 2734,
      "ĠÐ°ÑĤÐ°Ð»": 2735,
      "ĠÐĳÐ¸ÑĢÐ¸Ð½ÑĩÐ¸": 2736,
      "ĠÐ±Ð¾Ð»Ð±Ð¾Ð¹ÑĤ": 2737,
      "ĠÑĤÒ¯Ð·Ò¯Ò¯": 2738,
      "Ð±Ð°ÑĢ": 2739,
      "ĠÐºÐ°Ð½ÑĤÐ¸Ð¿": 2740,
      "Ò¯Ð½Ð´Ò¯Ðº": 2741,
      "ĠÑĪÐ°ÑĢÑĤÑĤ": 2742,
      "Ó©Ó©Ðº": 2743,
      "ĠÑĤÓ©Ð¼Ó©Ð½ÐºÒ¯": 2744,
      "Ð´ÑĥÑĢ": 2745,
      "ĠÐ¼ÐµÐ½Ð¸Ð½": 2746,
      "IP": 2747,
      "ĠÓ©Ð»ÑĩÓ©Ð¼": 2748,
      "ĠÐºÐ¾ÑĪÑĥÐ¼ÑĩÐ°Ð»": 2749,
      "ĠÐºÓ©ÑĢÐºÓ©Ð¼": 2750,
      "Ð±ÐµÐ³ÐµÐ½": 2751,
      "ĠÐ¶ÐµÑĤÐºÐ¸ÑĢ": 2752,
      "Ð¸ÐºÑĤÐµÑĢ": 2753,
      "Ð¸Ð³Ð¸Ð½Ðµ": 2754,
      "ĠÑĤÐµÐ°ÑĤÑĢ": 2755,
      "Ð´ÐµÑĤ": 2756,
      "ĠÐ°Ò£": 2757,
      "ĠÐºÒ¯ÑĩÑĤÓ©ÑĢ": 2758,
      "ĠÐºÑĭÐ·Ð¼Ð°ÑĤÑĭÐ½ÑĭÐ½": 2759,
      "ĠÐºÑĭÐ»ÑĭÐ¼": 2760,
      "ĠÑĤÐ°Ð¼Ð°Ðº": 2761,
      "Ð¾ÑģÑĥ": 2762,
      "Ð£Ð½ÑĥÐ½": 2763,
      "ur": 2764,
      "ĠÑĤÒ¯ÑĢÐº": 2765,
      "ĠÑģÑĤÑĥÐ´ÐµÐ½": 2766,
      "ĠÑĪÑĤÐ°ÑĤÑĭÐ½ÑĭÐ½": 2767,
      "ĠÐ°Ð³ÐµÐ½ÑĤÑĤÐ¸Ð³Ð¸": 2768,
      "ĠÐ¶ÑįÑįÐ³": 2769,
      "Ð¸Ð´ÑĢ": 2770,
      "ĠÐ±ÑĥÑİÐ¼": 2771,
      "Ð°Ð»Ð´ÑĭÐ½": 2772,
      "ĠÐľÐ°Ðº": 2773,
      "ĠÐ¾Ð¾ÑĢÑĥÐ»": 2774,
      "ÐľÐ°Ð¼Ð»ÐµÐºÐµÑĤÑĤÐ¸Ðº": 2775,
      "ĠÑįÐºÐµÐ½Ð´Ð¸Ð³Ð¸Ð½": 2776,
      "ĠÑĤÐ°Ð¶ÑĢÑĭÐ¹": 2777,
      "ÑĦÐµÐ²ÑĢ": 2778,
      "ĠÐ±ÑĥÑĤ": 2779,
      "ĠÐ°ÑĢÐ½": 2780,
      "ĠÐºÑĥÑĢÑĥÐ»ÑĥÑĪ": 2781,
      "ĠÐ·ÑĭÑıÐ½": 2782,
      "Ð´Ð¸Ñı": 2783,
      "ĠÐºÐ¾ÑİÐ»Ð³Ð°Ð½": 2784,
      "ÐµÐ»ÐµÑĢÐ´Ð¸": 2785,
      "ÐµÐ²Ð°": 2786,
      "ĠÐºÐ¸Ð¹Ð¸Ð¼": 2787,
      "ĠÑģÐ°Ð»Ð°Ð¼": 2788,
      "Ð¡Ð¡Ðł": 2789,
      "ĠÑģÑĥÐ½ÑĥÑĪ": 2790,
      "ĠÐ±Ð°ÑĪÑĭÐ½Ð´Ð°": 2791,
      "ĠÐ±Ð¾Ñİ": 2792,
      "ĠÑĤÑĢ": 2793,
      "ĠÐºÐµÐ»ÐµÑĩ": 2794,
      "35": 2795,
      "ĠÐ¶ÑĭÐ»Ð³Ð°": 2796,
      "ĠÓ¨Ð·Ð±ÐµÐºÑģÑĤÐ°Ð½": 2797,
      "ĠÑĩÐ°Ð±": 2798,
      "Ð¸Ð½Ð¸": 2799,
      "ĠÐºÐ¾Ð»Ð´Ð¾Ð½ÑĥÑĥ": 2800,
      "ÐµÐ³ÐµÑĢ": 2801,
      "ĠÐ¶Ð°ÑĢÐ°ÑĪÐ°": 2802,
      "ÑĭÒ£ÑĭÐ·": 2803,
      "Ð¸ÐºÐ°ÑģÑĭ": 2804,
      "ĠÒ¯Ð½": 2805,
      "ĠÑĦÐµÐ´ÐµÑĢ": 2806,
      "ĠÐ°ÐºÑĭÑĢ": 2807,
      "Ð°Ð¹Ñĭ": 2808,
      "ĠÓ¨Ð¼Ò¯ÑĢ": 2809,
      "Ð¸ÑģÐ¸Ð½Ð¸Ð½": 2810,
      "om": 2811,
      "ĠÐ¿ÑĢÐ¾ÐºÑĥÑĢÐ°ÑĤÑĥÑĢ": 2812,
      "ĠÐ±ÑĥÐ¹ÑĢ": 2813,
      "Ð¼Ð°ÑĤÐ¾Ð²": 2814,
      "ÐºÐ»": 2815,
      "ĠÐ°Ð±Ð°": 2816,
      "ĠÑĢÐ°Ð´Ð¸": 2817,
      "Ð°Ò£ÑĭÐ·": 2818,
      "ĠÑĥÐ·ÑĥÐ½Ð´ÑĥÐ³Ñĥ": 2819,
      "ÑĥÐºÑĤÑĥ": 2820,
      "ÐķÐļ": 2821,
      "ÑģÐ°Ð¼": 2822,
      "ĠÐ±Ð°Ð·": 2823,
      "ĠÐ¶Ð°Ð·ÑĭÐ¿": 2824,
      "ĠÑĥÑĢÑĥÐº": 2825,
      "ĠÐ¼Ðµ": 2826,
      "Ð´Ð¾ÑĢÐ´ÑĥÐ½": 2827,
      "ĠÓ©Ð»Ò¯Ð¼": 2828,
      "Ð´ÐµÑĢÐ¸Ð½Ð¸Ð½": 2829,
      "ĠÐ±Ð°Ð½Ðº": 2830,
      "Ġ+": 2831,
      "Ð°ÑĢÐ´": 2832,
      "ĠÐ½Ð°Ñĩ": 2833,
      "ĠÐºÒ¯Ð±": 2834,
      "ĠÐ¼ÐµÐ´Ð¸ÑĨÐ¸Ð½Ð°Ð»ÑĭÐº": 2835,
      "ĠÐµ": 2836,
      "ĠÐºÐ¸Ñĩ": 2837,
      "Ð°Ð·Ð°Ð»": 2838,
      "ĠÑĤÐ°ÑĢÐ±Ð¸Ñı": 2839,
      "Ð¾ÑİÐ½": 2840,
      "Ð°ÐºÑĤÐ°Ð½": 2841,
      "IPS": 2842,
      "Ð°Ð½Ð´Ð°ÑĢ": 2843,
      "ĠÐ°Ð¹Ð´Ð¾Ð¾": 2844,
      "ĠFIPS": 2845,
      "Ð°ÑĪÑĥÑĥ": 2846,
      "ĠÐĲÐ»Ð¼Ð°Ð·Ð±ÐµÐº": 2847,
      "ĠÐºÐ°Ð¿ÑĤ": 2848,
      "ĠÐ£ÑĩÑĥÑĢÐ´Ð°": 2849,
      "ÑĥÐ½Ð¸ÑĨÐ¸Ð¿Ð°Ð»Ð¸ÑĤÐµÑĤ": 2850,
      "Ð¾Ð¿ÐµÐ´": 2851,
      "ĠÐľÐ¾ÑģÐºÐ²Ð°": 2852,
      "ÐĲÐ·Ð°ÑĤÑĤÑĭÐº": 2853,
      "Ð¾Ð»ÑĥÐº": 2854,
      "ÑĮÑı": 2855,
      "ĠÑĤÒ¯ÑĢÒ¯": 2856,
      "ĠÐ¶Ð°Ð·ÑĭÐ»Ð³Ð°Ð½": 2857,
      "ĠÐ±Ð°Ð¹Ð»Ð°Ð½ÑĭÑĪ": 2858,
      "ĠÐ¶Ð°ÑģÐ°Ð»Ð³Ð°Ð½": 2859,
      "Ð¸Ð»Ð¸Ð¿": 2860,
      "ĠÐ¶ÑĭÐ»Ð´ÑĭÐº": 2861,
      "Ð°Ð³ÑĭÐ¼": 2862,
      "ĠÐºÐ¾Ð»Ð´Ð¾Ð½ÑĥÐ»Ð°ÑĤ": 2863,
      "ĠÐ±Ð°ÑĪÑĤÐ°Ð»Ð³Ð°Ð½": 2864,
      "ĠÐºÐ¾ÑİÐ¿": 2865,
      "191": 2866,
      "ĠÐ¡Ð¾Ð²": 2867,
      "ĠÐ°Ð¿Ð¿Ð°ÑĢ": 2868,
      "ĠÑģÐ°Ð»Ð³Ð°Ð½": 2869,
      "ĠÐ°Ð»Ð°ÑĢÐ³Ð°": 2870,
      "Ð¾ÑĢÑĥÐ½": 2871,
      "ĠÐ°Ð¹ÑĭÐ¿": 2872,
      "ĠÓ©Ð»ÑĤÒ¯ÑĢ": 2873,
      "ĠÐºÐ°ÑĢÐ¼Ð°Ð»Ð³Ð°Ð½": 2874,
      "ĠÐļÐ¾Ð½ÑģÑĤÐ¸ÑĤÑĥ": 2875,
      "ĠÓ©ÑģÒ¯Ð¼": 2876,
      "ĠÑģÓ©Ð·Ð´Ó©ÑĢ": 2877,
      "ĠÐ¶Ð°ÑģÐ°Ð³Ð°Ð½": 2878,
      "ĠÑĤÐ¾Ð¼": 2879,
      "ĠÑĤÒ¯Ð·Ð³Ó©Ð½": 2880,
      "ĠÐļÑĭÑĢÐ³ÑĭÐ·ÑģÑĤÐ°Ð½Ð³Ð°": 2881,
      "Ð¿Ð¾Ð½": 2882,
      "ĠÐľÐ¸ÑģÐ°Ð»Ñĭ": 2883,
      "Ð¾Ð»Ñİ": 2884,
      "ĠÐ¸Ð½Ð²ÐµÑģÑĤ": 2885,
      "Ð°ÑģÐ¼Ð°": 2886,
      "ÐµÑı": 2887,
      "ÑĪÐµÐ½": 2888,
      "ĠÐºÑĭÐ»Ð¼ÑĭÑĪÑĤ": 2889,
      "Ó©Ð½Ò¯": 2890,
      "ĠÑģÑĭÑĢÑĤÐº": 2891,
      "ĠÐ¡Ð¾Ð¾ÑĢÐ¾Ð½": 2892,
      "ĠÐľÐ°ÑĢ": 2893,
      "ĠÑģÐ°Ð»ÑĭÑĪÑĤÑĭÑĢ": 2894,
      "ÐµÐ¼Ð¿Ð¸": 2895,
      "ĠÐ´ÐµÐ¼Ð¸Ð»": 2896,
      "ĠÐ£ÐºÑĢÐ°": 2897,
      "Ò¯Ð½ÑĩÓ©": 2898,
      "ĠÐºÑĥÑĢÐ°Ð»": 2899,
      "ĠÐ°Ð´Ð°Ð¼Ð´Ð°ÑĢÐ´ÑĭÐ½": 2900,
      "Ð¸ÐºÐ°ÑĨÐ¸Ñı": 2901,
      "Ð¾ÐºÑĢÐ°ÑĤ": 2902,
      "ĠG": 2903,
      "ĠÐ°ÑģÑĤ": 2904,
      "ĠÐ°ÐºÑĤÐ¸Ð²": 2905,
      "ĠÐ±Ð°ÑĪÑĤÐ°Ð´Ñĭ": 2906,
      "ÑĦÐµÑĢÐµÐ½": 2907,
      "Ð´Ð°Ð³": 2908,
      "ÐµÐ²Ð´Ð¸Ð½": 2909,
      "ĠÐĺÑĢ": 2910,
      "ĠÐºÑĥÑĥ": 2911,
      "ĠÐļÑĢ": 2912,
      "Ð¸ÑĪÐµÑĤ": 2913,
      "ĠÐľÑĥÑĢ": 2914,
      "ĠÐ¼Ð¾Ð½": 2915,
      "Ð°ÑĤÑĤÐ°ÑĢÐ´Ñĭ": 2916,
      "ĠÐºÐ°Ð»Ð°": 2917,
      "ĠÑĤÑĥÑĢÑĥÐºÑĤÑĥÑĥ": 2918,
      "Ð°Ð½Ñģ": 2919,
      "ĠÐ°ÐºÐ°Ð´ÐµÐ¼": 2920,
      "ÑĥÐ»ÑĮÑĤ": 2921,
      "ĠÑĤÐµÑĢÐµÒ£": 2922,
      "ĠÐ´Ð°Ð»Ð¸Ð»": 2923,
      "ĠÑģÑĭÑĢÑĤÐºÐ°ÑĢÑĭ": 2924,
      "Ó©Ð³Ò¯": 2925,
      "ĠÐ¼ÐµÑĤÑĢ": 2926,
      "ĠÓ©Ð»ÐºÓ©Ð´Ó©": 2927,
      "ĠÑĥÐ±Ð°ÐºÑĤÑĭÐ»ÑĥÑĥ": 2928,
      "ĠÐ±Ð¸ÑĢÐ³ÐµÐ»": 2929,
      "Ð°ÑĤÑĭÐ¿": 2930,
      "Ð´ÑĥÐ¼": 2931,
      "ĠÐĳÐµÐº": 2932,
      "Ð¸Ð»Ð¸Ð¼": 2933,
      "Ó©Ð³Ó©": 2934,
      "ĠÐ°Ð½ÑĤÐºÐµÐ½Ð¸": 2935,
      "ĠÑĤÑĭÑĪÐºÑĭ": 2936,
      "ĠÐ¼Ð°Ð°Ð»ÑĭÐ¼Ð°ÑĤÑĤÐ°ÑĢ": 2937,
      "ĠÑģÐ¾Ð»": 2938,
      "ĠÐĳÐ°ÑĪÐº": 2939,
      "ĠÐ±ÐµÐºÐµÐ¼": 2940,
      "90": 2941,
      "ĠÑįÐ»ÐµÐ¼": 2942,
      "ÑĭÐºÑĤÐ°Ð½": 2943,
      "ĠÑĤÐ°Ð»Ð°": 2944,
      "ĠÐ°Ð´Ð¼Ð¸Ð½Ð¸ÑģÑĤÑĢÐ°ÑĤÐ¸Ð²Ð´Ð¸Ðº": 2945,
      "ÑĥÑģÑĥÐ»": 2946,
      "ÐĲÐ¢": 2947,
      "ĠÐ¼ÐµÐºÐµÐ½": 2948,
      "ĠÐ¾Ð¾ÑĢÑĥÐºÐ°Ð½Ð°": 2949,
      "Ó¨Ð·": 2950,
      "ĠÐ¿ÑĢÐµÐ¼ÑĮÐµÑĢ": 2951,
      "ĠÐºÐ°ÑĢÐ°Ð½Ð´Ñĭ": 2952,
      "Ð±ÑĥÐ·": 2953,
      "ĠÐ°ÐºÑĩ": 2954,
      "Ð°ÐºÐ°Ð½": 2955,
      "ÑĥÑĢÑĥ": 2956,
      "ĠÐºÐ¾ÑĪÑĥÐ¼ÑĩÐ°": 2957,
      "ÑĦÑĢ": 2958,
      "ĠÐ¶ÐµÑĢÐ´ÐµÐ½": 2959,
      "ĠÐĲÑĤÐ°": 2960,
      "ĠÐĳÐ°": 2961,
      "ÑĭÐ»Ð¼": 2962,
      "Ð°Ð»ÑĭÐ½Ð´Ð°": 2963,
      "ĠÑĤÐ°Ð·Ð°": 2964,
      "ĠÑĨ": 2965,
      "ĠÐ¶Ð°Ð¼Ð°Ð½": 2966,
      "ĠÐ°ÑĤÑĭ": 2967,
      "ĠÐ°ÑĢÑħ": 2968,
      "ĠÑĥÐ»Ð°Ð½ÑĤ": 2969,
      "ÐµÐ½ÑĤÐ¸Ð¿": 2970,
      "ĠÓ©ÑĤÐºÓ©ÑĢÒ¯Ð¿": 2971,
      "ĠÐ¶Ð¾Ð¾": 2972,
      "ĠÐ±Ð°Ð°ÑĤÑĭÑĢ": 2973,
      "Ð¸Ñħ": 2974,
      "ĠÐ±ÐµÑĢÐµ": 2975,
      "Ð»Ð°ÑĢÑĭÐ½": 2976,
      "ĠÐºÐ°Ð¹ÑĢÐ°Ð´Ð°Ð½": 2977,
      "ÐŀÑĪ": 2978,
      "Ð±Ð°ÑĤ": 2979,
      "ĠÑĤÑĥÑĢÐ³Ð°Ð½ÑĭÐ½": 2980,
      "ĠÐ¼Ð¸ÑĤ": 2981,
      "ĠÐ±Ð°ÑģÑģÐµÐ¹Ð½Ð¸Ð½Ð¸Ð½": 2982,
      "ÑĨÐ¸ÐºÐ»Ð¾Ð¿ÐµÐ´": 2983,
      "ĠÐºÓ©Ðº": 2984,
      "ĠÐºÑĭÐ·Ñĭ": 2985,
      "ĠÑģÐµÐº": 2986,
      "ĠÐ¶Ð°ÑĤÑĭÐ¿": 2987,
      "ĠÐ°ÑĪÑĥÑĥÐ½": 2988,
      "ĠÐ´Ð¸ÑĢÐµÐºÑĤÐ¾ÑĢÑĥ": 2989,
      "ĠÑĤÑĭÑİÑĥ": 2990,
      "Ð´Ð°ÑĢÐ´Ð°": 2991,
      "Ð´Ð¾ÑĪ": 2992,
      "ĠÑĪÐ°Ð°ÑĢÑĭÐ½Ð´Ð°Ð³Ñĭ": 2993,
      "Ð°Ð½Ð´": 2994,
      "ĠL": 2995,
      "ĠÐºÐ°Ð»ÑĭÐ¿": 2996,
      "ĠÑĤÐ°ÑĢÑĤÐ¸Ð¿": 2997,
      "ÑĩÐ°Ð»ÑĭÐº": 2998,
      "ĠÐ±ÐµÑĢÐµÐ½": 2999,
      "ĠÑĭÑĢÐ°": 3000,
      "ĠÑĤÒ¯ÑĪÒ¯Ð¿": 3001,
      "ĠÑĤÐ¾Ð½": 3002,
      "ĠÐ´Ð°ÑĢÑĭÑıÑģÑĭÐ½ÑĭÐ½": 3003,
      "Ð±Ð°ÐµÐ²Ð°": 3004,
      "ĠÐľÐ°Ð¼": 3005,
      "Ð³Ð°Ð»": 3006,
      "ÑĤÑĤÑĭÐ½": 3007,
      "ĠÐ´ÐµÐ¿ÑĥÑĤÐ°ÑĤÑĭ": 3008,
      "ĠÐºÐ°Ð»ÑĭÐ¿ÑĤ": 3009,
      "ÑĪÐºÐ°Ð½": 3010,
      "Ð°ÑĤÑĤÐ°ÑĢÐ´ÑĭÐ½": 3011,
      "ĠÐĲÐ±Ð´": 3012,
      "ĠÐļÐ¸Ð¹Ð¸Ð½": 3013,
      "ĠÑĤÐµÐ¼Ð¸ÑĢ": 3014,
      "ĠÐĳÐ°ÑĪÐºÑĭÑĢÑĤ": 3015,
      "Ð¾Ð³ÑĢÐ°ÑĦÐ¸ÑıÐ»ÑĭÐº": 3016,
      "ĠÐĸÐµÑĢ": 3017,
      "he": 3018,
      "ĠÐ£ÑĪÑĥÐ»": 3019,
      "ĠÑĤÑĥ": 3020,
      "ĠÐ°Ð¹ÑĭÐ»ÑĭÐ½Ð´Ð°": 3021,
      "ĠSputnik": 3022,
      "ĠÐºÐ°ÑĢÐ°ÑĪÑĤÑĥÑĥ": 3023,
      "ĠÐŀÐ±": 3024,
      "Ð°Ð´Ð°Ð½": 3025,
      "ÑĥÑģÑĥÐ»Ð¼Ð°Ð½": 3026,
      "ÑıÐ»": 3027,
      "ĠÑĩÑĭÐ³Ð°ÑĤ": 3028,
      "ĠÐ¼Ð°Ð´Ð°Ð½Ð¸ÑıÑĤ": 3029,
      "ĠÑĢÐµÑģÐ¿ÑĥÐ±Ð»Ð¸Ðº": 3030,
      "Ð¼Ð°Ð½Ñĭ": 3031,
      "Ð±ÐµÑĤÑĤÐµ": 3032,
      "ĠÑĩÐµÐ½": 3033,
      "Ð´Ó©ÑĢÒ¯Ð½Ò¯Ð½": 3034,
      "Ð´Ð¾Ð¿": 3035,
      "ÐµÐ½ÐµÑĢ": 3036,
      "Ð¾Ð¾Ð¼": 3037,
      "ĠÓ©Ñĩ": 3038,
      "ww": 3039,
      "Ð°Ð»Ð³Ð°": 3040,
      "ÐµÑĨ": 3041,
      "Ð´ÐµÑĢÐ³Ðµ": 3042,
      "ĠÑĤÑĥÑĪ": 3043,
      "Ð¼Ð°Ð»Ð°ÑĢÑĭ": 3044,
      "Ð³ÑĭÐ½": 3045,
      "ĠÐĳÒ¯Ð³Ò¯Ð½": 3046,
      "ÐĸÐ¾Ð³Ð¾ÑĢÐºÑĥ": 3047,
      "ÐµÑģÐ¿ÑĥÐ±Ð»Ð¸ÐºÐ°Ð»ÑĭÐº": 3048,
      "ĠN": 3049,
      "ÑĪÐµÑĤ": 3050,
      "ĠÐĳÐ¸Ð·Ð´Ð¸Ð½": 3051,
      "ac": 3052,
      "ĠÑĤÑĥÑĢÐ¼ÑĥÑĪ": 3053,
      "ĠÑĢÐ¾Ð»": 3054,
      "ÐĺÐĳ": 3055,
      "ĠÐºÑĭÑĤÐ°Ð¹": 3056,
      "ĠÓ©Ð·Ò¯Ð½Ó©": 3057,
      "ĠÑĩÑĭÐ³ÑĥÑĥ": 3058,
      "ÐµÐ½Ñģ": 3059,
      "Ó©Ð»Ð³Ó©Ð½": 3060,
      "ĠÐºÐ¾Ð¼Ð°Ð½Ð´Ð°": 3061,
      "Ð±Ð°Ð½": 3062,
      "ĠÐ°Ð³ÑĭÐ¿": 3063,
      "ĠÐ¼Ð°Ð³Ð°": 3064,
      "ĠÐ¶Ð°Ð»Ð³ÑĭÐ·": 3065,
      "ĠÑĤÐµÑĢÐ¸": 3066,
      "ic": 3067,
      "ĠÐ¿ÑĢÐµÐ·Ð¸Ð´ÐµÐ½ÑĤÑĤÐ¸Ðº": 3068,
      "ÑĥÐ»ÑĤÐ°Ð½": 3069,
      "ÑįÐ»": 3070,
      ".)": 3071,
      "oo": 3072,
      "ĠÑĩÐµÐ¼Ð¿Ð¸": 3073,
      "Ð½Ð¸Ðº": 3074,
      "ÑģÐ¸Ñħ": 3075,
      "ĠÐ¶Ð°Ð³Ð´Ð°Ð¹": 3076,
      "ÐµÑĪÐºÐµÐ½": 3077,
      "Ð¾ÑĢÐ´ÑĥÐ½": 3078,
      "ĠÑĤÐ°Ð³": 3079,
      "ĠÐŃÐ¼Ð¸": 3080,
      "Ð¶Ðµ": 3081,
      "Ð´Ð¾Ð³Ð¾Ð½": 3082,
      "Ó©ÑĢÒ¯Ð½": 3083,
      "ĠÐĲÐ²": 3084,
      "ĠÐ¾ÑĢÐ´ÑĥÐ½Ð°": 3085,
      "ĠÐ¡Ð¾Ð¾ÑĢÐ¾Ð½Ð±Ð°Ð¹": 3086,
      "ĠÐ¶Ð°ÑĤÐ°Ð±ÑĭÐ·": 3087,
      "ÑĥÐºÑĤÑĥÐ½": 3088,
      "ĠÐºÐ¾ÑĢÐ¾Ð½Ð°Ð²Ð¸ÑĢÑĥÑģ": 3089,
      "ĠÐ¼Ð°Ð¼Ð¸Ð»Ðµ": 3090,
      "Ð¿Ð°Ð¹ÑĤ": 3091,
      "ĠÐŁÑĢÐµÐ·Ð¸Ð´ÐµÐ½ÑĤ": 3092,
      "Ò¯ÑĢÒ¯Ð¿": 3093,
      "ĠD": 3094,
      "ĠÑĤÐ¾Ð²": 3095,
      "ĠÐ¶ÐµÑĤÐºÐµÐ½": 3096,
      "Ð¸ÑĤÐ°ÑĢÐ´ÑĭÐº": 3097,
      "ĠÐºÑĭÐ¼": 3098,
      "ÑĩÑĥÐ½ÑĥÐ½": 3099,
      "ĠÑģÑĭÑĢÑĤ": 3100,
      "Ð¸ÐºÑĤÐµ": 3101,
      "ĠÑĤÐ°Ð»Ð°Ð¿ÑĤ": 3102,
      "ĠÐ¾Ð¿ÐµÑĢÐ°ÑĨÐ¸Ñı": 3103,
      "500": 3104,
      "ĠÐ±Ð¸Ð·Ð³Ðµ": 3105,
      "ĠÐłÐ¾ÑģÑģÐ¸Ñı": 3106,
      "ÑĢÐµÐº": 3107,
      "ĠÐ¿ÑĢÐ¾ÑĨÐµÑģ": 3108,
      "ĠÐ¼Ð¸Ð³": 3109,
      "Ð¾Ð¾Ð´Ð¾": 3110,
      "ĠÐºÑĭÐ·ÑĭÐºÑĩÑĭÐ»": 3111,
      "ÑĥÐ»Ð´Ñĥ": 3112,
      "ĠÐºÐ¸ÑĢÐµÑĪ": 3113,
      "ĠÐŀÐ¾": 3114,
      "01": 3115,
      "ĠÐ°Ð»ÑĭÑģÑĤ": 3116,
      "ÐĲÑĤ": 3117,
      "ÐµÐ·Ð¸ÑĤ": 3118,
      "ĠÐ±Ò¯Ð³Ò¯Ð½ÐºÒ¯": 3119,
      "ÑįÐº": 3120,
      "ĠÑģÐ°ÑĢ": 3121,
      "ĠÐºÐ°ÑĩÐ°Ð½": 3122,
      "ÑĥÑĥÐ´Ð°Ð½": 3123,
      "|Ċ": 3124,
      "Ð´Ð¾ÑĢÑĥ": 3125,
      "ĠÐļÑĭÐ·ÑĭÐ»": 3126,
      "ĠÐ¾Ð±Ð»ÑĥÑģÑĤÑĥÐº": 3127,
      "ĠÐ°Ð¹ÑĢÑĭÐ³Ñĭ": 3128,
      "ÑĤÐºÐµ": 3129,
      "ÑĢÐµÑģÑģ": 3130,
      "ÐºÑĥÐ»Ð¾Ð²": 3131,
      "ÑģÑĥÐ½Ð°": 3132,
      "ĠÑģÑĤÐ°ÑĤ": 3133,
      "Ð¿Ó©Ð¹": 3134,
      "ĠÐ±Ð¾Ð»Ð³Ð¾Ð½Ñĥ": 3135,
      "esti": 3136,
      "ĠÐ¸Ð½ÑĤÐµÑĢÐ½": 3137,
      "Ð¾Ð¾ÑĢÑĥ": 3138,
      "Ð¸Ð¿Ð»": 3139,
      "ĠÐ¶ÑĥÐ¼ÑĪ": 3140,
      "ÐĳÐ¸ÑĪÐºÐµÐº": 3141,
      "Ð¼Ð¾Ðº": 3142,
      "ÐĳÐĺ": 3143,
      "ÑĤÐµÒ£": 3144,
      "ht": 3145,
      "ĠÐ¼Ò¯Ð»": 3146,
      "ÑıÑĤ": 3147,
      "ĠÐļÐ¾Ð»": 3148,
      "ĠÓ©ÑĢÓ©Ó©Ð½": 3149,
      "ĠÐĲÐ½Ð°Ð½": 3150,
      "it": 3151,
      "Ð¢ÑĥÑĢ": 3152,
      "ĠR": 3153,
      "ĠÑģÐ¾Ð·": 3154,
      "Ð¸ÑıÑģÑĭÐ½": 3155,
      "ĠÑįÐ³ÐµÑĢ": 3156,
      "Ó©Ó©Ð»Ó©ÑĢ": 3157,
      "ĠÑĤÐ°ÑĢÑĭÑħÑĭÐ¹": 3158,
      "ÑĥÐºÐºÐ°": 3159,
      "ÐµÑĢÐ½": 3160,
      "ĠÑĩÑĭÐ³Ð°ÑĢÐ³Ð°Ð½": 3161,
      "ĠÐ±Ð°ÑĪÐºÐ°Ð»Ð°ÑĢ": 3162,
      "ro": 3163,
      "Ð³ÐµÑĢÐ»ÐµÑĢ": 3164,
      "Ð¸ÑĨÐµ": 3165,
      "ÐĳÒ¯Ð³Ò¯Ð½": 3166,
      "Ùİ": 3167,
      "ĠÐ±ÐµÐ¹ÑĤ": 3168,
      "ĠÐ¾ÐºÑĥÐ¿": 3169,
      "ÐŃÐ¼": 3170,
      "ĠÐ¿ÑĢÐµÐ·Ð¸Ð´ÐµÐ½ÑĤÑĤÐ¸Ð½": 3171,
      "Ð±Ð°Ñģ": 3172,
      "ĠÐ¼ÐµÐ¹": 3173,
      "Ð°ÑĢÑĭÐ½Ð°": 3174,
      "ĠW": 3175,
      "ÑĩÓ©Ð»": 3176,
      "ĠÑģÐ°Ð»ÑĭÐ¼": 3177,
      "Ð°ÐºÑĤÑĥÑĥ": 3178,
      "ĠÐ±ÐµÑĢÐ¸Ð»ÐµÑĤ": 3179,
      "ĠÐļÓ©Ð¿": 3180,
      "ĠÐ£ÐļÐľÐļÐ½ÑĭÐ½": 3181,
      "Ð´ÑĥÐ³ÑĥÐ½": 3182,
      "ÑĩÑĥÐ»Ð°ÑĢÐ´ÑĭÐ½": 3183,
      "ĠÐºÐ°ÑĢÐ°Ð¹ÑĤ": 3184,
      "ĠÑĩÐ°Ð³ÑĭÐ»": 3185,
      "ĠÐºÐ¾Ð´ÐµÐº": 3186,
      "ĠÐ¼ÐµÐ½Ð¸": 3187,
      "Ð³Ð°Ðº": 3188,
      "Ð³Ð°Ð¹": 3189,
      "Ð°Ð½Ð°ÑĤ": 3190,
      "ÑĭÐºÑĤÐ°ÑĢÑĭ": 3191,
      "ĠÑģÐ¾Ð³ÑĥÑĪÑĤ": 3192,
      "ĠÐ½ÐµÐ³Ð¸Ð·Ð¸Ð½ÐµÐ½": 3193,
      "Ð±ÑĥÑĢÐ³": 3194,
      "ĠÐ¶Ð¾": 3195,
      "Ð¼Ð°Ð½ÑĭÐ½": 3196,
      "ÑĥÑĢÐ°": 3197,
      "ĠÐ±Ð°Ð°Ð»ÑĥÑĥ": 3198,
      "ĠÑģÑĥÑĢÐ¾Ð¾": 3199,
      "ÑĩÐµÑĢ": 3200,
      "ĠÐ¼Ð°Ð¼Ð»ÐµÐºÐµÑĤÑĤÐ¸Ð½": 3201,
      "Ò¯Ð¹ÑĪ": 3202,
      "ĠÑĩÐ¾Ð³": 3203,
      "ĠÐ±ÐµÐ»Ð³Ð¸Ð»ÐµÐ½Ð³ÐµÐ½": 3204,
      "Ò¯Ò¯Ð»Ó©ÑĢÐ´Ò¯": 3205,
      "ĠÑĤÐµÐ»ÐµÑĦÐ¾Ð½": 3206,
      "ĠÑĤÐ°ÑĢÑĤÐºÐ°Ð½": 3207,
      "ĠÑĩÐ°ÑĢÐ±": 3208,
      "ĠÐ¡Ð¡Ð¡Ðł": 3209,
      "ĠÐ¶Ð°ÑĢÐ°Ðº": 3210,
      "Ò¯ÑĢÐ³Ó©Ð½": 3211,
      "Ò¯ÑĢÓ©ÑĤ": 3212,
      "05": 3213,
      "ĠÐŀÑĢÑĥÑģÐ¸ÑıÐ´Ð°Ð³Ñĭ": 3214,
      "Ġ,": 3215,
      "ĠÑİ": 3216,
      "ĠÐ¤ÐµÐ´ÐµÑĢÐ°ÑĤÐ¸Ð²Ð´Ð¸Ðº": 3217,
      "ĠÑĩÑĭÐ³Ð°ÑĢÑĭÐ¿": 3218,
      "ĠÑĤÐ¸Ð»Ð¸": 3219,
      "ĠÐ±Ó©Ð»Ò¯Ð½Ó©ÑĤ": 3220,
      "ĠÐ¼ÐµÐ´Ð°Ð»": 3221,
      "ĠÐ¶Ð°Ð¿": 3222,
      "ĠÐ¶ÐµÑĤÐµÐºÑĤ": 3223,
      "ĠÐ¶Ð°Ð³ÑĭÐ½Ð°Ð½": 3224,
      "ÑĩÐºÐ¸": 3225,
      "ĠÑģÑĥÐ¼": 3226,
      "ĠÐ£Ð»ÑĥÑĥ": 3227,
      "ÑĭÐ»ÑĤ": 3228,
      "ĠÑĩÑĭÐ³Ð°ÑĢÑĥÑĥ": 3229,
      "Ð°Ð¼Ð¼": 3230,
      "Ð»Ð°Ð¿": 3231,
      "ÐºÑĥÑĢ": 3232,
      "Ð´ÑĭÐ³ÑĭÐ½Ð°": 3233,
      "ĠÐ¨Ð°Ð°ÑĢ": 3234,
      "ĠÐŀÑĢÑĥÑģÐ¸ÑıÐ½ÑĭÐ½": 3235,
      "ĠÑĩÑĭÐ³Ð°": 3236,
      "ĠÐŃÐ³ÐµÑĢÐ´Ðµ": 3237,
      "ĠÐºÐ°Ð¼ÑĤ": 3238,
      "ĠÐºÐ°ÑĤÑĤÐ°Ð»Ð³Ð°Ð½": 3239,
      "ĠÑĥÐ½Ð°Ð°": 3240,
      "ĠÐ¸ÑĢÐµÑĤ": 3241,
      "ÐºÑĢ": 3242,
      "ĠÑģÐ¸Ò£": 3243,
      "ÑĢÐ°ÑĨÐ¸Ñı": 3244,
      "ĠÑĤÐ°Ð±ÑĭÐ»Ð³Ð°Ð½": 3245,
      "ĠÐļÐ°Ð¼": 3246,
      "ĠÐļÐ°Ð±": 3247,
      "ĠÓ¨Ð»": 3248,
      "Ð¸Ò£Ð¸Ð·": 3249,
      "is": 3250,
      "ĠÐ¶Ð°ÑģÐ°Ð»": 3251,
      "Ð¸ÐºÐ°Ð½ÑĭÐ½": 3252,
      "Ð°Ð¼Ð±ÐµÑĤ": 3253,
      "Ð¾Ð²Ð¸Ñĩ": 3254,
      "Ð¶ÑĭÐ»Ð³Ð°": 3255,
      "ĠÑĤÐ°Ð°Ð½Ð´ÑĭÐº": 3256,
      "ĠÐ°Ð¹Ð¼Ð°Ð³": 3257,
      "ĠÐ¶Ð°Ð½Ñĭ": 3258,
      "ÐĺÐ½": 3259,
      "ĠÐļÑĭÑĢÐ³ÑĭÐ·ÑģÑĤÐ°Ð½Ð´Ð°Ð³Ñĭ": 3260,
      "ĠÐ±Ð¸Ð¹Ð¸ÐºÑĤ": 3261,
      "ÐĻ": 3262,
      "ÐµÑĢÐ¸Ð½Ð¸Ð½": 3263,
      "ĠÐ±ÐµÑĢÒ¯Ò¯Ð³Ó©": 3264,
      "ĠÐ°ÑģÐºÐµÑĢÐ´Ð¸Ðº": 3265,
      "ĠÑĥÐ»ÑĥÑĥ": 3266,
      "ĠÐ¢Ó©ÑĢ": 3267,
      "ÐľÐµÐ½": 3268,
      "ĠÐŃÐ½": 3269,
      "ĠÑĤÐ¸Ð¹Ð¸ÑĪ": 3270,
      "ĠVesti": 3271,
      "Ð¶Ð¶": 3272,
      "ĠÓ¨ÐºÐ¼Ó©ÑĤ": 3273,
      "ĠÑģÐµÐ½": 3274,
      "ĠÐ¢Ò¯ÑĪÑĤÒ¯Ðº": 3275,
      "Ó©ÐºÓ©Ð¹": 3276,
      "ĠÐ³ÐµÐ·Ð¸ÑĤ": 3277,
      "Ð¾Ð»ÑĥÐ¿": 3278,
      "ĠÑĥÑĥÑĢ": 3279,
      "ĠÐºÐ°Ñģ": 3280,
      "ĠÐ¼ÑĥÐ½Ð¸ÑĨÐ¸Ð¿Ð°Ð»Ð¸ÑĤÐµÑĤ": 3281,
      "ÑĭÐ½Ñĭ": 3282,
      "Ð¸ÑĢÐ³ÐµÐ½": 3283,
      "ĠÐºÐ°ÑĤÑĤÐ¾Ð¾": 3284,
      "Ð´ÑĥÐ³Ñĥ": 3285,
      "ĠÑģÓ©Ó©": 3286,
      "Ð´ÑĭÑĢÑĭÐ¿": 3287,
      "ĠÓ©ÑĤÒ¯Ð½": 3288,
      "ĠÐ°Ð»ÑĭÑĪ": 3289,
      "ĠÑĭÒ£": 3290,
      "ĠÐ°Ð¹Ð»Ð°Ð½Ð°ÑģÑĭÐ½Ð´Ð°": 3291,
      "ĠÑįÑģÐµÐ±": 3292,
      "Ð¶Ð°Ð¹": 3293,
      "ĠÐ´Ð°ÑıÑĢÐ´Ð°Ð³Ð°Ð½": 3294,
      "ÑĢÐ¾ÑĢ": 3295,
      "ĠÐ´ÐµÐº": 3296,
      "ĠÑĭÐ¹Ð³Ð°ÑĢÑĭÐ¼": 3297,
      "ĠÐ¸ÑĪÑĤÐµÑĢÐ¸Ð½": 3298,
      "Ð¾ÑĤÑĤ": 3299,
      "33": 3300,
      "ĠÐ¼Ð°ÐºÐ°Ð»": 3301,
      "ĠÓ©ÐºÐ¼Ó©ÑĤÑĤÒ¯Ð½": 3302,
      "ĠÐ±ÐµÐ»Ð³Ð¸ÑģÐ¸Ð·": 3303,
      "ĠÐļÑĥÐ±": 3304,
      "ĠÐ¼Ð°ÐºÑĥÐ»Ð´Ð°ÑĪ": 3305,
      "Ò¯Ð»Ð´Ò¯": 3306,
      "ÑĪÐ°": 3307,
      "Ò£ÑĥÐ·": 3308,
      "ĠÓ©Ò£": 3309,
      "ĠÐ°Ð´Ð°Ð±Ð¸ÑıÑĤ": 3310,
      "ĠÓ©Ð½Ó©ÐºÑĤ": 3311,
      "ĠÓ©ÑĤÐºÓ©ÑĢÒ¯Ò¯": 3312,
      "Ð°ÐºÑĩ": 3313,
      "ĠÐºÐ°ÑĢÐ¶ÑĭÐ»": 3314,
      "300": 3315,
      "ÑĤÐµÐ¼": 3316,
      "ÑĦÐ¾ÑĢÐ¼Ð°ÑĤ": 3317,
      "ĠÑįÐ»Ð³Ðµ": 3318,
      "ĠÐĺÐĺÐľ": 3319,
      "ĠÐ¼Ð°ÑģÑģ": 3320,
      "ed": 3321,
      "ÐµÐ»Ð¸": 3322,
      "ĠÐ¢Ò¯Ð½Ð´Ò¯Ðº": 3323,
      "ĠÐºÐ°ÑĢÐ¼Ð°Ð¿": 3324,
      "ĠÐºÓ©ÑĢÑģÓ©ÑĤÒ¯Ò¯": 3325,
      "ĠÐķÐ²ÑĢÐ¾Ð¿Ð°": 3326,
      "ĠÐĸÐ°Ò£Ñĭ": 3327,
      "ÑĪÑĤÑĥÑĢÑĥÑĥ": 3328,
      "ÑĤÑĥÐ½": 3329,
      "ĠÑģÐ¾ÑİÐ·": 3330,
      "ĠÐ¶Ð°ÑĢÑĭ": 3331,
      "ĠÐºÑĥÐ¹Ð³Ð°Ð½": 3332,
      "ĠÐ±ÐµÐ¹": 3333,
      "ĠÐ±Ð°Ð°ÑĢÑĭÐ½": 3334,
      "ÑĤÑĤÐ°Ð½": 3335,
      "ĠÐ¶Ð°ÑĢÐ°Ð½Ð´ÑĭÐº": 3336,
      "ĠH": 3337,
      "ÐºÐ°Ð³Ð°Ð½": 3338,
      "Ð¿Ð¾Ð·Ð¸ÑĨÐ¸Ñı": 3339,
      "ĠÐłÐ¤": 3340,
      "Ð¨ÐļÐķÐļ": 3341,
      "Ò¯ÑĪÒ¯Ð½Ó©": 3342,
      "Ò¯ÐºÑĤÒ¯": 3343,
      "ĠÑĤÐ°Ð·Ð°Ð»": 3344,
      "ÐļÐ¾Ð»": 3345,
      "ĠÐ±Ð¸ÑĢÐ¸Ðº": 3346,
      "ĠÐºÐ¾Ð½ÑĨ": 3347,
      "ĠÑĩÐ°Ð»": 3348,
      "ĠÐ¶ÑĭÐ¹Ð½": 3349,
      "ĠÐºÐ°Ð¹ÑĢÑĭÐ»": 3350,
      "Ð¿ÐµÐ¹": 3351,
      "Ò¯Ð³Ò¯Ð½Ó©": 3352,
      "ĠÐľÑĭÐ¹Ð·Ð°Ð¼": 3353,
      "ĠÐºÓ©ÑĢÑģÓ©ÑĤÒ¯Ð»Ð³Ó©Ð½": 3354,
      "ĠÐºÐ¾Ð¹Ð´Ñĥ": 3355,
      "ÐµÐ´Ð°Ð³": 3356,
      "ÐĳÐĺÐ¨ÐļÐķÐļ": 3357,
      "ĠÐ½Ðµ": 3358,
      "ĠÐºÐ¾ÑĪÑĤ": 3359,
      "Ð³Ð¸Ð½": 3360,
      "ÑĭÑĢÑĭÐ¿": 3361,
      "ĠÑĤÐ¸Ð¹Ð³Ð¸Ð·": 3362,
      "ĠÐ°Ð½Ð°Ð½": 3363,
      "ÑĥÑĥÑĩÑĥÐ»Ð°ÑĢÑĭ": 3364,
      "ĠÐ°Ð»ÑĭÑĪÐ°ÑĤ": 3365,
      "ĠÐ¸Ð»Ð¸ÐºÑĤÓ©Ó©": 3366,
      "Ð´ÑĭÐºÑĤÐ°ÑĢ": 3367,
      "ĠÐ±Ð°ÑĢÐ°": 3368,
      "ĠÐĶÐµÐ¼": 3369,
      "Ð°ÑģÐ¿": 3370,
      "Ð¼ÐµÐº": 3371,
      "ÐµÐ´Ð°Ð³Ð¾Ð³": 3372,
      "as": 3373,
      "Ð¸Ð±Ð¸": 3374,
      "ĠÑģÐ¾ÑĤÐºÐ¾": 3375,
      "VI": 3376,
      "ĠÐºÐ°Ð»ÑĭÐ±": 3377,
      "Ð°ÑĢÐ¸Ð¹": 3378,
      "ÑĤÑĤÐ¸": 3379,
      "el": 3380,
      "ĠÐ¸Ð¹Ð³Ð¸Ð»": 3381,
      "Ð¸ÑĢÐº": 3382,
      "Ð¸Ð·Ð°ÑĨÐ¸Ñı": 3383,
      "ĠÑĤÒ¯ÑĢÐ»Ó©ÑĢ": 3384,
      "ĠÐ¼Ð°Ð°Ð»ÑĭÐ¼Ð°ÑĤÑĤÐ°ÑĢÑĭ": 3385,
      "ĠÐĲÐ¼ÐµÑĢ": 3386,
      "Ð»Ð°ÑĢÑĭÐ½ÑĭÐ½": 3387,
      "ĠÐºÑĥÑĢÑĩ": 3388,
      "ÐŃÑģ": 3389,
      "ĠÐ±Ð¾Ð»Ð³Ð¾Ð½ÑĥÐ½": 3390,
      "Ð³ÑĭÑĢ": 3391,
      "Ð¼Ð¸Ð½Ð¸ÑģÑĤ": 3392,
      "ĠÐºÑĭÐ»ÑĭÐ½": 3393,
      "ĠÐ°Ð»Ð±Ð°Ð¹ÑĤ": 3394,
      "Ð±ÐµÑĢÐµÐ½": 3395,
      "ÐµÑģÐµ": 3396,
      "ĠÑĤÐ°ÑĢÑĤÐ°": 3397,
      "ĠÐĶÒ¯Ð¹Ð½": 3398,
      "ĠÐ¶Ð°Ð·ÑĥÑĥ": 3399,
      "ÐµÐ¹Ð»": 3400,
      "ĠÑĤÐ°ÑıÐ½": 3401,
      "121": 3402,
      "ĠÐ°Ð»Ð´ÑĭÐ½ÑĩÐ°": 3403,
      "ĠÐ¼Ð¸ÑĤÐ¸Ð½Ð³": 3404,
      "ĠÑĤÐ°ÑĢÑĤÑĭÐ»Ð³Ð°Ð½": 3405,
      "ĠÑĤÐ¾ÐºÑĤÐ¾Ð¼": 3406,
      "ĠÐ¼Ð°ÑĤÐµÑĢÐ¸Ð°Ð»": 3407,
      "Ò¯Ð³Ò¯Ð½Ð´Ó©": 3408,
      "ÑĭÑģÑĭ": 3409,
      "Ð¸Ð¿Ð»Ð¾Ð¼": 3410,
      "ĠÐ¼Ð°Ð°Ð»ÑĭÐ¼Ð°ÑĤÑĤÑĭ": 3411,
      "ĠÑĢÐµÑģÑĥÑĢÑģÑĤÐ°ÑĢÑĭ": 3412,
      "34": 3413,
      "ÐµÐ·Ð¸Ð´ÐµÐ½ÑĤ": 3414,
      "ĠÐºÓ©ÑĢÑģÓ©ÑĤÐºÓ©Ð½": 3415,
      "ĠÑĤÐ°ÑĢÑĤÑĥÑĥ": 3416,
      "ÐµÐ»ÐµÑĢÐ´Ð¸Ð½": 3417,
      "ĠÐĸÐ°ÑĢ": 3418,
      "ĠÑĩÑĭÐ³ÑĭÐ¼": 3419,
      "ĠÑįÐºÑģ": 3420,
      "ĠÐºÑĭÐ·ÑĭÐ»": 3421,
      "ĠÐ¶Ð°ÑĪÐ°Ð¿": 3422,
      "ÑģÑĥÐ½ÑĥÐ½": 3423,
      "ÑģÐ¸Ð½Ð¸Ð½": 3424,
      "ĠÐºÐ°ÑĢÐ°Ð¶Ð°ÑĤ": 3425,
      "ĠÑĦÐ¸Ð·": 3426,
      "ĠÐ±Ð¾Ð»Ð³Ð¾Ð½Ð´ÑĥÐºÑĤÐ°Ð½": 3427,
      "ÑĥÐ»ÑĥÑĪ": 3428,
      "Ð´Ð¸ÐºÐ°Ð»ÑĭÐº": 3429,
      "ÑĭÑĪÐºÑĭ": 3430,
      "ÑįÑįÑĢÐ»Ð¸Ðº": 3431,
      "ĠÐ°Ð»ÑĭÐ½ÑĭÐ¿": 3432,
      "ĠÐ¤ÑĢÐ°Ð½": 3433,
      "ĠÑįÐºÓ©Ó©": 3434,
      "Ð»Ð¾Ð²": 3435,
      "ĠÐ´Ð¾Ð¾ÑĢ": 3436,
      "ĠÐ£ÑĢ": 3437,
      "Ð¸Ð³Ð¸ÑĤ": 3438,
      "ĠÑĤÒ¯ÑĪÑĤÒ¯Ðº": 3439,
      "ĠÐ±Ð¾Ð»Ð±Ð¾ÑģÐ¾": 3440,
      "ĠÐ±Ð¸Ð»Ð´Ð¸ÑĢÐµÑĤ": 3441,
      "ĠÐŀÑģ": 3442,
      "ĠÑģÐ°Ð»ÑģÐ°Ðº": 3443,
      "ÑħÐ°Ð½": 3444,
      "Ð°Ð»ÑĥÑĥÐ´Ð°": 3445,
      "ĠÐ°ÑĢÑĤÑĭÐº": 3446,
      "Ð¾ÑĢÐ¾": 3447,
      "ĠÐ¼Ð°Ð¹ÑĢÐ°Ð¼": 3448,
      "ÑģÑĭÐ½Ð°Ð½": 3449,
      "Ð°ÑģÑģÑĤ": 3450,
      "ÐµÐºÐºÐµ": 3451,
      "ĠÐ°ÑĤÐºÐ°ÑĢÑĥÑĥ": 3452,
      "ĠÐ±Ð°ÑĪÐºÐ°ÑĢÐ¼Ð°Ð»ÑĭÐ³ÑĭÐ½ÑĭÐ½": 3453,
      "ĠÐ¢Ð°Ð¶Ð¸ÐºÑģÑĤÐ°Ð½": 3454,
      "ÑģÐ¾Ð½": 3455,
      "ĠÑģÐ¾Ð²": 3456,
      "ÑĥÐ»ÑĥÑĥ": 3457,
      "Ð±Ñĥ": 3458,
      "ĠÑģÐµÑĢ": 3459,
      "ol": 3460,
      "ĠÐĳÐ¾ÑĢÐ±Ð¾ÑĢÐ´ÑĥÐº": 3461,
      "ĠÑĥÐºÑĥÐºÑĤÑĥÑĥ": 3462,
      "ĠÓ©Ð·Ð³Ó©ÑĩÓ©Ð»": 3463,
      "ĠÐ¶Ð°ÑģÐ°Ð¿": 3464,
      "ÐµÐ±ÐµÑĢ": 3465,
      "ĠÐ°Ð¹ÑĭÑĢÐ¼Ð°Ð»": 3466,
      "ĠÐºÐ¾Ð¼Ð¸ÑģÑģÐ¸Ñı": 3467,
      "ÐµÑĤÑĤÒ¯Ò¯": 3468,
      "Ð´ÐµÑĢÐ¸Ð½": 3469,
      "ÐĳÐ°Ñģ": 3470,
      "ĠÐĵÒ¯Ð»": 3471,
      "ĠÐĲÐ´": 3472,
      "36": 3473,
      "ĠÐºÐµÒ£ÐµÑĪÐ¸Ð½Ð¸Ð½": 3474,
      "ÑĤÑĤÑĥÑĥ": 3475,
      "ĠÐ±Ó©Ð»Ò¯Ð¼Ò¯Ð½Ò¯Ð½": 3476,
      "ĠÐºÐ°Ð¼ÑģÑĭÐ·Ð´Ð¾Ð¾": 3477,
      "ÐºÑĭÑĩ": 3478,
      "ĠÑįÑģÐµÐ¿ÑĤÐµÐ»ÐµÑĤ": 3479,
      "ĠÐ°Ð»ÑĤÑĭ": 3480,
      "ÑĥÐ½Ð¸ÑĨÐ¸Ð¿Ð°Ð»Ð¸ÑĤÐµÑĤÑĤÐ¸Ð½": 3481,
      "ĠÐ±Ð°ÑĢÐ°ÑĤ": 3482,
      "ĠÐ¸ÑĪÐºÐµÑĢ": 3483,
      "ÑĢÐ¸ÑĤÐ¾ÑĢ": 3484,
      "et": 3485,
      "ĠÐ¶Ñĭ": 3486,
      "Ð¸Ð»Ð´Ð¸": 3487,
      "38": 3488,
      "ĠÐºÐ°Ð´Ð°Ð¼": 3489,
      "ĠÐ¼ÑĥÑĢÑĥÐ½ÐºÑĥ": 3490,
      "ÑĢÐ°Ð²": 3491,
      "ĠÐ§Ð¾Ò£": 3492,
      "ÑĭÑģÑĭÐ½Ð°Ð½": 3493,
      "ĠÐºÐ¾ÑĪÑĥÐ¼ÑĩÐ°Ð»Ð°Ð´Ñĭ": 3494,
      "99": 3495,
      "ĠÐºÒ¯Ð¼": 3496,
      "ĠÐľÐ¸Ð½Ð¸ÑģÑĤÑĢ": 3497,
      "ĠÐ¡ÑĤ": 3498,
      "ĠÑģÑĥ": 3499,
      "ĠÐļÐ¾ÑĪ": 3500,
      "ĠÑĤÑĭÐ½ÑĩÑĤ": 3501,
      "ĠÐºÑĥÑĢÑĥÑĥ": 3502,
      "ĠÑĥÑĢÑĥÐºÑģÐ°ÑĤ": 3503,
      "ĠÐ±Ð¸Ð»Ð³ÐµÐ½": 3504,
      "ÑĥÑĤÑĤÑĥÑĥ": 3505,
      "ÑĥÑĢÑĤ": 3506,
      "ÐļÐ¾ÑĢ": 3507,
      "ĠÑįÐºÐµÐ½Ð¸": 3508,
      "ĠÐ°Ð¹ÑĭÐ»Ð´ÑĭÐº": 3509,
      "ĠÐĸÐ°Ð½": 3510,
      "ÐĳÐµÐ»": 3511,
      "Ð¼Ðµ": 3512,
      "ĠÐºÐ°Ð³Ð°Ð·": 3513,
      "ĠÑĢÐµÐ¶Ð¸Ð¼": 3514,
      "ĠÐ¶Ð¾Ð³Ð¾ÑĢÑĥÐ»Ð°ÑĤ": 3515,
      "Ó©Ó©Ð½Ò¯Ð½": 3516,
      "ĠÐºÐ°Ð¹ÑĢÑĭÐ»ÑĥÑĥ": 3517,
      "ĠÐ¼Ð°Ð°Ð½Ð¸": 3518,
      "Ð´Ð°ÑĢÐ´Ð°Ð½": 3519,
      "ĠÑĥÐ¹": 3520,
      "ĠÑĤÐµÑĢÑĢÐ¸ÑĤÐ¾ÑĢ": 3521,
      "ĠÐ°Ð¹Ð¼Ð°ÐºÑĤÐ°ÑĢÑĭÐ½": 3522,
      "ĠE": 3523,
      "ĠÐºÐ°Ð»ÑĭÐ±ÑĭÐ½Ð°": 3524,
      "ÑĥÑĪÐ°ÑĤ": 3525,
      "Ð¸ÑģÑĤÐ¸": 3526,
      "ĠÐ¿Ð°ÑĢ": 3527,
      "ÑĳÑĢ": 3528,
      "ĠÐ¶ÑĭÐ¹ÑĭÐ½ÑĭÐ½Ð´Ð°": 3529,
      "ĠÐ¿ÑģÐ¸Ñħ": 3530,
      "Ó©ÑĢÐ´Ò¯": 3531,
      "Ð»Ð°Ð½Ð´Ñĭ": 3532,
      "Ð¿ÐµÑĢÐ°ÑĤÑĥÑĢ": 3533,
      "Ò¯Ð½ÑĩÒ¯": 3534,
      "ÑĤÐºÓ©Ð½": 3535,
      "ĠÐ±Ð°Ð¹ÑĭÑĢÐºÑĭ": 3536,
      "Ð¸Ð³Ð¸Ð½Ð¸Ð½": 3537,
      "Ð°Ð¼ÑĭÐ½": 3538,
      "ĠÑĢÐ°Ð¹Ð¾Ð½Ð´Ð¾": 3539,
      "ĠÑĥÑĤ": 3540,
      "ĠÑĦÐµÐ´ÐµÑĢÐ°Ð»Ð´ÑĭÐº": 3541,
      "Ð¾Ð¸Ð½": 3542,
      "ĠÒ¯Ð¹Ð»Ó©ÑĢ": 3543,
      "Ð´Ð°ÑĢÑĭÐ½Ð´Ð°": 3544,
      "ĠÑĤÐ¾Ð»ÑĥÐ³Ñĥ": 3545,
      "Ð´ÐµÐºÐ°Ð±ÑĢÑĮ": 3546,
      "ĠÐºÐ°Ð°Ð»Ð°Ð³Ð°Ð½": 3547,
      "Ð¼Ó©Ðº": 3548,
      "ÑĩÐ¸Ð»Ð¸ÐºÑĤ": 3549,
      "Ð°Ð»Ð°ÑĢÐ³Ð°": 3550,
      "ĠÐ¡Ð°Ð»Ð°Ð¼": 3551,
      "Ġ[": 3552,
      "ĠÑĤÐ°Ð¿ÐºÐ°Ð½": 3553,
      "Ð¿Ð¸ÑĢ": 3554,
      "ÑĥÐ»Ð°": 3555,
      "ĠÐ³Ò¯Ð»": 3556,
      "ĠÐĳÐ¸ÑĪÐºÐµÐºÑĤÐµ": 3557,
      "ĠÑĤÑĢÐ°Ð½ÑģÐ¿": 3558,
      "ĠÐľÐ°ÑĤ": 3559,
      "ÑĭÐ¹ÐºÐ°Ð½": 3560,
      "ĠÑįÑĤÐ½": 3561,
      "Ð°Ð»Ð°Ð¹": 3562,
      "ĠÐºÒ¯ÑĩÑĤÒ¯Ò¯": 3563,
      "Ð±Ò¯": 3564,
      "ĠÒ¯Ð»Ð³Ò¯": 3565,
      "ĠÐ´Ð¾ÑģÑĤ": 3566,
      "ĠÐ°ÑĤÐº": 3567,
      "ÑĥÑĤÐ±Ð¾Ð»": 3568,
      "ĠÐ°Ð¹Ð»": 3569,
      "ÐµÐ½Ð·": 3570,
      "Ð´Ó©Ð¿": 3571,
      "ĠÐºÓ©Ð¿ÑĩÒ¯Ð»Ò¯Ðº": 3572,
      "ÑĭÐºÑĩÐ°": 3573,
      "ĠÐĺÑĢÐ°Ð½": 3574,
      "Ġ.": 3575,
      "ĠÐĲÐ¹ÑĢ": 3576,
      "ĠÐ¼ÑĥÐ½Ñĥ": 3577,
      "ĠÑĩÑĭÑĢ": 3578,
      "ĠÐ¸ÑĪÑĤÐµÐ¹ÑĤ": 3579,
      "ĠÐ¶ÑĥÑĢÐ½Ð°Ð»Ð¸ÑģÑĤÑĤÐµÑĢ": 3580,
      "Ð°Ð¼Ð°ÑĤ": 3581,
      "ĠÑħÐ°Ð½": 3582,
      "Ò¯ÐºÑĤÒ¯Ò¯": 3583,
      "ĠÐ°Ð»ÑĭÑĪÐºÐ°Ð½": 3584,
      "Ð´ÑĭÐ¼": 3585,
      "ĠÐºÓ©Ð½": 3586,
      "Ò¯ÑĢÓ©Ó©Ðº": 3587,
      "07": 3588,
      "ĠÐ±Ð¸Ð¹Ð¸Ðº": 3589,
      "ĠÑĤÑĭÐ½Ñĩ": 3590,
      "ÐºÑĥÐ½": 3591,
      "ĠÑĤÐ°Ð¶ÑĢÑĭÐ¹Ð±": 3592,
      "ÐµÐ³Ð¸Ð½": 3593,
      "Ð¸Ð½ÑĨ": 3594,
      "Ð±Ò¯Ð»Ó©": 3595,
      "ĠÑĩÑĭÐ³Ð°ÑĢÑĭÐ»ÑĭÑĪÑĭ": 3596,
      "ĠÑĤÐ¸Ð»Ð¸Ð½Ð´Ðµ": 3597,
      "ÐļÑĭÐ·": 3598,
      "ĠÓ©Ð·Ò¯Ð¼": 3599,
      "ĠÐ°ÑĢÐ½Ð°Ð»Ð³Ð°Ð½": 3600,
      "ĠÐ°ÑĤÐ°ÑģÑĭ": 3601,
      "37": 3602,
      "ĠÑģÐ°Ð»ÑĭÐ½Ð³Ð°Ð½": 3603,
      "ĠÐ¶Ò¯Ð³": 3604,
      "ĠÐ¿ÑĢÐ¾Ð³ÑĢÐ°Ð¼Ð¼": 3605,
      "ĠÐ±ÑĭÐ¹ÑĭÐ»": 3606,
      "Ð±Ð°ÐµÐ²Ð´Ð¸Ð½": 3607,
      "ĠÐ´Ð¸Ð½Ð¸Ð¹": 3608,
      "ĠÐºÐ¾Ð¼Ð¸ÑĤÐµÑĤÐ¸Ð½Ð¸Ð½": 3609,
      "Ð¸Ð´ÐµÑĢ": 3610,
      "ĠÐ±Ð¸Ð·Ð½ÐµÑģ": 3611,
      "ĠÐ±Ð°Ð³ÑĭÑĤ": 3612,
      "Ð¾ÑģÐ¾ÑĦ": 3613,
      "Ð°ÑĢÐ´Ð°": 3614,
      "ĠÐºÓ©ÑĢÒ¯Ò¯": 3615,
      "ĠÐ¶Ð¾Ð»Ð´Ð¾ÑĢ": 3616,
      "Ð´ÐµÐ»Ð³ÐµÐ½": 3617,
      "Ð¸ÑĢÐ¾Ð²": 3618,
      "Ð±Ð°ÑĪ": 3619,
      "ĠÐ°Ð±Ð°Ð»Ñĭ": 3620,
      "ĠÐºÐµÑĤÐµÑĤ": 3621,
      "ĠÑĤÐ°ÑĤ": 3622,
      "Ð¸ÑıÐ½Ñĭ": 3623,
      "ĠÐ¼ÐµÐºÑĤÐµÐ¿ÑĤÐµÑĢ": 3624,
      "ĠÑģÐ°Ð¹ÑĤÑĭÐ½Ð°": 3625,
      "ĠÑĤÐµÑħÐ½Ð¸ÐºÐ°Ð»ÑĭÐº": 3626,
      "ÑĥÐ¼ÑĥÑĪÑĤ": 3627,
      "ĠÐ´Ð°ÑĢÑĭÑıÐ½ÑĭÐ½": 3628,
      "Ġ%": 3629,
      "ÑĥÐ±Ð°Ð¹": 3630,
      "ĠÐ¢Ð°": 3631,
      "ĠÑĤÒ¯Ð¿": 3632,
      "ĠÐľÑĥÐ½Ð¸ÑĨÐ¸Ð¿Ð°Ð»Ð¸ÑĤÐµÑĤÑĤÐ¸Ð½": 3633,
      "ĠÐ¤ÑĢ": 3634,
      "ĠÑĩÐ°ÑĢÐ±Ð°ÑĩÑĭÐ»ÑĭÐº": 3635,
      "Ð±Ð°Ðº": 3636,
      "ĠÐºÑĭÑģÐºÐ°": 3637,
      "Ð³ÑĭÐ½Ð°": 3638,
      ".Â«": 3639,
      "ĠÐ¸ÑĪÐ¼ÐµÑĢÐ´Ò¯Ò¯Ð»": 3640,
      "ÑĤÐµÐ½": 3641,
      "ĠÑĩÑĭÒ£": 3642,
      "Ò¯ÑĪÐºÓ©Ð½": 3643,
      "ĠÐ¿Ð°ÑĢÑĤÐ¸ÑıÑģÑĭÐ½ÑĭÐ½": 3644,
      "ĠÑĤÐ°Ð»ÐºÑĥÑĥÐ»": 3645,
      "ĠÑĦÑĢÐ°Ðº": 3646,
      "ĠÐľÐµÐºÐµÐ½": 3647,
      "Ð´Ó©Ð¼": 3648,
      "ĠÐºÐ°ÑĤÑĩÑĭÑģÑĭ": 3649,
      "ĠÐŃÐºÐ¸": 3650,
      "Ð¾ÐºÑĤÐ¾ÑĢ": 3651,
      "Ð°ÑĤÑĤÐ°ÑĢÑĭÐ½": 3652,
      "ĠÐ°Ð»Ð¼Ð°ÑĪÑĤÑĭÑĢ": 3653,
      "ÐĵÐ¸Ð´ÑĢ": 3654,
      "ĠÐ¼Ð°Ð°Ð»ÑĭÐ¼Ð°ÑĤÑĤÐ°ÑĢÐ´Ñĭ": 3655,
      "ĠÐ¶Ð¾Ð³Ð¾ÑĤ": 3656,
      "ĠÐ°Ð»ÑĭÑģ": 3657,
      "ĠÐºÑĭÑĪÑĤ": 3658,
      "ĠÐºÐ°ÑĢÐ°Ð¶Ð°ÑĤÑĤÐ°ÑĢ": 3659,
      "Ð°ÑģÑĤÑĭÐºÑĤ": 3660,
      "ĠÐ¿Ð»": 3661,
      "ÑģÐµÐ½": 3662,
      "ĠÐ¢Ð¾Ðº": 3663,
      "ÑĥÑĥÑģÑĥÐ½": 3664,
      "ĠÐĳÐ°ÑĢ": 3665,
      "Ð³Ó©Ð·": 3666,
      "ĠÑĦÑĥÐ½": 3667,
      "ĠÐºÐ¾Ð¼Ð¿Ð»ÐµÐº": 3668,
      "ÐŃÑĢ": 3669,
      "ĠÐ°Ð²ÑĤÐ¾ÑĢ": 3670,
      "ĠÐ±Ð°ÑģÑģÐµÐ¹Ð½Ð¸": 3671,
      "ÐļÐ°ÑĢ": 3672,
      "ĠÐľÐ°Ð¹": 3673,
      "ĠÐ¡ÐµÐ±": 3674,
      "ĠÑįÑģÐµÐ¿": 3675,
      "001": 3676,
      "il": 3677,
      "ĠÐ¼ÑĥÑĥÐ½": 3678,
      "ĠÐ²Ð¸ÑĨÐµ": 3679,
      "ĠÐļÐµÐ¼": 3680,
      "150": 3681,
      "ĠÑįÐ»ÐµÐºÑĤÑĢÐ¾Ð½Ð´ÑĥÐº": 3682,
      "ĠÐºÐ¸ÑĢÐ³Ð¸Ð·Ð¸Ð»Ð³ÐµÐ½": 3683,
      "Ð¾Ð¼Ð±ÑĥÐ»": 3684,
      "ĠÐ½Ð¾Ð¼ÑĥÑĢÑĥ": 3685,
      "ĠÐ±Ð¸": 3686,
      "Ð»Ð°ÑĢÑĭÐ½Ð´Ð°": 3687,
      "ĠÑĤÐµÐ¼Ð¿ÐµÑĢÐ°ÑĤÑĥÑĢ": 3688,
      "ĠÐ¶Ð°ÐºÑĪÑĭÑĢÑĤ": 3689,
      "ÑĦÑĤ": 3690,
      "ĠÐļÑĥÑĢÐ¼Ð°Ð½": 3691,
      "ĠÐ¢ÐµÐ¼Ð¸ÑĢ": 3692,
      "Ð¼Ð°ÑĢÑĤ": 3693,
      "ĠÐ±Ð¸ÑĢÓ©Ó©": 3694,
      "ÐµÐºÑĤÐµÐ½": 3695,
      "ĠÐºÐ¸ÑĢÐ³Ð¸Ð·Ò¯Ò¯": 3696,
      "ĠÐĲÐ´Ð°Ð¼": 3697,
      "ĠÑĤÑĥÑĢÐ°Ðº": 3698,
      "ÑĥÐ±ÑĥÐ·": 3699,
      "Ð·Ð°Ðº": 3700,
      "ĠÐºÒ¯Ð½Ó©": 3701,
      "Ð¸ÑĩÐ¸": 3702,
      "ĠÐ´Ð°Ð¹ÑĭÐ¼Ð°": 3703,
      "ĠÓ©Ð·Ò¯Ð½ÑĩÓ©": 3704,
      "ĠÐ´Ð¾Ð»Ð±Ð¾Ð¾ÑĢÑĥ": 3705,
      "ÐŃÐº": 3706,
      "ĠÐ¶Ò¯ÑĢÓ©ÑĤ": 3707,
      "ĠÐ¿ÑĢÐ¾ÑĨÐµÑģÑģ": 3708,
      "ĠÐĿÐµÐ³Ð¸Ð·": 3709,
      "ĠÑĩÑĭÐ³Ð°ÑĢÐ¼Ð°Ð»Ð°ÑĢ": 3710,
      "ĠÐºÐ°ÑĢÐ°Ð»Ð³Ð°Ð½": 3711,
      "ĠÐ¶Ð°Ò£ÑĭÐ»": 3712,
      "ĠÐ¦": 3713,
      "ĠÐºÑĥÐ¼": 3714,
      "ÐµÑĤÑĤÐµÐ½": 3715,
      "ĠÐ¶Ð°ÑĢÑĭÑıÐ»Ð°Ð½Ð³Ð°Ð½": 3716,
      "Ð´Ð°ÐºÑĤ": 3717,
      "ÐµÑħÐ°Ð½": 3718,
      "ĠÐ¼Ð¸Ð»Ð»Ð¸Ð°ÑĢÐ´": 3719,
      "ĠÐ´Ð¸Ð¿Ð»Ð¾Ð¼": 3720,
      "ĠÐ°Ð²ÑĤÐ¾": 3721,
      "ĠÐ±Ð°Ð°ÑģÑĭ": 3722,
      "ĠÐºÐ°ÑĢÐ°Ð¹": 3723,
      "ĠÐĽÐµÐ½Ð¸Ð½": 3724,
      "ĠÐºÑĭÑĢÐ³ÑĭÐ·ÑģÑĤÐ°Ð½Ð´ÑĭÐº": 3725,
      "ĠÐļÑĥÐ»": 3726,
      "ĠÑĢÐµÑĦÐ¾ÑĢ": 3727,
      "ĠÐłÐµÑģÐ¿ÑĥÐ±Ð»Ð¸ÐºÐ°ÑģÑĭ": 3728,
      "ĠÐ¶Ó©Ð½Ó©ÐºÓ©Ð¹": 3729,
      "ÑĭÐºÑĤÐ°ÑĢÐ´Ñĭ": 3730,
      "ĠÑĪÐ¸Ð»": 3731,
      "Ð°ÑĢÐ´Ð°Ð½": 3732,
      "ÐĺÐĺÐĳ": 3733,
      "ĠÑĥÐ±Ð°ÐºÑĤÐ°": 3734,
      "ĠÐºÐ°Ð½Ð´Ð°Ð¹Ð´ÑĭÑĢ": 3735,
      "ÑĥÐ¼ÑĤÓ©ÑĢ": 3736,
      "ĠÐ¼ÑĥÑģÑĥÐ»Ð¼Ð°Ð½": 3737,
      "ĠÐĵÑĢ": 3738,
      "ĠÐľÐ°Ð°Ð»ÑĭÐ¼Ð°ÑĤÐºÐ°": 3739,
      "ĠÑĢÐ°Ð¹Ð¾Ð½ÑĥÐ½Ð´Ð°": 3740,
      "ĠÐ¶Ð°ÑĤÐºÐ°Ð½Ñĭ": 3741,
      "ĠÑģÐ¾Ð¼Ð³Ð¾": 3742,
      "55": 3743,
      "ĠÐ¼Ð°Ð·": 3744,
      "Ò¯Ð±Ò¯Ð·": 3745,
      "ĠÑĤÐ°ÑģÑĤÑĭÐºÑĤ": 3746,
      "ĠÐºÐ°Ð±Ð¸Ð½": 3747,
      "ĠÒ¯Ð¹ÑĢÓ©Ð½": 3748,
      "ĠÐ±Ð¸ÑĢÐ´Ð¸ÐºÑĤ": 3749,
      "Ð¾ÑĤÐ¾": 3750,
      "ĠÐ²Ð°ÑĢÐ¸": 3751,
      "ÑĩÑĭÐ½ÑĭÐ½": 3752,
      "ĠÐļÓ©Ðº": 3753,
      "Ð°ÐºÑĥÐ»ÑĮÑĤ": 3754,
      "ĠÐºÐ¾Ñĳ": 3755,
      "ĠÐ¡Ð¡Ðł": 3756,
      "ĠÐ¶Ð°ÐºÑĭÐ½Ð´Ð°": 3757,
      "ĠÓ©ÑģÒ¯Ð¼Ð´Ò¯ÐºÑĤ": 3758,
      "ĠÐºÒ¯Ð·": 3759,
      "ĠÐ±Ð°ÑģÐ°": 3760,
      "Ð´Ó©Ð³Ó©Ð½": 3761,
      "ĠÑĤÒ¯Ð½Ð´Ò¯Ðº": 3762,
      "ÑĥÐºÑĥÐ¼": 3763,
      "ĠÐ±ÐµÐ»Ð³Ð¸Ð»ÐµÐ³ÐµÐ½": 3764,
      "ĠÐĲÐļÐ¨Ð½ÑĭÐ½": 3765,
      "ĠÐ¿Ð°ÑĢÐ»Ð°Ð¼ÐµÐ½ÑĤ": 3766,
      "ĠÐºÑĭÐ·Ð¼Ð°ÑĤÐºÐµÑĢÐ¸": 3767,
      "ĠÐ±Ð°Ð³ÑĭÑĤÑĤÐ°Ð»Ð³Ð°Ð½": 3768,
      "ĠÑĤÐ°Ð°Ð¿": 3769,
      "ĠÑģÐ°ÐºÑĤÐ°Ð¿": 3770,
      "Ð¸ÑıÐ´Ð°Ð³Ñĭ": 3771,
      "Ð¾ÑĩÐ¾": 3772,
      "Ð°ÑĤÑĥÑĥ": 3773,
      "Ð¸Ð»Ð´Ð¸Ðº": 3774,
      "ĠÑĤÐ¾Ð²Ð°ÑĢ": 3775,
      "ĠÑĤÐµÐ³ÐµÑĢ": 3776,
      "ĠÐ´ÑįÑįÑĢÐ»Ð¸Ðº": 3777,
      "Ġt": 3778,
      "ĠÑĤÐ°ÑģÐ¼": 3779,
      "ĠÐ¶Ð°ÑĢÐ°": 3780,
      "ĠÐ°Ð²ÑĤÐ¾Ð¼": 3781,
      "ĠÐ¶Ò¯ÑĢÐ³Ò¯Ð·Ò¯Ò¯": 3782,
      "ĠÐľÐ°Ñģ": 3783,
      "ÑĩÑĭÐ»ÑĭÐ³Ñĭ": 3784,
      "ÑĩÑĭÐ»Ð°ÑĢÑĭ": 3785,
      "ĠÑĤÐ¾Ð±Ñĥ": 3786,
      "ĠÐºÑĭÐ·Ð¼Ð°ÑĤÑĤÐ°ÑĪÑĤ": 3787,
      "ĠÐ¶Ò¯ÐºÑĤ": 3788,
      "Ð¾Ð³ÑĥÐ·": 3789,
      "ĠÐºÐ°Ð»ÐºÑĭÐ½ÑĭÐ½": 3790,
      "ÐºÐ¸Ð¼": 3791,
      "ĠÐ°Ð¼ÐµÑĢ": 3792,
      "Ð¼ÐµÐ½ÑĤ": 3793,
      "ĠÐ¸Ð·Ð´Ó©Ó©": 3794,
      "ĠÐ´Ð°ÑıÑĢÐ´Ð¾Ð¾": 3795,
      "ĠÐ¼Ð°Ð´Ð°Ð½Ð¸Ñı": 3796,
      "ĠÐ±Ð¾Ð»Ð±Ð¾Ð¹": 3797,
      "ÑĥÐ½ÐºÑĤ": 3798,
      "ĠÐ±Ð¸Ð¹Ð»Ð¸Ð³Ð¸": 3799,
      "ĠÐºÑĭÐ·Ð¼Ð°ÑĤÑĭÐ½Ð°Ð½": 3800,
      "ĠÐľÐ¾Ð»": 3801,
      "ĠÐ¼Ð°Ð°Ð»ÑĭÐ¼Ð°ÑĤÑĭÐ½Ð°": 3802,
      "ĠÐ¶Ð°ÑĪÑĭÑĢ": 3803,
      "ÑĥÐºÑĤÐ°Ð¶": 3804,
      "ÐĲÐ¢Ðŀ": 3805,
      "ÑģÑĤÐ°Ð²": 3806,
      "Ð¼Ð°Ð»ÑĥÑĥ": 3807,
      "ĠÐ°Ð»ÑĭÑģÑĤÑĭÐºÑĤÐ°": 3808,
      "ĠÐ°Ð´Ð¼Ð¸Ð½Ð¸ÑģÑĤ": 3809,
      "ÐľÐ°Ð°Ð»ÑĭÐ¼Ð°ÑĤÐºÐ°": 3810,
      "ĠÑĤÐ°Ð¹": 3811,
      "ĠÐºÓ©ÑĢÑģÓ©ÑĤÐºÒ¯ÑĩÑĤÓ©ÑĢ": 3812,
      "ĠÐ±Ó©Ð»Ò¯Ð¿": 3813,
      "ĠK": 3814,
      "97": 3815,
      "ĠÑĤÓ©Ð»Ó©Ð¼": 3816,
      "ĠÐºÓ©Ð¼Ò¯ÑĢ": 3817,
      "ÐĵÐ¸Ð´ÑĢÐ¾Ð»Ð¾Ð³Ð¸ÑıÐ»ÑĭÐº": 3818,
      "ĠÐ¶Ð°ÑĪÑĤÐ°ÑĢ": 3819,
      "ĠÐ³Ð¾": 3820,
      "ĠÑĢÐ°Ð¹Ð¾Ð½Ð´Ð¾ÑĪÑĤÑĥÑĢÑĥÑĥ": 3821,
      "ĠÑģÐµÐ±ÐµÐ±Ð¸": 3822,
      "ÑĪÑĤÑĭ": 3823,
      "Ð±Ó©Ð»": 3824,
      "ÑĥÑģÑģÑĤÐ²": 3825,
      "ĠÐºÐ°Ð°ÑĢ": 3826,
      "Ò¯ÑĪÒ¯Ð½": 3827,
      "ÑģÐ»Ð°Ð¼": 3828,
      "ĠÐ¡Ð°Ð»": 3829,
      "ÐµÐ»Ð¸Ð½": 3830,
      "Ð¢Ð¾Ð¾": 3831,
      "ÑĢÐ¾": 3832,
      "ÑģÐµÐ¹Ð½Ð´Ð¸Ð½": 3833,
      "ĠÐ±Ð¸ÑĢÐ¸Ð¼": 3834,
      "ĠÐ¡Ð°ÑĢ": 3835,
      "ĠÐ¼Ð°Ð´Ð°Ð½Ð¸Ð¹": 3836,
      "ĠÑĤÐ¾Ð¼ÑĥÐ½ÑĥÐ½": 3837,
      "ĠÐºÐ¸Ð»": 3838,
      "Ð¾ÐºÑĤÑıÐ±ÑĢÐ´Ð°": 3839,
      "ĠÐ°Ð»ÑĭÐ½Ð´Ñĭ": 3840,
      "Ð¾Ð½Ð¾Ð¼Ð¸ÐºÐ°Ð»ÑĭÐº": 3841,
      "ĠÐºÐ°ÑĤÑĭÑĪÑĭÐ¿": 3842,
      "ÐĲÐł": 3843,
      "Ð¾ÑĩÑĤÐ°": 3844,
      "Ð´Ð°Ð¹ÑĤ": 3845,
      "Ð¾Ð¸Ð½ÑĦÐ¾ÑĢÐ¼Ð°ÑĤ": 3846,
      "Ð¾ÑĢÑĤÑĤÑĥÐº": 3847,
      "ĠÐ¸Ð½Ð²ÐµÑģÑĤÐ¸ÑĨÐ¸Ñı": 3848,
      "ĠÐľÑĥÑħ": 3849,
      "ĠÑģÐ°Ð»ÑĭÐº": 3850,
      "ĠÑĤÐµÑĢÑĢÐ¸ÑĤÐ¾ÑĢÐ¸ÑıÑģÑĭÐ½ÑĭÐ½": 3851,
      "Ð±Ð°Ð»": 3852,
      "ĠÐ¶ÑĭÐ¹ÑĭÐ½ÑĤÑĭÐ³Ñĭ": 3853,
      "ĠÐ³ÐµÐ¾Ð¸Ð½ÑĦÐ¾ÑĢÐ¼Ð°ÑĤ": 3854,
      "ÑĪÐµÐ¼": 3855,
      "ĠÐ³ÐµÐ¾Ð¸Ð½ÑĦÐ¾ÑĢÐ¼Ð°ÑĤÐ¸Ð²Ð´Ð¸Ðº": 3856,
      "Ð°Ð´Ð°Ð³Ñĭ": 3857,
      "ĠÐ°Ð½ÑĭÐºÑĤÐ°Ð»Ð³Ð°Ð½": 3858,
      "ĠÐľÑĭÐ½Ð°": 3859,
      "ĠÐ¸Ð½ÑĦ": 3860,
      "ÐºÑĤÑıÐ±ÑĢÑĮ": 3861,
      "ĠÑģÑĥÑĢÐ¾Ð¾Ð»Ð¾ÑĢ": 3862,
      "ÐµÑģÐ¸Ð½Ð´Ðµ": 3863,
      "ĠÐºÐ°Ð¼Ð°ÐºÐºÐ°": 3864,
      "ĠÐºÓ©Ð±Ò¯ÑĢÓ©Ó©Ðº": 3865,
      "ĠÐºÐ¾Ò£": 3866,
      "ĠÐľÐ¸ÑĢ": 3867,
      "Ð¿ÑĭÑģÑĭÐ½Ð°Ð½": 3868,
      "__": 3869,
      "Ð¸ÑĢÐ¸Ð¿": 3870,
      "ĠÐºÒ¯Ð½Ð³Ó©": 3871,
      "ĠÐºÐ°Ð·Ð°Ðº": 3872,
      "Ð³ÑĭÐ¹": 3873,
      "ÐĳÐ°ÑģÑģÐµÐ¹Ð½Ð´Ð¸Ð½": 3874,
      "Ð°ÐºÑĤÐ°ÑĢÑĭ": 3875,
      "ĠÐ¿ÑĢÐ¸Ð½ÑĨ": 3876,
      "ĠÐ½Ð°Ð°ÑĢÐ°Ð·Ñĭ": 3877,
      "Ð¯": 3878,
      "ÑĦÑĦ": 3879,
      "ĠÐ¾Ð¿Ð¿Ð¾Ð·Ð¸ÑĨÐ¸Ñı": 3880,
      "ĠÐ¾Ð±ÑĬÐµÐºÑĤÐ¸ÑģÐ¸Ð½Ð¸Ð½": 3881,
      "ÑĨÐ¸Ð°Ð»": 3882,
      "ĠÐĲÑıÐ½": 3883,
      "ĠÐ¼ÑĥÐºÑĤÐ°Ð¶": 3884,
      "ÐºÐ¾Ð²": 3885,
      "ĠÑĤÐµÐ¾ÑĢ": 3886,
      "ĠÑĩÐ°Ð³ÑĭÐ»Ð´ÑĭÑĢ": 3887,
      "ĠÐ¸ÑĪÑĤÐ¸": 3888,
      "ĠÐ¼ÑĥÐ½": 3889,
      "Ð¿Ð°Ð³Ð°Ð½": 3890,
      "Ð°Ð»Ð°ÑĢÑĭÐ½ÑĭÐ½": 3891,
      "ĠÐĺÑĩÐºÐ¸": 3892,
      "ĠÑĤÐ°ÑĢÐ°Ð¿ÑĤÑĥÑĥ": 3893,
      "ĠÑĢÐµÐµÑģÑĤÑĢÐ¸Ð½Ð´ÐµÐ³Ð¸": 3894,
      "ĠÐºÐµÐ»Ð¸Ð½": 3895,
      "ÑģÑĥÐ½Ð´Ð°": 3896,
      "ĠÐ¼ÐµÐ·Ð³Ð¸Ð»Ð´Ðµ": 3897,
      "Ð´Ó©ÑĢÒ¯Ð½": 3898,
      "ĠÐºÐµÑģÐµÐ¿": 3899,
      "ĠÐ°ÑĢÐ°Ð´Ð°": 3900,
      "ĠÐ¶Ð°ÑĪÑĤ": 3901,
      "ÑģÐºÑĥÑģÑģÑĤÐ²": 3902,
      "ĠÐ¾Ò£Ð´Ð¾Ð¾": 3903,
      "ÐĲÐļ": 3904,
      "ÑĤÑĭÐ¼": 3905,
      "ĠÑĦÐ°ÐºÑĥÐ»ÑĮÑĤ": 3906,
      "ĠÐ°ÑıÐºÑĤÐ°Ð³Ð°Ð½": 3907,
      "ĠÑģÐµÐ·Ð¸Ð¼": 3908,
      "ĠÐºÑĭÑĢÐ´Ð°Ð°Ð»": 3909,
      "ÐµÐ»Ð»": 3910,
      "48": 3911,
      "Ð³ÑĥÐ·": 3912,
      "ĠÐ´Ð¾Ð»Ð±Ð¾Ð¾ÑĢÐ»Ð¾ÑĢ": 3913,
      "ĠÐ¶Ó©Ð½Ð³Ó©": 3914,
      "ĠÐ¶Ò¯ÑĢÒ¯ÑĪÒ¯Ð½Ð´Ó©": 3915,
      "ĠÐºÐ¾ÑĪÐ¾": 3916,
      "ter": 3917,
      "ĠÑĭÑĢÐ°Ð°Ð·Ñĭ": 3918,
      "Ð½Ð¸": 3919,
      "Ð·Ðµ": 3920,
      "ÑĥÑĥÑĩÑĥÐ»Ð°ÑĢÐ´ÑĭÐ½": 3921,
      "ĠÑĤÐµÑĢÑĢÐ¾ÑĢ": 3922,
      "ÑĤÐºÐµÐ½": 3923,
      "ĠÐºÐ°ÑĢÑĭÐ·": 3924,
      "ÑĢÐ¾Ð½": 3925,
      "ĠÐ¢ÐµÑĢ": 3926,
      "ĠÐ²Ð¸Ð´ÐµÐ¾": 3927,
      "Ð¡Ð°": 3928,
      "ĠÑįÐ¼Ð³Ðµ": 3929,
      "ÐµÐµÐ²": 3930,
      "ÐĶÐµÐ¼": 3931,
      "ĠÐºÐ²": 3932,
      "ĠÐ±Ð°Ð°": 3933,
      "ÑĭÑĪÑĭÐ½Ð°": 3934,
      "ĠÐ¢Ð¾ÐºÑĤÐ¾Ð³ÑĥÐ»": 3935,
      "ĠÐºÓ©ÑĢÑģÓ©ÑĤÒ¯Ð¿": 3936,
      "ĠÐºÐ°ÑĦ": 3937,
      "ĠÐ°ÑįÑĢ": 3938,
      "ÐµÐ¼Ð°ÑĤ": 3939,
      "ĠÐĳÐ°ÐºÐ¸ÐµÐ²": 3940,
      "ÑĥÑĢÐ¼Ð°Ð½": 3941,
      "ĠÐ¶ÑįÑįÐ³Ð¸Ð½ÐµÐ½": 3942,
      "ÐµÑĤÐ¸ÐºÐ°": 3943,
      "ĠÐŀÑĢÐ¾Ð·": 3944,
      "ĠÑĤÐ°ÑĤÐ°": 3945,
      "ĠÐ±ÐµÐ»Ð³Ð¸Ð»ÐµÐ½": 3946,
      "Ó©Ð»Ò¯Ò¯": 3947,
      "Ð°Ð±Ð°Ð¹": 3948,
      "ÑĩÐµÑĢÑįÑįÐº": 3949,
      "Ð¸ÑİÐ½Ð´Ð°": 3950,
      "Ð³Ð¾Ð»": 3951,
      "Ð°ÑĤÑĤÑĭÐºÑĤÑĭ": 3952,
      "ĠÑįÐ»Ð¸Ð½Ð¸Ð½": 3953,
      "ĠÐºÐ°ÑĩÑĭÐ¿": 3954,
      "ĠÐ°ÑıÐ½ÑĤ": 3955,
      "ĠÓ©ÑģÑĤ": 3956,
      "ĠÐºÑĭÐ»Ð´Ñĭ": 3957,
      "ĠÐ¸Ð½ÑĤ": 3958,
      "ĠÐºÐ¾ÑİÑĥ": 3959,
      "ĠÐºÐ°ÑģÐ¸": 3960,
      "Ð°Ð½Ð¸": 3961,
      "ĠÐ¿ÑĢÐ¾ÑĦÐµÑģÑģ": 3962,
      "ĠÑħÐ¸Ð¼": 3963,
      "ĠÐ¡ÐµÐ±ÐµÐ±Ð¸": 3964,
      "ÑĥÐ¼Ð°Ð½": 3965,
      "ÐµÐ»ÐµÑĢÐ¸Ð½": 3966,
      "ĠÒ¯ÑĩÒ¯Ð½ÑĩÒ¯": 3967,
      "ĠÐºÑĥÑĤ": 3968,
      "Ó©ÑĢÐ´Ò¯Ð½": 3969,
      "ĠÐ¾ÑĤÑĥÑĢÐ³Ð°Ð½": 3970,
      "Ò¯Ð³Ò¯Ð½Ò¯Ð½": 3971,
      "ĠÐ¾ÑĢÐ³Ð°Ð½Ð¸Ð·Ð¼": 3972,
      "Ð¾Ð»Ð´Ñĥ": 3973,
      "ĠÐ°ÐºÑĤÐ¸Ð²Ð´Ò¯Ò¯": 3974,
      "ĠÐºÓ©ÑĢÐ³Ó©Ð·": 3975,
      "ĠÐ°ÑıÐ»Ð´Ð°ÑĢ": 3976,
      "ĠÑĤÒ¯Ð·Ò¯Ð¿": 3977,
      "ĠÐ±Ð¾Ð»Ð¶Ð¾Ð»": 3978,
      "ĠÐºÐ°ÑĢÐ¾Ð¾": 3979,
      "ĠÐ±ÐµÐ»Ð³Ð¸Ð»ÐµÐ¿": 3980,
      "ÐµÐºÑĤÐ¾ÑĢ": 3981,
      "ÐļÐļ": 3982,
      "ĠÐºÐ¾Ð¾Ð·": 3983,
      "ĠÐ´Ð°ÑĢÑĭÑıÑģÑĭ": 3984,
      "ĠÑĤÐµÑħÐ½Ð¾Ð»Ð¾Ð³Ð¸Ñı": 3985,
      "ĠÐºÒ¯ÑĩÓ©ÑĤ": 3986,
      "ĠÐºÓ©ÑĢÓ©": 3987,
      "ÑģÐµÐ½ÑĤÑıÐ±ÑĢÐ´Ð°": 3988,
      "ĠÐļÑĭÐ»Ð¼": 3989,
      "ĠÑĭÐºÑĤ": 3990,
      "ĠÐ¼ÐµÐ½Ñĩ": 3991,
      "Ð¸ÑģÑĤÐ°Ð½": 3992,
      "ĠÑĥÑİÑĪÑĤÑĥÑĢÑĥÑĥ": 3993,
      "ĠÐ°Ð½Ð°Ð»": 3994,
      "Ð´ÑĥÑĥÐ»ÑĥÐº": 3995,
      "ĠÐ°ÑģÐºÐµÑĢÐ»ÐµÑĢ": 3996,
      "ĠÐ§ÑĭÐ½": 3997,
      "Ð¸Ð»ÑĮÐ¼": 3998,
      "Ð¢Ð°ÑĪ": 3999,
      "ĠÐ°Ð»ÑĭÐ½Ð°ÑĤ": 4000,
      "ĠÐ°Ð»Ð´ÑĭÐ½Ð´Ð°Ð³Ñĭ": 4001,
      "32": 4002,
      "ĠÐ¼ÐµÐ»Ð´Ðµ": 4003,
      "ĠÐ¼Ð°ÐºÑģÐ°ÑĤÑĭ": 4004,
      "Ð°Ð½Ð´Ð°": 4005,
      "ĠÐ°Ð¹ÑĤÐ°": 4006,
      "ĠÐ´ÐµÐ¿ÑĥÑĤÐ°ÑĤÑĤÐ°ÑĢ": 4007,
      "ĠÐ±Ð¾Ð¹Ð´Ð¾Ð½": 4008,
      "Ð³ÐµÐº": 4009,
      "Ð±Ó©Ð³Ó©Ð½": 4010,
      "ĠÐºÐ¾Ð½Ñģ": 4011,
      "ĠÐŀÐ±ÑĮ": 4012,
      "ÑĩÐ°Ð¼": 4013,
      "ĠÐ±Ð¸ÑĢÐ¸Ð½": 4014,
      "ÐµÐºÑģ": 4015,
      "ĠÓ©Ð½Ò¯ÐºÑĤÒ¯ÑĢ": 4016,
      "ĠÑĤÒ¯ÑģÑĤ": 4017,
      "Ð°Ð»Ð°Ð¿": 4018,
      "ĠÑįÑĪ": 4019,
      "ĠÑĤÒ¯Ð¹": 4020,
      "ĠÐ¡Ð°Ð½": 4021,
      "ĠÐ±Ð°ÑĢÐ°ÐºÑĩ": 4022,
      "ĠÐ¾Ð»ÑĥÑĤÑĤÑĥÑĥ": 4023,
      "ĠÐ¶Ð°ÑĢÐ´Ð°Ð¼Ñĭ": 4024,
      "ÐµÐºÑĤÐµÑĪ": 4025,
      "ÐĸÐ°Ð»Ð¿Ñĭ": 4026,
      "Ð»Ð¸Ð¼Ð¿Ð¸": 4027,
      "Ð°Ð¹Ð»ÑĥÑĥ": 4028,
      "ÑĤÑĤÑĭÐº": 4029,
      "ĠÐ¼Ð°ÑģÐµÐ»ÐµÑģÐ¸": 4030,
      "ĠÐ¾ÑĢÐ³Ð°Ð½Ð´Ð°ÑĢÑĭ": 4031,
      "ĠÐ±Ð¸ÑĢÐ´ÐµÐ¹": 4032,
      "ĠÑĤÐµÐºÑĪÐµÑĢÒ¯Ò¯": 4033,
      "ĠÐºÐ°ÑĢÐ°Ð±Ð°ÑģÑĤÐ°Ð½": 4034,
      "ĠX": 4035,
      "ÐºÐ°Ð¹": 4036,
      "ĠÑĤÐµÐ¹Ð»": 4037,
      "ĠÐ¢Ð¸Ð»": 4038,
      "ĠÐºÓ©ÑĤÓ©ÑĢÒ¯Ð¿": 4039,
      "ÐµÐ²Ð¾Ð»Ñİ": 4040,
      "ĠÑģÐ¾ÑĤÑĥ": 4041,
      "ÑĨÐ¸Ð½Ð°": 4042,
      "ĠÐºÐ°Ð½Ð°": 4043,
      "ÐµÐºÐµÐ¹": 4044,
      "ÑĭÐ»Ð±ÐµÐº": 4045,
      "ĠÑĤÒ¯ÑĢÒ¯Ð½Ð´Ó©": 4046,
      "ĠÑĩÐµÐ¼Ð¿Ð¸Ð¾Ð½": 4047,
      "ÑıÐ½Ð²Ð°ÑĢÐ´Ð°": 4048,
      "Ò¯ÐºÑĤÒ¯Ð½": 4049,
      "ĠÐĺÐ·": 4050,
      "ĠÑĪÐ°Ð¹Ð»Ð¾Ð¾Ð³Ð¾": 4051,
      "ĠÑįÑįÑģÐ¸": 4052,
      "Ð¼Ð°Ð¹Ð´Ð°": 4053,
      "Ð³Ð¸Ð»ÐµÐ¹": 4054,
      "ĠÐ°Ð³ÑĭÐ¼": 4055,
      "Ð¶Ð°Ð»": 4056,
      "ĠÑĢÐµÐ´Ð°Ðº": 4057,
      "II": 4058,
      "ÑģÒ¯Ð½Ó©": 4059,
      "ĠÑĦÑĥÑĤÐ±Ð¾Ð»": 4060,
      "75": 4061,
      "ÑĭÑĢÑĥÑĥ": 4062,
      "ĠÑĥÐ±Ð°ÐºÑĭ": 4063,
      "ÑĢÐ¸Ð´Ð¸ÐºÐ°Ð»ÑĭÐº": 4064,
      "ÑĥÑĪÐºÐ°Ð½": 4065,
      "65": 4066,
      "Ð¸Ð´ÐµÑĢÐ¸": 4067,
      "ÑĢÑĥÐºÑĤÑĥÑĢ": 4068,
      "ĠÐºÑĥÑĢÐ°Ð¼Ñĭ": 4069,
      "ĠÑĤÐµÐ»ÐµÐº": 4070,
      "ĠÑģÐ¾Ð¾Ð»": 4071,
      "Ð±Ð¸Ð¹": 4072,
      "ĠÐŃÑģÐºÐµ": 4073,
      "ĠÐºÑĭ": 4074,
      "ÐµÑĢÐ¸Ð½Ðµ": 4075,
      "ĠÐ¸ÑģÐºÑĥÑģÑģÑĤÐ²": 4076,
      "ĠÑĢÐµÑģÐ¿ÑĥÐ±Ð»Ð¸ÐºÐ°Ð»ÑĭÐº": 4077,
      "ĠÐ¼Ò¯Ð¼ÐºÒ¯Ð½ÑĩÒ¯Ð»Ò¯Ðº": 4078,
      "ĠÐºÐ¾ÑİÐ»": 4079,
      "ĠÐ¼Ò¯ÑĩÓ©Ð»Ó©ÑĢÒ¯": 4080,
      "Ð³Ó©ÑĩÓ©": 4081,
      "ĠÐ±Ð¸Ð¹Ð»Ð¸Ð³": 4082,
      "ĠÐ»Ð¸Ð´ÐµÑĢÐ¸": 4083,
      "ĠÐ¶Ð°ÐºÐºÐ°": 4084,
      "ĠÑįÐºÑģÐ¿ÐµÑĢÑĤ": 4085,
      "ÑİÑĤ": 4086,
      "ĠÑĤÐ°Ð»ÐºÑĥÑĥ": 4087,
      "ĠÐ±Ð¾Ð»ÑĥÑĥ": 4088,
      "Ð±ÐµÐºÐ¾Ð²Ð°": 4089,
      "ĠÐŀÑĪÐµÐ½ÑĤÐ¸Ð¿": 4090,
      "Ð°Ð°Ðº": 4091,
      "ĠÐ¶Ð°ÑĤÐºÐ°Ð½Ð´Ð°": 4092,
      "ĠÑĤÐµÐºÑģÑĤ": 4093,
      "ĠÐ±Ð°Ð¹Ð»Ð°Ð½ÑĭÑĪÐºÐ°Ð½": 4094,
      "ĠÑı": 4095,
      "ĠÑĤÑĥÐºÑĥÐ¼": 4096,
      "ĠÐ°Ð¹Ð¼Ð°ÐºÑĤÑĭÐº": 4097,
      "ĠÐ¶ÐµÑĤÐ¸": 4098,
      "ĠÑĤÐ¾ÐºÐ¾Ð¹": 4099,
      "ĠÑĤÐ¸Ð»Ðº": 4100,
      "ĠÐ´ÐµÐ¼Ð¾ÐºÑĢÐ°ÑĤ": 4101,
      "ĠÐ¿Ð°ÑĢÐ»Ð°Ð¼ÐµÐ½ÑĤÑĤÐ¸Ðº": 4102,
      "ĠÐ¶ÐµÐ»": 4103,
      "ĠÐ±Ð°Ð»Ð´Ð°ÑĢÐ´ÑĭÐ½": 4104,
      "ĠÐ±Ð°ÑĢÐ°ÑĤÐºÐ°Ð½": 4105,
      "ÑĭÐ±ÑĭÐ·": 4106,
      "ÑĭÐ¼Ð´Ñĭ": 4107,
      "Ð»Ð¸Ð½": 4108,
      "Ð¸Ð³ÑĭÐ¹": 4109,
      "Ð°ÑģÑĭÒ£": 4110,
      "ĠÑĥÐ½Ð¸Ð²ÐµÑĢÑģÐ¸ÑĤÐµÑĤÐ¸Ð½Ð¸Ð½": 4111,
      "ÑĭÐ¹ÑĤ": 4112,
      "ch": 4113,
      "ĠÐ°Ð»ÑĮ": 4114,
      "ÑĤÐ°Ð¶": 4115,
      "ĠÐ°Ð´Ð°Ð¼Ð´Ñĭ": 4116,
      "ĠÐĲÐ·ÑĭÑĢÐºÑĭ": 4117,
      "ĠÐĲÑıÐ½ÑĤÑĭ": 4118,
      "ĠÓ©Ð·Ò¯Ò£": 4119,
      "Éµ": 4120,
      "Ð¾ÑģÑĥÐ½ÑĥÐ½": 4121,
      "ĠÐ±Ò¯ÑĤÐºÓ©Ð½": 4122,
      "39": 4123,
      "ĠÐºÓ©Ð¿ÑĩÒ¯Ð»": 4124,
      "ĠÑĤÒ¯ÑĤ": 4125,
      "ĠÐºÐ°Ð¹ÑĤÑĭÐ¿": 4126,
      "ĠÑĭÐ»Ð´Ð°Ð¼": 4127,
      "ĠÐļÐ°Ð´ÑĭÑĢ": 4128,
      "Ð´Ð°Ð»ÑĥÑĥ": 4129,
      "ĠÐ¸ÑĪÑĤÓ©Ó©": 4130,
      "ĠÐļÐ°Ð·Ð°ÐºÑģÑĤÐ°Ð½Ð´ÑĭÐ½": 4131,
      "ÐºÒ¯Ð»": 4132,
      "ÑģÐºÐ°": 4133,
      "ĠÑįÑģÑĤÐµÐ»": 4134,
      "ĠÑĤÐ°Ð½Ð´Ð¾Ð¾": 4135,
      "Ð´ÑĥÑĥÐ»": 4136,
      "ĠÐºÑĭÐ·Ð¼Ð°ÑĤÑĤÐ°Ð½": 4137,
      "ĠÐ´ÐµÐ¼Ð¸Ð»Ð³": 4138,
      "Ð»Ð°Ð½ÑĭÐ¿": 4139,
      "ĠÑĤÑĥÑĤÑĥÐ¼": 4140,
      "Ð´Ò¯Ð³Ò¯": 4141,
      "ĠÐĳÑĢÐ¸ÑĤ": 4142,
      "ĠÐ¶Ð¾ÐºÑĤ": 4143,
      "ÑĢÐ°ÑĤÐµÐ³": 4144,
      "ĠÒ¯Ð·": 4145,
      "Ð¸ÐºÐºÐµ": 4146,
      "ĠÐ¼ÐµÑħÐ°Ð½": 4147,
      "ĠÐºÓ©Ð±Ò¯Ð½ÑĩÓ©": 4148,
      "ÐºÐ¾Ð¾Ð»": 4149,
      "Ð´Ò¯Ð¼": 4150,
      ".\"": 4151,
      "Ð¿Ð°": 4152,
      "ĠÐ¼Ò¯ÑĩÓ©": 4153,
      "ĠÐ½Ð°ÑĤÑĭÐ¹Ð¶Ð°ÑģÑĭÐ½Ð´Ð°": 4154,
      "ĠÑĥÐ±Ð°": 4155,
      "Ð´Ó©ÑĢÐ´Ò¯Ð½": 4156,
      "ÐļÑĭÑĢÐ³ÑĭÐ·ÑģÑĤÐ°Ð½Ð´Ð°": 4157,
      "ĠÐļÐµÐ½": 4158,
      "ÑĥÑĥÑģÑĥÐ½Ð°": 4159,
      "ing": 4160,
      "ĠÐºÑĭÑģÐºÐ°ÑĢ": 4161,
      "ĠÓ©ÐºÒ¯Ð¼": 4162,
      "ĠÒ¯Ð¼": 4163,
      "ĠÐĲÐ»Ð°": 4164,
      "ĠÐĺÑĪ": 4165,
      "ĠÓ©Ð½Ð´Ò¯ÑĢÒ¯ÑĪ": 4166,
      "ĠÐ°Ð¹Ð¼Ð°Ð³Ñĭ": 4167,
      "ĠÑģÐ°Ðº": 4168,
      "ĠÐ¿Ð°Ð½": 4169,
      "ÑĤÒ¯Ð·": 4170,
      "Ð°Ð±Ð°ÑĢ": 4171,
      "ÐĳÐ°ÑĪ": 4172,
      "190": 4173,
      "ĠÐ¶Ð¾ÐºÐºÐ¾": 4174,
      "ĠÐºÑĭÑĢÑģ": 4175,
      "ĠÐºÑĭÐ¹Ð»Ð°": 4176,
      "Ð´ÐµÑĪÑĤ": 4177,
      "ĠÐ°Ð¹ÑĭÐ½Ð°Ð½": 4178,
      "ĠÑĩÐµÑĩÐ¸Ð¼Ð¸": 4179,
      "ĠÐ¿ÐµÐ´Ð°Ð³Ð¾Ð³": 4180,
      "ĠÐ¶Ð°ÑĢÑĭÑıÐ»Ð°Ð³Ð°Ð½": 4181,
      "ĠÑįÐºÑģÐ¿ÐµÑĢ": 4182,
      "ĠÑĤÐ°Ð¼ÑĭÑĢ": 4183,
      "Ð³ÑĢ": 4184,
      "ĠÐ¾ÐºÑĥÐ¼ÑĥÑĪÑĤ": 4185,
      "ĠÐ±Ð¾ÑĢÐ±Ð¾ÑĢÐ´ÑĥÐº": 4186,
      "Ò¯ÑĢÑĤ": 4187,
      "ĠÐºÒ¯Ð½Ð´Ó©ÑĢÒ¯": 4188,
      "ÐºÐ¾Ð¼": 4189,
      "ÐļÑĭÑĢÐ³ÑĭÐ·ÑģÑĤÐ°Ð½Ð´ÑĭÐ½": 4190,
      "ĠÐ°ÑĪÑĭÑĢÑĥÑĥ": 4191,
      "ĠÐ£ÐºÑĢÐ°Ð¸Ð½": 4192,
      "ÑĥÑĩ": 4193,
      "ĠÑģÐ¾Ð¼Ð´Ð¾Ð½": 4194,
      "ĠÑĤÐ°Ð³Ð´ÑĭÑĢ": 4195,
      "Ð°ÑĨÐ¸ÑıÐ»ÑĭÐº": 4196,
      "ÑĢÐ´": 4197,
      "ĠÐ¾ÑĢÐ³Ð°Ð½Ð´Ð°ÑĢÑĭÐ½ÑĭÐ½": 4198,
      "am": 4199,
      "ĠÑĩÑĭÐ³Ð°ÑĢÑĭÐ»Ð³Ð°Ð½": 4200,
      "ÑįÐ¼": 4201,
      "ĠÐºÐ°Ð¹ÑĢÑĭÐ»Ð³Ð°Ð½": 4202,
      "Â°": 4203,
      "ĠÐ¾Ð¾ÑĢÑĥÐºÐ°Ð½": 4204,
      "ĠÐ°ÑĤÐ°Ð»Ð°ÑĤ": 4205,
      "ĠÐ¸ÑĪÑĤÐµÑĪ": 4206,
      "Ó©Ó©Ð½Ò¯": 4207,
      "ĠÐ«ÑĢ": 4208,
      "ĠÐ¶Ð°ÑĢÐ°Ð½Ð´Ð°ÑĢ": 4209,
      "ĠÑģÐ¸ÑģÑĤÐµÐ¼Ð°ÑģÑĭ": 4210,
      "Ð½ÑĭÐ¹": 4211,
      "ĠÐ´ÑĢÐ°Ð¼": 4212,
      "ÐºÐ°ÐµÐ²": 4213,
      "Ð»Ð°Ð¹Ð½": 4214,
      "ĠÐºÐ°ÑĢÑĤ": 4215,
      "ĠÐºÒ¯Ð½Ð´Ó©Ð½": 4216,
      "ĠÐ¾ÑĤÑĥÑĢÑĥÐ¼": 4217,
      "ĠÐ§ÑĭÐ³ÑĭÑĪ": 4218,
      "ĠÑĦÐ¸Ð»Ð¾ÑģÐ¾ÑĦ": 4219,
      "ĠÐľÐ°Ð½": 4220,
      "ÐµÐ½Ð´ÐµÑĢ": 4221,
      "ĠÐºÐµÐ»Ð³ÐµÐ½Ð´Ðµ": 4222,
      "44": 4223,
      "ĠÑĥÐ±Ð°Ð³ÑĭÐ½Ð´Ð°": 4224,
      "ĠÐ¼ÐµÐºÑĤÐµÐ±": 4225,
      "ĠÑĤÒ¯Ð±": 4226,
      "ĠÐºÐµÑĩÑįÑį": 4227,
      "Ð¾Ð³ÑĢÐ°ÑĦÐ¸ÑıÑģÑĭ": 4228,
      "ĠÑĩÐ°Ñĩ": 4229,
      "ÐĳÐ¸ÑĢÐ¾Ðº": 4230,
      "Ð°Ð²Ð³ÑĥÑģÑĤÑĤÐ°": 4231,
      "Ð°ÑĢÐ¸Ð¿": 4232,
      "ÑĥÑĤÐ¸Ð½": 4233,
      "Ð²Ð¾Ðº": 4234,
      "ĠÑģÐ°Ð»ÑĭÑĪÑĤÑĭÑĢÐ¼Ð°Ð»ÑĥÑĥ": 4235,
      "ĠÐ¶Ð°Ð¼Ð°": 4236,
      "ĠÐ±Ð°ÑĪÐºÐ°ÑĩÐ°": 4237,
      "ĠÑįÑĢÑĤÐµÒ£": 4238,
      "ĠÐ±Ð¸Ð»Ð´Ð¸ÑĢÒ¯Ò¯": 4239,
      "ĠÑĢÐ°Ð¹Ð¾Ð½Ð´Ð¾ÑĢ": 4240,
      "ÐŃÐ³ÐµÑĢ": 4241,
      "ÑģÒ¯Ð½Ò¯Ð½": 4242,
      "Ð¼ÑĥÑĢ": 4243,
      "Ò£ÐºÑĭ": 4244,
      "ĠÐĳÐ£": 4245,
      "ĠÐ¸Ð½ÑĤÐµÑĢÐ½ÐµÑĤ": 4246,
      "Ð°ÐºÑĤÐ°Ð³Ñĭ": 4247,
      "Ð½Ð¾ÑıÐ±ÑĢÐ´Ð°": 4248,
      "ĠÐ±Ð¸ÑĢÐ¸ÐºÐ¼": 4249,
      "ĠÑĦÑĥÐ½Ðº": 4250,
      "ĠÐ±Ð¾Ð·": 4251,
      "ÑĥÑĤÑĤÐ°ÑĢ": 4252,
      "08": 4253,
      "ĠÑĤÒ¯ÑĪÑĤ": 4254,
      "Ð±Ð°Ð¿": 4255,
      "ĠÐ¼ÐµÑĤÐ°Ð»Ð»": 4256,
      "ĠÐļÐ°Ñģ": 4257,
      "Ð°Ð»ÑĭÑĪÑĭ": 4258,
      "ĠÐ±ÐµÑĢÒ¯Ò¯Ð½Ò¯": 4259,
      "ĠÐºÓ©Ð¹Ð³Ó©Ð¹Ð»Ó©ÑĢ": 4260,
      "ÐºÑĤÑĭ": 4261,
      "ÑĨÐ¸ÑıÑģÑĭÐ½": 4262,
      "ĠÐ¼Ð¾Ð»": 4263,
      "ĠÐ¢Ð°ÑĪÐ¸ÐµÐ²": 4264,
      "ÑĭÐ½Ð´Ð°Ð¿": 4265,
      "ĠÐļÐµÐ»": 4266,
      "ĠÐŀÑĢÑĤÐ¾": 4267,
      "ĠÐ¶ÐµÑĤÐ¸ÑĪÐºÐµÐ½": 4268,
      "ĠÓ©Ð½Ò¯Ð³Ò¯Ò¯": 4269,
      "ĠÐ¿Ð¾Ð»Ð¸ÑĨÐ¸Ñı": 4270,
      "ĠÐľÐµÐ½Ð¸Ð½": 4271,
      "ĠÑĩÐ°": 4272,
      "Ò£Ð¸Ð·": 4273,
      "ÑĥÐ½Ð·Ðµ": 4274,
      "ÑĭÐ»Ð°": 4275,
      "ĠÑĤÐ¾Ð¿ÑĤÐ¾ÑĢ": 4276,
      "ĠÐºÐ¾ÑĪÑĥÐ»Ð³Ð°Ð½": 4277,
      "ĠÐ¡Ð¸ÑĢ": 4278,
      "ÑĢÐ°Ð¸Ð¼Ð¾Ð²": 4279,
      "ĠÐ¶Ð°ÑĪÑĭÐ»": 4280,
      "Ð¼Ð°ÑĢÑĤÑĤÐ°": 4281,
      "ĠÐ¾ÐºÑĥÐ³Ð°Ð½": 4282,
      "ÐĲÐĿ": 4283,
      "ĠÐ°Ð·ÑĭÑĢÑĭÐ½ÑĩÐ°": 4284,
      "Ð®": 4285,
      "ÑĨÐ¸ÑıÐ½Ñĭ": 4286,
      "ĠÐ´ÐµÒ£Ð³ÑįÑįÐ»Ð´Ðµ": 4287,
      "ĠÐ´Ð¸Ð½Ð°Ð¼": 4288,
      "Ð´Ð°Ð´Ñĭ": 4289,
      "ĠÐĳÐµÐ¹": 4290,
      "ĠÐĸÑĭÐ»": 4291,
      "ĠÐºÐ°ÑĢÐ°Ð±Ð°Ð¹": 4292,
      "ĠÐ¶Ó©Ð½Ð´Ó©Ð¼": 4293,
      "Ð¾ÑģÑĥÐ½": 4294,
      "ĠÑĤÐ¸Ðº": 4295,
      "ĠÐ¿ÑĢÐ¾ÑĨÐµÑģÑģÑĤ": 4296,
      "ĠÑįÐ½ÑĨÐ¸ÐºÐ»Ð¾Ð¿ÐµÐ´": 4297,
      "ĠÐ±Ð°ÑĢÑĭ": 4298,
      "ĠÐľÑĥÐ½Ñĥ": 4299,
      "ĠÐ»Ð¸ÑĨ": 4300,
      "ĠÐ¸Ð½ÑģÐ°Ð½": 4301,
      "Ð°Ð½Ð³Ð»": 4302,
      "ÑıÐ±ÑĢÑĭÐ½Ð´Ð°": 4303,
      "ÐµÒ£Ð¸Ð·": 4304,
      "ĠÑģÐ¾ÑĤÑĤÑĥÐ½": 4305,
      "ĠÐĺÑģÐ°Ðº": 4306,
      "ĠÐ¶Ð¾Ð»ÑĥÐ½": 4307,
      "ÐµÑĤÐ¸ÐºÐ°Ð»ÑĭÐº": 4308,
      "Ð¸ÑĢÐ°": 4309,
      "ĠÐ½Ð¸": 4310,
      "ĠÐºÐ°Ð»ÑģÐ°": 4311,
      "ĠÑĤÑĥÑĢÐ³ÑĥÐ½Ñĥ": 4312,
      "ĠÐŀÑĪÐ¾Ð½Ð´Ð¾": 4313,
      "Ð¸ÐºÑĤÐ¸Ð½": 4314,
      "Ð¾Ñħ": 4315,
      "09": 4316,
      "ĠÐ°Ð½Ð´Ð°Ð¹": 4317,
      "ĠÐŀÑģÐ¼Ð¾Ð½": 4318,
      "ĠÐľÐ¾ÑģÐºÐ²": 4319,
      "ĠÐºÒ¯Ð½Ò¯Ð½": 4320,
      "ĠÐ¾ÑĪ": 4321,
      "ĠÐ±ÐµÑĤÑĤ": 4322,
      "ĠÑĤÐµÑģ": 4323,
      "ĠÐŃÐ¼Ð½Ðµ": 4324,
      "ĠÐºÐµÑĢÐµÐºÑĤÐ¸Ð³Ð¸Ð½": 4325,
      "ĠÐ·Ð°Ð²": 4326,
      "ĠÐ¼Ð°Ð½": 4327,
      "ĠÐ¾ÑĤÑĥÑĢÑĥÐ¿": 4328,
      "ĠÐ¼Ð°Ð¹Ð´Ð°": 4329,
      "ÐµÐºÐ¸": 4330,
      "ĠÐĸÐ°Ð·": 4331,
      "ĠÐ±Ð°Ð·Ð°ÑĢ": 4332,
      "ĠÑĦÐ¾Ð½Ð´ÑĥÐ½": 4333,
      "ÐºÐ°Ð½ÑĭÐ½": 4334,
      "Ð°Ð¿ÑĢÐµÐ»Ð´Ðµ": 4335,
      "ĠÐ±Ð°Ð»Ð´Ð°ÑĢÑĭ": 4336,
      "ĠÐ¶ÑĥÐ¼ÑĥÑĪÑĩÑĥ": 4337,
      "ĠÑĤÐ°ÑĢÐ¼Ð°ÐºÑĤÐ°ÑĢ": 4338,
      "ĠÐ¾Ð¹Ð»Ð¾Ð½": 4339,
      "ĠÐ°Ð»Ð°ÑģÑĭÐ·": 4340,
      "Ð°Ð°ÑĢÑĭÐ½": 4341,
      "ĠÐ´Ð°ÑĢÐ°Ð¶": 4342,
      "ÑĤÐºÐ°ÑĢ": 4343,
      "Ð°Ð¼Ð¸Ð½": 4344,
      "Ð»Ð°Ð½Ð´": 4345,
      "ĠÐ¾Ð¾ÑĢÑĥÐºÐ°Ð½Ð°Ð³Ð°": 4346,
      "ĠÐºÐ°ÑĤÑĭÑĪÑĤÑĭ": 4347,
      "Ð»Ð¾ÑĢÑĥ": 4348,
      "47": 4349,
      "id": 4350,
      "ĠÓ¨Ð¼Ò¯ÑĢÐ±ÐµÐº": 4351,
      "Ð°ÑģÑĤÑĭÐ½": 4352,
      "ĠÐ´ÐµÐ³ÐµÐ½Ð´Ðµ": 4353,
      "Ò¯ÑĪÓ©ÑĤ": 4354,
      "ĠÐ±Ð°ÑĪÑĤÐ°Ð¹ÑĤ": 4355,
      "Ð¢Ð°Ð»": 4356,
      "ĠÐ±Ð°Ð»Ð°Ð½ÑĭÐ½": 4357,
      "ĠÐ´ÑĭÐ¹ÐºÐ°Ð½": 4358,
      "re": 4359,
      "ĠO": 4360,
      "ĠÐļÑĭÑĢ": 4361,
      "ĠÑĤÐ°ÑĤÐ°Ð°Ð»": 4362,
      "ÑģÑĭÒ£": 4363,
      "ĠÑĤÐ¾Ð»ÑĤÑĥÑĢ": 4364,
      "ĠÑĥÑİÐ¼ÑĥÐ½ÑĥÐ½": 4365,
      "ĠÑĥÐºÑĤ": 4366,
      "ÐºÑĭÐ·": 4367,
      "ÐĳÐ°Ð»": 4368,
      "ĠÐºÐ¾Ð·Ð³Ð¾Ð»Ð³Ð¾Ð½": 4369,
      "ĠÐ°Ð·ÑĭÐº": 4370,
      "ÐµÐ¿ÑĥÑĤ": 4371,
      "ĠÐ¼Ð°ÑĢ": 4372,
      "ĠÐºÓ©Ð»Ó©Ð¼Ò¯": 4373,
      "ĠÑĤÐ¸Ð¹Ð¸ÑĪÑĤÒ¯Ò¯": 4374,
      "ĠÓ©Ð·Ð³Ó©ÑĢÒ¯ÑĪÒ¯": 4375,
      "tion": 4376,
      "Ð¾Ð¹Ð½": 4377,
      "ĠÑĤÐ°ÑģÐ¼Ð°": 4378,
      "ĠÐ¶ÑĭÐ»Ð´Ñĭ": 4379,
      "ÐµÐ½ÑĤÐ¸": 4380,
      "ĠÐ°ÑıÐ³ÑĭÐ½Ð°": 4381,
      "ĠÐ±Ð°ÑĤÑĭÑĪ": 4382,
      "Ð·Ð°Ð½": 4383,
      "ĠÐ½ÐµÐ³Ð¸Ð·Ð´ÐµÐ»Ð³ÐµÐ½": 4384,
      "ĠÐºÐ°ÑĤÑĭÑĪÑĥÑĥ": 4385,
      "ÐµÐ´Ðµ": 4386,
      "ĠÐ¼Ð°ÑĢÐº": 4387,
      "ĠÐºÐ°ÑĢÐ°Ð½Ð´ÑĭÑģÑĭÐ·": 4388,
      "ĠÐ¿ÑĥÐ½ÐºÑĤ": 4389,
      "ÑĭÐ»ÑĥÑĥÐ´Ð°": 4390,
      "ĠÐ¢ÑĥÑĢÐ³ÑĥÐ½": 4391,
      "ĠÐ¸Ð½Ð´ÐµÐº": 4392,
      "ĠÐ½Ð°ÑĢ": 4393,
      "Ð¸ÑıÐ´Ð°Ð½": 4394,
      "ÑĥÑĥÐ»Ð°ÑĢÑĭ": 4395,
      "ÐĶÐŁ": 4396,
      "ĠÐ¶Ð°ÑĢÐ°ÑĤÐºÐ°Ð½": 4397,
      "Ð¸ÑİÐ»Ð´Ð°": 4398,
      "ÐµÐ¼ÐµÑĤ": 4399,
      "ĠÐºÑĥÑĢÐ¼Ð°Ð½": 4400,
      "Ð±ÑĭÑĢ": 4401,
      "ĠÑģÐ°Ð½ÑĭÐ½ÑĭÐ½": 4402,
      "ĠÑģÐ¸Ð·Ð´Ð¸Ð½": 4403,
      "ÑģÐ°Ð»": 4404,
      "ĠÑĤÐµÑĢÑģ": 4405,
      "Ð¸Ð´Ð°": 4406,
      "Ð°ÑĤÑĭÐ½Ð°": 4407,
      "ÑĭÐºÑĤÐ°ÑĢÑĭÐ½": 4408,
      "Ð¾Ð¾Ð¿ÑģÑĥÐ·": 4409,
      "ÐºÐ°Ð¿": 4410,
      "ĠÑĤÐ¾ÑģÐºÐ¾Ð¾Ð»": 4411,
      "ĠÐ¿ÑĢÐ¾ÑĤ": 4412,
      "?!": 4413,
      "ÑĭÐ³ÑĭÐ¿": 4414,
      "ĠÐŀÐ¾Ð³Ð°Ð½": 4415,
      "ĠÐ°Ð½ÑĭÐºÑĤÐ¾Ð¾": 4416,
      "Ð¾Ð²Ð´Ñĥ": 4417,
      "ĠÐ±Ð¾Ð»ÑģÑĥÐ½": 4418,
      "ÑĪÑĥ": 4419,
      "VID": 4420,
      "Ð¾Ð½Ð´Ð¾ÑĢ": 4421,
      "Â».": 4422,
      "Ð¶Ð°": 4423,
      "Ð°Ð»Ð¸ÐµÐ²Ð°": 4424,
      "ĠÐºÐµÒ£ÐµÑĪÐ¸Ð½Ðµ": 4425,
      "ĠÐ¼Ð»ÑĢÐ´": 4426,
      "Ð°ÑģÑĭÑı": 4427,
      "ÑĥÑĤÐºÐ°": 4428,
      "ĠÑĤÐ°Ð¶Ð¸Ðº": 4429,
      "ĠÐ´Ð°ÑĢÐ¾Ð¾": 4430,
      "ĠÐ¶Ð°Ð±ÑĭÑĢÐºÐ°Ð³Ð°Ð½": 4431,
      "ÑĦÐµÑĢ": 4432,
      "Ð¾Ð¼Ð¾Ð»": 4433,
      "ÐļÐľ": 4434,
      "Ġ(Â«": 4435,
      "ÐµÐ´ÑĢ": 4436,
      "ĠÐºÐ°Ð¹ÑĢÑĭÐ»ÑĭÐ¿": 4437,
      "ĠÐ°Ð¼ÐµÑĢÐ¸ÐºÐ°Ð»ÑĭÐº": 4438,
      "ĠÑĤÐ°Ð¿ÑĤ": 4439,
      "ĠÑģÑĤÐ°Ð½": 4440,
      "ĠÐ¶ÐµÐ¼": 4441,
      "ĠÐ»Ð¸Ð´ÐµÑĢ": 4442,
      "ĠÐ¾ÑĢÑĤÐ¾ÑĩÐ¾": 4443,
      "ĠÐ¼Ð°Ð¼Ð»ÐµÐºÐµÑĤÑĤÐµÑĢ": 4444,
      "ĠÐĳÐµÑĢ": 4445,
      "ĠÐ±Ð°ÑģÑĭÐ»": 4446,
      "ĠÐ°ÑįÑĢÐ¾Ð¿": 4447,
      "ew": 4448,
      "ĠÑģÐµÐ±ÐµÐ¿ÑĤ": 4449,
      "ÐµÐ»ÐµÐ½": 4450,
      "ĠÐ°Ð¹ÑĭÐ¼": 4451,
      "Ð¸Ð·Ð°": 4452,
      "ĠÐ°ÑĩÑĥÑĥ": 4453,
      "ĠÐ±Ð°Ð»Ð°ÑģÑĭ": 4454,
      "Ò¯Ò£Ò¯Ð·": 4455,
      "OVID": 4456,
      "Ð°Ð¹Ð±ÑĭÐ·": 4457,
      "ĠÑĥÐºÑĥÐ³Ñĥ": 4458,
      "Ð´ÐµÐºÐ°Ð±ÑĢÐ´Ð°": 4459,
      "ĠÐ¸Ð´ÐµÑı": 4460,
      "ÑĤÐµÑĢÐ¸": 4461,
      "ĠÐºÐ¾ÑĪÐºÐ¾Ð½": 4462,
      "ĠÐ¼Ð°ÑĪÐ¸Ð½": 4463,
      "ĠÐ°Ð´Ð°Ð¼Ð³Ð°": 4464,
      "04": 4465,
      "ÑĤÑĭÐ¿": 4466,
      "Ð¸ÑĢÑĥÑģÑĤ": 4467,
      "ÐµÑģÑĤÐ¸Ð²": 4468,
      "Ð³ÐµÐ¼ÐµÐ½": 4469,
      "Ò¯ÑĢÒ¯Ð¼": 4470,
      "ĠÐ¶ÑĭÐ»Ð´Ð°ÑĢÑĭ": 4471,
      "ĠÐ¼Ð°ÑģÐµÐ»ÐµÐ½Ð¸": 4472,
      "ĠÐ¢ÐµÐºÐµ": 4473,
      "Ó©Ó©ÑģÒ¯": 4474,
      "ĠÐļÐ°ÑĢÐ°Ðº": 4475,
      "ĠÑĥÐºÑĥÐºÑĤÑĥÐº": 4476,
      "ÐµÐ¹Ñģ": 4477,
      "Ð»ÐµÐ½": 4478,
      "ĠÐºÑĭÑı": 4479,
      "ĠÐŀÐº": 4480,
      "Ð¾Ð»Ð±": 4481,
      "//": 4482,
      "Ð»Ð°Ð²": 4483,
      "Ò¯ÐºÑĤÓ©ÑĢÒ¯": 4484,
      "ag": 4485,
      "ĠÓ©ÐºÐ¼Ó©ÑĤÒ¯": 4486,
      "ĠÐ¾Ð±ÑĢ": 4487,
      "ĠÑĩÐµÐ½ÐµÐ¼": 4488,
      "Ò¯Ò¯ÑģÒ¯Ð½Ó©": 4489,
      "ĠÐ°Ð¹ÑĤÐ°ÑĤ": 4490,
      "ÐŀÑĪÐ¾Ð½Ð´Ð¾Ð¹": 4491,
      "ĠÐ¢Ð°Ð¶Ð¸ÐºÑģÑĤÐ°Ð½Ð´ÑĭÐ½": 4492,
      "ĠÑĩÐ¾Ð³ÑĥÐ»ÑĤ": 4493,
      "Ø§": 4494,
      "ĠÑįÐ»Ð¸": 4495,
      "ĠÐ°ÑĩÑĭÐ¿": 4496,
      "ĠÐ¶Ò¯Ðº": 4497,
      "ĠÐ±Ð¾Ð»Ñģ": 4498,
      "ĠÑİÑĢÐ¸Ð´Ð¸ÐºÐ°Ð»ÑĭÐº": 4499,
      "ĠÓ©Ð·Ð±ÐµÐº": 4500,
      "ĠÐ¶Ð°Ð·Ð´Ñĭ": 4501,
      "ĠÐ°Ð¹ÑĭÐ»Ñĭ": 4502,
      "ĠÐµÐ²ÑĢ": 4503,
      "ĠÐ½Ð°Ð¼": 4504,
      "ĠÐºÒ¯ÑĢÓ©ÑĪÒ¯Ò¯": 4505,
      "Ð¿ÑĤ": 4506,
      "ĠÐºÐ°Ð±Ð°ÑĢÐ»Ð°Ð´Ñĭ": 4507,
      "ĠÐ¶Ð°ÑĢÐ°Ð½Ñĭ": 4508,
      "ĠÐ¼Ð¸Ð³ÑĢÐ°Ð½": 4509,
      "ĠÐĺÐ»": 4510,
      "ÑĦÐµÐ²ÑĢÐ°Ð»Ð´Ð°": 4511,
      "ĠÑĢÑĭÐ½": 4512,
      "ÑİÐ¿": 4513,
      "ĠÐ¼Ð¸Ò£Ð´ÐµÐ½": 4514,
      "ĠÑģÐ¾ÑĤÑĤÑĥÐº": 4515,
      "ĠÑĩÐµÑĤÐºÐµ": 4516,
      "Ð½Ð¸Ð½": 4517,
      "ĠÐ¶Ð°Ð±Ð´ÑĥÑĥ": 4518,
      "ĠÐ¶Ð°ÑĪÐºÐ°": 4519,
      "ĠÑĩÐ°Ð¹": 4520,
      "ÐºÑĭÐ»ÑĭÐ¼Ð´ÑĭÐ½": 4521,
      "ÑĩÐ°ÑĢÐ°": 4522,
      "ĠÐ±Ð°ÑĢÐ´ÑĭÐ³Ñĭ": 4523,
      "ÐŃÐĳ": 4524,
      "ĠÐ°Ð²ÑĤÐ¾ÑĥÐ½Ð°": 4525,
      "ĠÑģÐ°Ð¿Ð°ÑĢ": 4526,
      "ÑĩÑĭÐ»Ð°ÑĢÐ´ÑĭÐ½": 4527,
      "ĠÐºÑĭÑĢÐ³ÑĭÐ·Ð´Ð°ÑĢ": 4528,
      "ĠÑĩÑĭÐ½ÑĭÐ³Ñĭ": 4529,
      "ĠÑĥÐ»Ð°Ð½": 4530,
      "ĠÑģÑĤÐ°": 4531,
      "ĠÒ®Ð¹": 4532,
      "ĠÐ°ÑĢÐ³": 4533,
      "Ð¸ÑģÑģÐµÑĢ": 4534,
      "ĠÑĢÐ¾Ð¼": 4535,
      "400": 4536,
      "ĠÐ°ÑıÐ³ÑĭÐ½Ð´Ð°": 4537,
      "ĠÐ¶Ð¸Ð³Ð¸ÑĤ": 4538,
      "ÑĭÐºÐºÐ°": 4539,
      "Ð´Ð°Ð»ÑĭÐ¿": 4540,
      "ÐµÐ³Ð¾ÑĢ": 4541,
      "ĠÐ¿Ð°Ð´Ñĭ": 4542,
      "Ð°ÑĦ": 4543,
      "ÑĩÑĥÐ»Ð°ÑĢÑĭ": 4544,
      "ĠÑĤÑĥÑĢÐ³ÑĥÐ½Ð´Ð°ÑĢÐ´ÑĭÐ½": 4545,
      "ĠÐ¾ÐºÑĪÐ¾ÑĪ": 4546,
      "Ð°Ð±ÐµÐº": 4547,
      "ĠÑĩÐ¾Ð³ÑĥÑĥ": 4548,
      "ÑĭÐ»ÑĤÑĭÑĢ": 4549,
      "ĠÐ¶ÑĥÐ¼ÑĥÑĪÑĤ": 4550,
      "ĠÐĲÐ¹ÑĢÑĭÐ¼": 4551,
      "ĠÐĳÑĢ": 4552,
      "ĠÐ±Ð°ÑĪÑĭÐ½Ð°Ð½": 4553,
      "ÑĥÑĤÑĤÑĥÐºÑĤ": 4554,
      "ĠÐºÐ³": 4555,
      "ĠÐ±Ð°Ð¹Ð»": 4556,
      "Ð¸Ð»Ð¸": 4557,
      "ĠÐ±ÐµÑĢÐ¸Ð»Ð´Ð¸": 4558,
      "ÐĳÑĥÐ³Ð°": 4559,
      "ĠÑģÐ°Ð»Ð¼": 4560,
      "ĠÐ¼Ð¸Ð»Ð´ÐµÑĤÑĤÒ¯Ò¯": 4561,
      "ĠÐ½Ð°Ð°Ð¼": 4562,
      "ĠÐ±Ð¸Ð¹Ð»Ð¸ÐºÑĤÐ¸Ð½": 4563,
      "ĠÐĲÑħ": 4564,
      "ĠÐ¶Ð°Ð¹Ð³Ð°ÑĪÑĤÑĭÑĢ": 4565,
      "ĠÑĤÐ°Ð±Ð¸Ð³ÑĭÐ¹": 4566,
      "ĠÐºÓ©Ð·Ò¯": 4567,
      "ĠÐ±Ð°Ð½ÐºÑĤ": 4568,
      "ĠÐĳÐ¸Ð»Ð¸Ð¼": 4569,
      "ĠÐ½Ð¾ÑĢ": 4570,
      "ĠÐ¼Ð¸Ð»Ð´ÐµÑĤÐ¸Ð½": 4571,
      "ĠÐ¿Ð¾Ñį": 4572,
      "ĠÑģÑĤÑĢÐ°ÑĤÐµÐ³": 4573,
      "Ð°Ð¼Ð°Ð»": 4574,
      "ĠÑĢÐµÐ´Ð°ÐºÑĤ": 4575,
      "ÑĩÑĤÑĥÑĥ": 4576,
      "ĠU": 4577,
      "Ð¼ÑĭÐ½": 4578,
      "Ð¾Ð²Ð³Ð¾": 4579,
      "ĠÐ¾ÑĢÐ´ÐµÐ½": 4580,
      "ĠÐ¼ÑĥÐ·ÐµÐ¹": 4581,
      "ĠÐºÐ°Ð»ÐºÑĭ": 4582,
      "ĠIn": 4583,
      "--": 4584,
      "Ð¶ÑĭÐ»Ð´Ð°Ð³Ñĭ": 4585,
      "Ð¼Ð°Ð»Ð°ÑĢÐ´Ñĭ": 4586,
      "Ð¾ÑĤÐ°": 4587,
      "ĠÐ°ÑĢÐ°ÐºÐµÑĤÑĤÐµÐ½": 4588,
      "Ð»Ð°Ð´Ð¸Ð¼": 4589,
      "Ð¸Ð½ÐµÐºÐµÐ¹": 4590,
      "ĠÐ°Ð¹ÑĭÐ»ÑĭÐ½Ð´Ð°Ð³Ñĭ": 4591,
      "ĠÐļÐľ": 4592,
      "ÑĭÑĪÑĭÐ½": 4593,
      "ÑĭÒ£Ð³ÑĭÐ·": 4594,
      "ĠÑĭÐºÑĩÐ°Ð¼": 4595,
      "ĠÐ°ÑĩÑĭÐ»Ð³Ð°Ð½": 4596,
      "ĠÐ³ÑĢÐ°Ð¼": 4597,
      "ĠÐ¸ÑĪÑĤÐµÐ»Ð¸Ð¿": 4598,
      "ĠÐ°Ð½Ð³Ð»": 4599,
      "ĠÑĤÐ°ÑĢÑĭÑħÑĭ": 4600,
      "Ð¼ÐµÑĤ": 4601,
      "ĠÐ¾ÐºÑĥÑıÐ»Ð°ÑĢ": 4602,
      "ĠÑģÑĥÐ±": 4603,
      "ĠÐŁÑĥÑĤÐ¸Ð½": 4604,
      "ÑģÐµÐ¼": 4605,
      "Ð°ÑĨÐ¸ÑıÑģÑĭÐ½ÑĭÐ½": 4606,
      "ĠÐºÐ¾ÑĢÐºÑĥÐ½ÑĥÑĩ": 4607,
      "ĠÐĺÑģÐ»Ð°Ð¼": 4608,
      "ĠÐ¸Ð·Ð¸Ð»Ð´Ó©": 4609,
      "ĠÐºÑĢÐ¸Ð·": 4610,
      "ĠÐ¿Ð¾ÑĢÑĤ": 4611,
      "ĠÐ¸ÑĪÐ¼": 4612,
      "Ð°ÐºÑĤÑĭÐº": 4613,
      "Ð°Ð½ÑĭÑĩ": 4614,
      "ÑģÒ¯Ð½Ð´Ó©": 4615,
      "ÑĩÐ¸Ð»Ð¸Ð³Ð¸": 4616,
      "Ð¿ÑĢÐµÐ¼ÑĮÐµÑĢ": 4617,
      "ÑĶ": 4618,
      "ĠÑģÐ°Ð»Ð´Ñĭ": 4619,
      "ÑħÐ¾Ð·": 4620,
      "ĠÐ´Ð¾Ð»Ð±Ð¾Ð¾ÑĢÑĥÐ½": 4621,
      "ĠÐĲÑģÐºÐ°ÑĢ": 4622,
      "ĠÐĲÐ¹ÑĭÐ»": 4623,
      "ĠÐ°ÑıÐ±Ð°Ð¹": 4624,
      "ĠÐ«Ð¹": 4625,
      "ÑĮÑİÑĤÐµÑĢ": 4626,
      "em": 4627,
      "Ð»Ñı": 4628,
      "ĠÑģÑĭÐ·": 4629,
      "ÑģÐ¿Ò¯ÑĢÒ¯Ð¼": 4630,
      "ĠÐĳÐ°Ð±": 4631,
      "ÐĸÐ°ÑĢ": 4632,
      "ĠÐ¾Ð»ÑĤÑĥÑĢ": 4633,
      "ĠÐ±Ð¸ÑĢÐ¸ÐºÑĤ": 4634,
      "ĠÑĪÐ¸Ð»ÑĤÐµÐ¼": 4635,
      "ÑĥÐ´ÑĮÑı": 4636,
      "ÑĥÑĥÑģÑĥÐ½Ð´Ð°": 4637,
      "ĠÐļÑĭÐ»Ð¼ÑĭÑĪ": 4638,
      "ĠÑĭÒ£Ð³": 4639,
      "Ð°ÑĢÐ¸Ñı": 4640,
      "ĠÓ©Ð½Ò¯Ðº": 4641,
      "ĠÐºÐ¾ÑĢÐ³Ð¾": 4642,
      "ĠÐ½Ð°ÑĤÑĭÐ¹Ð¶Ð°Ð»ÑĥÑĥ": 4643,
      "ĠÑĤÐ¾Ð¹": 4644,
      "âĢ¦Ċ": 4645,
      "Ð»Ð°Ð´Ð¸Ð¼Ð¸ÑĢ": 4646,
      "ĠÓ©Ð»ÐºÓ©Ð³Ó©": 4647,
      "02": 4648,
      "ĠÐºÐµÐ·Ð´ÐµÑĪÐµÑĤ": 4649,
      "ÐµÐºÑĤÐµÐ¿": 4650,
      "ĠÐļÒ¯Ð½": 4651,
      "ĠÑĩÐ°Ð±ÑĥÑĥÐ»": 4652,
      "Ð°ÑĢÑĭÐ½Ð´Ð°": 4653,
      "ÑĤÑĤÐµÑĢÐ´Ð¸Ð½": 4654,
      "Ð¾Ð¾ÑģÑĥ": 4655,
      "ÐĲÐ±": 4656,
      "ÑĤÑĥ": 4657,
      "ĠÐºÐ¾Ð»Ð³Ð¾": 4658,
      "ĠÐºÐ°ÑĤÐ°": 4659,
      "ĠÐļÑįÑį": 4660,
      "Ð¸Ð¼Ð´Ð¸": 4661,
      "ĠÓ©Ð»ÐºÓ©Ð´Ó©Ð³Ò¯": 4662,
      "ĠÂ": 4663,
      "ÐµÑĤÐ¸Ð½ÐµÐ½": 4664,
      "ĠÐĳÐ°ÑĪÐºÐ°": 4665,
      "ĠÐºÑĥÑĤÑĤÑĥÐºÑĤ": 4666,
      "ĠÐĲÑĤÐ°Ð»Ð³Ð°Ð½": 4667,
      "ĠÑĪÐµÐº": 4668,
      "ĠÐ±Ð¾Ð»Ð³Ð¾Ð½Ð´Ð¾": 4669,
      "ĠÓ©Ð»Ð³Ó©Ð½": 4670,
      "ĠÐ¶Ò¯ÑĢÐ³Ò¯Ð·Ò¯Ð¿": 4671,
      "Ð¾Ð»Ð¿Ð¾Ð½": 4672,
      "ĠÐ¼Ð°ÑģÐµÐ»ÐµÐ»ÐµÑĢÐ¸": 4673,
      "ĠÑįÑģÐµÐ¿ÑĤÐµÐ¹ÑĤ": 4674,
      "ĠÑĢÑĥÑħ": 4675,
      "SB": 4676,
      "Ð°Ð»Ð°ÑĢÐ´Ð°": 4677,
      "ĠÐºÐ°Ð»ÐºÑĤÑĭÐ½": 4678,
      "Ó©Ð¼Ó©Ð½ÐºÒ¯": 4679,
      "ĠÑĤÓ©Ð¼Ó©Ð½Ð´Ó©": 4680,
      "Ð³Ð°Ð½Ñĭ": 4681,
      "ÑĭÑĢÐ·Ð°": 4682,
      "ĠÑĥÐ»ÑĥÑĤ": 4683,
      "ÑĭÐºÑĤÐ°ÑĢÐ´ÑĭÐ½": 4684,
      "ĠÐ°Ð³ÐµÐ½ÑĤÑĤÐ¸Ð³Ð¸Ð½Ðµ": 4685,
      "ĠÐĲÐ¼ÐµÑĢÐ¸ÐºÐ°": 4686,
      "ĠÐ°ÑĢÐ¼": 4687,
      "ÐŃÐ¡": 4688,
      "ĠÐºÐ°Ð¹ÑĤÐ°ÑĢ": 4689,
      "ĠÑĤÐ°Ð°ÑģÐ¸ÑĢÐ¸Ð½": 4690,
      "tp": 4691,
      "ĠÐºÒ¯Ð»": 4692,
      "ĠÐ°ÑĢÐ°ÑģÑĭÐ½Ð´Ð°Ð³Ñĭ": 4693,
      "ĠÐ±ÐµÐ¹ÑĤÐ°Ð¿": 4694,
      "ĠÑĤÑĥÐ·": 4695,
      "ĠÑĢÐµÐ²Ð¾Ð»Ñİ": 4696,
      "ÑıÐ½Ð²Ð°ÑĢÑĭÐ½Ð°": 4697,
      "ÑĪÑĥÐ»": 4698,
      "ÐĳÐ°ÑĤ": 4699,
      "ĠÐºÐµÐ»ÑĤÐ¸ÑĢÒ¯Ò¯": 4700,
      "az": 4701,
      "ĠÐ¡ÑĥÐ»ÑĤÐ°Ð½": 4702,
      "Ð°Ð½ÑģÑĭ": 4703,
      "ĠÐºÐ¾Ð»Ð»": 4704,
      "ĠÐŃÒ£": 4705,
      "ĠÐ´ÑĥÑĪ": 4706,
      "Ð¦": 4707,
      "ĠÐ¿Ð°Ð¹Ð´Ð°Ð»ÑĥÑĥ": 4708,
      "ĠÐ¾ÑĤÑĩ": 4709,
      "ĠÐĳÐ°Ð½": 4710,
      "ÐºÐ°Ð½Ñĭ": 4711,
      "ĠÑįÐºÐ¾Ð½Ð¾Ð¼Ð¸ÐºÐ°": 4712,
      "ĠÐ°Ð¹ÑĭÐ»ÑĭÐ½ÑĭÐ½": 4713,
      "Ð³Ð°Ð½Ð´Ð°": 4714,
      "ĠÐĲÑĢÐ°Ð±": 4715,
      "Ð´Ò¯Ð³Ò¯Ð½": 4716,
      "Ð¸ÑĢÐ¸Ð¼": 4717,
      "ĠÐŃÐºÐ¸Ð½ÑĩÐ¸": 4718,
      "ĠÐ±Ð¾ÑĢÐ±Ð¾ÑĢÑĥÐ½ÑĥÐ½": 4719,
      "ĠÐºÐ°Ð´ÑĭÑĢ": 4720,
      "http": 4721,
      "ĠÐ¼Ð°Ð¶": 4722,
      "Ð¸ÑıÑģÑĭÐ½Ð´Ð°": 4723,
      "ĠÐĳÐ¸ÑĪÐºÐµÐºÑĤÐ¸Ð½": 4724,
      "ĠÐºÐµÑĢÐµÐºÑĤÒ¯Ò¯": 4725,
      "Ð¸ÑĤÑĢ": 4726,
      "ĠÐ¾ÑİÐ¼": 4727,
      "ĠÐ´ÐµÐ¹": 4728,
      "ĠÐºÐ¾Ð¼Ð¿Ð°Ð½Ð¸ÑıÑģÑĭ": 4729,
      "Ð³Ð°Ð¼Ð±": 4730,
      "ĠÐºÐ°ÑĢÑĪ": 4731,
      "ĠÐ±Ð¸Ð»Ð±ÐµÐ¹": 4732,
      "ĠÐ±Ð°ÐºÑĤ": 4733,
      "ĠÐ¿ÑĢÐ¾Ð´ÑĥÐº": 4734,
      "ÐŁÑĢÐµÐ·Ð¸Ð´ÐµÐ½ÑĤ": 4735,
      "Ð¾Ð¾Ð»ÑĥÑĥ": 4736,
      "ĠÐ°Ð»Ð±Ð°Ð³Ð°Ð½": 4737,
      "ÑĤÒ¯Ð»": 4738,
      "://": 4739,
      "Ð¿ÐµÐ¹ÑĤ": 4740,
      "ĠÑĥÑģÑĤ": 4741,
      "ĠÑĦÐ¾Ð½Ð´Ñĥ": 4742,
      "ĠÐºÐ°Ð¿Ð¸ÑĤ": 4743,
      "Ð¼Ð°ÑģÑĭÐ½": 4744,
      "Ð£Ð»": 4745,
      "ĠÐ¤ÑĢÑĥÐ½Ð·Ðµ": 4746,
      "ĠÑĪÑĤÐ°Ð±": 4747,
      "Ð²ÐµÑĢ": 4748,
      "ĠÐ¼Ò¯Ð¼ÐºÒ¯Ð½ÑĩÒ¯Ð»Ò¯Ð³Ò¯": 4749,
      "ÐļÐ½ÑĭÐ½": 4750,
      "ĠÐĲÐ¿": 4751,
      "ĠÐºÓ©ÑĢÑģÓ©ÑĤÐºÒ¯ÑĩÑĤÓ©ÑĢÒ¯": 4752,
      "ĠÐ°ÑĤÐ°Ð°Ð½": 4753,
      "ĠÐ°ÑĤÐ°Ð¼": 4754,
      "ĠÐ±Ð»": 4755,
      "ĠÐ±ÐµÑĢÐ±ÐµÐ¹": 4756,
      "ĠÐ°Ð»Ð°Ð±ÑĭÐ·": 4757,
      "ĠÐ·Ð¾Ð¼Ð±ÑĥÐ»": 4758,
      "ĠÐ¶ÐµÐº": 4759,
      "ĠÑĢÐµÐ·": 4760,
      "Ð´Ð¸Ð³Ð¸Ð½Ðµ": 4761,
      "Ð°Ð¼Ð¸ÑĢ": 4762,
      "ĠÐ±Ð°ÑĪÐº": 4763,
      "ĠÐ¶Ð°ÑĢÐ°Ð½Ð´Ð°ÑĢÐ´ÑĭÐ½": 4764,
      "Ð¢Ò¯ÑĢÐº": 4765,
      "ĠÑĩÐµÐ³": 4766,
      "Ð¾Ð´Ñĥ": 4767,
      "ĠÐ¿Ð°Ð¹ÑĭÐ·Ð³Ð°": 4768,
      "ÐĸÐ°Ò£Ñĭ": 4769,
      "Ð¶Ð°ÑĢ": 4770,
      "ĠÐ±ÐµÑĢÐ¸ÑĪ": 4771,
      "ĠÐºÓ©Ð±Ò¯": 4772,
      "ĠÑĥÑİÐ¼Ð´Ð°ÑĢ": 4773,
      "ĠÒ®Ñĩ": 4774,
      "ÑĤÑĭÑĪ": 4775,
      "ĠÐ±Ð¾Ð»Ð¼Ð¾Ðº": 4776,
      "46": 4777,
      "ÑıÐ½Ñĭ": 4778,
      "ĠÐ°ÑģÐ¿": 4779,
      "ĠÐĲÑĤÐ°Ð¼Ð±Ð°ÐµÐ²Ð´Ð¸Ð½": 4780,
      "ĠÓ©ÑģÒ¯Ð¿": 4781,
      "ĠÑĤÓ©ÑĢÓ©Ð»Ð³Ó©Ð½": 4782,
      "ĠÑįÐ½Ðµ": 4783,
      "ĠÐ¸ÑĪÐºÐµÑĢÐ»ÐµÑĢ": 4784,
      "ĠÑĭÐ½": 4785,
      "ĠÑĩÐ°ÑĢÐ°": 4786,
      "ĠÐĳÐ¸ÑĪÐºÐµÐºÑĤÐµÐ³Ð¸": 4787,
      "Ð¾ÑĨ": 4788,
      "Ð¸ÑıÑģÑĭÐ½Ð°": 4789,
      "ĠÑģÐ¸Ð¼": 4790,
      "ĠÑģÑĭÐ¹Ð»Ð°Ð½Ð³Ð°Ð½": 4791,
      "ĠÐºÑĭÐ»ÑĥÑĥÐ³Ð°": 4792,
      "ÑĤÒ¯Ðº": 4793,
      "ĠÐºÓ©ÑĤÓ©ÑĢÒ¯Ð»": 4794,
      "ĠÑįÐ»Ð´Ð¸": 4795,
      "ĠÓ©Ð»ÐºÓ©Ð»Ó©ÑĢÐ´Ò¯Ð½": 4796,
      "ĠÐ°ÑĢÐ°Ð±": 4797,
      "ĠÐºÐµÐ»ÑģÐµ": 4798,
      "ĠÐ¾Ò£Ð¾Ð¹": 4799,
      "ĠÐ¾ÑĪÐ¾Ð½Ð´ÑĥÐºÑĤÐ°Ð½": 4800,
      "ĠÐĳÐ°ÑĤÑĭÑĪ": 4801,
      "ĠÓ©Ð·Ð³Ó©ÑĢÑĤÒ¯Ò¯": 4802,
      "ĠÐ¶ÑĭÐ»Ð´ÑĭÐ·": 4803,
      "Ð¿Ð°Ðº": 4804,
      "ÑģÐ¸Ð¾Ð½": 4805,
      "ĠÐ±Ó©Ð»Ò¯Ð½Ò¯Ð¿": 4806,
      "ĠÐºÐ°ÑĢÐ¼Ð°Ð»Ð´Ñĭ": 4807,
      "ĠÐĳÐ¸Ð¹": 4808,
      "ĠÐ¼Ð°ÑĤÐµÑĢÐ¸Ð°Ð»Ð´Ð°ÑĢ": 4809,
      "ĠÑĤÐ¾Ð¾Ð»Ð¾ÑĢ": 4810,
      "ÙĦ": 4811,
      "ĠÐºÐ°Ð°ÑĢÐ¼Ð°Ð½": 4812,
      "ĠÐºÐ°Ð´ÑĢ": 4813,
      "ĠÐºÐ¾Ð´ÐµÐºÑģÐ¸Ð½Ð¸Ð½": 4814,
      "Ð°Ð¿ÑĢÐµÐ»": 4815,
      "ĠÐ¶ÑĥÐ³": 4816,
      "ia": 4817,
      "ĠÐ¾Ð½Ð»Ð°Ð¹Ð½": 4818,
      "ĠÐļÐµÑĢ": 4819,
      "ĠÑĤÐ°Ð»ÐºÐ°Ð»": 4820,
      "ĠÐ¿Ð°ÑģÐ¿": 4821,
      "ĠÐ°Ð¹Ð»ÑĭÐº": 4822,
      "Ó©Ð»Ó©ÑĢÒ¯Ð½Ò¯Ð½": 4823,
      "Ð»Ò¯Ðº": 4824,
      "ÑĤÐµÑĢÐ´Ð¸": 4825,
      "Ð´Ò¯Ò¯Ð»Ò¯Ðº": 4826,
      "ĠÐ¾Ð¹Ð»Ð¾Ð¿": 4827,
      "ĠÑĤÓ©Ð³": 4828,
      "ĠÑĥÐ·Ð°Ðº": 4829,
      "ĠÐ¼ÐµÐºÐµÐ¼ÐµÐ»ÐµÑĢ": 4830,
      "ĠÐĸÐµÒ£": 4831,
      "ÑĩÐ°ÐºÑĤ": 4832,
      "ĠÑĥÐ½ÑĥÑĤ": 4833,
      "ĠÐºÐµÑģÐ¸Ð¿ÑĤÐ¸Ðº": 4834,
      "ĠÐ¾Ð±Ð»ÑĥÑģÑĥÐ½Ð´Ð°Ð³Ñĭ": 4835,
      "un": 4836,
      "ĠÑĪÐµÐºÑĤÒ¯Ò¯": 4837,
      "ÑİÐº": 4838,
      "ĠÑĩÐ°ÐºÐ°Ð½": 4839,
      "ĠÐ¿Ð°ÑĢÑĤÐ¸ÑıÑģÑĭ": 4840,
      "ĠÒ¯ÑģÑĤÒ¯Ð½Ó©": 4841,
      "ĠÐºÑįÑįÐ´Ðµ": 4842,
      "ÑĦÐ³Ð°Ð½": 4843,
      "Ð°Ð¹Ð»Ð¾Ð¾": 4844,
      "ĠÐ¸Ð½Ð´ÐµÐºÑģÐ¸": 4845,
      "ĠÑĤÐ¾Ð»ÑĥÐºÑĤ": 4846,
      "ÑĩÒ¯Ð»Ó©ÑĢÐ´Ò¯Ð½": 4847,
      "ĠÐļÐ°Ð¼ÑĩÑĭ": 4848,
      "06": 4849,
      "ĠÐ¿ÑĢÐ°ÐºÑĤ": 4850,
      "ĠÐ²Ð°Ðº": 4851,
      "ÑĩÐ¸Ð»ÐµÑĢ": 4852,
      "ĠÓ¨Ð·Ð±ÐµÐºÑģÑĤÐ°Ð½Ð´ÑĭÐ½": 4853,
      "ad": 4854,
      ");": 4855,
      "ĠÐ¶Ð°ÐºÑĤÐ°": 4856,
      "ÑıÑģÐ¸Ð¹": 4857,
      "ĠÐ¼Ð°Ð°Ð½Ð¸ÑģÐ¸": 4858,
      "ĠÑģÐ¸Ð»": 4859,
      "ĠÑĤÐ°Ð»Ð°Ð¿ÐºÐµÑĢÐ»ÐµÑĢ": 4860,
      "ĠÐºÑĢÐµÐ´Ð¸": 4861,
      "ĠÐ±ÐµÑĢÐ±": 4862,
      "ĠÑĩÑĭÐ³Ð°ÑĢÐ¼Ð°ÑĩÑĭÐ»": 4863,
      "ÑĥÑĥÐ»ÑĥÐ³Ñĥ": 4864,
      "ĠÐ°Ð²Ð¸": 4865,
      "ĠÑįÐ¼Ð³ÐµÐºÑĤÐµÐ½": 4866,
      "Ó¨Ð»": 4867,
      "ĠÐĳÐ¾ÑĢ": 4868,
      "ĠÐ¸ÑĪÑĤÐµÑĢÐ´Ð¸": 4869,
      "ÑĥÐ»ÑĥÑĪÑĥ": 4870,
      "ĠÐ¼Ð°ÑģÑģÐ°Ð»ÑĭÐº": 4871,
      "ent": 4872,
      "58": 4873,
      "ĠÐ°Ð¿ÑĢ": 4874,
      "ĠÐ¼ÑĭÐ½Ð°": 4875,
      "Ð¼Ð°Ð½Ð¾Ð²": 4876,
      "ĠÐĴÐ»Ð°Ð´Ð¸Ð¼Ð¸ÑĢ": 4877,
      "ĠÐ¶Ð°Ð½ÑĭÐ±Ð°ÑĢ": 4878,
      "ĠÐļÐ°ÑĤ": 4879,
      "ĠÑĥÑĩÑĥÑĢÐ´Ð°Ð³Ñĭ": 4880,
      "ĠÑĪÐ°ÑĢÑĤÑĤÐ°ÑĢ": 4881,
      "Ð¿Ð¾Ð·": 4882,
      "ĠÐºÐ°ÑĢÐ´Ð°ÑĢ": 4883,
      "ĠÐĲÐ»ÑĤÑĭÐ½": 4884,
      "ĠÐ´Ð°ÑĢÑĭÐ³ÐµÑĢÐ»ÐµÑĢ": 4885,
      "ĠÑĭÐºÑĤÑĭÐ¼Ð°Ð»": 4886,
      "ĠÐ±Ó©Ð»Ò¯Ð³Ò¯Ð½": 4887,
      "ĠÐ¸Ð¹Ð³Ð¸Ð»Ð¸ÐºÑĤÒ¯Ò¯": 4888,
      "ĠÐĳÐ°ÑĪÐºÑĭÑĢÑĤÑģÑĤÐ°Ð½": 4889,
      "ĠÐ´Ð¸Ñģ": 4890,
      "ÐµÐ¼Ð¸Ð½": 4891,
      "ĠÐ²Ð°Ð»": 4892,
      "ÑģÒ¯Ð½Ð´Ó©Ð³Ò¯": 4893,
      "ĠÑĪÐ°Ð°ÑĢÑĭÐ½Ð°": 4894,
      "ĠÐ½Ð°ÑģÑĭÑı": 4895,
      "ĠÑĤÐ°ÑĢÐ°Ð¿ÑĤÐ°Ð½": 4896,
      "ĠÐ½Ð¾": 4897,
      "Ð¾ÐºÐ¾Ð»": 4898,
      "Ð¸ÑıÐ·": 4899,
      "ĠÐłÑĭÑģ": 4900,
      "ĠÐ°Ð»Ð´ÑĭÐ½Ð°": 4901,
      "Ð¾ÑĢÐ°": 4902,
      "ĠÐĶÐµÐ¼ÐµÐº": 4903,
      "ĠÐ¶ÑĥÑĥ": 4904,
      "ĠÐ¸Ð½ÑĦÐµÐº": 4905,
      "Ð¼Ð°ÑĤÑĭ": 4906,
      "Ð¾Ð·Ð°": 4907,
      "ĠÑģÑĥÑĢÐ°Ð¿": 4908,
      "ĠÐºÐ¸ÑĪÐ¸Ð½Ð¸Ð½": 4909,
      "ĠÐ¸ÑĪÐ¸Ð½Ðµ": 4910,
      "ĠÐ¸ÑĪÑĤÐµÐ¹": 4911,
      "ĠÐ¿ÑĢÐ¸Ð½ÑĨÐ¸Ð¿": 4912,
      "ĠÐĲÐ»Ð±ÐµÑĤÑĤÐµ": 4913,
      "ĠÑĤÐ¾Ð½Ð½Ð°": 4914,
      "120": 4915,
      "Ð´Ó©ÑĢÐ´Ò¯": 4916,
      "ĠÐ°ÑĤÑĭÐ½Ð°Ð½": 4917,
      "ĠÐ°Ð´Ð°Ð¼Ð´Ð°ÑĢÐ´Ñĭ": 4918,
      "Ð±ÐµÑĤ": 4919,
      "ĠÐ¿Ð°ÑĢÑĤÐ¸ÑıÐ½ÑĭÐ½": 4920,
      "ĠÐºÐ°ÑĤÐ°ÑĢÑĭÐ½Ð´Ð°": 4921,
      "ĠÐ¶ÑĥÐ±Ð°Ð¹": 4922,
      "ĠÐ¶ÑĭÐ»Ð´Ð°": 4923,
      "ĠÑĤÑĭÐ½ÑĩÑĤÑĭÐº": 4924,
      "ĠÐ¼Ð¸Ñģ": 4925,
      "Ð°Ð¼Ð¼ÐµÐ´": 4926,
      "ĠÑĢÐµÐ³Ð¸": 4927,
      "ĠÐºÐ¾Ð·": 4928,
      "ĠÐŀÐļ": 4929,
      "ĠÐ±Ð°Ð¶Ñĭ": 4930,
      "ĠÑįÑģÐºÐ¸": 4931,
      "ĠÐ´Ð¾Ð¾": 4932,
      "ĠÐºÐ°Ð¹Ð½": 4933,
      "ĠÐļÓ©ÑĢ": 4934,
      "ÑĭÐ¹ÐºÐ°ÑĤ": 4935,
      "ĠÐ°Ð½ÑĤ": 4936,
      "ĠÐ°Ð»ÑĥÑĥÐ½Ñĥ": 4937,
      "ÐĸÐ¾Ð»": 4938,
      "ÑĥÐ´Ð¸": 4939,
      "Ó©Ó©ÑĩÒ¯": 4940,
      "www": 4941,
      "ÂŃ": 4942,
      "ĠÒ¯Ð¹Ð»": 4943,
      "ĠÒ¯Ð¹ÑĢÓ©ÑĤ": 4944,
      "ĠÐºÐ°Ð½ÑĩÐ°Ð»ÑĭÐº": 4945,
      "ĠÐºÐµÐ»Ð¸ÑĪÐºÐµÐ½": 4946,
      "ĠÐ¶Ð°ÑĢÐ°ÐºÐ°ÑĤ": 4947,
      "ĠÐºÑĥÐ¹Ð¼": 4948,
      "ĠÐ´ÐµÐ¼Ð¾Ð³ÑĢÐ°ÑĦÐ¸ÑıÐ»ÑĭÐº": 4949,
      "ĠÐ¼Ó©Ó©Ð½Ó©ÑĤÑĤ": 4950,
      "ĠÐ·Ð°Ð»": 4951,
      "ĠÐºÐ»ÑĥÐ±": 4952,
      "ĠÐ´Ð¸Ð½Ð°Ð¼Ð¸ÐºÐ°ÑģÑĭ": 4953,
      "ĠÐ±Ð¸Ð»Ð´Ð¸ÑĢÐ¸Ð¿": 4954,
      "Ó©Ð±Ò¯Ð·": 4955,
      "Ð¸ÑģÐ¸Ð½": 4956,
      "SBN": 4957,
      "ÐĳÐ°Ð¹": 4958,
      "ÐºÐµÑĢÑĤÐµ": 4959,
      "ĠÓ©ÑĢÑĤÑĤ": 4960,
      "ĠÐ±Ð¸ÑĢÐ´Ð¸ÐºÑĤÒ¯Ò¯": 4961,
      "ĠÓ©Ð½Ò¯ÐºÐºÓ©Ð½": 4962,
      "ĠÓ©ÑĤÒ¯Ð½Ò¯Ñĩ": 4963,
      "Ð¾Ð»Ð¾ÑĤ": 4964,
      "ĠÐ±ÐµÑĢÒ¯Ò¯ÑĩÒ¯": 4965,
      "ĠÐ¿ÑĢÐ¾ÑĦÐµÑģÑģÐ¾ÑĢ": 4966,
      "ĠÐ°Ð·Ð°Ð¹ÑĤ": 4967,
      "ÑĥÐ½Ð¸ÑĨÐ¸Ð¿Ð°Ð»Ð´ÑĭÐº": 4968,
      "Ð¼Ó©Ð»Ó©ÑĢ": 4969,
      "ĠÓ¨Ð·Ð³Ó©ÑĩÓ©": 4970,
      "Ð±Ó©Ð¹ÑĤ": 4971,
      "ÑĥÐ¹": 4972,
      "ĠÐ±Ð¾Ð»Ð¾Ð±": 4973,
      "ÑĨÐ¸ÑıÑģÑĭÐ½Ð°": 4974,
      "ĠÐºÐ¾ÑĪÑĥÐ¿": 4975,
      "ĠÐ°Ð½ÑĭÐºÑĤÐ°Ð»Ð´Ñĭ": 4976,
      "Ð¢ÑĥÑĢÐ³ÑĥÐ½": 4977,
      "ĠÐ°ÑĢÐ°Ð»ÑĭÐ³ÑĭÐ½Ð´Ð°": 4978,
      "ÐļÐ¾Ð»Ð´Ð¾Ð½": 4979,
      "ÑģÐ°Ò£": 4980,
      "ĠÐ¼Ð°ÑĤÐµÑĢÐ¸Ð°Ð»Ð´ÑĭÐº": 4981,
      "ĠÑĤÓ©ÑĪ": 4982,
      "ĠÑĩÓ©Ð»": 4983,
      "ÑĢÐ°Ñħ": 4984,
      "ÑĥÑĢÐ³": 4985,
      "ĠÐ¡Ð°ÑĢÑĭ": 4986,
      "ĠÑģÐµÐ³Ð¸Ð·": 4987,
      "ĠÐ°Ð½Ð°Ð»Ð¸Ð·": 4988,
      "ĠÐ¿Ð°Ð»Ð°ÑĤ": 4989,
      "ĠÐłÐ¾ÑģÑģÐ¸ÑıÐ½ÑĭÐ½": 4990,
      "66": 4991,
      "ÑĥÐ»Ð¾Ð²": 4992,
      "Ð°Ñı": 4993,
      "Ð³Ð°Ð½ÑĭÐ½": 4994,
      "49": 4995,
      "ÐĳÑĥÐ»Ð°Ðº": 4996,
      "ir": 4997,
      "ĠÐ¼Ð¸Ðº": 4998,
      "ÑĥÒ£ÑĥÐ·": 4999,
      "ĠÐºÑĭÐ¹Ð½": 5000,
      "ĠÐºÐ°Ð³ÑĭÐ»": 5001,
      "ĠÐ¶ÑĭÐ½": 5002,
      "ĠÐ´Ð¾ÐºÑĤ": 5003,
      "ĠÑĥÐ¼": 5004,
      "ĠÑĥÑĩÑĥÐ¿": 5005,
      "Ð¶Ð¾": 5006,
      "ĠÐ¶Ð°Ð½ÑĭÐ½Ð´Ð°": 5007,
      "ĠÐ°ÑĤÐºÐ°ÑĢÑĥÑĥÑĩÑĥ": 5008,
      "ĠÐ±Ð°ÑĪÑĩÑĭÑģÑĭÐ½ÑĭÐ½": 5009,
      "Ð´ÑĭÐ³ÑĭÐ½Ð´Ð°": 5010,
      "ĠÐ±ÑĥÐ·ÑĥÑĥ": 5011,
      "Ð½Ñĥ": 5012,
      "ĠÐ±Ð°ÑĪÑĤÐ°Ð»Ð°ÑĤ": 5013,
      "ĠÐ¿Ð°ÑĢÐ»Ð°Ð¼ÐµÐ½ÑĤÑĤÐ¸Ð½": 5014,
      "ĠÑĩÓ©Ð¿": 5015,
      "ĠÑĤÐ°ÑĪÑĤÐ°Ð¿": 5016,
      "ĠÐľÐ¸Ð½Ð¸ÑģÑĤÑĢÐ»ÐµÑĢ": 5017,
      "of": 5018,
      "ÑĩÐ°Ðº": 5019,
      "ĠÐ¼ÐµÐ·Ð³Ð¸Ð»Ð¸Ð½Ð´Ðµ": 5020,
      "ÐµÐºÑĤÐ¸": 5021,
      "ĠÐ°ÑģÑĤÑĭÐ½Ð´Ð°": 5022,
      "ĠÐ°Ð»ÑĭÑĪÑĤÑĭ": 5023,
      "ĠÐĿÐ¾Ð²": 5024,
      "ĠÑģÑĤÐ°Ð½Ð´Ð°ÑĢ": 5025,
      "ĠÑĤÐ°Ð°ÑģÐ¸ÑĢÐ¸": 5026,
      "ĠÐ±Ð¸Ð¹Ð»Ð¸ÐºÐºÐµ": 5027,
      "ĠÑĥÐºÑĥÐºÑĤÐ°ÑĢÑĭÐ½": 5028,
      "ÑĩÑĭÐ½": 5029,
      "ĠÐ°Ð¹Ð¼Ð°Ð³ÑĭÐ½Ð°": 5030,
      "Ð¼ÐµÐ½ÑĤÐ°ÑĢÐ¸Ð¹": 5031,
      "ĠÐ¸Ð·Ð´ÐµÐ¿": 5032,
      "ĠÐ¶Ð¾ÑĢ": 5033,
      "ĠÐ°Ð´Ð²Ð¾Ðº": 5034,
      "ĠÐ¶ÐµÑĤÐ¸Ð¿": 5035,
      "ĠÐ¶Ð°Ð»Ð³Ð°Ð½": 5036,
      "ĠÐ¢Ð¾Ð¼": 5037,
      "Ð»Ñĥ": 5038,
      "ĠÑĤÐ°Ð»Ð°ÑĪ": 5039,
      "ĠÐĺÐ»Ð¸Ð¼": 5040,
      "Ð°ÑĢÑĤÐ°Ð¼": 5041,
      "ÐľÑĭÐ½Ð´Ð°Ð½": 5042,
      "ĠÐ§ÑĭÒ£Ð³ÑĭÐ·": 5043,
      "ĠÐ±Ð¾Ð»Ð±Ð¾Ð³Ð¾Ð½": 5044,
      "ĠÐºÐ°Ð¹ÑĤÐ°Ð»": 5045,
      "Ð½Ð¾Ð²": 5046,
      "Ð±ÑĭÐ·Ð´Ñĭ": 5047,
      "ig": 5048,
      "ÐµÑĤÐºÐµ": 5049,
      "Ð³Ð°Ð·Ð¸ÐµÐ²": 5050,
      "ĠÑĥÐ³ÑĥÐ¿": 5051,
      "ĠÐ°Ð´Ð¼Ð¸Ð½Ð¸ÑģÑĤÑĢÐ°": 5052,
      "ay": 5053,
      "ĠÐ°Ð¹Ð»Ð°Ð½ÑĭÐ¿": 5054,
      "Ð¸ÐºÐºÐµÐ½": 5055,
      "ĠÐ¼Ð¸Ð½Ð¸ÑģÑĤÑĢÐ¸Ð½Ð¸Ð½": 5056,
      "ĠÓ©Ð·Ò¯Ð±Ò¯Ð·": 5057,
      "ĠÐ³ÐµÐ½ÐµÑĢ": 5058,
      "ĠÐºÓ©ÑĢÒ¯Ð½Ò¯ÑĪ": 5059,
      "ĠÐ¶ÐµÑĤÐµÐºÑĩÐ¸Ð»Ð¸Ð³Ð¸": 5060,
      "ĠÐ¸Ð¼Ð¿ÐµÑĢ": 5061,
      "ĠÐ±Ð¾Ð¾ÑĢ": 5062,
      "ĠÑĤÒ¯Ð½ÐºÒ¯": 5063,
      "ĠÐ¶ÐµÑĤÐµÑĤ": 5064,
      "ĠÑĤÑĭÐ³ÑĭÐ·": 5065,
      "ĠÐºÒ¯ÑĤÒ¯Ð¿": 5066,
      "Ð³Ò¯Ñĩ": 5067,
      "ÐļÐ¾Ð¼": 5068,
      "ĠÐ°Ð¹ÑĤÑĭÐ»ÑĭÐ¿": 5069,
      "ÑĭÐ»Ð°ÑĢ": 5070,
      "ÑĩÑĥÐ»ÑĥÐº": 5071,
      "ĠÐĲÑģÐ°Ð½": 5072,
      "ĠÑĦÐ¾Ð½Ð´": 5073,
      "ĠÐĲÐ»ÐµÐº": 5074,
      "ĠÐ¶Ð°Ð¹Ñĭ": 5075,
      "ĠÑĤÐ°ÑĢÐ¼Ð°Ð³": 5076,
      "ÐµÑĢÐ±Ð°Ð¹": 5077,
      "ĠÑĤÒ¯ÑĪÒ¯ÑĢ": 5078,
      "ĠÑįÑĢÐºÐµÐº": 5079,
      "...Ċ": 5080,
      "Ð´Ò¯Ð·": 5081,
      "ÐŁÐ¾ÑĩÑĤÐ°": 5082,
      "ÑĪÐ°ÑĤ": 5083,
      "ÑĨÐ¸ÑıÐ´Ð°": 5084,
      "ĠÑģÒ¯Ð¹Ð»Ó©ÑĪÒ¯Ò¯Ð»Ó©ÑĢ": 5085,
      "ĠÐºÑĭÑĢÐ´Ð°Ð°Ð»Ð´Ð°ÑĢ": 5086,
      "Ð¸Ð½Ð¾Ð²": 5087,
      "ĠÑĤÒ¯Ð·Ò¯Ð¼": 5088,
      "ÐµÐºÑĤÒ¯Ò¯": 5089,
      "ĠÐ´Ò¯Ð¹Ð½Ó©Ð½Ò¯Ð½": 5090,
      "ĠÑĥÐºÑĥÐºÑĤÐ°ÑĢÑĭ": 5091,
      "ĠÐºÐ¾Ð½ÑĤÑĢ": 5092,
      "ĠÐ°Ð¶ÑĭÑĢÐ°ÑĤ": 5093,
      "Ò¯ÑĤÑĤ": 5094,
      "ĠÐ¡Ð°Ð¼": 5095,
      "ĠÐ¼Ð°Ð¶Ð±ÑĥÑĢ": 5096,
      "ĠÐºÐ¾Ð¾Ð¿ÑģÑĥÐ·Ð´ÑĥÐ³ÑĥÐ½": 5097,
      "ĠÐ¸ÑģÐ»Ð°Ð¼": 5098,
      "ĠÑģÒ¯Ð·": 5099,
      "ĠÐ°ÑĤÐ°ÑĤ": 5100,
      "ĠÐ°Ð»Ð³Ð°Ð½Ð´Ð°": 5101,
      "103": 5102,
      "ÑĭÐ³ÑĭÐ½Ð°Ð½": 5103,
      "Ð³ÑĭÑĩ": 5104,
      "77": 5105,
      "ĠÐ¼ÑĥÐ·ÑĭÐºÐ°Ð»ÑĭÐº": 5106,
      "ÐµÐ½ÐºÐ¾": 5107,
      "ĠÐ±Ð°ÑĪÑĭÐ½": 5108,
      "ĠÐ½ÑĥÑĢ": 5109,
      "ĠÐ°ÑĢÐ°Ð»Ð°ÑĪ": 5110,
      "]Ċ": 5111,
      "ĠÐ°ÑıÐ»Ð´Ð°ÑĢÐ´ÑĭÐ½": 5112,
      "ĠÑģÐµÐ¹": 5113,
      "Ò¯Ð»Ò¯Ò¯Ð´Ó©": 5114,
      "ĠÐĳÐ°ÑĪÐºÑĭÑĢÑĤÑģÑĤÐ°Ð½Ð´ÑĭÐ½": 5115,
      "ĠÑĤÐµÑģÑĤ": 5116,
      "ĠÐĶÒ¯Ð¹Ð½Ó©Ð»Ò¯Ðº": 5117,
      "Ð´Ð°Ð½ÑĭÐ¿": 5118,
      "Ð´ÑĥÐ³": 5119,
      "Ð¢ÑĥÑĢÐ³ÑĥÐ½Ð´Ð°ÑĢÐ´ÑĭÐ½": 5120,
      "Ð´ÑĭÐºÐºÐ°": 5121,
      "ĠÐ¼Ð¸ÑģÐ°Ð»Ñĭ": 5122,
      "ĠÐºÐ°ÑĢÐ°ÑĪ": 5123,
      "ĠÑĦÐ°ÐºÑĤÑĭ": 5124,
      "Ð¸ÑĦÐ¸ÐºÐ°ÑĨÐ¸Ñı": 5125,
      "Ð¾Ð¼ÐµÑĤÑĢ": 5126,
      "ÐĶÐµÐ¼Ð¾Ð³ÑĢÐ°ÑĦÐ¸ÑıÑģÑĭ": 5127,
      "ĠCOVID": 5128,
      "ĠÐ°ÑĢÐ³Ð°ÑģÑĭÐ·": 5129,
      "ÑĭÐºÑĤÑĭÑĢ": 5130,
      "ĠÐºÐ¸ÑĤÐµÐ¿ÑĤ": 5131,
      "ĠÐ¢ÑĥÑĢÐ³ÑĥÐ½Ð´Ð°ÑĢÑĭ": 5132,
      "ÐµÐ´ÐµÐ½": 5133,
      "ĠÐľÐ¾Ð½": 5134,
      "ĠÑģÐ°Ð½Ð°": 5135,
      "ĠÐŀÐļÐĲÐ¢Ðŀ": 5136,
      "ĠÑģÑĥÐ´ÑĮÑı": 5137,
      "ĠÐºÑĥÑĢÑĥÐ»Ð³Ð°Ð½": 5138,
      "ĠÑĭÑĢÐ°ÑģÑĤ": 5139,
      "ĠÐºÐ¾Ð¼Ð¿Ð°Ð½Ð¸ÑıÑģÑĭÐ½ÑĭÐ½": 5140,
      "ĠÐ¢Ð°ÑĪÐºÐµÐ½": 5141,
      "Ð²Ð°Ð½": 5142,
      "Ð·Ð³Ò¯Ð»": 5143,
      "Ð´ÑĭÐºÑĤÑĭ": 5144,
      "ÑįÐºÐ¾Ð½Ð¾Ð¼Ð¸ÐºÐ°Ð»ÑĭÐº": 5145,
      "Ð¸ÑĤÐ¸": 5146,
      "ÑģÐ°Ð½Ð´ÑĢ": 5147,
      "ĠÑĤÐ°ÑĢÐ°Ð³Ð°Ð½": 5148,
      "ĠÑģÓ©Ð·ÑģÒ¯Ð·": 5149,
      "ĠÑįÑįÑĢ": 5150,
      "Ð°Ð³Ð½": 5151,
      "ÑıÐ½Ð²Ð°ÑĢÑĮ": 5152,
      "ĠÐ¿ÑĢÐ¾Ð²": 5153,
      "ĠÓ©ÑģÐ¿Ò¯ÑĢÒ¯Ð¼": 5154,
      "ĠÐ·Ð°Ð¼Ð°Ð½Ð±Ð°Ð¿": 5155,
      "Ð¾Ð»Ð¾": 5156,
      "ĠÐ±Ò¯ÑĤÒ¯ÑĢÐ³Ó©Ð½": 5157,
      "ĠÑĤÐµÐ»ÐµÐºÐ°Ð½": 5158,
      "ĠÐłÐ°Ñħ": 5159,
      "ĠÑĤÐµÑĢÐ¸ÑĪÑĤ": 5160,
      "ĠÐºÐµÑĤÒ¯Ò¯": 5161,
      "ĠÐºÐµÑģÐºÐ¸Ð½": 5162,
      "Ð±Ð°ÑģÐ°": 5163,
      "ĠÐ°Ð´Ð°Ð¼Ð´Ð°ÑĢÐ³Ð°": 5164,
      "ÑĥÐºÑĥÐ»": 5165,
      "ĠÐ°Ð»Ð´ÑĭÒ£ÐºÑĭ": 5166,
      "ĠÒ¯Ð¹Ð´Ò¯Ð½": 5167,
      "030": 5168,
      "Ð´Ð¸Ð¼ÐºÐ¸": 5169,
      "ĠÐļÐ¾ÑĢÐµÑı": 5170,
      "ĠÑĤÑĢÐ°Ð½ÑģÐ¿Ð¾ÑĢÑĤ": 5171,
      "ĠÐ¶Ð°ÑģÐ°Ð»Ð¼Ð°": 5172,
      "ÑĪÑĤÐ¸": 5173,
      "ĠÐ°ÐºÐ¸Ð¼": 5174,
      "ÑĭÑĪÑĥÑĥÐ´Ð°": 5175,
      "ĠÐĸÐ°ÑĪ": 5176,
      "ĠÐĶÒ¯Ð¹ÑĪ": 5177,
      "ÐµÐ½Ð´": 5178,
      "ĠÐ¡ÑĥÑĢ": 5179,
      "ĠÐ¼Ó©Ó©Ð½Ó©ÑĤÒ¯": 5180,
      "ĠÐĳÐ¨Ðļ": 5181,
      "ĠÐ½ÐµÑĢÑģÐµÐ½Ð¸": 5182,
      "85": 5183,
      "ĠÑĤÐ°Ð°Ð½Ñĭ": 5184,
      "ĠÑģÐ¸Ð½": 5185,
      "Ð»Ð¸Ð¼Ð¿Ð¸Ð°Ð´Ð°": 5186,
      "Ð¼Ð°ÑĤÑĤÐ°ÑĢ": 5187,
      "ĠÐ¶ÑĭÐ»ÑĥÑĥ": 5188,
      "ÐµÑĤÐµÑĢ": 5189,
      "ĠÐºÑĭÑĢÐ³ÑĭÐ·Ð´ÑĭÐ½": 5190,
      "ĠÑĤÐ¾Ð¿ÑĥÑĢ": 5191,
      "ĠÐºÐ¾ÑĢÐºÑĥÑĤ": 5192,
      "ĠÑĢÐµÐº": 5193,
      "ĠÐ¶Ð°ÑĢÐ°Ð½Ð´Ð°ÑĢÑĭ": 5194,
      "ĠÐ±Ð¸ÑĢÐ³ÐµÐ»Ð¸ÐºÑĤÐµ": 5195,
      "ĠÐ¾Ð¹Ð»Ð¾Ð¹": 5196,
      "ĠÐ¼Ð¾ÑİÐ½": 5197,
      "ĠÐĲÐ¼Ð°Ð½": 5198,
      "ĠÐ°Ð¹ÑĢÑĭÐºÑĩÐ°": 5199,
      "ĠÐĳÒ¯Ð³Ò¯Ð½ÐºÒ¯": 5200,
      "ĠÑģÐµÐ±ÐµÐ¿ÑĤÐµÑĢ": 5201,
      "ĠÐºÐ¸ÑĩÐ¸Ð½ÐµÐºÐµÐ¹": 5202,
      "ÑģÐ°Ò£ÑĭÐ·": 5203,
      "ĠÐºÐ¾ÑĢÐ³Ð¾Ð½": 5204,
      "ĠÐĿÐ¸Ðº": 5205,
      "ĠÐ¸ÑĪÑĤÐµÑĤÒ¯Ò¯": 5206,
      "Ð¸ÑĤÑĤ": 5207,
      "ĠÐ¡Ð¾Ð²ÐµÑĤ": 5208,
      "ĠÐºÐ°ÑĤÐµÐ³Ð¾ÑĢ": 5209,
      "ĠÐ¼Ð¾Ð¹Ð½": 5210,
      "ĠÐ´ÑĥÐ±": 5211,
      "ĠÑįÐºÐµÐ½Ð´Ð¸Ð³Ð¸": 5212,
      "ĠÐºÐ°Ðº": 5213,
      "ĠÐ¡ÐµÐ½": 5214,
      "ĠÐ±Ó©Ð»Ò¯ÑĪÑĤ": 5215,
      "ĠÐ½ÐµÐ¼": 5216,
      "Ð´ÐµÑĪ": 5217,
      "ĠÐ¶Ð¾Ð³Ð¾ÑĢÑĥÐ»": 5218,
      "ÐºÓ©ÑĢ": 5219,
      "ÑĭÐ¿ÑĤÑĭÑĢ": 5220,
      "ÐµÑĢÐ±Ð°Ð¹Ð¶Ð°Ð½": 5221,
      "ĠÐ¶Ð°Ð·Ð°": 5222,
      "ÑĤÐµÐº": 5223,
      "ĠÑģÐ¾Ðº": 5224,
      "ĠÐºÐ»Ð°ÑģÑģÑĤ": 5225,
      "ÑĪÐµÐ¼Ð±Ð¸": 5226,
      "ĠÑĤÑĥÐ¼": 5227,
      "ĠÐºÐ¾Ð¼Ð¿ÑĮÑİÑĤÐµÑĢ": 5228,
      "ÐµÑĤÑĤÐµÑĢÐ¸": 5229,
      "ĠÐ½Ð°Ð°ÑĢÐ°Ð·": 5230,
      "ĠÑģÐ¼": 5231,
      "ĠÑĤÒ¯ÑĢÐ»Ó©ÑĢÒ¯": 5232,
      "ĠISBN": 5233,
      "ĠÐļÐ¾Ð¼Ð¿": 5234,
      "Ð°Ð»Ð¸": 5235,
      "Ð¾Ð¾Ð¿ÑģÑĥÐ·Ð´ÑĥÐº": 5236,
      "130": 5237,
      "ÐļÐ°Ð·Ð°Ðº": 5238,
      "ÑĨÐµÐ½": 5239,
      "ĠÐ±ÑĭÑĪ": 5240,
      "Ð´Ð°Ð½Ð´ÑĭÑĢÑĥÑĥ": 5241,
      "ĠÐºÐ¾Ð¼Ð¼ÑĥÐ½": 5242,
      "Ð±Ò¯Ð»Ó©Ð»Ò¯Ðº": 5243,
      "ĠÐºÑĭÑĩ": 5244,
      "ĠÐ¶Ò¯ÑĢÐ³Ò¯Ð·Ð³Ó©Ð½": 5245,
      "ĠÑįÐºÐ¾Ð½Ð¾Ð¼Ð¸Ðº": 5246,
      "ÐļÐ°ÑĢÐ°": 5247,
      "ĠÐ±Ð¸Ð·Ð´Ð¸": 5248,
      "ĠÐºÐ°Ð»ÑĭÒ£": 5249,
      "ĠÐ´Ò¯Ðº": 5250,
      "ĠÐ¼ÐµÑĩ": 5251,
      "ĠÐºÐ¾Ð»Ð´Ð¾Ð½ÑĥÐ»Ð³Ð°Ð½": 5252,
      "ĠÐºÐ°Ð´Ð¸Ð¼ÐºÐ¸": 5253,
      "ĠÐ°Ð±Ð°Ð»Ð´Ð°": 5254,
      "ĠÐ±ÑĥÑĥ": 5255,
      "ĠÑįÑĢÑĤÐµ": 5256,
      "Ð¶Ð¸Ð½": 5257,
      "ĠÑĤÐ¸Ð»Ð¸Ð½": 5258,
      "ĠÐºÐ¾Ð½ÑģÑĤÐ¸ÑĤÑĥ": 5259,
      "ĠÑ": 5260,
      "Ð¸ÑĤÐµÐºÑĤ": 5261,
      "ĠÐºÐµÐ»Ð¸ÑĪÐ¸": 5262,
      "ĠÐ¼Ð¸Ð½Ð¸ÑģÑĤÑĢÐ»ÐµÑĢ": 5263,
      "ĠÐ°ÑĤÐºÐ°Ð½": 5264,
      "ĠÐºÑĥÑĢÐ°Ð»Ð´ÑĥÑĥ": 5265,
      "Ð¾Ð³ÑĢÐ°ÑĦÐ¸Ñı": 5266,
      "ĠÑģÐ¸Ò£Ð¸ÑĢÐ³ÐµÐ½": 5267,
      "ĠÐ¿Ð¾ÑģÑĤ": 5268,
      "ĠÐ¢ÑĭÑĪÐºÑĭ": 5269,
      "ĠÐºÑĭÐ·Ð¼Ð°ÑĤÑĭÐ½Ð°": 5270,
      "ĠÐ°ÑĤÐºÐ°ÑĢÐ³Ð°Ð½": 5271,
      "ĠÐ¶ÑĥÐºÑĤÑĥÑĢ": 5272,
      "ĠÐ¶Ò¯Ð·Ò¯Ð½Ð´Ó©": 5273,
      "ĠÐ¶Ò¯Ð·Ó©Ð³Ó©": 5274,
      "ram": 5275,
      "ĠÐ¾Ð±ÑĢÐ°Ð·": 5276,
      "ĠÐ¶Ò¯ÑĢÐ³Ò¯Ð·Ò¯Ð»Ð³Ó©Ð½": 5277,
      "os": 5278,
      "ĠÐºÐ°Ð½Ð°Ð»": 5279,
      "ĠÓ©ÑĢÑĤ": 5280,
      "ĠÐ¶ÐµÑĢÐ´Ð¸": 5281,
      "ÐµÑħÐ½Ð¸ÐºÐ°Ð»ÑĭÐº": 5282,
      "ĠÐ¶Ð°Ð°Ð½": 5283,
      "ĠÑĪÐ°Ð°ÑĢÐ´ÑĭÐ½": 5284,
      "ÐºÐ°Ð·": 5285,
      "ĠÑĩÐ°Ð¼": 5286,
      "ĠÐ´ÐµÐ½Ðµ": 5287,
      "ÑĭÐ´ÑĭÐº": 5288,
      "Ð´Ð¾ÑĢÐ´Ñĥ": 5289,
      "ĠÐ°Ð·Ð°Ð¹": 5290,
      "ĠÐ¿Ð¸ÐºÐ¸ÑĢÐ¸Ð½": 5291,
      "ÐµÑĦ": 5292,
      "ÐµÑĪÐµÑĤ": 5293,
      "ĠÐ¼Ð°Ð·Ð¼": 5294,
      "ĠÐ½Ð¸Ðº": 5295,
      "ĠÑįÐ¼ÐµÑģÐ¿Ð¸": 5296,
      "ĠÐºÐ°ÑĤÑĤÐ°Ð¼": 5297,
      "ĠÐ°ÑĢÐ±": 5298,
      "ĠÐºÐ¾Ð¼Ð¼ÐµÐ½ÑĤÐ°ÑĢÐ¸Ð¹": 5299,
      "ĠÐ¼ÐµÐ¹Ð¼Ð°Ð½": 5300,
      "ĠÐ¼Ò¯Ð¼ÐºÒ¯Ð½Ð´Ò¯Ðº": 5301,
      "ĠÐ±Ó©Ð»Ò¯Ð½Ð³Ó©Ð½": 5302,
      "Ð¾ÑģÑĤÑĥÐº": 5303,
      "ĠÐºÐ¾Ð»Ð´Ð¾": 5304,
      "Ð·Ð³Ò¯Ð»ÑĤÒ¯Ðº": 5305,
      "ĠÐ¶Ð¾Ð±": 5306,
      "ĠÑĭÑģÑĭÐ¼": 5307,
      "Ð°ÑĨÐ¸ÑıÑģÑĭ": 5308,
      "ĠÑĭÑĢÑĩÑĭ": 5309,
      "Ð°Ð½ÑģÑĭÐ»ÑĭÐº": 5310,
      "ĠÑĤÐ°ÑĤÑĭÐºÑĤÑĥÑĥ": 5311,
      "Ð°Ð±Ð°": 5312,
      "ĠÐ±ÐµÐ»Ðµ": 5313,
      "ĠÂ©": 5314,
      "Ð»Ð°Ñħ": 5315,
      "ÑįÑĢÐ¸": 5316,
      "ĠÐ¸ÑİÐ½": 5317,
      "Ð°Ð¹ÑĭÐ»": 5318,
      "Ð¡Ð°Ð¹": 5319,
      "ĠÐºÐ°Ð½Ð°Ð°ÑĤÑĤÐ°Ð½": 5320,
      "ĠÐ¶Ð°Ð³ÑĭÐ¼": 5321,
      "ĠÑģÓ©Ð·Ò¯": 5322,
      "ĠÐºÑĥÐ´Ð°Ð¹": 5323,
      "Ð°ÑĤÐ±ÐµÐº": 5324,
      "ÐµÑĩÑįÑį": 5325,
      "Ó©Ð¹ÑĤ": 5326,
      "Ð´Ð°Ð»Ð´Ñĭ": 5327,
      "Ð´Ò¯Ò¯Ð»Ò¯Ð³Ò¯": 5328,
      "ĠÐ¼Ò¯Ð½Ó©Ð·Ð´Ò¯Ò¯": 5329,
      "Ð¾ÑĩÐºÐ¾ÑĢ": 5330,
      "ĠÐľÐ¸Ð½": 5331,
      "Ð¼Ð°ÐºÑĩÑĭ": 5332,
      "ĠÐ¶ÐµÑĤÑĤÐ¸": 5333,
      "ĠÐ±Ð°ÑĪÑĭ": 5334,
      "ĠÑĥÑĥ": 5335,
      "ĠÑĤÐ¸ÑĤ": 5336,
      "ĠÐ±Ð°ÑĪÑĤÐ°Ð»": 5337,
      "ĠÐ¼ÑĥÐ½Ð¸ÑĨÐ¸Ð¿Ð°Ð»Ð´ÑĭÐº": 5338,
      "Ð¸Ð»Ð¾Ð²": 5339,
      "41": 5340,
      "Ó©Ó©Ð»": 5341,
      "Ġ|": 5342,
      "ĠÑĤÓ©Ð»Ó©Ð½": 5343,
      "ĠÐ¡Ð°Ðº": 5344,
      "Ð½Ð°Ð¼": 5345,
      "ĠÐ¶ÐµÑĤÐºÐ¸Ð»": 5346,
      "ĠÐ±Ð¾Ð»Ð³Ð¾Ð½Ð´Ð¾Ð¹": 5347,
      "ĠÐºÐ°Ð¹Ð´Ð°": 5348,
      "ĠÐ¨ÑĤ": 5349,
      "ĠÑĤÓ©ÑĢÐ°Ð³Ð°ÑģÑĭÐ½ÑĭÐ½": 5350,
      "Ð°Ð¿ÑĤÐ°ÑĢ": 5351,
      "ĠÐľÐ°Ð°Ð»ÑĭÐ¼": 5352,
      "ĠÐ±Ò¯ÑĤÐºÒ¯Ð»": 5353,
      "ĠÑģÒ¯ÑĤ": 5354,
      "ĠÑĤÑĥÑĢÐ³ÑĥÐ½Ð´Ð°ÑĢÑĭ": 5355,
      "ĠÑĥÐºÑĥÐ³ÑĥÐ½": 5356,
      "ÑĥÑĪÑĤÑĥÑĥ": 5357,
      "ov": 5358,
      "ĠÐºÑĭÐ»Ð°": 5359,
      "ĠÐ´Ð¾ÐºÑĥÐ¼ÐµÐ½ÑĤ": 5360,
      "ĠÐ¶Ò¯ÑĢÐ³Ò¯Ð·Ò¯Ð»Ó©ÑĤ": 5361,
      "ĠÑĥÐ¼ÑĤ": 5362,
      "Ð¸ÑĪÐ¸Ð½": 5363,
      "Ð±Ð»ÐµÐ¼": 5364,
      "and": 5365,
      "ĠÐ¿Ð°Ð¹ÑĭÐ·Ñĭ": 5366,
      "56": 5367,
      "ĠÐ°ÑĢÐ´Ð°": 5368,
      "ĠÐļÑĭÑĤÐ°Ð¹Ð´ÑĭÐ½": 5369,
      "ĠÐºÑĥÑĢÐ°Ð¼ÑĭÐ½Ð°": 5370,
      "ĠÐ°Ð¼Ð°Ð½": 5371,
      "ĠÐĲÐ»ÑĭÐ¼": 5372,
      "ĠÐ¶Ð¸Ð³Ð¸": 5373,
      "ĠÐ¢Ò¯ÑĢÐºÐ¸Ñı": 5374,
      "ĠÐºÐ°Ð»ÑĭÑĪÑĭ": 5375,
      "ĠÑĤÒ¯ÑĢÐ¼Ó©": 5376,
      "ĠÐĺÐĺÐľÐ´Ð¸Ð½": 5377,
      "Â»Ċ": 5378,
      "ĠÐĲÑĪ": 5379,
      "ĠÐļÐ¾Ð¾Ð¼": 5380,
      "ĠÐ¶ÐµÑĤÐ¸ÑĪÑĤÒ¯Ò¯": 5381,
      "ĠÐ¶Ð°ÑģÐ¾Ð¾": 5382,
      "ĠÐ¼Ð°ÑģÐµÐ»ÐµÐ»ÐµÑĢÐ´Ð¸": 5383,
      "ĠÑģÐµÐ½ÑĤ": 5384,
      "ÑĥÐ³ÑĥÐ½ÑĥÐ½": 5385,
      "802": 5386,
      "Ð»Ò¯Ò¯": 5387,
      "Ð´ÐµÐ´Ð¸": 5388,
      "ĠÐ±Ð°Ð»Ð´Ð°ÑĢÐ´Ñĭ": 5389,
      "ĠÐºÐ¾Ð¾Ð¼Ð´ÑĥÐ½": 5390,
      "Ò¯Ð½Ð´Ó©Ð¹": 5391,
      "189": 5392,
      "ĠÓ©Ð·Ð´Ó©ÑĢÒ¯Ð½Ò¯Ð½": 5393,
      "ÐµÐ´Ð¶": 5394,
      "ĠÐ¶Ð°Ð³Ñĭ": 5395,
      "Ð´Ð°Ð»Ð°ÑĤ": 5396,
      "ĠÑĤÒ¯ÑĪÑĤÒ¯": 5397,
      "ĠÐ¶Ð°Ð·ÑĥÑĥÑĩÑĥ": 5398,
      "Ġs": 5399,
      "Ð´Ð°Ð½ÑĭÐ½": 5400,
      "Ð°ÐºÑĤÐ°ÑĢÐ´Ñĭ": 5401,
      "ÐµÑĪÐ¸Ð¿": 5402,
      "ĠÐ´Ð°ÑĢÑĭÐ»Ð¾Ð¾": 5403,
      "ĠÑĩÐ¾Ðº": 5404,
      "ĠÐ±Ð¾Ð»ÑĥÑĥÐ³Ð°": 5405,
      "ÑİÑģ": 5406,
      "ĠÑĤÑĥÑĢÐ¸Ð·Ð¼": 5407,
      "ĠÂ©Ċ": 5408,
      "ĠÓ©Ð·Ð´Ó©ÑĢÒ¯": 5409,
      "ĠÐĲÐºÑĭÑĢÐºÑĭ": 5410,
      "ĠÐ£ÐºÑĢÐ°Ð¸Ð½Ð°": 5411,
      "ĠÐ½Ð°ÑĩÐ°ÑĢ": 5412,
      "ĠÐ¾ÐºÑĤ": 5413,
      "ĠÐĳÑĥ": 5414,
      "ÐĲÑģ": 5415,
      "ÑĥÐ³ÑĥÐ½Ð°Ð½": 5416,
      "Ð¼Ð¾Ñģ": 5417,
      "ĠÐ¼Ð¸Ð½ÐµÑĢ": 5418,
      "ĠÐ¼Ð¾Ð´": 5419,
      "ĠÑĤÐµÑĢÐ¼Ð¸Ð½": 5420,
      "ÐĲÐļÐ¨": 5421,
      "ĠÐºÐ¾Ð»Ð´Ð¾Ð¿": 5422,
      "ĠÐ¼Ð°Ð°Ð»ÑĭÐ¼Ð°ÑĤÑĤÐ°": 5423,
      "ĠÑĤÑĥÑĥÐ³Ð°Ð½Ð´Ð°ÑĢÑĭ": 5424,
      "ĠÑģÑĥÑĤÐºÐ°": 5425,
      "ĠÐ¼ÐµÐºÑĤÐµÐ¿ÑĤÐ¸Ð½": 5426,
      "ĠÐºÑĭÐ·Ð¼Ð°ÑĤÑĤÐ°ÑĢ": 5427,
      "ĠÐ±Ð¾Ð»Ð±Ð¾ÑģÑĥÐ½": 5428,
      "ÑĢÐ¾Ð¼": 5429,
      "Ð±ÑĭÐ·Ð´ÑĭÐ½": 5430,
      "ĠÐĲÐºÐ°ÐµÐ²": 5431,
      "ĠÐ¡Ò¯Ð¹": 5432,
      "ĠÐ¸Ð»Ð¸Ð¼Ð´ÐµÑĢÐ¸Ð½Ð¸Ð½": 5433,
      "ÐºÐ°ÑģÑĭ": 5434,
      "ĠÐ¶Ð¾Ð¾Ð¿ÑĤÑĥÑĥ": 5435,
      "ĠÐ¢ÐµÐºÐµÐ±Ð°ÐµÐ²": 5436,
      "ĠÐ¸Ð¼Ð¿": 5437,
      "ĠÐ²Ð°ÑĢÐ¸Ð°Ð½": 5438,
      "ĠÐĿÐ°ÑĢ": 5439,
      "Ð¾ÑĢÑĤÑĤÑĥÐ½": 5440,
      "ÐļÐ¾Ð½": 5441,
      "ĠÐ´Ð°Ð¹ÑĭÐ½Ð´Ð°Ð»Ð³Ð°Ð½": 5442,
      "ĠÐºÐµÐ»Ð±ÐµÐ¹ÑĤ": 5443,
      "ÐļÐ»": 5444,
      "ĠÐ´ÐµÐ¿Ð°ÑĢÑĤÐ°Ð¼": 5445,
      "57": 5446,
      "um": 5447,
      "ĠÐļÐ°ÑĢÐ°ÐºÐ¾Ð»": 5448,
      "Ġc": 5449,
      "ĠÐ§Ð¾Ð»Ð¿Ð¾Ð½": 5450,
      "ĠÐºÐ¾Ð¼Ð¸ÑģÑģÐ¸ÑıÐ½ÑĭÐ½": 5451,
      "ÑĨÐ¸ÑıÐ»Ð¾Ð¾": 5452,
      "ĠÒ¯Ð¹Ò¯Ð½Ó©": 5453,
      "Ð¸ÑĩÐµÑģ": 5454,
      "Ð¸Ð¸": 5455,
      "ĠÑįÐ»ÐµÐ¼ÐµÐ½ÑĤÑĤ": 5456,
      "ÑĦÐ¸ÑĢ": 5457,
      "115": 5458,
      "ĠÐ¼Ð°ÑģÐµÐ»ÐµÑģÐ¸Ð½": 5459,
      "ĠÑĤÓ©Ð»Ó©Ð¿": 5460,
      "Ð½Ð°Ñı": 5461,
      "Ð»Ð°ÑĢÑĭÐ½Ð°": 5462,
      "ĠÐ¼Ð¾ÑĢ": 5463,
      "ĠÐľÑĭÐ½Ð´Ð°": 5464,
      "ĠÐ²Ð¸ÑĢÑĥÑģ": 5465,
      "ĠÐ¡Ð°Ð¹": 5466,
      "ĠÐŀÑĪÑĤ": 5467,
      "Ð¾ÑĢÐ´Ñĥ": 5468,
      "Ð³ÑĥÑĢ": 5469,
      "ĠÐĳÐ£Ð£Ð½ÑĥÐ½": 5470,
      "ÐļÐ°Ð¹": 5471,
      "ĠÐ´ÑĥÑĪÐ¼Ð°Ð½": 5472,
      "ot": 5473,
      "ÑĥÐ»Ð°Ð¹": 5474,
      "ĠÐľÐ¸Ð»": 5475,
      "Ð²ÐµÐ½": 5476,
      "Ó¨Ð¼Ò¯ÑĢ": 5477,
      "ĠÑĥÐ±Ð°Ð´Ð°": 5478,
      "ÐĸÐµÑĢ": 5479,
      "ĠÐºÐ°ÑĢÐ°Ð¶Ð°ÑĤÑĤÐ°ÑĢÑĭ": 5480,
      "ĠÑĤÐ¸ÑĢ": 5481,
      "ĠÑģÑĥÑĥÐ³Ð°": 5482,
      "ĠÐĺÑģÐ°": 5483,
      "ĠÑĤÐ¸ÐµÑĪÐµÑģÐ¸": 5484,
      "ĠÒ¯Ð·Ð³Ò¯Ð»ÑĤÒ¯Ðº": 5485,
      "Ð°Ð·Ð¸Ñı": 5486,
      "ĠÐ¾ÐºÑĥÑĢÐ¼Ð°Ð½": 5487,
      "ĠÐ°ÑģÐ¼Ð°Ð½": 5488,
      "Ð°Ð»Ð¸ÐµÐ²Ð´Ð¸Ð½": 5489,
      "ĠÐ³ÑĢÐ°Ð½": 5490,
      "ĠÐ¶Ð¾Ð³Ð¾ÑĢÑĥÐ»Ð°ÑĤÑĥÑĥ": 5491,
      "ĠÑįÑģÐµ": 5492,
      "ĠÐ°Ð»ÑĥÑĥÐ´Ð°": 5493,
      "ÐµÐ»Ð¸Ðº": 5494,
      "ĠÐºÐ¾Ð»Ð´Ð¾Ð½ÑĥÐ¿": 5495,
      "ĠÑĥÑĩÑĥÑĢÐ»Ð°ÑĢÐ´Ð°": 5496,
      "ĠÑĩÐµÑĩÐ¸Ð¼Ð¸Ð½": 5497,
      "Ð¾Ð½Ð´ÑĥÐ½": 5498,
      "ĠÑĤÑĥÑĥÑĢÐ°ÑģÑĭÐ½Ð´Ð°": 5499,
      "ĠÐºÐ¾Ð¼ÑĥÐ·": 5500,
      "ĠÐ¶Ð°ÑĪÐ°Ð¹ÑĤ": 5501,
      "ĠÐ§ÐµÐº": 5502,
      "ĠÐ¸Ð½ÑĤÐµÑĢ": 5503,
      "ĠÐºÑĭÐ·ÑĭÐºÑĤÑĥÑĥ": 5504,
      "Ð¸ÑģÑĤÐ¸ÐºÐ°Ð»ÑĭÐº": 5505,
      "ĠÑĤÐ°Ð°Ð½ÑĭÑĪ": 5506,
      "ĠÑĩÓ©Ð¹ÑĢÓ©Ñģ": 5507,
      "ĠÐļÐ°ÑģÑĭÐ¼": 5508,
      "ÑģÐ¸Ò£": 5509,
      "ĠÐ¿ÑĢÐ¾ÐºÑĥÑĢÐ°ÑĤÑĥÑĢÐ°": 5510,
      "Ġp": 5511,
      "ÐµÐ½ÑĤÐºÐµ": 5512,
      "ĠÐĲÐºÑĭÐ»Ð±ÐµÐº": 5513,
      "42": 5514,
      "Ð±Ð¸Ð½": 5515,
      "Ð»ÐµÑĢÐ´Ð¸Ð½": 5516,
      "Ð£ÑĩÑĥÑĢÐ´Ð°": 5517,
      "ĠÐ¶ÑĭÐ»ÑĥÑĥÐ»ÑĥÐº": 5518,
      "ÑĩÐ°Ð½": 5519,
      "ĠÐ¶Ð°ÑĤÐ°Ð¼": 5520,
      "ĠÐºÐµÒ£ÐµÐ¹ÑĤ": 5521,
      "ĠÐ±Ð¸ÑĢÐ¸Ð½Ðµ": 5522,
      "ÑĥÑĪÑĤÑĥÐ½": 5523,
      "ĠÐ¿Ð°ÑĤ": 5524,
      "ĠÐºÑĭÐ·Ð¼Ð°ÑĤÑĤÐ°ÑĪ": 5525,
      "ĠÓ©ÑĤÐ¿Ó©Ð¹": 5526,
      "ĠÐ±Ó©Ð»Ò¯Ð¼Ò¯": 5527,
      "ĠÐļÐ°Ð·": 5528,
      "ÑĥÐ¼Ð´ÑĥÐ½": 5529,
      "ÑģÐ¾ÑĨÐ¸": 5530,
      "ĠÐ±Ð¸Ð»Ð¸Ð¿": 5531,
      "ĠÑĤÒ¯Ð·Ð´Ó©Ð½": 5532,
      "ĠÐ±Ð°ÑĪÑĤÐ°Ð»Ð´Ñĭ": 5533,
      "ĠÐ¼Ð°Ð°Ð»ÑĭÐ¼Ð´Ð°Ð´Ñĭ": 5534,
      "ĠÐ¾ÐºÑĥÑĤÑĥÑĥ": 5535,
      "ĠÐ³ÐµÐºÑĤ": 5536,
      "Ð»Ð¾Ð±": 5537,
      "Ð±Ó©": 5538,
      "ĠÑĤÓ©Ð»Ó©Ó©": 5539,
      "Ð½Ð¾Ð¹": 5540,
      "Ð³Ò¯Ð·": 5541,
      "ĠÐ´Ð°Ð½": 5542,
      "ĠÐĿÐ°Ð·Ð°ÑĢ": 5543,
      "ĠÑĤÑĥÐ½": 5544,
      "Ð°ÑĤÑĤÐ°ÑĢÐ³Ð°": 5545,
      "ĠÐ´Ð°ÑĢÑĭÐ³ÐµÑĢ": 5546,
      "Ð´Ð¸ÐºÐºÐµ": 5547,
      "Ð·Ð°ÑĤ": 5548,
      "ĠÐ³Ð°": 5549,
      "ĠÐºÑĭÐ·Ð¼Ð°ÑĤÐºÐ°": 5550,
      "ĠÐ±Ð°Ð¹ÐºÐ¾Ð¾": 5551,
      "68": 5552,
      "ĠÐĻ": 5553,
      "ÐºÐµÐ»": 5554,
      "ĠÐ¾Ð¾": 5555,
      "ÑĥÑģÑĥÐ¿": 5556,
      "Ð¿Ð¸Ð´ÐµÐ¼": 5557,
      "ĠÑĩÐ°ÐºÑĭÑĢÑĭÐ¼": 5558,
      "ĠÐºÐ»Ð°ÑģÑģ": 5559,
      "ĠÐºÑĭÐ·Ð¼Ð°ÑĤÑĭÐ½": 5560,
      "ÑĤÐµÑĪÑĤ": 5561,
      "ĠÐ±Ð¸Ð·Ð´Ðµ": 5562,
      "ĠÐºÐ¾Ð½ÑĦÐµÑĢÐµÐ½": 5563,
      "ĠÐºÐ°Ð¼ÑĤÑĭÐ¹ÑĤ": 5564,
      "ÑĤÐ¸Ð¼": 5565,
      "ÐºÐ¸Ð»": 5566,
      "ĠÐ°Ð²ÑĤÐ¾ÑĢÑĥ": 5567,
      "ĠÑģÐ°ÑĢÑĭ": 5568,
      "ĠÑĦÐ¸Ð»ÑĮÐ¼": 5569,
      "-Ċ": 5570,
      "ĠÐ¡Ð¾ÑĤ": 5571,
      "ĠÐ¶Ð°ÐºÑĤÑĭÑĢ": 5572,
      "ĠÑĤÐ°Ð½Ð´Ð°Ð¿": 5573,
      "Ð±ÐµÑģÑĤ": 5574,
      "ÑģÑĤÐ¸Ð½": 5575,
      "ĠÓ¨Ð½": 5576,
      "ĠÑĩÐµÑĩÒ¯Ò¯": 5577,
      "ĠÐ±Ð°Ð½ÐºÑĤÑĭÐ½": 5578,
      "ĠÐºÐ¸Ð½Ð¾": 5579,
      "ess": 5580,
      "ĠÑĤÐ¾Ð³ÑĥÐ·": 5581,
      "Ð¾ÑĢÑĥÐ½ÑĥÐ½": 5582,
      "ÑĥÑĢÐ½Ð°Ð»Ð¸ÑģÑĤ": 5583,
      "ĠÐĲÐ»ÑĮ": 5584,
      "ĠÐºÐµÒ£ÐµÑĪÑĤÐ¸Ð½": 5585,
      "Ð°Ð½Ð´ÑĭÐº": 5586,
      "ĠÑĩÑĥÑĢ": 5587,
      "Ð°ÑĢÑħ": 5588,
      "Ð°ÐºÑĤÐ°ÑĢÐ´ÑĭÐ½": 5589,
      "ĠÐ¶ÑĥÐ¼Ð°": 5590,
      "ĠÐĳÐ¾Ð»Ð¾ÑĤ": 5591,
      "ÑĤÑĤÐ°ÑĢÑĭ": 5592,
      "ĠÐľÑĥÐ½ÑĥÐ½": 5593,
      "ĠÑĥÑİÐ¼Ñĥ": 5594,
      "ĠÐ¾ÑĢÐ³Ð°Ð½Ð´Ð°ÑĢ": 5595,
      "ĠÐ¸Ð½ÑģÑĤÐ¸ÑĤÑĥÑĤÑĥÐ½ÑĥÐ½": 5596,
      "ĠÑįÐ³ÐµÐ¼ÐµÐ½": 5597,
      "ĠÐ¶ÐµÑĤÐµÐºÑĤÐµÐ³ÐµÐ½": 5598,
      "ĠÐ¼Ð¸Ð»Ð´ÐµÑĤÑĤÐµÐ½": 5599,
      "ĠÐ°Ð²ÑĤÐ¾Ð±": 5600,
      "ĠÐ¼Ð°Ð½Ð°Ñģ": 5601,
      "ĠÐ´Ð¾Ð»Ð»Ð°ÑĢÐ³Ð°": 5602,
      "ĠÓ©Ð½Ó©ÐºÑĤÓ©ÑĪÑĤ": 5603,
      "ĠÐ±Ð¾Ð»ÑĥÑĥÐ´Ð°": 5604,
      "Ð¸ÑĤÐ¾ÑĢ": 5605,
      "ÐºÐ¾Ð»": 5606,
      "43": 5607,
      "ĠÐ¢Ð°ÑĢ": 5608,
      "ĠÐºÐ¾Ð¼Ð¼ÐµÑĢ": 5609,
      "ÑĤÐµÑĢÐ´Ð¸Ð½": 5610,
      "ĠÐºÑĭÑĢÐ³ÑĭÐ·Ð´Ð°ÑĢÐ´ÑĭÐ½": 5611,
      "ĠÐ°Ð¹Ð³Ð°": 5612,
      "Ó©ÑĤÑĤÒ¯": 5613,
      "67": 5614,
      "ĠÑĭÒ£Ð³Ð°Ð¹Ð»ÑĥÑĥ": 5615,
      "ÐºÓ©Ð½Ò¯": 5616,
      "ĠÑĢÐµÐ°Ðº": 5617,
      "ÐºÑĥÑı": 5618,
      "ĠÑĩÐ°ÐºÑĭÑĢÑĭÐ¿": 5619,
      "ÑĨÐ¸ÑıÐ»Ð°ÑĢÑĭ": 5620,
      "ĠÑĩÐ°ÐºÑĭÑĢÐ´Ñĭ": 5621,
      "Ó©Ð»Ó©ÑĢÐ´Ò¯Ð½": 5622,
      "ĠÐ°ÑĢÐ·Ð°Ð½": 5623,
      "ĠÐ°ÑĢÐ°ÐºÐµÑĤÐ¸": 5624,
      "ĠÐļÐ¸Ð¼": 5625,
      "ĠÓ©Ð»ÐºÓ©Ð´Ó©Ð½": 5626,
      "ĠÑĤÐ¸Ð³Ð¸Ð»": 5627,
      "ĠÐ¶Ð¾Ð¾Ð¿ÐºÐµÑĢÑĩÐ¸Ð»Ð¸Ðº": 5628,
      "ĠÑįÐ½ÑĨÐ¸ÐºÐ»Ð¾Ð¿ÐµÐ´Ð¸Ñı": 5629,
      "ĠÐĲÐ±ÑĭÐ»": 5630,
      "ĠÐ¶ÑĥÑĢÐ½Ð°Ð»": 5631,
      "Ð°Ð¹Ð´ÑĭÐ½": 5632,
      "ĠÐ°Ð¼": 5633,
      "ĠÐºÑĥÑĢÐ³Ð°Ðº": 5634,
      "ĠÑĩÓ©Ð¹ÑĢÓ©": 5635,
      "ÐºÑĭÑĩÑĤ": 5636,
      "ĠÐĲÐ½Ð´ÑĭÐºÑĤÐ°Ð½": 5637,
      "Ò¯Ò¯ÑģÒ¯Ð½Ð´Ó©": 5638,
      "Ð¸Ðµ": 5639,
      "ĠÑĤÐ¾ÑĢ": 5640,
      "ĠÐ¶Ð°Ð»Ð¿ÑĭÑģÑĭÐ½Ð°Ð½": 5641,
      "ĠÐĲÑĦÑĢ": 5642,
      "ĠÐĶÐ°Ð³Ñĭ": 5643,
      "ĠÓ©ÐºÐ¼Ó©ÑĤÒ¯Ð½Ò¯Ð½": 5644,
      "ĠÐºÒ¯Ð±Ó©": 5645,
      "ĠÐ°ÑĤÑĤ": 5646,
      "ĠÐºÑĭÐ·Ð´ÑĭÐ½": 5647,
      "ĠÐ±Ð¸Ð»ÐµÑĤ": 5648,
      "ĠÒ¯Ð¹Ð´Ó©": 5649,
      "ĠÑĪÐ°Ð¹Ð»Ð°Ð½Ð³Ð°Ð½": 5650,
      "Ð°ÑĤÐ¾ÑĢÑĥ": 5651,
      "ĠÐºÐ°Ð±Ð¸Ð½ÐµÑĤÐ¸Ð½Ð¸Ð½": 5652,
      "ĠÑģÐ¸Ð·Ð³Ðµ": 5653,
      "Ò¯Ð»Ó©": 5654,
      "ĠÑĤÐ°Ð¿ÑĤÐ°": 5655,
      "ÑĦÐ¾ÑĢÐ¼Ð°": 5656,
      "ĠÐ¿ÑĢÐµÐ´": 5657,
      "ĠÑįÐ¼Ð½ÐµÐ³Ðµ": 5658,
      "ÑģÑı": 5659,
      "Ð°Ð±Ð¾ÑĢ": 5660,
      "ÑĭÐºÑĤÐ°ÑĢÐ³Ð°": 5661,
      "ĠÐºÒ¯Ð½Ð´Ò¯Ð·": 5662,
      "ĠÑįÑģÐµÐ±Ð¸Ð½ÐµÐ½": 5663,
      "ĠÑĤÐ¾Ð»ÐºÑĥÐ½": 5664,
      "ĠÐ¼Ð¾Ð±": 5665,
      "ĠÐ°Ð½Ð³Ð»Ð¸Ñģ": 5666,
      "ÑĪÐ°ÑĢ": 5667,
      "ĠÐ½ÑĥÑģ": 5668,
      "ĠÐľÑĥÑħÐ°Ð¼Ð¼ÐµÐ´": 5669,
      "ĠÐºÐ°ÑĪ": 5670,
      "ÑĥÑĢÐ¸": 5671,
      "Ð¾ÐºÑĢ": 5672,
      "ĠÓ©Ð»ÐºÓ©Ð»Ò¯Ðº": 5673,
      "ÑįÐ¹": 5674,
      "ÑĥÐºÐ°": 5675,
      "Ð¸ÑģÑĤÐ¸Ðº": 5676,
      "Ó©Ð·Ò¯": 5677,
      "ĠÐĺÐ±": 5678,
      "ÐĲÐ·Ð°ÑĤÑĤÑĭÐºÐºÐ°": 5679,
      "ĠÐ°Ð¹ÑĭÐ½ÑĭÐ½": 5680,
      "Ð¾Ð³ÑĢÐ°Ð¼Ð¼": 5681,
      "ĠÑįÐ¼Ð³ÐµÐ³Ð¸": 5682,
      "ÐµÐ¼ÐµÑĤÐµÐ¹": 5683,
      "ĠÐ±Ð°Ð»Ð´Ð°ÑĢÐ³Ð°": 5684,
      "ĠÑĤÐ¾ÑģÑĥÐ¿": 5685,
      "ĠÐ¼Ó©Ò£": 5686,
      "Ð³Ð°ÑĢ": 5687,
      "ĠÐ¶Ò¯ÑĢÓ©Ðº": 5688,
      "ĠÓ©ÑĩÒ¯ÑĢ": 5689,
      "ĠÐĳÑĢÐ¸ÑĤÐ°Ð½Ð¸Ñı": 5690,
      "ul": 5691,
      "ĠÐ°ÑĤÑĭÐ½": 5692,
      "ĠÐĲÐ»ÐµÐºÑģÐ°Ð½Ð´ÑĢ": 5693,
      "Ð¼Ð°ÑĤÐ¾Ð²Ð´ÑĥÐ½": 5694,
      "ÐµÑĪÑĤÐ¸": 5695,
      "ĠÑĥÑİÐ¼Ð´Ð°ÑĢÐ´ÑĭÐ½": 5696,
      "ĠÐ±ÐµÑĢÐ¸Ð»Ð¸Ð¿": 5697,
      "ÑĤÑĤÐµÑĢÐ¸": 5698,
      "ĠÐ¿Ð°ÑĢÐ°": 5699,
      "ÑĨÑĥÐ·": 5700,
      "ĠÐĲÐ»Ð³Ð°Ñĩ": 5701,
      "ĠÐ¶Ð°Ð°Ð¿": 5702,
      "ĠÐºÓ©Ð¿ÑĩÒ¯Ð»Ò¯Ð³Ò¯": 5703,
      "ĠÐŁÑĢÐµÐ·Ð¸Ð´ÐµÐ½ÑĤÐ¸": 5704,
      "Ð¡ÐĶÐŁ": 5705,
      "ĠÐ´Ò¯ÐºÓ©Ð½": 5706,
      "ÑĥÐ»ÑĥÐº": 5707,
      "ĠÑĥÐ·ÑĥÐ½": 5708,
      "ĠÐļÐ°Ð¼ÑĩÑĭÐ±ÐµÐº": 5709,
      "ĠÐŀÐ¾Ð³Ð°Ð½ÑģÑĤÐ°Ð½": 5710,
      "ĠÑĤÐ°ÑĢÐ¼Ð°Ð³ÑĭÐ½Ð´Ð°": 5711,
      "Ð½Ð¸Ð³Ð¸": 5712,
      "ĠÑĤÐ°Ð°Ð½ÑĥÑĥ": 5713,
      "ĠÐ±Ð°ÑĪÑĭÐ½Ð°": 5714,
      "ĠÐ¡Ð°Ð¿Ð°ÑĢ": 5715,
      "ĠÐ¼Ð°ÑĢÑĤ": 5716,
      "ĠÐ°Ð¹ÑĤÑĭÐ»Ð´Ñĭ": 5717,
      "Ð¾ÑģÐ¿": 5718,
      "ĠÐºÐ¾Ð¼Ð¸ÑĤÐµÑĤÐ¸": 5719,
      "ĠÑģÑĤÑĢÑĥÐºÑĤÑĥÑĢ": 5720,
      "ĠÐºÑĭÑĢÐº": 5721,
      "ĠÓ©ÑĤÐºÓ©ÑĢÒ¯Ð»Ò¯Ð¿": 5722,
      "ĠÑģÐ¾Ð¼Ð´Ñĥ": 5723,
      "ÐµÑĤÐ°": 5724,
      "ĠÑĥÐ±Ð°ÐºÑĤÑĭÑģÑĭ": 5725,
      "ÑĹ": 5726,
      "ĠÐ´ÐµÐ³ÐµÐ½Ð´Ð¸": 5727,
      "ĠÑĥÐºÐºÐ°Ð½": 5728,
      "ĠÐ¢Ò¯ÑĢÐºÐ¸ÑıÐ½ÑĭÐ½": 5729,
      "Ð°Ð´ÑĭÑĢ": 5730,
      "ÐµÑĢÐ´Ð¸Ðº": 5731,
      "ÑĥÑĥÑģÑĥÐ½ÑĥÐ½": 5732,
      "ub": 5733,
      "ĠÐ¿Ð¸ÐºÐ¸ÑĢÐ»ÐµÑĢ": 5734,
      "ĠÐºÐ°ÑĤÐ¼Ð°ÑĢ": 5735,
      "ĠÐºÒ¯ÑĩÒ¯": 5736,
      "ĠÑįÐºÐ¸Ð½": 5737,
      "ĠÐ¿Ð°Ð½Ð´ÐµÐ¼": 5738,
      "ĠÐºÐ¾Ð½ÑĤ": 5739,
      "ĠÓ©Ð»ÐºÓ©Ð»Ó©ÑĢÐ´Ó©": 5740,
      "ĠÐ»Ð¸ÑĨÐµÐ½Ð·": 5741,
      "ĠÑĤÒ¯Ð½Ò¯": 5742,
      "Ð¸Ð»Ð»": 5743,
      "ĠÐ´Ð°Ð°Ð½Ð°": 5744,
      "Ð´Ð¸ÐºÑĤÐµÐ½": 5745,
      "ÐĳÐ¸Ð·Ð´Ð¸Ð½": 5746,
      "ĠÐ¼ÐµÐ½ÑĩÐ¸Ðº": 5747,
      "ÐľÑĥÑĢ": 5748,
      "Ð°Ð½Ð¸ÑıÐ½ÑĭÐ½": 5749,
      "ĠÑģÐ°ÐºÑĤÐ°Ð³Ñĭ": 5750,
      "600": 5751,
      "ĠÐºÐ¸ÑĢÐµÑĪÐµ": 5752,
      "Ð°Ð°Ð½": 5753,
      "ĠÐ°ÑįÑĢÐ¾Ð¿Ð¾ÑĢÑĤ": 5754,
      "eb": 5755,
      "Ġ*": 5756,
      "ĠÒ¯ÑģÑĤÒ¯Ð½Ð´Ó©": 5757,
      "ĠÐºÑĭÐ¹Ð¼ÑĭÐ»ÑĭÐ½ÑĭÐ½": 5758,
      "ĠÐ´ÐµÐºÐ°Ð±ÑĢ": 5759,
      "Â».Ċ": 5760,
      "ĠÐļÑĥÐ¼ÑĤÓ©ÑĢ": 5761,
      "ĠÐ±Ð¸ÑĢÐ¸Ð½Ð´Ðµ": 5762,
      "ÑĤÑĤÐ°ÑĢÐ´ÑĭÐ½": 5763,
      "ĠÑįÐ³ÐµÑĢÐ´Ðµ": 5764,
      "ĠÐºÐµÑĤÐµ": 5765,
      "ĠÐ±ÐµÑĢÐ¸ÑĪÑĤÐ¸": 5766,
      "ĠÐ±Ð°ÑĤÐ¸ÑĢ": 5767,
      "ÑĦÐµÑĢÐµÐ½Ð´ÑĥÐ¼": 5768,
      "ĠÐļÐ¾Ð¶": 5769,
      "ĠÐ¼Ð°Ð³": 5770,
      "ĠÐĸÐľÐļ": 5771,
      "ĠÑģÐ°ÑĤÑĥÑĥ": 5772,
      "ÐºÒ¯ÑĢ": 5773,
      "ĠÐ¿Ð¾Ð·Ð¸ÑĨÐ¸Ñı": 5774,
      "Ð½Ð°Ð·Ð°ÑĢ": 5775,
      "ĠÐ¶Ð°ÐºÑĪÑĭÑĢÑĤÑĥÑĥ": 5776,
      "ĠÐºÐ¾Ð¹Ð±": 5777,
      "ĠÐºÐµÐ»Ð¸ÑĪÐµÑĤ": 5778,
      "ĠÒ¯Ð¼Ò¯ÑĤ": 5779,
      "ĠÐ¸ÑĪÐ¼ÐµÑĢÐ´Ð¸": 5780,
      "ÐĲÐĽ": 5781,
      "ĠÐ°Ð¹Ð»Ð°Ð½Ð³Ð°Ð½": 5782,
      "95": 5783,
      "Ð¼Ð°Ð»Ð°ÑĢÑĭÐ½": 5784,
      "ĠÐºÐ¸ÑĤÐµÐ±": 5785,
      "ĠÐºÑĭÐ¼Ð±Ð°ÑĤ": 5786,
      "ĠÑĤÐµÑħÐ½Ð¸Ðº": 5787,
      "ĠÐ¶Ð°ÑĢÑĭÑıÐ»Ð°Ð´Ñĭ": 5788,
      "Ð¾Ð¿ÑĥÐ»": 5789,
      "Ð¸ÐºÑĤÐ¸": 5790,
      "188": 5791,
      "Ð½ÑĭÑħ": 5792,
      "ĠÑĥÑĪÑĥÐ½": 5793,
      "ĠÑĩÑĭÐ³Ð°ÑĢÐ¼Ð°ÑĩÑĭÐ»ÑĭÐº": 5794,
      "ĠÐĳÑĥÑĢ": 5795,
      "ĠÑįÐ¼Ð½": 5796,
      "ĠÐŁÐ°Ðº": 5797,
      "ĠÐºÐ°Ð»ÑĭÐ¿ÑĤÐ°Ð½": 5798,
      "ĠÐºÐ°ÑĢÐ°Ð¼Ð°": 5799,
      "ĠÐ±Ð¸Ð¹Ð»Ð¸ÐºÑĤÐ¸": 5800,
      "ÑĥÐ¼Ð´Ñĥ": 5801,
      "ĠÐ¨ÐµÑĢ": 5802,
      "ĠÑĤÐ¾Ð¿ÑĤÑĥÐ½": 5803,
      "ĠÐ¶ÐµÑĤÐ¸ÑĪÑģÐ¸Ð·": 5804,
      "ÑĭÐ³Ð°ÑĢ": 5805,
      "Ð´Ó©ÑĪÑĤ": 5806,
      "Ð´Ó©ÑĢÒ¯Ð½Ó©": 5807,
      "ĠÐ¤Ð¸Ð½": 5808,
      "ĠÑģÐ°Ð½Ð°ÑĢÐ¸Ð¿": 5809,
      "ĠÐ±ÐµÑĢÐ¸ÑĪÐºÐµÐ½": 5810,
      "ĠÐ±Ð¾Ð»ÑĥÑĪÐºÐ°Ð½": 5811,
      "Ó©ÑĢÐ³Ó©": 5812,
      "Ð´Ð°Ð½Ð¸ÑıÑĤ": 5813,
      "ĠÐĶÐ¸Ð½": 5814,
      "ĠÐĵÐŃÐ¡": 5815,
      "ĠÓ©Ð½Ð´Ò¯ÑĢÒ¯Ò¯": 5816,
      "ĠÐºÐµÑĤÐ¸ÑĪÐºÐµÐ½": 5817,
      "Ð¾Ð³Ð¾Ð»": 5818,
      "ÑĤÐºÐ¾": 5819,
      "Ð´ÐµÐ¹ÑĤ": 5820,
      "ĠÐ±Ð¸ÑĢÐ¸Ð³": 5821,
      "ĠÐ¾ÑĪÐ¾Ð½Ð´Ð¾": 5822,
      "ĠÐ°Ð½ÑĩÐ°": 5823,
      "ĠÑģÒ¯Ð¹Ò¯Ò¯": 5824,
      "Ð±Ð¸Ð»": 5825,
      "Ò¯ÐºÑĤÓ©ÑĢÒ¯Ð½": 5826,
      "ĠÑĤÐµÑģÐºÐµÑĢÐ¸": 5827,
      "ĠÐºÐ¸ÑĩÐ¸": 5828,
      "ÐµÐ´Ð¾Ð¼": 5829,
      "ÐĲÐ²": 5830,
      "ĠÐ¼ÐµÐ´Ð¸ÑĨÐ¸Ð½Ð°": 5831,
      "ĠÐ·Ð°ÑĤÑĤÐ°ÑĢ": 5832,
      "Ð´Ó©Ó©ÑĩÒ¯": 5833,
      "ĠÑĤÒ¯ÑĪÒ¯Ð½Ò¯Ðº": 5834,
      "ĠÐ¶ÐµÒ£Ð¸Ð¿": 5835,
      "ÐļÐ¾Ð»Ð´Ð¾Ð½ÑĥÐ»Ð³Ð°Ð½": 5836,
      "ĠÐ¶ÐµÑĤÐºÐ¸Ð»Ð¸ÐºÑĤÒ¯Ò¯": 5837,
      "ĠÐ¼Ð°Ð°Ð»Ð´Ð°": 5838,
      "ĠÐ±Ð°Ð»Ð°Ð½Ñĭ": 5839,
      "ĠÐļÐ¾Ð¾Ð¿ÑģÑĥÐ·Ð´ÑĥÐº": 5840,
      "ĠÑĦÐµÑģÑĤÐ¸Ð²": 5841,
      "ĠÐ¼Ð¾": 5842,
      "ĠÐ¼ÐµÐºÑĤÐµÐ¿ÑĤÐµ": 5843,
      "ÐļÐ°Ð½": 5844,
      "ĠÐºÐ°ÑĢÐ¼Ð°Ð»ÑĭÐ¿": 5845,
      "ĠJ": 5846,
      "ĠÐºÐ°Ð»Ð³Ð°Ð½ÑĭÐ½": 5847,
      "ĠÐļÐ¾Ð¹": 5848,
      "ĠÐļÑĭÑĢÐ³ÑĭÐ·ÑģÑĤÐ°Ð½Ð´Ð°Ð½": 5849,
      "ĠÑįÑĢÐºÐ¸Ð½ÐµÐ½": 5850,
      "ĠÐ°ÑĢÐ°ÑģÑĭÐ½Ð°Ð½": 5851,
      "ĠÐ¾ÑĢÐ´Ñĥ": 5852,
      "ĠÐŃÑĢÐºÐ¸Ð½": 5853,
      "im": 5854,
      "ĠÐºÑĭÐ·Ð¼Ð°ÑĤÐºÐµÑĢÐ»ÐµÑĢÐ¸Ð½Ð¸Ð½": 5855,
      "ĠÐ¸ÑİÐ»": 5856,
      "ĠÐ¶ÑĭÐ¹ÑĭÐ½Ð´Ð°": 5857,
      "ĠÐŀÐ»": 5858,
      "ĠÐ¼Ò¯Ð»ÐºÑĤ": 5859,
      "ĠÐ¨Ð°ÑĢ": 5860,
      "ĠÐ¿ÑĢÐ¾Ð´ÑĥÐºÑĤ": 5861,
      "ĠÐ¼Ð°Ð¼Ð»ÐµÐºÐµÑĤÐºÐµ": 5862,
      "ĠÑįÑįÐ»ÐµÐ³ÐµÐ½": 5863,
      "ÐµÑĢÐ³ÐµÐ½": 5864,
      "ĠÑģÓ©Ð·Ò¯Ð½": 5865,
      "ĠÐºÐ°Ð¹ÑĤÐ°ÑĢÑĭÐ¿": 5866,
      "ĠÐĸÐ°Ð¿Ð°ÑĢÐ¾Ð²Ð´ÑĥÐ½": 5867,
      "ĠÐ¿ÑĢÐ¾Ð±Ð»ÐµÐ¼": 5868,
      "ĠÐ·Ð°ÑĤ": 5869,
      "ĠÑĩÐ¸Ð¹": 5870,
      "ÑĢÐ°Ð¸Ð½": 5871,
      "ĠÐŃÐ½ÑĨÐ¸ÐºÐ»Ð¾Ð¿ÐµÐ´": 5872,
      "ĠÐ¶Ð¾Ð»Ð´Ð¾ÑĪ": 5873,
      "ĠÐ±Ð°Ð³": 5874,
      "ĠÑĩÑĥÐºÑĥÐ»": 5875,
      "ĠÐºÐ»ÐµÑĤ": 5876,
      "ĠÐ¿ÐµÐ½Ñģ": 5877,
      "ĠÐ±Ó©Ð»Ò¯Ð³Ò¯Ð½Ð´Ó©": 5878,
      "ĠÐĳÐ°Ð°ÑĤÑĭÑĢ": 5879,
      "ÑĤÒ¯Ð¿": 5880,
      "Ó©Ð±Ó©": 5881,
      "ĠÐļÓ©": 5882,
      "ĠÐ¢Ó©Ð¼Ó©Ð½ÐºÒ¯": 5883,
      "ĠÐºÓ©ÑĩÒ¯ÑĢ": 5884,
      "ÐµÑģÐ¸Ð½ÐµÐ½": 5885,
      "ĠÐ¶Ð¾ÐºÐ¿": 5886,
      "Ð¸Ð¼Ð¸Ð½": 5887,
      "Ð¼Ð°ÑĤÑĤÑĥÑĥ": 5888,
      "ĠÑĭÑģÑĭÐº": 5889,
      "ĠÑĤÒ¯Ð·Ò¯Ð»Ò¯Ð¿": 5890,
      "Ð¼Ó©ÐºÑĤ": 5891,
      "Ð»Ð¾ÑĤ": 5892,
      "ĠÐ°Ð»ÐµÐºÑĤÐµÐ½": 5893,
      "ÑĥÐ·Ð°Ðº": 5894,
      "ĠÐĳÐµÐ»Ð³Ð¸Ð»ÐµÐ¹": 5895,
      "ĠÐºÒ¯Ð½Ò¯Ð½Ó©": 5896,
      "ÐºÐµÑĩ": 5897,
      "ÑĥÐ¼ÑĥÐ½": 5898,
      "ĠÐºÐ°Ð±ÑĭÐ»Ð³Ð°Ð½": 5899,
      "ĠÐºÓ©ÑĩÒ¯Ð¿": 5900,
      "ĠÓ¨Ð»ÐºÓ©": 5901,
      "ĠÐ¸ÑĪÑĤÐµÑĢÐ¸Ð½Ðµ": 5902,
      "Ġd": 5903,
      "ĠÐ°Ð²Ð³ÑĥÑģÑĤ": 5904,
      "Ð°ÐºÑĤÐ°Ð¿": 5905,
      "ĠÐ¢Ð°Ð¼": 5906,
      "ĠÐ¶Ð¾Ð»Ð´Ð¾": 5907,
      "ĠÐĸÐµÑĤÐ¸": 5908,
      "ĠÐ°ÑĢÑĤÑĭÐ½Ð°Ð½": 5909,
      "ÐľÐ°Ð°Ð»ÑĭÐ¼": 5910,
      "op": 5911,
      "ĠÐ¼Ð°Ð¼Ð»ÐµÐºÐµÑĤÑĤÐµÑĢÐ´Ð¸Ð½": 5912,
      "Ð»Ð¸ÐºÑĤÐ¸Ð½": 5913,
      "ĠÐ°Ð¹Ð¼Ð°Ð³ÑĭÐ½Ð´Ð°Ð³Ñĭ": 5914,
      "ĠÐ´Ò¯Ð¹Ð½Ó©Ð³Ó©": 5915,
      "ĠÐ¼Ð¼": 5916,
      "69": 5917,
      "ĠÑĦÑĢÐ°Ð½": 5918,
      "ĠÓ©ÑĤÐºÓ©ÑĢÐ³Ó©Ð½": 5919,
      "ĠÐ¢Ð°Ð¹": 5920,
      "ĠÑĤÐ°ÑĢÐ¼Ð°Ð³Ñĭ": 5921,
      "ĠÐ±Ó©Ð»Ð¼Ó©": 5922,
      "ĠÑĤÐ°Ð¼Ð°ÐºÑĤÐ°Ð½": 5923,
      "ĠÐ¶Ð¾Ð»ÑĥÐ³ÑĥÑĪÑĥÑĥ": 5924,
      "ÑĤÐ°Ð¶Ð¸Ðº": 5925,
      "Ò¯Ò¯Ð»": 5926,
      "ĠÐ±Ð¾Ð»Ð¾ÑĢÑĥÐ½": 5927,
      "ĠÐ°ÑĤÑĭÐ¿": 5928,
      "ĠÐºÐ»Ð¸Ð¼": 5929,
      "ĠÐ³ÑĢÐ°": 5930,
      "Ð»Ð°Ð½Ð°ÑĤ": 5931,
      "ÑģÑĤÑĢÐµÐ¼": 5932,
      "ĠÐ¡ÑĭÑĢ": 5933,
      "ÑĥÐºÑĤÐ°ÑĢ": 5934,
      "ÐĳÐ¸ÑĢÐ¸Ð½ÑĩÐ¸": 5935,
      "ĠÐĲÐŀ": 5936,
      "ĠÑĪÐ°Ð¹Ð»Ð¾Ð¾Ð´Ð¾": 5937,
      "ĠÐ±Ð¾Ð»Ð¾Ð±Ñĥ": 5938,
      "ĠÐºÐµÐ»Ò¯Ò¯": 5939,
      "Ð´ÐµÑĢÐ´Ðµ": 5940,
      "ÑĥÑģÑĥÐ½": 5941,
      "ĠÐºÐµÐ»ÑĤÐ¸ÑĢÐ¸Ð»Ð³ÐµÐ½": 5942,
      "ĠÑįÑĢÐ¸ÑĤ": 5943,
      "ĠÐ¶Ð°ÐºÑĤÐ¾Ð¾": 5944,
      "ĠÑĢÐ°": 5945,
      "ĠÐºÐµÐ»Ð°ÑĤÐºÐ°Ð½": 5946,
      "ĠÐĶÐ¶": 5947,
      "ĠÐ¢ÑĥÑĥ": 5948,
      "ĠÐ¡Ð¿": 5949,
      "ĠÐľÐ°Ð»": 5950,
      "ĠÐĺÑģÐ°ÐºÐ¾Ð²": 5951,
      "ĠÐĿÐ¾Ð¾": 5952,
      "ÑģÑĤÐµÑĢ": 5953,
      "ĠÐ¶ÑĭÐ¹ÑĭÐ½ÑĤÑĭÐ³ÑĭÐ½Ð´Ð°": 5954,
      "ĠÑĤÐµÐ¹Ð»Ó©Ó©": 5955,
      "ĠÐ¼Ð°ÐµÐ³Ð¸Ð½Ð´Ðµ": 5956,
      "Ð¸Ð±Ð¸ÑĢ": 5957,
      "ews": 5958,
      "ĠÐ¿ÑĥÐ»": 5959,
      "ĠÑĤÑĥÑĢÐ³Ð°Ð½Ð´ÑĭÐ³ÑĭÐ½": 5960,
      "ĠÓ¨ÐļÐľ": 5961,
      "Ð´Ð¾Ð¾Ð³Ð¾": 5962,
      "ĠÐºÐ¾Ð»Ð´Ð¾Ð½ÑĥÑĥÐ³Ð°": 5963,
      "ĠÐºÐ¾Ð»Ð´Ð¾Ð½Ð³Ð¾Ð½": 5964,
      "ĠÐ¼ÐµÐºÑĤÐµÐ¿ÐºÐµ": 5965,
      "ĠÑģÒ¯Ð¹Ð»Ó©ÑĪÒ¯Ð¿": 5966,
      "ĠÑģÐ¸ÑģÑĤÐµÐ¼Ð°ÑģÑĭÐ½": 5967,
      "ÑĤÑĭÐº": 5968,
      "ÑĭÑĪÑĭÐ½Ð´Ð°": 5969,
      "Ð°Ð¶Ñĭ": 5970,
      "Ð°Ð½ÑĮ": 5971,
      "ĠÐĸÐ°Ð»Ð¿Ñĭ": 5972,
      "ĠÐļÐµÒ£ÐµÑĪÐ¸Ð½Ð¸Ð½": 5973,
      "ĠÐļÐ¾ÑĩÐºÐ¾ÑĢ": 5974,
      "ĠÑĤÐµÐ½": 5975,
      "ĠÐ¡Ð°Ð±": 5976,
      "Ð°ÑĤÑĭÐ¹Ð¶Ð°Ð´Ð°": 5977,
      "Ð°ÑĤÐ¸Ð²": 5978,
      "ĠÐºÐ°ÑĤÑĭÑĪÐ°ÑĤ": 5979,
      "ĠÐ°Ð¹Ð¼Ð°ÐºÑĤÐ°": 5980,
      "ĠÐ¢ÐµÒ£": 5981,
      "ĠÑĤÑĥÑĢÐ´Ñĥ": 5982,
      "ÑĦÐ°Ð»ÑĮ": 5983,
      "ĠÐºÑĥÑĢÑĥÐ¿": 5984,
      "ÑĥÐ¼Ð°Ð½Ð¸ÑĤÐ°ÑĢÐ´ÑĭÐº": 5985,
      "ĠÓ©ÑĤÒ¯Ò¯": 5986,
      "ĠÐ¶ÐµÑĤÐµÐºÑĩÐ¸Ð»ÐµÑĢÐ¸": 5987,
      "Ð¾Ð³ÐµÐ½": 5988,
      "ĠÐ°Ð»ÑĭÑĪÑĭ": 5989,
      "ĠÐºÐ¾ÑĢÑĢÑĥÐ¿ÑĨÐ¸Ñı": 5990,
      "ĠÑĤÐ¸ÑĢÐº": 5991,
      "ĠÐºÑĭÑıÐ»": 5992,
      "ĠÐºÐ°Ð»Ð´ÑĭÐ¼": 5993,
      "ÑıÐ´": 5994,
      "Ð¾ÐºÐµÐ»": 5995,
      "ĠÐļÐ¸ÑĤ": 5996,
      "ĠÐĺÑĢÑĤÑĭÑĪ": 5997,
      "ĠÐ¶Ð¾Ð»Ð³Ð¾": 5998,
      "ÑĤÐ¾Ð¼": 5999,
      "ĠÐ³ÑĢ": 6000,
      "ĠÐ½ÐµÑĢÑģÐµÐ»ÐµÑĢ": 6001,
      "ĠÐŃÐ¼Ð³ÐµÐº": 6002,
      "ĠÐºÐ¾Ð»Ñĥ": 6003,
      "ĠÐ¼Ð°ÐºÑģÐ°ÑĤ": 6004,
      "ĠÐ¾Ð¾ÑĢÑĥÐ¿": 6005,
      "ĠÐ¶ÑĭÐ»Ð´Ð°ÑĢ": 6006,
      "ĠÐ´Ð¾ÐºÑĤÐ¾ÑĢÑĥ": 6007,
      "Ð·Ð¸": 6008,
      "Ð¸Ð¾Ð»Ð¾Ð³Ð¸ÑıÐ»ÑĭÐº": 6009,
      "ĠÐºÒ¯Ð¼Ò¯ÑĪ": 6010,
      "ĠÐ¡Ð°Ð»Ð°Ð¼Ð°ÑĤÑĤÑĭÐº": 6011,
      "ĠÑİÑĢ": 6012,
      "ĠÐĺÑĤÐ°Ð»": 6013,
      "ĠÐ½Ð°ÑĩÐ°ÑĢÐ»": 6014,
      "ĠÐ¼Ð¸ÐºÑĢ": 6015,
      "ÑĢÐ°Ð´": 6016,
      "Ð¾Ð»Ð±Ð¾Ð¾ÑĢ": 6017,
      "ĠÑģÒ¯Ð¹Ð»Ó©Ð³Ó©Ð½": 6018,
      "ĠÑģÐ¾Ò£ÐºÑĥ": 6019,
      "Ð»Ð¾": 6020,
      "ĠÑĩÐ°Ð¿": 6021,
      "ĠÐĳÐ°ÐºÑĭÑĤ": 6022,
      "ĠÐ°Ð»ÑģÐ°": 6023,
      "Ó©Ð»Ó©Ðº": 6024,
      "ĠÐĸÑĭÐ¹ÑĭÐ½": 6025,
      "ĠÐ±ÑĥÐ»Ð°ÐºÑĤÐ°ÑĢ": 6026,
      "ĠÑĩÐµÐ±ÐµÑĢ": 6027,
      "ĠÐ±ÐµÑĢÐ±ÐµÐ¹ÑĤ": 6028,
      "ĠÐ°ÑĥÐ´Ð¸": 6029,
      "Ð¾Ð½Ð´Ð¾Ð½": 6030,
      "ĠÐ¼ÑĭÐ¹Ð·Ð°Ð¼Ð³Ð°": 6031,
      "ÐµÐ·Ð´": 6032,
      "Ð¢Ð°ÑĢÑĭÑħ": 6033,
      "ĠÐºÑĥÑĤÐºÐ°ÑĢ": 6034,
      "ĠÐ¶ÑĭÐ¹ÑĭÐ½ÑĤÑĭÐºÑĤ": 6035,
      "ĠÐºÐ°Ð¼ÐµÑĢ": 6036,
      "ĠÑģÑĭÐ¼Ð°Ð»": 6037,
      "ĠÑĪÐ°Ð°ÑĢÑĭÐ½Ð°Ð½": 6038,
      "pp": 6039,
      "ĠÓ©Ð·Ð´Ó©ÑĪÑĤ": 6040,
      "ĠÐ¸ÑĪÑĤÐ¸Ð½": 6041,
      "ĠÐºÒ¯ÑĩÒ¯Ð½Ó©": 6042,
      "ĠÐºÐµÐ·ÐµÐ³Ð¸Ð½Ð´Ðµ": 6043,
      ".-": 6044,
      "ÐļÑĥÑĢ": 6045,
      "ĠÐºÒ¯Ð½Ð´Ò¯Ð½": 6046,
      "ĠÑħÐ¸Ð¼Ð¸ÑıÐ»ÑĭÐº": 6047,
      "ĠÐ±Ð°Ð°ÑĢÐ´ÑĭÐº": 6048,
      "ĠÐ°Ð¹Ð»Ð°Ð½Ð°": 6049,
      "Ð°Ð»ÑĭÐ½ÑĭÐ½": 6050,
      "ĠÑģÑĥÑĥÐ½ÑĥÐ½": 6051,
      "Ð¾Ð¼ÑĥÐ½": 6052,
      "ĠÐºÓ©ÑĩÐ¼Ó©Ð½": 6053,
      "Ð´ÑĥÐ»": 6054,
      "ĠÐ¿Ð°Ð´ÑĭÑĪ": 6055,
      "Ð´ÑĭÑĢÐ³Ð°Ð½": 6056,
      "ĠÑĤÐµÐ¼Ð¿ÐµÑĢÐ°ÑĤÑĥÑĢÐ°ÑģÑĭ": 6057,
      "ĠÑĤÐ¾Ð¾Ð»ÑĥÑĥ": 6058,
      "ĠÐºÑĥÑĢÐ°Ð¼ÑĭÐ½Ð´Ð°": 6059,
      "ĠÐ¸ÑĪÐ¸Ð½Ð¸Ð½": 6060,
      "ĠÐºÐ°Ð¼ÑĤÑĭ": 6061,
      "ĠÐ¢Ò¯ÑĢÐºÐ¼Ó©Ð½": 6062,
      "ĠÑģÐ°Ð»Ð°Ð¼Ð°ÑĤÑĤÑĭÐº": 6063,
      "Ð½Ð¾Ð³Ð¾": 6064,
      "ĠÐ±ÐµÑĢÐµÐ½ÐµÑģÐ¸": 6065,
      "ĠY": 6066,
      "ĠÑĦÐ¾ÑĢÐ¼": 6067,
      "ĠÒ¯Ð¹Ð»Ó©Ð½": 6068,
      "ĠÐĲÐ¹ÑĤÐ¼Ð°ÑĤÐ¾Ð²": 6069,
      "ĠÒ¯ÑĢ": 6070,
      "ĠÐºÑĥÑĥÐ³ÑĥÐ½": 6071,
      "Ð°ÑĤÑĭÐ½Ð°Ð½": 6072,
      "ÑĨÐ¸ÑıÐ»Ð°ÑĢÐ´Ñĭ": 6073,
      "ĠÑĤÑĥÑĢÑĥÑĥ": 6074,
      "Ð³Ò¯Ð½": 6075,
      "ĠÑĤÐ°Ð¶ÑĢÑĭÐ¹Ð±Ð°": 6076,
      "ĠÑĤÐ°ÑĢÑĤÐ¸Ð±": 6077,
      "ĠÐ¾Ñİ": 6078,
      "Ð°ÑĤÑĤÑĭÐºÑĤÑĭÐ½": 6079,
      "ĠÐ£Ð·": 6080,
      "ĠÒ¯Ð¹Ð³Ó©": 6081,
      "ĠÐ¶Ð°ÑĢÐ°ÑĤÑĭÐ»ÑĭÑĪ": 6082,
      "Ð¸Ð½Ð¾": 6083,
      "ĠÐļÓ©Ð»": 6084,
      "ĠÐĳÐ°ÑĢÐ´ÑĭÐº": 6085,
      "ĠÐ£ÑİÐ¼": 6086,
      "ÐŀÑĪÐ¾Ð»": 6087,
      "ĠØ": 6088,
      "ĠÐ´Ò¯Ð¹Ð½Ó©Ð´Ó©Ð³Ò¯": 6089,
      "ÑĤÓ©Ð½": 6090,
      "ÑĥÐ³ÑĥÑĪ": 6091,
      "ĠÑģÐ°Ð±Ð°Ðº": 6092,
      "ush": 6093,
      "ĠÑģÑĭÑĢÑĤÐºÑĭ": 6094,
      "ĠÐ±Ð¸Ð»Ð´Ð¸ÑĢÐ¸ÑĪÐºÐµÐ½": 6095,
      "ÑĭÑĪÑĤÐ°": 6096,
      "ĠÐ´Ò¯Ð¹Ð½Ó©Ð´Ó©": 6097,
      "ĠÐ¶Ð¸Ð±ÐµÑĢÐ³ÐµÐ½": 6098,
      "ĠÐ°ÐºÑĭÑģÑĭÐ·": 6099,
      "Ð¾Ð»Ñĥ": 6100,
      "59": 6101,
      "ĠÑģÐµÐ»": 6102,
      "ĠÑĩÐ°ÑĢÐ°Ð»Ð°ÑĢ": 6103,
      "Ð£Ð»ÑĥÑĤÑĤÑĥÐº": 6104,
      "ĠÐ±ÐµÑĢÒ¯Ò¯Ð½Ò¯Ð½": 6105,
      "ÐºÒ¯Ð½Ð´Ó©": 6106,
      "ĠÐ¸ÑĪÐºÐ°Ð½Ð°": 6107,
      "ÐµÐ»ÐµÐ¿": 6108,
      "ĠÒ¯Ð³Ò¯": 6109,
      "ÑĥÐºÑĤÐ°": 6110,
      "ĠÑĪÐ°Ðº": 6111,
      "ĠÑĥÐ»ÑĥÑĤÑĤ": 6112,
      "ĠÑĢÐ°Ðº": 6113,
      "250": 6114,
      "ĠÐºÐ°ÑĢÐ¶Ñĭ": 6115,
      "Ð¸ÐºÐ°Ð´Ð°": 6116,
      "ĠÐ¸ÑĪÐµÐ½Ð¸Ð¼Ð´Ò¯Ò¯": 6117,
      "Ð³Ð¾Ð¾": 6118,
      "Ð¾Ð²Ð°Ð½ÑĭÐ½": 6119,
      "ĠÓ©Ð¹": 6120,
      "ĠÐºÐ¾ÑĢÐ¿": 6121,
      "ĠÑĤÐ¸ÑĢÒ¯Ò¯": 6122,
      "Ó¨Ð·Ð±ÐµÐº": 6123,
      "Ð¢Ðł": 6124,
      "ĠÐŁÐ¾Ð»": 6125,
      "ook": 6126,
      "ĠÑĩÑĭÐ³ÑĥÑĥÐ³Ð°": 6127,
      "ĠÐĳÐµÐ¹ÑĪÐµÐ½": 6128,
      "Ð«ÐĿ": 6129,
      "ĠÑĢÐ°Ð´Ð¸Ð¾": 6130,
      "ation": 6131,
      "ĠÑģÓ©Ó©Ð³Ò¯": 6132,
      "ĠÐ¢Ð°ÑĢÑĭÑħ": 6133,
      "Ð°Ð»Ð°Ð¼Ð°Ð½": 6134,
      "ĠÑĭÐ¹ÑĭÐº": 6135,
      "ĠÐ°ÑĤÐºÐ°ÑĢÑĭÐ¿": 6136,
      "ĠÑĭÐ»Ð°Ð¹ÑĭÐºÑĤ": 6137,
      "Ñ³Ð½": 6138,
      "ĠÐºÐ¾Ð¼Ð¿Ð°Ð½Ð¸ÑıÐ½ÑĭÐ½": 6139,
      "ĠÐ°ÑĢÐ°ÐºÐµÑĤÑĤÐµÑĢ": 6140,
      "ÙĲ": 6141,
      "ĠÐľÑįÑĢ": 6142,
      "ÐµÐ´Ð¾Ð¼ÑģÑĤÐ²": 6143,
      "ĠÐĸÐ°Ð¿": 6144,
      "ĠÒ¯ÑģÑĤÒ¯Ð½Ó©Ð½": 6145,
      "ĠÑĥÑĩÑĥÑĢÐ»Ð°ÑĢ": 6146,
      "ĠÐŀÐºÑĤÑıÐ±ÑĢÑĮ": 6147,
      "ÑĤÐ¸ÑĦ": 6148,
      "ÑģÐ¸Ð½ÑĩÐµ": 6149,
      "Ð°Ð»Ð°ÑĢÑĭÐ½Ð´Ð°": 6150,
      "ĠÐ¼Ð°Ð¼Ð¸Ð»ÐµÐ»ÐµÑĢ": 6151,
      "Ġ=": 6152,
      "ÐĲÐ¹ÑĤ": 6153,
      "ĠÐ¼Ð°Ð°Ð»ÑĭÐ¼Ð°ÑĤÑĤÑĭÐº": 6154,
      "ĠÐ°Ð»Ð°Ðº": 6155,
      "ĠÓ©Ð·Ð³Ó©ÑĢÒ¯Ò¯Ð»Ó©ÑĢ": 6156,
      "ĠÐºÓ©ÑĢÑģÓ©ÑĤÐ¼Ó©": 6157,
      "ĠÐ±Ð¸ÑĢÐ³ÐµÐ»ÐµÑĪÐºÐµÐ½": 6158,
      "88": 6159,
      "ÐµÐ³Ð¸Ð½Ðµ": 6160,
      "ĠÑįÐ¼ÐµÑģÑĤ": 6161,
      "ĠÐ¶Ð°ÑĤÑĭÑĪÐºÐ°Ð½": 6162,
      "ÐĸÐ°ÑĪ": 6163,
      "Ð¶Ð°Ð·Ð°": 6164,
      "ĠÐºÐµÐ»Ð±ÐµÐ¹": 6165,
      "Ð¶Ð°ÑĢÐ°": 6166,
      "ĠÐºÓ©Ð¼": 6167,
      "ĠÑģÐ°Ð»Ð°": 6168,
      "ĠÐ¢Ð°Ð±": 6169,
      "ĠÑĢÐµÑĦÐµÑĢÐµÐ½Ð´ÑĥÐ¼": 6170,
      "62": 6171,
      "Ð£ÑĢ": 6172,
      "Ð¸ÑĪÐºÐµ": 6173,
      "ĠÐ»Ð°Ð±Ð¾ÑĢ": 6174,
      "ĠÐ¶Ð¾Ð¾Ð¿ÐºÐµÑĢÑĩÐ¸Ð»": 6175,
      "Ð¡Ð¸Ð·": 6176,
      "âĢĿĊ": 6177,
      "ĠÐ°Ð»Ð±ÐµÑĤÑĤÐµ": 6178,
      "ĠÐľÐµÐ´Ð¸": 6179,
      "ĠÐĶÐ°ÑģÑĤÐ°Ð½": 6180,
      "ĠÐ´ÐµÑĪ": 6181,
      "ĠÐľÐ°Ñħ": 6182,
      "ĠÐºÓ©ÑĢÑģÓ©ÑĤÓ©ÑĤ": 6183,
      "ĠÐ¼ÐµÑħÐ°Ð½Ð¸Ð·Ð¼": 6184,
      "ÐºÐ¸Ð¹": 6185,
      "ĠÐ±Ð¾Ð¶": 6186,
      "ĠÑģÐ°ÐºÑĤÐ°Ð»ÑĭÐ¿": 6187,
      "ĠÑĩÐ°ÑĢÐ°Ð»Ð°ÑĢÐ´Ñĭ": 6188,
      "ĠÐ¼ÑĭÑĢÐ·Ð°": 6189,
      "Ð³ÑĥÐ»": 6190,
      "ĠÐ´ÐµÑģÐµ": 6191,
      "ĠÐ¿ÑĢÐ¾ÐºÑĥÑĢÐ¾ÑĢ": 6192,
      "ĠÐ¼ÐµÐ¹ÐºÐ¸Ð½": 6193,
      "ĠÐºÓ©ÑĢÒ¯Ò¯Ð³Ó©": 6194,
      "ĠÐ°ÑĢÑħÐ¸ÑĤÐµÐºÑĤ": 6195,
      "ĠÑĤÐ°Ð»Ð°Ð½": 6196,
      "ĠÐ°Ð¹Ð¼Ð°ÐºÑĤÐ°ÑĢÑĭÐ½Ð´Ð°": 6197,
      "ĠÐ´ÐµÑĪÐµÑĤ": 6198,
      "ĠÑĩÐ°Ð»Ð³ÑĭÐ½": 6199,
      "996": 6200,
      "ĠÐ·Ð°Ðº": 6201,
      "ÐºÑĭÐ»ÑĭÐ¼Ð´Ð°": 6202,
      "Ð¼Ð¸Ð½Ð¸ÑģÑĤÑĢÐ¸": 6203,
      "Ð¸Ð½Ð³ÑĤÐ¾Ð½": 6204,
      "ĠÐ±Ð°ÑĪÑĤÐ°Ð»ÑĭÐ¿": 6205,
      "ĠÐ¼ÐµÐ»Ð´ÐµÑĪÑĤ": 6206,
      "ĠÐ°ÑĢÑĤÑĭÐºÑĩÑĭÐ»": 6207,
      "ĠÐ±Ó©Ð»Ò¯Ðº": 6208,
      "ĠÐ°Ð´Ð¸Ñģ": 6209,
      "ÑĤÒ¯Ð»Ò¯Ðº": 6210,
      "ĠÐ°Ð´Ð°Ð±Ð¸Ð¹": 6211,
      "ĠÐ¾ÐºÑĪÐ¾Ð¹ÑĤ": 6212,
      "Ð¸ÑĪÐ¸Ð¿": 6213,
      "ĠÐºÓ©ÑĢÒ¯Ð½Ò¯ÑĪÑĤ": 6214,
      "ÐµÐºÑĤÐµÑĢÐ¸": 6215,
      "ĠÐºÐ¾ÑĢÑĢÑĥÐ¿ÑĨÐ¸ÑıÐ³Ð°": 6216,
      "Ð¾ÐºÑĤÑıÐ±ÑĢ": 6217,
      "ĠÐ°Ð»Ð´ÑĭÐ³Ð°": 6218,
      "ÐĲÐ½Ð´Ð°Ð½": 6219,
      "Ð°ÑĤÑĮ": 6220,
      "ĠÐ´Ð¾Ð»Ð±Ð¾Ð¾ÑĢÑĥÐ½ÑĥÐ½": 6221,
      "ĠÐ¶ÑĭÐ³Ð°Ñĩ": 6222,
      "ĠÐ¿ÑĢÐ¾ÑĤÐ¾ÐºÐ¾Ð»": 6223,
      "ĠÐ¶Ó©Ó©": 6224,
      "ÐµÐ½Ðµ": 6225,
      "ĠÐ¶Ð°Ð»Ð±ÑĭÑĢ": 6226,
      "ĠÐ´ÐµÐ¿ÑĥÑĤÐ°ÑĤÑĤÐ°ÑĢÑĭ": 6227,
      "Ð½ÑĭÐµ": 6228,
      "ak": 6229,
      "ĠÐ¼ÑĭÐ¹Ð·Ð°Ð¼Ð´ÑĥÑĥ": 6230,
      "ĠÐ±Ð°Ð³ÑĭÑĤÑĤÐ°": 6231,
      "ĠÐºÑĭÐ¹ÑĭÐ½ÑĩÑĭÐ»": 6232,
      "ĠÐ°ÑĤÐ°Ð»ÑĭÑĪÑĭ": 6233,
      "Ð°Ð±Ð°ÐµÐ²": 6234,
      "ĠÐºÐ¾ÑĢÐ³Ð¾Ð¾ÑĩÑĥ": 6235,
      "ĠÑĤÐ¾Ð±ÑĥÐ½ÑĥÐ½": 6236,
      "ĠÑĥÐ½Ð¸Ð²ÐµÑĢÑģÐ¸ÑĤÐµÑĤÐ¸": 6237,
      "ĠÑĦÐ¸Ð½Ð°Ð½ÑģÑĭÐ»ÑĭÐº": 6238,
      "ĠÐĲÐ²ÑģÑĤÑĢ": 6239,
      "ĠÐºÑĭÑĩÐºÑĭÐ»": 6240,
      "ĠÐ¶ÑĭÐ»ÑĭÐ½Ð°": 6241,
      "ĠÐºÐµÐ·Ð´ÐµÐ³Ð¸": 6242,
      "ÑĭÑģÑĤÑĭÐº": 6243,
      "Ð°ÑĤÑĤÐ°Ð³Ñĭ": 6244,
      "ĠÐºÐ¾ÑĪÑĥÐ»": 6245,
      "ĠÐ£Ð½": 6246,
      "Ð¸ÑĢÑįÑįÐº": 6247,
      "54": 6248,
      "ÑĭÑģÑĭÐ½": 6249,
      "ĠÐ¢ÑĥÑĢÑģÑĥÐ½": 6250,
      "ĠÐºÐ¸ÑĢÐµ": 6251,
      "ÐµÑĢÐ´Ðµ": 6252,
      "ĠÐ¿Ð»Ð°ÑĤ": 6253,
      "ĠÐ±ÐµÐ»Ð³Ð¸ÑģÐ¸": 6254,
      "ÑİÐºÑĤ": 6255,
      "ĠÑģÑĭÐ½Ð³Ð°": 6256,
      "ĠÐĺÐ½ÑĤÐµÑĢÐ½": 6257,
      "Ð°Ð»Ð¸ÑĨÐ¸Ñı": 6258,
      "ÑĥÐ¼Ð°": 6259,
      "ĠÐ¼Ð°ÑĪÐ¸Ð½Ð°": 6260,
      "ÑĢÐ¸Ñģ": 6261,
      "ĠÐ¸ÑĩÐ¸Ð½Ð´ÐµÐ³Ð¸": 6262,
      "Ð¸ÑıÐ»Ð°ÑĢ": 6263,
      "186": 6264,
      "ĠÐ±ÐµÐºÐµÑĢ": 6265,
      "ĠÑĦÐ¾ÑĢÐ¼Ð°": 6266,
      "ĠÐļÐ¾Ð½ÑģÑĤÐ¸ÑĤÑĥÑĨÐ¸ÑıÐ»ÑĭÐº": 6267,
      "Ġm": 6268,
      "ÐµÐ²Ð¸Ñĩ": 6269,
      "ĠÐºÐµÐ½ÐµÐ½": 6270,
      "ĠÐ¼Ð°Ð°Ð»ÑĭÐ½Ð´Ð°": 6271,
      "ÐµÑĩÐ¾ÑĢÐ°": 6272,
      "ĠÐºÓ©Ð¼Ó©Ðº": 6273,
      "ĠÐ·Ð¾Ð½": 6274,
      "ĠÐ±ÐµÐ»Ð³Ð¸Ð»ÐµÑĢÐ¸": 6275,
      "Ð¸Ð½Ð´Ð¸Ð½": 6276,
      "ĠÐĲÑĦÐ³Ð°Ð½": 6277,
      "Ò¯ÑĢÓ©Ðº": 6278,
      "ĠÐ¶ÐµÑĤÐµ": 6279,
      "ÑĥÐ±ÐµÑĢÐ½": 6280,
      "Ò£Ò¯Ð·": 6281,
      "ĠÐ°ÐºÑĭÑĢÑĭÐ½": 6282,
      "ĠÐºÐµÑģÐµÐ¿ÐµÑĤÐ¸Ð½ÐµÐ½": 6283,
      "ĠÐ±Ð°Ð°Ð»ÑĥÑĥÐ»": 6284,
      "ĠÐ±Ð¸Ð»Ò¯Ò¯": 6285,
      "ĠÑĩÑĭÐ³ÑĭÑĪÑĤÑĭ": 6286,
      "ĠÐºÑĥÐ±Ð°ÑĤÑĤ": 6287,
      "ĠÐºÐ¾Ð»Ð´Ð¾Ð½ÑĥÐ»": 6288,
      "ĠÐ¼Ò¯Ð½Ó©Ð·Ð´Ó©": 6289,
      "ĠÑĤÐ°Ð»Ð°Ð°": 6290,
      "ĠÑĤÒ¯Ð·Ð´Ò¯": 6291,
      "ĠÐºÓ©Ð·Ó©Ð¼Ó©Ð»Ð´Ó©Ó©": 6292,
      "ĠÑįÐ¶": 6293,
      "ĠÐ¾Ð±Ð»ÑĥÑģÑĥÐ½Ð°": 6294,
      "ÑĭÐºÑĤÑĭÑıÑĢ": 6295,
      "ĠÐļÐłÐ½ÑĭÐ½": 6296,
      "Ò¯ÑĪÒ¯Ð¿": 6297,
      "ĠÐ´Ð°ÑĢÑĭÑıÐ»Ð°ÑĢÑĭ": 6298,
      "ĠÐ´Ð¾ÐºÑĥÐ¼ÐµÐ½ÑĤÑĤÐµÑĢÐ´Ð¸": 6299,
      "Ð³Ð¾ÑĢ": 6300,
      "ÐµÐ½ÐµÑĨ": 6301,
      "ÐļÑĥÐ¼ÑĤÓ©ÑĢ": 6302,
      "ĠÐ±ÐµÑĢÑģÐµ": 6303,
      "ĠÑĭÑĢÐ³Ñĭ": 6304,
      "ĠÐ¨Ð²": 6305,
      "Ð±ÑĭÐ·Ð³Ð°": 6306,
      "ÐĺÑĪ": 6307,
      "ĠÐ¿Ð°Ð¹Ð³Ð°Ð¼Ð±": 6308,
      "ĠÐ¶Ð°ÑĤÐºÐ°Ð½Ð´ÑĭÐ³ÑĭÐ½": 6309,
      "ĠÐºÐ¾Ð¼Ð¸ÑģÑģÐ¸ÑıÑģÑĭÐ½ÑĭÐ½": 6310,
      "Ò¯Ð¼Ð´Ò¯": 6311,
      "ĠÐºÐ¾Ð»ÑĥÐ½Ð°": 6312,
      "ĠÐ±Ð°ÑĪÐºÐ°ÑĢÐ¼Ð°Ð»ÑĭÐ³Ñĭ": 6313,
      "ĠÐºÐ¾Ð¼Ð¼ÐµÑĢÑĨÐ¸ÑıÐ»ÑĭÐº": 6314,
      "Ð¾Ð²ÐºÐ°": 6315,
      "ĠÑįÐºÐ¾Ð»Ð¾Ð³Ð¸ÑıÐ»ÑĭÐº": 6316,
      "ĠÑģÐ°Ñħ": 6317,
      "Ð°Ð°": 6318,
      "ĠÐļÐ°ÑĪ": 6319,
      "Ð¸Ð¼Ð´Ðµ": 6320,
      "ĠÐ´Ð¸Ð¿Ð»Ð¾Ð¼Ð°ÑĤ": 6321,
      "ĠÐ´ÑĥÑĥ": 6322,
      "ĠÐºÐ¾Ð»Ð¾Ð½": 6323,
      "ĠÑĩÑĭÐ³ÑĭÑĪÑĭ": 6324,
      "ĠÑĪÐ°Ð¹Ð»Ð¾Ð¾Ð½ÑĥÐ½": 6325,
      "ĠÑĥÑİÐ¼Ð´ÑĥÐ½": 6326,
      "Ð³Ð¸Ð¿": 6327,
      "ĠÐļÐ°Ð¿": 6328,
      "ĠÐ¸Ð½Ð¶": 6329,
      "ĠÐºÐ°ÑĤÑĤÐ°Ð»Ð´Ñĭ": 6330,
      "ÐºÐ°ÑĢÐ°": 6331,
      "ÑģÐ°Ð¼Ð±Ð»": 6332,
      "ĠÑįÑĦÐ¸ÑĢ": 6333,
      "ÑħÐµÐ¼": 6334,
      "ÑĭÑĪÑĤÑĭÐ½": 6335,
      "ĠÐºÐ»Ð¸Ð½": 6336,
      "ĠÐ±Ð¸ÑĢÐ´ÐµÐ½": 6337,
      "ĠÐ¾ÐºÐµ": 6338,
      "ĠÐ¸Ð½ÑģÐ¿": 6339,
      "ĠÐ¼Ð°ÑĤÐµÐ¼Ð°ÑĤ": 6340,
      "ÑĪÑĤÑĥ": 6341,
      "ĠÐºÑĥÑĥÐ³ÑĥÐ½ÑĤ": 6342,
      "ÑĭÐ³ÑĥÑĥ": 6343,
      "ĠÐ¡Ð¾ÑİÐ·": 6344,
      "ĠÐºÐ¸ÑĢÐ³Ð¸Ð·Ð³ÐµÐ½": 6345,
      "Ð«ÑģÑĭÐº": 6346,
      "Ð´ÑĥÐºÑĤÑĥ": 6347,
      "ĠÑĦÐµÐ²ÑĢ": 6348,
      "Ġof": 6349,
      "ĠÐ°Ò£Ð³ÐµÐ¼": 6350,
      "Ð´Ð¸ÐµÐ²": 6351,
      "ĠÐľÑĥÑģ": 6352,
      "Ò¯ÐºÑĤÓ©ÑĢÐ´Ò¯": 6353,
      "ĠÐ°Ð¹Ð¼Ð°ÐºÑĤÐ°ÑĢÐ´Ð°": 6354,
      "Ò¯ÑĤÐºÒ¯Ð»": 6355,
      "ĠÑģÑĥÑĢÐ°ÐºÐºÐ°": 6356,
      ".).": 6357,
      "ÑĩÑĭÐº": 6358,
      "ÑĭÐ¼Ð°": 6359,
      "ĠÐ¿ÑĢÐ¾Ð³ÑĢÐ°Ð¼Ð¼Ð°": 6360,
      "ĠÑģÑĭÐ¹Ð»ÑĭÐº": 6361,
      "ÐµÐ¹Ð¼": 6362,
      "ĠÐ¶ÐµÑĤÐºÐ¸ÑĢÒ¯Ò¯": 6363,
      "Ð¾ÑĤÐµÐ½": 6364,
      "Ð´Ð¸Ð»": 6365,
      "ĠÐ·Ð°Ð²Ð¾Ð´": 6366,
      "Ð¸Ð¼Ð´Ð¸Ð½": 6367,
      "ĠÑĤÒ¯Ð·Ò¯Ò¯Ð³Ó©": 6368,
      "ĠÐ´Ð°ÑĢÑĭÐ»Ð°Ð½": 6369,
      "ĠÐ¿ÐµÐ´Ð°Ð³Ð¾Ð³Ð¸ÐºÐ°Ð»ÑĭÐº": 6370,
      "ÐºÐ°Ð¼": 6371,
      "ĠÐ±Ð°ÑĢÐ±Ñĭ": 6372,
      "ĠÐ°ÑĤÐ°Ð°Ð½Ð´Ð°ÑĪÑĤ": 6373,
      "ĠÐ°ÑĪÐºÐ°Ð½": 6374,
      "Ð°Ð»ÑĭÐ½Ð°": 6375,
      "ĠÐºÐ°ÑĢÐ¼Ð°Ð³Ð°Ð½": 6376,
      "ĠÐ´Ð¸Ð·": 6377,
      "ĠÐ»Ð¾Ð³": 6378,
      "ĠÓ©Ò£Ð´Ò¯Ò¯": 6379,
      "ĠÑĦÐ¾Ð½Ð´ÑĥÐ½ÑĥÐ½": 6380,
      "com": 6381,
      "ĠÑĤÐ¸Ð³": 6382,
      "ĠÐĵÐ¾Ð»": 6383,
      "ĠÐ¤ÐµÑĢ": 6384,
      "ĠÐ±Ð¾Ð¶Ð¾Ð¼Ð¾Ð»": 6385,
      "ĠÐ¿Ð¾Ð¿ÑĥÐ»": 6386,
      "ĠÐ¶Ð°ÑĪÑĭ": 6387,
      "ĠÑģÐ°Ð»ÑĤÐ°Ð½": 6388,
      "ĠÐ¢ÑĭÐ½": 6389,
      "ÐĳÐ°Ðº": 6390,
      "ÐµÐ½ÑĤÑĤÐ¸Ð½": 6391,
      "Ð±ÐµÐºÐ¾Ð²Ð´ÑĥÐ½": 6392,
      "ĠÐºÐ°Ð³Ñĭ": 6393,
      "ĠÐºÓ©Ð·Ð´Ó©Ð¹": 6394,
      "ĠÑĪÐ°ÑĢÑĤÑĤÐ°": 6395,
      "urm": 6396,
      "ĠÑģÑĤÑĥÐ´ÐµÐ½ÑĤÑĤÐµÑĢ": 6397,
      "ĠÐ°Ð¿ÑĤÐ°": 6398,
      "Ñ³ÑĢ": 6399,
      "ĠÑĩÐµÑĩÐ¸Ð»": 6400,
      "ĠÐºÐ¸ÑĪÐ¸Ð»ÐµÑĢ": 6401,
      "ĠÐºÐ°ÑĦÐµÐ´ÑĢ": 6402,
      "Ð£Ðº": 6403,
      "Ð±Ð¸ÑĢÐ¸Ð½Ðµ": 6404,
      "ÐĶÒ¯Ð¹Ð½": 6405,
      "ĠÐºÐµÐ·Ð´ÐµÑĪ": 6406,
      "ĠÑĤÒ¯ÑĢÑĤÐº": 6407,
      "ĠÐºÐ°ÑĢÐ¼Ð¾Ð¾": 6408,
      "ĠÐ¼Ð¸Ð½Ð¸ÑģÑĤÑĢÐ»Ð¸Ð³Ð¸Ð½Ðµ": 6409,
      "ĠÂ»": 6410,
      "Ð»ÐµÑĤ": 6411,
      "Ð±Ð¾Ð¾": 6412,
      "ÐºÐ°Ð±": 6413,
      "ĠÐ´Ð¾Ñģ": 6414,
      "Ð¶ÑĭÐ»ÐºÑĭ": 6415,
      "ĠÑĢÐ°Ð¹Ð¾Ð½Ð³Ð¾": 6416,
      "ĠÐ´ÐµÒ£Ð³ÑįÑįÐ»Ð¸": 6417,
      "ĠÐ¿ÑĢÐ¾Ð²Ð¸Ð½": 6418,
      "187": 6419,
      "ÑĤÐµÑĢÐ¸Ð½": 6420,
      "Ð¾ÑģÑĤÐ¸": 6421,
      "ĠÓ©ÑĢÐºÒ¯Ð½Ð´Ó©": 6422,
      "ĠÐ¡Ð¾ÑĤÑĤ": 6423,
      "ĠÐ°Ð¹Ð´Ð°Ð½": 6424,
      "ÑĩÑĭÐ»Ð°ÑĢÑĭÐ½ÑĭÐ½": 6425,
      "ÑģÑĭÐ·Ð´Ð°Ð½": 6426,
      "ĠÐ¿ÑĢÐ¾Ð³ÑĢÐ°Ð¼Ð¼Ð°ÑģÑĭ": 6427,
      "ĠÑĥÑĤÑĥÐ¿": 6428,
      "ÐķÐł": 6429,
      "ÐµÑĪÐ¸": 6430,
      "ÐĸÐ°Ðº": 6431,
      "ĠÑĭÑĢÐ°Ð°Ð·ÑĭÑĩÑĭÐ»ÑĭÐº": 6432,
      "Ġb": 6433,
      "ÑıÐ³Ñĭ": 6434,
      "ĠÐ¡Ò¯ÑĢÓ©ÑĤ": 6435,
      "Ð³Ð°Ð¼": 6436,
      "ĠÐ¡ÑĥÑĥ": 6437,
      "Ġ//": 6438,
      "ĠÑĤÐ°ÑıÐ½ÑĭÐ¿": 6439,
      "ÐµÐ¿ÑĥÑĤÐ°ÑĤ": 6440,
      "ÐĲÐ´Ð°Ð¼": 6441,
      "ĠÐĸÑĥÑģÑĥÐ¿": 6442,
      "ÑĥÑĪÑĤÑĥÐº": 6443,
      "ĠÓ©ÑģÐºÓ©Ð½": 6444,
      "ĠÐĲÑıÐ»": 6445,
      "ÑħÐ°": 6446,
      "Ð³Ð°Ð½Ð´Ð°ÑĢ": 6447,
      "Ð£Ð£": 6448,
      "700": 6449,
      "180": 6450,
      "ĠÐ¨Ð°Ð°ÑĢÐ´ÑĭÐ½": 6451,
      "ĠÐ°Ð±Ð°Ð»ÑĭÐ½": 6452,
      "ĠÐ±Ð°ÐºÑĩ": 6453,
      "ĠÐ±ÑĥÐ»Ð°Ð³Ñĭ": 6454,
      "ĠÑĢÐµÐ°Ð»Ð´ÑĥÑĥ": 6455,
      "ĠÐ±Ð¾Ð»ÑĥÑĪÑĥÐ½": 6456,
      "ĠÑĩÐ¾": 6457,
      "ĠÑĭÐºÑĤÑĭÑıÑĢ": 6458,
      "ĠÐĳÐ°Ð·Ð°ÑĢ": 6459,
      "ĠÐºÐµÐ»Ð°ÑĤ": 6460,
      "ĠÐ¶Ð°ÑĪÑĭÑĢÑĥÑĥÐ½": 6461,
      "Ð¾Ð½Ð¾Ð²": 6462,
      "ĠÐºÑĭÐ·Ð´Ñĭ": 6463,
      "urmush": 6464,
      "ĠÑĦÑĢÐ°ÐºÑĨÐ¸ÑıÑģÑĭÐ½ÑĭÐ½": 6465,
      "ĠÐ¶Ð°Ð¹ÑĭÐ½Ð´Ð°": 6466,
      "ĠÐºÐ°Ð»ÑĭÑĪÑĤÑĭ": 6467,
      "Ð¾ÑĢÐ´Ð¸Ð½": 6468,
      "ĠÐĿÐ°ÑĤÑĭÐ¹Ð¶Ð°Ð´Ð°": 6469,
      "ĠÐ½Ð°ÑĢÐº": 6470,
      "ĠÐ¿Ð°Ð¹Ð´Ð°Ð»Ð°Ð½ÑĭÐ¿": 6471,
      "ĠÐ¶ÑĭÐ¹ÑĭÐ½ÑĭÐ½": 6472,
      "ĠÐŃÑĩ": 6473,
      "ĠÑĤÐ¾Ð±Ð¾ÐºÐµÐ»": 6474,
      "Â»)": 6475,
      "ĠÐºÐµÐ·ÐµÐºÑĤÐµÐ³Ð¸": 6476,
      "ĠÑģÐ°Ð¹ÑĤÑĭ": 6477,
      "ĠÐ£Ð»Ð°Ð½": 6478,
      "ĠÐ±ÑĭÐ»ÑĤÑĭÑĢ": 6479,
      "ÐļÓ©Ð¿": 6480,
      "ĠÐ±ÐµÑĢÐ¸ÑĪÐ¸": 6481,
      "Ð°Ð½Ð°Ð´Ð°": 6482,
      "ÐŀÑİÐ½": 6483,
      "87": 6484,
      "ĠÐ°Ð¹Ð½": 6485,
      "ĠÑĥÑİÑĪÑĤÑĥÑĢÑĥÐ»Ð³Ð°Ð½": 6486,
      "ĠÐºÐ°Ð½Ð´Ð¸": 6487,
      "ĠÑįÐ½ÐµÑĢÐ³ÐµÑĤÐ¸ÐºÐ°": 6488,
      "ĠÓ©ÑĤÐºÓ©ÑĢÒ¯Ð»Ð³Ó©Ð½": 6489,
      "Ó©Ð³Ó©ÑĤ": 6490,
      "ĠÑįÐ¼ÐµÑģÐ¼Ð¸Ð½": 6491,
      "ĠÑĩÐµÐºÑĤÓ©Ó©": 6492,
      "ĠÐºÐµÐ¹": 6493,
      "ĠÑģÒ¯Ð¹Ð»Ó©Ð¿": 6494,
      "ĠÐºÑĭÐ»Ð¼ÑĭÑĪÑĤÑĥÑĥ": 6495,
      "Ð°ÑĢÐ°Ð»ÑĭÐº": 6496,
      "002": 6497,
      "ÑĦÑĦÐµÐºÑĤ": 6498,
      "ÐºÑĭÑĢÐ³ÑĭÐ·": 6499,
      "ĠÐ²ÑĢÐ°": 6500,
      "Ð´Ð¸ÐºÑĤÐ¸Ð½": 6501,
      "Ð¸ÑĤÐµÑĢ": 6502,
      "ĠÐºÐµÒ£ÐµÑĪÑĤ": 6503,
      "ĠÑģÐ¸ÑģÑĤÐµÐ¼Ð°": 6504,
      "ĠÐ¿Ð°ÑģÐ¿Ð¾ÑĢÑĤ": 6505,
      "ĠÐ¼Ð¸Ò£Ð³Ðµ": 6506,
      "ĠÐ¶ÐµÑĤÐµÐºÑĩ": 6507,
      "Ð°Ð¼ÑĭÑĢ": 6508,
      "ĠÐĳÑįÑį": 6509,
      "ĠÐºÑĭÐ»ÑĭÑĪÐºÐ°Ð½": 6510,
      "Ò¯Ð½Ó©ÑĤ": 6511,
      "ÑİÐ¶": 6512,
      "ĠÐĲÐ·Ð¸Ð·": 6513,
      "ĠÐºÐ¾Ò£ÑĪÑĥ": 6514,
      "ĠÐºÐ¾Ñģ": 6515,
      "Ð°ÑĨÐ¸ÑıÐ»Ð¾Ð¾": 6516,
      "ĠÑĤÑĥÑĢÐ³Ð°Ð½Ð´Ð°": 6517,
      "ĠÐŀÐ½": 6518,
      "ĠÐ°Ð¹ÑĤÑĭÑĪÑĤÑĭ": 6519,
      "ÐļÑĥ": 6520,
      "ĠÐ¡ÑĭÐ´ÑĭÐº": 6521,
      "Ð³Ð¸Ð»Ðµ": 6522,
      "ĠÐºÓ©ÑĢÒ¯Ð½Ò¯Ð¿": 6523,
      "ĠÐ±Ð°ÑģÑĭÐ¼Ð´ÑĥÑĥ": 6524,
      "ĠÐºÐ¾Ð½ÑģÑĤÐ¸ÑĤÑĥÑĨÐ¸ÑıÐ»ÑĭÐº": 6525,
      "ĠÐºÒ¯Ð¹Ó©Ó©": 6526,
      "ĠÐºÑĭÐ·Ð´Ð°ÑĢ": 6527,
      "ĠÐºÐ°Ð»ÑĥÑĥ": 6528,
      "ĠÐ±ÑĥÐ»Ð°Ð³ÑĭÐ½": 6529,
      "ĠÐºÑĭÐ¼Ð±": 6530,
      "ab": 6531,
      "ĠÐ´Ð¸Ð°Ð»": 6532,
      "ĠÑģÐµÐ±ÐµÐ¿ÑĤÐµÐ½": 6533,
      "Ð»Ð°Ð³Ð°Ð½": 6534,
      "ĠÑĪÐ°Ð¼": 6535,
      "ĠÑģÐ°Ð³Ð°": 6536,
      "ÑģÐµÐ·": 6537,
      "ÐµÐºÑĤÐµÑĢÐ´Ð¸Ð½": 6538,
      "ÑĥÐºÑĤÐ°Ð½": 6539,
      "Ð¾Ò£ÑĥÐ·": 6540,
      "ĠÐºÐ°Ð¼ÑĤÑĭÐ³Ð°Ð½": 6541,
      "Ó©Ð´Ò¯": 6542,
      "ĠÑģÐµÐ½Ð¸": 6543,
      "Ð°Ð»Ð°ÑĢÑĭÐ½Ð°": 6544,
      "ĠÐĳÐ¸ÑĢÐ¸ÐºÐºÐµÐ½": 6545,
      "ĠÐ·Ð¾ÑĢÐ´ÑĥÐºÑĤ": 6546,
      "ĠÑĩÐµÑĤÑĤ": 6547,
      "ÑĤÐ°ÑĨÐ¸Ñı": 6548,
      "ÑģÐºÐ°Ñı": 6549,
      "ĠÐ±ÑĢ": 6550,
      "ĠÐ°Ð¹ÑĤÑĭÑĪÐºÐ°Ð½": 6551,
      "ĠÐ°ÑĩÐºÐ°Ð½": 6552,
      "Ð´ÐµÐ³ÐµÐ½Ð´Ðµ": 6553,
      "ĠÑįÐ»ÑĩÐ¸ÑģÐ¸": 6554,
      "ÐĲÐ»ÑĤÑĭÐ½": 6555,
      "ĠÐºÐ¸Ð»Ð¾Ð³ÑĢÐ°Ð¼Ð¼": 6556,
      "ĠÐ´Ð°Ò£": 6557,
      "ĠÐ¶ÑĥÑĢÑĤ": 6558,
      "ĠÐºÓ©ÑĢÒ¯Ð½Ó©ÑĤ": 6559,
      "____": 6560,
      "ĠÐĸÐµÑĤ": 6561,
      "ĠÐ²ÐµÑĢÑģ": 6562,
      "ÐµÑĢÐ¸Ð½Ð´Ðµ": 6563,
      "Ð³Ð°Ð¿": 6564,
      "Ġf": 6565,
      "Ð¸ÑĤÑĤÐµÑĢ": 6566,
      "ĠÐºÐ¸Ð¹Ð¸Ð½ÑĩÐµÑĢÑįÑįÐº": 6567,
      "ÑģÓ©Ð½": 6568,
      "ĠÐ¶Ð¾Ð¼": 6569,
      "Ð±ÐµÑĢÐ³": 6570,
      "ĠÐ°Ð³ÐµÐ½ÑĤÑĤÐ¸Ð³Ð¸Ð½Ð¸Ð½": 6571,
      "Ð°ÑĤÐ¾ÑĢÐ»Ð¾ÑĢ": 6572,
      "ĠÐļÐ¾Ðº": 6573,
      "ĠÐ°Ð»Ð³Ð°Ð½ÑĭÐ½": 6574,
      "ĠÐłÐµÐ¹Ð½": 6575,
      "Ð£ÑĪÑĥÐ»": 6576,
      "ĠÑĤÐ¸ÑĤÐ¸ÑĢ": 6577,
      "ĠÐ¶Ð°Ð°ÑĤÑĭÐ½Ð´Ð°": 6578,
      "ec": 6579,
      "ÑģÑĭÐ»": 6580,
      "ĠÐ¶Ð°ÑĤÐºÑĭÑĢ": 6581,
      "ÐĳÐ¸ÑĪÐºÐµÐºÑĤÐµ": 6582,
      "ĠÐ¸Ð·Ð¸Ð»Ð´Ó©Ó©Ð»Ó©ÑĢ": 6583,
      "ĠÓ©Ð½Ò¯ÐºÑĤÒ¯ÑĢÒ¯Ò¯Ð³Ó©": 6584,
      "ĠÐºÐ¾Ð¾ÑĢÐ´Ð¸Ð½": 6585,
      "ĠÑĤÐ¸Ð»Ð´ÐµÑĢ": 6586,
      "ÑĩÑĭÐ»ÑĭÐºÐºÐ°": 6587,
      "ĠÐľÐ°ÑĤÑĢÐ°Ð¸Ð¼Ð¾Ð²": 6588,
      "ri": 6589,
      "ĠÐľÐµÐºÑĤÐµÐ¿": 6590,
      "ĠÑĤÐ°Ð¿ÑĤÐ°ÐºÑĭÑĢ": 6591,
      "ĠÐ°Ð¶Ñĭ": 6592,
      "ĠÑģÐ¾ÑĤÑĥÐ½ÑĥÐ½": 6593,
      "ĠÐ¶Ð°Ð±ÑĭÑĢÐ»Ð°Ð½": 6594,
      "ÑģÐµÐ½ÑĤÑıÐ±ÑĢ": 6595,
      "ĠÑĤÒ¯Ð¹Ò¯Ð½": 6596,
      "ÐļÐ»Ð¾Ð¾Ð¿": 6597,
      "ĠÐļÐ¡ÐĶÐŁ": 6598,
      "ĠÐºÐµÐ·Ð¸Ð½Ð´Ðµ": 6599,
      "Ð´Ò¯Ò¯Ð»Ò¯Ð³Ò¯Ð½": 6600,
      "Ð¸ÐºÑĤÐµÑĢÐ´Ð¸": 6601,
      "Ð±Ò¯Ð»Ó©Ñģ": 6602,
      "ÑĭÑĪÐºÐ°": 6603,
      "ĠÐ¶Ò¯ÑĢÐ³Ò¯Ð·Ò¯Ð»Ò¯Ð¿": 6604,
      "Ð¾Ð½Ð¾Ð¼Ð¸ÐºÐ°": 6605,
      "ĠÑĭÐ½ÑĤÑĭÐ¼": 6606,
      "ĠÐŁÐ°Ð½": 6607,
      "52": 6608,
      "ĠÐ°Ð¹Ð¼Ð°Ðº": 6609,
      "ĠÑĭÐ·": 6610,
      "Ð¸Ð¶": 6611,
      "ĠÐ±ÐµÑĢÐ¸ÑĪÐµÑĤ": 6612,
      "Ð´Ð°ÑĪÑĤÑĭÑĢ": 6613,
      "ĠÐºÐµÑĤÒ¯Ò¯Ð³Ó©": 6614,
      "ĠÐºÒ¯Ð±Ó©Ð»": 6615,
      "ĠÐºÐ¸ÑĩÐ¸Ð½Ðµ": 6616,
      "ĠÐ¸Ð¶Ð°ÑĢÐ°": 6617,
      "ĠÐĲÐ·ÐµÑĢÐ±Ð°Ð¹Ð¶Ð°Ð½": 6618,
      "ÑĤÑĤÐ°ÑĢÐ´Ñĭ": 6619,
      "ĠÐ¼Ð¾Ð¹Ð½ÑĥÐ½Ð°": 6620,
      "ÑģÑĥÐ»": 6621,
      "ÑĭÐ½ÑĭÐ¿": 6622,
      "ĠÐ´ÐµÐ¿ÑĥÑĤÐ°ÑĤÑĤÑĭÐº": 6623,
      "ĠÐºÐ¸Ð¼Ð³Ðµ": 6624,
      "ĠÐºÑĭÐ»ÑĭÐ½Ð°ÑĤ": 6625,
      "ÐµÐ¹ÑģÐ±": 6626,
      "ÐºÐ»Ð°ÑģÑģÑĤ": 6627,
      "ow": 6628,
      "ĠÑĩÐµÐºÑĤÐµÐ»Ð³ÐµÐ½": 6629,
      "ÑĤÒ¯Ð½": 6630,
      "Ð°Ð¼Ð³ÑĭÑĢ": 6631,
      "ĠÐ°ÑĤÐ¾Ð¼": 6632,
      "ĠÑĤÐ°ÑĢÐ°Ð¿ÐºÐ°": 6633,
      "ĠÒ¯Ð¹Ò¯Ð½Ð´Ó©": 6634,
      "ĠÐ°ÑĢÑĤÐ¸ÑģÑĤÐ¸": 6635,
      "ĠÐ¶ÐµÑĢÐ¸Ð½ÐµÐ½": 6636,
      "Ð¸ÑĪÐ¸Ð½Ðµ": 6637,
      "ĠÑĤÐ°ÑĢÑĤÐ¸Ð±Ð¸": 6638,
      "ÐºÐµÐ¼": 6639,
      "ĠÑĤÐµÐ¿": 6640,
      "ÐºÓ©Ð»": 6641,
      "Ð¸Ð³ÐµÑĢ": 6642,
      "ĠÑģÐ¾Ð¾Ð»ÑĥÐº": 6643,
      "ĠÑģÐ°ÑıÑģÐ°ÑĤÑĭ": 6644,
      "ĠÐºÐ¾Ð»Ð´Ð¾Ð¾Ð³Ð¾": 6645,
      "ÙİÙ": 6646,
      "ĠÑģÑĥÐ»": 6647,
      "ĠÐĲÐ»Ð¼Ð°ÑĤÑĭ": 6648,
      "ĠÐºÒ¯Ð½Ó©Ó©": 6649,
      "Ð¾Ò£Ð´Ð¾Ð¾": 6650,
      "ÑįÐ½ÐµÐ»ÐµÑĢ": 6651,
      "ĠÐ±ÐµÑĢÐµÐ±Ð¸Ð·": 6652,
      "ĠÐ°Ð´Ð¸ÑģÑĤÐµÑĢ": 6653,
      "ĠÐ¼Ð¸Ò£Ð´ÐµÐ³ÐµÐ½": 6654,
      "ĠÐ¾Ð¹Ð»Ð¾Ð¹Ð¼": 6655,
      "ÑĢÐµÑĤ": 6656,
      "ĠÐ±Ð¸Ð»Ð´Ð¸ÑĢÐ³ÐµÐ½Ð´ÐµÐ¹": 6657,
      "ĠÐ°ÑĤÐ°Ð¿": 6658,
      "ĠÐºÐ¾Ð»Ð´Ð¾Ð³Ð¾Ð½": 6659,
      "ÑģÐ°Ð¹": 6660,
      "ĠÐºÐµÑĤÐ¸ÑĪÐ¸": 6661,
      "ĠÐºÒ¯ÑĢÓ©ÑĪÑĤ": 6662,
      "Ð°Ð»ÑĥÑĥÑĩÑĥ": 6663,
      "ĠÐºÐµÑĢÐµÐ³Ð¸": 6664,
      "ĠÐ±Ð°Ð¹Ð»Ð°Ð½ÑĭÑĪÑĭ": 6665,
      "ĠÓ¨ÑĤÐºÓ©Ð½": 6666,
      "ĠÑĤÐ°Ð±ÑĭÐ»Ð´Ñĭ": 6667,
      "ĠÐ°ÑģÑģÐ¾ÑĨÐ¸": 6668,
      "ĠÑĤÐ¾ÐºÑĤÐ¾Ð¿": 6669,
      "ĠÐ°Ð´Ð¸Ð»": 6670,
      "ÑĩÑĭÐ³": 6671,
      "ĠÐ½Ð°Ð°ÑĢÐ°Ð·ÑĭÐ»ÑĭÐº": 6672,
      "Ð¿ÐµÐ³ÐµÐ½": 6673,
      "ĠÑĤÑĥÑĢÐ°": 6674,
      "ĠÐ¶Ò¯ÑĢÐ³Ò¯Ð½": 6675,
      "ĠÑĥÐ·Ð°ÑĢÑĤ": 6676,
      "ĠÐ¾Ð¹Ð½Ð¾Ð³Ð¾Ð½": 6677,
      "ĠÐ´ÐµÐ¼Ð¸Ð»Ð³ÐµÑģÐ¸": 6678,
      "ĠÐ³Ð¸Ð´ÑĢ": 6679,
      "Ð¼Ð°Ð´": 6680,
      "ĠÑĤÐ°Ð°Ð½ÑĭÑĪÑĤÑĭÑĢ": 6681,
      "ĠÓ©Ð»ÑĩÓ©Ð¼Ò¯": 6682,
      "ĠÑĩÐµÐ³Ð¸Ð½Ð´Ðµ": 6683,
      "ĠÐĲÐ»Ð°Ð¹": 6684,
      "ĠÐºÐ¾Ð»ÑħÐ¾Ð·": 6685,
      "ĠÐ¶ÐµÑĢÐ»ÐµÑĢÐ´Ðµ": 6686,
      "ĠÐĶÐ¾Ð½": 6687,
      "ĠÐ²ÐµÐ±": 6688,
      "ĠÐ°Ð»Ð¼Ð°ÑĪÑĥÑĥ": 6689,
      "ĠÓ©Ð¼Ò¯ÑĢÒ¯Ð½": 6690,
      "ÑĩÑĭÐ³ÑĭÑĪ": 6691,
      "ĠÑģÐ°Ð½ÑĭÐ½": 6692,
      "ĠÐ°ÑĪÑĭÐ¿": 6693,
      "ĠÐ¶Ð°Ð±ÑĭÐº": 6694,
      "Ð¢ÐµÑĢ": 6695,
      "ÐºÐ°Ð³Ð°": 6696,
      "Ð°ÑĪÑĤÑĭÑĢÑĥÑĥ": 6697,
      "ÑģÑĤÑĢÑĥÐº": 6698,
      "ĠÐ¶ÑĭÐ»ÐºÑĭ": 6699,
      "ĠÐŀÐ¾Ð±Ð°": 6700,
      "ĠÐ´ÐµÐ¼Ð¾ÐºÑĢÐ°ÑĤÐ¸ÑıÐ»ÑĭÐº": 6701,
      "ÑįÑĤ": 6702,
      "ĠÑģÐ°Ð½Ð¸ÑĤÐ°ÑĢÐ´ÑĭÐº": 6703,
      "ÐĸÐ°Ð»Ð°Ð»": 6704,
      "ĠÑĤÒ¯Ð·Ò¯Ð»Ó©ÑĤ": 6705,
      "ĠÐ±Ð°Ð»Ð»": 6706,
      "ĠÑĤÐ¾ÐºÑĤÐ¾ÑĤÑĥÑĥ": 6707,
      "ĠÐĿÐ¸ÑıÐ·": 6708,
      "ĠÑĤÒ¯Ð·Ò¯Ð»Ò¯ÑĪÒ¯": 6709,
      "ĠÐºÓ©ÑĢÐ³Ó©Ð·Ð¼Ó©": 6710,
      "63": 6711,
      "ĠÐĿÐ°": 6712,
      "ĠÐ¶Ð°ÐºÑĭÐ½ÐºÑĭ": 6713,
      "ĠÐ¸ÑĪÐºÐ°Ð½Ð°ÑģÑĭÐ½ÑĭÐ½": 6714,
      "ĠÑĤÐ°ÑĢÐ°ÑĤ": 6715,
      "Ð°ÑĤÑĭÐ½Ð´Ð°Ð³Ñĭ": 6716,
      "ĠÐºÐ¾ÑĢÑĢÑĥÐ¿ÑĨÐ¸ÑıÐ»ÑĭÐº": 6717,
      "ĠÐ°ÐºÑĩÐ°Ð½Ñĭ": 6718,
      "ĠÒ¯Ð»Ð³Ò¯ÑģÒ¯Ð½Ð´Ó©Ð³Ò¯": 6719,
      "Ð±Ð°ÑĪÑĭ": 6720,
      "Ð¸ÑıÐ»": 6721,
      "Ð¾Ð¼Ð¿": 6722,
      "ĠÐ½ÐµÐ³Ð¸Ð·Ð´Ðµ": 6723,
      "ĠÑĤÐ°ÑĪÑĥÑĥÑĩÑĥ": 6724,
      "Ð¸ÑģÑĤÐ¸ÐºÐ°": 6725,
      "ÑģÑĥÐ°Ð»Ð´ÑĭÐº": 6726,
      "ĠÒ¯Ð½Ð´Ó©": 6727,
      "ĠÐ¶Ò¯Ð³Ò¯ÑĢÑĤ": 6728,
      "ĠÐ¼ÑįÑĢÐ¸": 6729,
      "ĠÐ¢Ó©Ð»": 6730,
      "ĠÐ°ÐºÐ°Ð´ÐµÐ¼Ð¸ÑıÑģÑĭÐ½ÑĭÐ½": 6731,
      "ĠÐ±Ð¸ÑĢÐ¸Ð½Ð¸Ð½": 6732,
      "Ð´ÑĭÐºÑĤÑĭÐ½": 6733,
      "ĠÐ³ÑĢÐ°ÑĦ": 6734,
      "ÐŃÐ³ÐµÑĢÐ´Ðµ": 6735,
      "ĠÑĤÒ¯ÑĢÑĤÐºÒ¯": 6736,
      "Ð´Ð¸ÐºÑĤÐµÑĢ": 6737,
      "ĠÐļÓ©Ð·": 6738,
      "ĠÐĲÑģÐ°Ð½Ð¾Ð²": 6739,
      "ĠÐ¸ÑģÐºÑĥÑģÑģÑĤÐ²Ð¾": 6740,
      "ĠÐºÐµÐ·Ð¸": 6741,
      "ĠÐ±Ð°Ò£": 6742,
      "Ð¸Ð»ÐµÑĢÐ´Ð¸Ð½": 6743,
      "ĠÐ±ÐµÐ»Ð³Ð¸Ð»ÐµÐ¹ÑĤ": 6744,
      "ĠÐ¼ÑĥÐ½ÑĥÐ½": 6745,
      "ĠÐ°Ð¹Ð´Ð°": 6746,
      "ĠÐºÑĥÑĢÐ°Ð¼Ð°": 6747,
      "ĠÐ°Ð»Ð³Ð°Ð½Ñĭ": 6748,
      "ĠÑģÐ°ÑıÑģÐ°ÑĤÑĩÑĭ": 6749,
      "ÑĭÑĢÐ¼Ð°": 6750,
      "Ð°ÐºÑĥÐ½": 6751,
      "ĠÐºÑĭÐ·Ð¼Ð°ÑĤÑĤÐ°ÑĪÑĥÑĥ": 6752,
      "ĠÐ£ÐºÑĢÐ°Ð¸Ð½Ð°Ð½ÑĭÐ½": 6753,
      "ĠÐ»Ð°Ð±Ð¾ÑĢÐ°ÑĤÐ¾ÑĢ": 6754,
      "ĠÐ·Ð°Ð¿": 6755,
      "âĢ¢": 6756,
      "ĠÐĲÐ»ÑĤÐ°Ð¹": 6757,
      "eg": 6758,
      "ĠÐ¶Ð¾Ð»ÑĥÐ½ÑĥÐ½": 6759,
      "ĠÐ°Ð·ÐµÐ¼": 6760,
      "ĠÑģÐ°Ð½Ðº": 6761,
      "ĠÐ±ÑĥÐ·Ð³Ð°Ð½": 6762,
      "ĠÐ±Ð°ÑĪÐ°Ð»Ð°Ð¼Ð°Ð½": 6763,
      "ÐĿÐ°ÑĢÑĭÐ½": 6764,
      "ĠÐºÐ¾Ð¼Ð°Ð½Ð´Ð°ÑģÑĭ": 6765,
      "ĠÐ°Ð¹Ð¼Ð°Ð³ÑĭÐ½ÑĭÐ½": 6766,
      "ÐļÑĭÑĤÐ°Ð¹": 6767,
      "ĠÐ¿Ð°Ð¹Ð´Ð°Ð»Ð°Ð½ÑĥÑĥÐ³Ð°": 6768,
      "ĠÑĤÒ¯Ð½ÐºÒ¯ÑģÒ¯Ð½": 6769,
      "ĠÐ¶Ð°ÑĢÐ°Ð»Ð³Ð°Ð½": 6770,
      "ĠÐºÐ¾Ð»ÑĥÐ½Ð°Ð½": 6771,
      "ĠÐ¼ÑĥÐ½Ð°Ð¹": 6772,
      "ĠÑģÑĥÐ³": 6773,
      "ĠÐĶÐ°Ð½Ð¸Ñı": 6774,
      "ĠÐºÐµÐ·ÐµÐºÑĤÐµ": 6775,
      "Ð´ÑĭÐºÑĤÐ°ÑĢÐ´Ñĭ": 6776,
      "ĠThe": 6777,
      "ĠÑģÐ¾Ð½ÑĥÐ½": 6778,
      "ĠÑĥÑĢÑĥÑĪ": 6779,
      "ĠÐºÑĥÑĥÑĢ": 6780,
      "ĠÑĪÐ°Ð»": 6781,
      "ĠÐ³ÐµÐ·Ð¸": 6782,
      "Ð¾Ð¿Ð¾Ð»": 6783,
      "ĠÐ±Ð¸Ð»Ð´Ð¸ÑĢÒ¯Ò¯ÑģÒ¯Ð½Ð´Ó©": 6784,
      "ĠÐľÐ°Ð½Ð°ÑģÑĤÑĭÐ½": 6785,
      "ÐµÑģÑĤÐ¸Ð½": 6786,
      "ĠÐ¼ÑĥÑĪÑĤ": 6787,
      "ĠÑĩÐ°ÐºÑĭÑĢÐ³Ð°Ð½": 6788,
      "ÐµÐ»ÐµÐº": 6789,
      "ÑĢÐ°Ð½ÑģÐ¿": 6790,
      "ÑģÑĥÐ½Ð°Ð½": 6791,
      "Ð±ÐµÑĢÐ´Ð¸": 6792,
      "ĠÑģÑĥÑĢÐ°Ð³Ð°Ð½": 6793,
      "ĠÐ¶ÐµÑĤÐ¿ÐµÐ¹": 6794,
      "ÐŃÑģÐºÐµ": 6795,
      "ĠÐ¾ÑĢÐ´ÐµÐ½Ð¸": 6796,
      "ĠÑĩÑĭÐ³Ð°ÑĢÐ´Ñĭ": 6797,
      "ĠÑģÐ°Ð»Ð°Ð¼Ð°ÑĤÑĤÑĭÐºÑĤÑĭ": 6798,
      "ĠÓ©ÑģÑĤÒ¯ÑĢ": 6799,
      "ĠÑĤÐ°Ð±ÑĥÑĥ": 6800,
      "ĠÐ±Ð¾ÑĢÐ±Ð¾ÑĢÐ»Ð¾ÑĢ": 6801,
      "Ð³Ð¸Ð»Ò¯Ò¯": 6802,
      "ĠÐĸÐ¾Ð»Ð´Ð¾ÑĪ": 6803,
      "Ð°ÑĪÐ¸Ð½Ð³ÑĤÐ¾Ð½": 6804,
      "ÐļÐ¾ÑĪ": 6805,
      "ĠÐºÐµÑģÐ¸Ð»": 6806,
      "140": 6807,
      "ĠÑģÐ¿Ð¾ÑĢÑĤÑĤÑĥÐº": 6808,
      "ĠÑĤÐ¸Ð·": 6809,
      "ĠÐļÐ¸ÑĢ": 6810,
      "ĠÐ±ÐµÑĢÐµÐ¼": 6811,
      "Ð°Ð»Ð´Ð°ÑĪÑĤ": 6812,
      "ĠÐ¶Ð°ÑĤÑĤÑĭ": 6813,
      "ĠÑįÐºÑģÑĤÑĢÐµÐ¼": 6814,
      "Ð¸Ð·Ð¼Ð´Ð¸Ð½": 6815,
      "ĠÑģÑĥÐ½ÑĥÑĪÑĤÐ°Ð³Ð°Ð½": 6816,
      "ĠÐĲÐ±Ð´ÑĥÐ»": 6817,
      "ĠÐºÐ¾Ð°Ð»Ð¸ÑĨÐ¸Ñı": 6818,
      "ĠÐ¨Ð°Ð¹Ð»Ð¾Ð¾": 6819,
      "64": 6820,
      "ÐĳÐ°ÑĪÑĭ": 6821,
      "ĠÑĦÐ¸Ð½Ð°Ð½ÑģÑĭ": 6822,
      "Ð²Ð¸Ð½": 6823,
      "Ð°Ð½ÑĭÐ±ÐµÐº": 6824,
      "ĠÑĤÒ¯ÑĪÓ©ÑĤ": 6825,
      "ÑĥÑģÑĤÑĥÐ½": 6826,
      "ĠÐ¾ÑĢÑĥÐ½Ð´Ñĥ": 6827,
      "ĠÐºÑĭÐ¹ÐºÑĭÑĢ": 6828,
      "Ò¯Ñģ": 6829,
      "ĠÐ¸Ð»Ð´ÐµÑĤ": 6830,
      "ĠÐ°Ð»Ð¼Ð°ÑĪ": 6831,
      "ÑģÐ¸Ð½Ðµ": 6832,
      "ÑĩÑĥÐº": 6833,
      "Ð¾ÑģÐ¾": 6834,
      "ĠÑĤÐ°ÑĢÑĤÑĥÑĥÐ»": 6835,
      "ĠÑģÐ¸ÑģÑĤÐµÐ¼Ð°ÑģÑĭÐ½ÑĭÐ½": 6836,
      "ĠÑģÑħÐµÐ¼": 6837,
      "ĠÐºÐ°Ð¼Ð¿": 6838,
      "ĠÑģÐ°Ð¿Ð°ÑĢÑĭ": 6839,
      "ĠÐ±Ð°ÐºÑĩÐ°": 6840,
      "ĠÐ°ÐºÑĤÐ¸Ð²Ð¸ÑģÑĤ": 6841,
      "ÐĳÐ°ÑĤÐºÐµÐ½": 6842,
      "ĠÑĤÐ°ÐºÑĭÑĢ": 6843,
      "ĠÐºÐµÐ»Ð³ÐµÐ½Ð¸Ð½": 6844,
      "ĠÐºÑĭÑģÑĭÐ¼": 6845,
      "ĠÐļÑĥÑĢÐ¼Ð°Ð½Ð±ÐµÐº": 6846,
      "ĠÐ¼ÑįÑį": 6847,
      "ĠÐ¼Ð°Ò£": 6848,
      "ĠÐļÐľÐ¨": 6849,
      "Ð¾Ð½Ð¸Ð¼": 6850,
      "Ð»Ð°ÑĢÐ´Ð°Ð½": 6851,
      "ĠÑįÐ»ÑĩÐ¸Ð»": 6852,
      "ÑĥÑĦÑĤ": 6853,
      "ĠÐĳÐµÐ»Ð°ÑĢ": 6854,
      "ĠÑĤÐ¾": 6855,
      "ĠÐºÐ°Ð»Ð³Ð°Ð½Ð´Ð°": 6856,
      "ÐĸÑĭÐ»": 6857,
      "ĠÑģÑĥÑĥÐº": 6858,
      "ĠÐ¼ÑĭÐ¹Ð·Ð°Ð¼Ð´ÑĭÐ½": 6859,
      "ĠÓ©ÑģÒ¯Ð¼Ð´Ò¯Ðº": 6860,
      "Ð±Ð°ÑģÑĤÐ°Ð½": 6861,
      "Ð¸Ð½Ð´Ð¸": 6862,
      "ÐµÑĤÐ¸Ð½Ðµ": 6863,
      "ĠÐ¶Ò¯ÑĢÓ©Ð³": 6864,
      "ĠÐ¾ÑĪÐ¾Ð½Ñĥ": 6865,
      "ĠÑĤÑĥÑĢÐ¼ÑĥÑĪÐºÐ°": 6866,
      "Ð¸Ð±Ð¸Ð·Ð´Ð¸Ð½": 6867,
      "ĠÑĤÑĥÑĢÐ³Ð°Ð½Ñĭ": 6868,
      "ĠÑĤÐ°ÑĢÐ¸ÑĦ": 6869,
      "ĠÐºÐ¾Ð»Ð¾": 6870,
      "ĠÐŀÑĪÐ¾Ð½Ð´Ð¾Ð½": 6871,
      "Ð°ÐºÑĤÐ°ÑĢÐ³Ð°": 6872,
      "ĠÐºÐ¸ÑĢÐ´Ð¸": 6873,
      "Ð´ÑĭÐºÑĤÐ°ÑĢÐ´ÑĭÐ½": 6874,
      "ĠÐ±Ð°Ð»ÑĭÐº": 6875,
      "ÐµÑģÐ¸Ð·": 6876,
      "ĠÐ¶ÐµÑĢÐ´ÐµÐ³Ð¸": 6877,
      "ĠÐ°ÑĪÑĭÐºÑĩÐ°": 6878,
      "ĠÑģÑĤÑĢÐ°ÑĤÐµÐ³Ð¸ÑıÐ»ÑĭÐº": 6879,
      "ĠÑĦÐµÑĢ": 6880,
      "ĠÑįÑģÐºÐµÑĢÑĤ": 6881,
      "Ð°ÑĥÑĢ": 6882,
      "ĠÐļÐ°Ñĩ": 6883,
      "ĠÓ©ÐºÒ¯Ð»ÑĩÒ¯Ð»": 6884,
      "ĠÐºÐµÐ»ÑĤÐ¸ÑĢÐ³ÐµÐ½": 6885,
      "ĠÐ±ÐµÐ·": 6886,
      "ĠÐºÓ©ÑĩÓ©ÑģÒ¯": 6887,
      "ĠÑĤÐ°ÑĢÑĤÐ¸Ð¿ÑĤÐµ": 6888,
      "ĠÐºÑĭÐ·Ð¼Ð°ÑĤÑĤÐ°ÑĪÑĤÑĭÐº": 6889,
      "Ð°ÑĤÐ¾Ð²": 6890,
      "ĠÑĭÐ¹Ð³Ð°ÑĢ": 6891,
      "Ð¾ÑĢÐ´ÑĥÐº": 6892,
      "ĠÙ": 6893,
      "ĠÐºÐ°ÑĢÐ°Ð»ÑĭÐ¿": 6894,
      "Ð§Ð¾Ò£": 6895,
      "ĠÐ°Ð¿Ð°ÑģÑĭ": 6896,
      "ĠÐ¶Ð°Ð¹Ð³Ð°": 6897,
      "ĠÑĥÑİÑĪÑĤÑĥÑĢÐ³Ð°Ð½": 6898,
      "ĠÐ¿Ð¸ÐºÐ¸ÑĢÐ¸Ð½Ð´Ðµ": 6899,
      "ĠÐľÐ°ÐºÑģ": 6900,
      "ĠÑĩÐ°Ð¼Ð°ÑģÑĭÐ½Ð´Ð°": 6901,
      "ĠÐ¼ÐµÐ»Ð´ÐµÑĪ": 6902,
      "ĠÐºÑĭÐ¹Ð¼ÑĭÐ»Ñĭ": 6903,
      "ĠÐ´ÑĥÑĥÑĪÐ°ÑĢ": 6904,
      "ĠÑĤÑĥÑĢÐ³ÑĥÐ½Ð´Ð°ÑĢ": 6905,
      "ĠÐ´ÐµÒ£Ð³ÑįÑįÐ»Ð´ÐµÐ³Ð¸": 6906,
      "ĠÐ¤ÑĢÐ°Ð½ÑĨÐ¸Ñı": 6907,
      "ĠÐ¶ÐµÐ¿": 6908,
      "ĠÐºÐ°ÑĢÐ°Ð»": 6909,
      "ĠÐºÐµÒ£ÐµÑĪÐ¸": 6910,
      "ĠÐĽÐµÐ¹": 6911,
      "ÐºÐµÐ¹": 6912,
      "ÐµÑģÐ¸Ò£": 6913,
      "Ð¸Ð¼Ð½": 6914,
      "78": 6915,
      "ÑĥÑĪÑĤÐ°ÑĢ": 6916,
      "ĠÓ¨Ð·Ð³Ó©Ð½": 6917,
      "ĠÑĤÐ¸Ð¹Ð³ÐµÐ½": 6918,
      "ĠÐ´ÑĢÐ°Ð¼Ð°": 6919,
      "Ð³ÐµÑĢÐ¸": 6920,
      "ÑĥÑģÑĤÐ°Ð½": 6921,
      "ĠSt": 6922,
      "Ð°Ð½Ð¸Ð¹": 6923,
      "ĠÐ¾ÐºÑĥÑĥÑĩÑĥ": 6924,
      "ĠÑģÐ°Ð»ÑĤÑĤÑĥÑĥ": 6925,
      "ĠÐ¶ÐµÒ£Ð¸Ð»Ð´ÐµÑĤ": 6926,
      "ÑĥÐ´Ð°": 6927,
      "ĠÑĩÐ°ÑĤ": 6928,
      "ĠÐ¾ÑĢÐ³Ð°Ð½Ð´Ð°ÑĢÐ´ÑĭÐ½": 6929,
      "ĠÐ±ÑĥÐ¹ÑĢÑĥÐº": 6930,
      "Ð°Ð»Ð´Ð°ÑĢÑĭ": 6931,
      "ĠÐ´Ð°Ð¹": 6932,
      "ĠÐ¡ÑĥÐ·Ð°Ðº": 6933,
      "ĠÐĲÐ±ÑĭÐ»Ð³Ð°Ð·Ð¸ÐµÐ²": 6934,
      "61": 6935,
      "ĠÑ³": 6936,
      "ĠÐĺÐ¼Ð°Ð½": 6937,
      "ĠÑĩÑĭÐ³Ð°ÑĢÐ°ÑĤ": 6938,
      "Ð¾Ò£ÐºÑĥ": 6939,
      "ĠÑĢÐµÑģÐ¿ÑĥÐ±Ð»Ð¸ÐºÐ°Ð½ÑĭÐ½": 6940,
      "ĠÑģÐ¾Ð²ÐµÑĤÑĤÐ¸Ðº": 6941,
      "ĠÐºÑĭÑĢÑģÑĭÐº": 6942,
      "ĠÐ¼Ò¯Ð»Ðº": 6943,
      "ĠÐľÐ°Ð¼ÑĭÑĤ": 6944,
      "ÐļÑĢ": 6945,
      "ĠÐºÐ¾Ð¾Ð¼ÑĩÑĥÐ»ÑĥÐº": 6946,
      "ĠÐ¸Ð»Ð´": 6947,
      "ĠÑįÐ¼Ð³ÐµÐºÑĤÐµÐ½Ð³ÐµÐ½": 6948,
      "ĠÑĤÐ°Ð»Ð´Ð¾Ð¾": 6949,
      "ĠÑĤÐ¸Ð·Ð¼ÐµÑģÐ¸": 6950,
      "Ò£Ð°ÑĢ": 6951,
      "ĠÑĥÑĩÐ°": 6952,
      "ĠÐ¡Ð¾Ðº": 6953,
      "ĠÐºÑĥÑĢÑĥÐ»ÑĥÑĪÑĥ": 6954,
      "ĠÐ°ÑĢÐ°ÐºÐµÑĤÑĤÐµÑĢÐ¸": 6955,
      "ĠÐ³ÐµÐºÑĤÐ°ÑĢ": 6956,
      "?Â»": 6957,
      "Ð»ÑĮ": 6958,
      "ĠÑįÑįÐ»ÐµÐ¿": 6959,
      "ÑĭÐ»Ð´ÑĭÐ·": 6960,
      "ĠÑģÐ°Ð»Ð°ÑĤ": 6961,
      "ÑĭÐ»Ð´Ð°": 6962,
      "ĠÐ¿Ð¾ÑĤÐµÐ½": 6963,
      "ÑĥÑĥÐ»Ð°ÑĢÐ³Ð°": 6964,
      "ĠÐ¾ÑĢÑĥÑģÐ¸ÑıÐ»ÑĭÐº": 6965,
      "ÑĥÑģÑĥÐ½Ð°": 6966,
      "Ð¡ÑĤ": 6967,
      "ĠÐ±Ð°ÑıÐ½Ð´Ð°Ð¼": 6968,
      "Ð´Ð¾ÑĢÐ³Ð¾": 6969,
      "Ð¨Ð°Ð°ÑĢ": 6970,
      "ÑĥÑĥÑĩÑĥÐ»Ð°ÑĢÐ³Ð°": 6971,
      "ÐļÐ¾ÑĢÐ³Ð¾Ð½": 6972,
      "ĠÐ°Ð»Ð°Ð¼": 6973,
      "Ð°ÑħÐ¼Ð°ÑĤ": 6974,
      "ĠÐ¼Ð°Ð°Ð½Ð¸Ð³Ðµ": 6975,
      "ĠÐ¡ÑĥÐ»Ð°Ð¹": 6976,
      "ĠÑĤÑĥÑĢÐ³Ð°Ð¹": 6977,
      "ĠÐ±Ð°Ð³ÑĭÐ½": 6978,
      "ers": 6979,
      "ĠÐºÐ°ÑĤÐ°ÑĢÑĭÐ½Ð°": 6980,
      "ĠÐ¾ÐºÑĥÑĥÑĩÑĥÐ»Ð°ÑĢ": 6981,
      "ĠÐ¶ÐµÑĢÐ´Ð¸Ð½": 6982,
      "ĠÐºÑĭÐ·Ð¼Ð°ÑĤÐºÐµÑĢÐ»ÐµÑĢÐ¸Ð½Ðµ": 6983,
      "Ð¸ÑģÑĤÐ°Ð»Ð»": 6984,
      "ĠÐ°ÐºÑĭÑĢÑĭ": 6985,
      "ĠÐ¶Ð¾Ð¾ÐºÐµÑĢ": 6986,
      "ÑģÑĤÒ¯Ò¯": 6987,
      "Ð±Ó©Ñģ": 6988,
      "Ò¯ÑĪÑĤÒ¯Ð½": 6989,
      "ĠÐ³ÐµÐ½ÐµÑĢÐ°Ð»": 6990,
      "ÐķÐĿ": 6991,
      "ĠÐ¡Ð°Ð»Ð°Ð¼Ð°ÑĤÑĤÑĭÐºÑĤÑĭ": 6992,
      "ĠÑĤÐ¸ÑĢÐ¸": 6993,
      "ÑĭÑĪÑĥÑĥ": 6994,
      "ĠÐ¸ÑĪÑĤÐµÐ±": 6995,
      "Ð¾Ð²ÐµÑģÑĤ": 6996,
      "Ð¼Ó©ÑĤÑĤÒ¯Ð½": 6997,
      "ĠÐ£ÑĪÑĥÐ½Ð´Ð°Ð¹": 6998,
      "ĠÐ°Ð¹Ð´Ð°Ð¿": 6999,
      "ĠÐºÐ°Ð½Ð´Ð¸Ð´": 7000,
      "ĠÐºÐµÒ£Ñģ": 7001,
      "ĠÑģÑĭÐ¹Ð¼": 7002,
      "ĠÐ±Ò¯ÑĤÒ¯Ð½Ð´Ó©Ð¹": 7003,
      "Ð¿Ð°Ð¹Ð±Ñĭ": 7004,
      "Ð¿Ð¸ÐºÐ¸ÑĢ": 7005,
      "ĠÑĦÐ¾ÑĢÐ¼Ð°ÑģÑĭ": 7006,
      "ĠÑĤÐ¸ÑĢÐºÐµÐ¼": 7007,
      "ÐµÐ½ÑĮ": 7008,
      "ĠÐĳÐ¸Ð»": 7009,
      "ĠÐ¿Ð¸Ðº": 7010,
      "ĠÐ±Ð°Ð°ÑĢÑĭÐ½Ð°": 7011,
      "ĠÐ¢ÐµÒ£Ð¸ÑĢ": 7012,
      "ĠÐºÐµÐ»Ð±ÐµÐ³ÐµÐ½": 7013,
      "Ò¯Ð¼Ð´Ò¯Ðº": 7014,
      "ĠÐ´ÐµÐ»ÐµÐ³Ð°": 7015,
      "ĠÐ°Ð¹ÐºÐ°Ð»": 7016,
      "51": 7017,
      "ÐľÐµÐºÐµÐ½": 7018,
      "Ð´Ð¾Ð¼": 7019,
      "ĠÐ°Ð´ÐµÐ¿": 7020,
      "Ò¯Ð³Ò¯Ð»": 7021,
      "ĠÐĲÑģÐºÐµÑĢ": 7022,
      "ĠÐºÓ©ÑĢÐ´Ò¯": 7023,
      "ĠÐ¼Ð¸Ð»Ð¸ÑĨÐ¸ÑıÐ½ÑĭÐ½": 7024,
      "Ð°Ð³ÑĭÐ½Ð°Ð½": 7025,
      "ĠÐŃÑģÐµÐ½": 7026,
      "ĠÐºÐ¾Ð¼Ð¸ÑĤÐµÑĤÑĤÐ¸Ð½": 7027,
      "ĠÐ¸Ð´Ð¸": 7028,
      "ĠÐŃÑģÐºÐµÑĢÑĤÐµ": 7029,
      "Ġthe": 7030,
      "ÑģÑĤÐ°Ð½Ð´ÑĭÐº": 7031,
      "800": 7032,
      "ĠÐºÐµ": 7033,
      "Ð¾ÐºÑģ": 7034,
      "ÐĲÐ»Ð°": 7035,
      "ĠÑĩÐµÐ±": 7036,
      "ĠÑģÒ¯Ð¹Ð»Ó©ÑĪÒ¯Ò¯": 7037,
      "ĠÐļÐ¾Ò£": 7038,
      "Ð¸ÐºÑĤÐµÑĢÐ´Ð¸Ð½": 7039,
      "ĠÐºÐµÑĤÐºÐµÐ½Ð¸Ð½": 7040,
      "ĠÑĩÑĭÐ³ÑĭÑĪÐºÐ°Ð½": 7041,
      "ĠÐľÐ°Ð´Ð°Ð½Ð¸ÑıÑĤ": 7042,
      "Ð½ÐµÐ²": 7043,
      "ÑĤÐºÐ°Ð½": 7044,
      "ĠÐºÐ°ÑĤÑĤÐ°Ð»ÑĭÐ¿": 7045,
      "ĠÑģÐµÐ·Ð³ÐµÐ½": 7046,
      "ĠÐºÑĭÑĢÐ´Ð°Ð°Ð»Ð´Ñĭ": 7047,
      "ÑĥÑĥÑĩÑĥÐ»Ð°ÑĢÑĭÐ½ÑĭÐ½": 7048,
      "ĠÐ²Ð°ÑĢÐ¸Ð°Ð½ÑĤ": 7049,
      "ĠÐºÑĭÐ·Ð¼Ð°ÑĤÑĤÑĭÐº": 7050,
      "Ð¸ÐºÑĤÐµÑĢÐ¸": 7051,
      "ĠÐ±Ó©Ð³Ó©ÑĤ": 7052,
      "ÑĭÑĢÐ·": 7053,
      "ĠÐ¼Ð°Ð°Ð»ÑĭÐ¼Ð°ÑĤÑĤÐ°ÑĢÐ³Ð°": 7054,
      "ĠÐĲÐ»Ð¼Ð°Ð¼Ð±ÐµÑĤ": 7055,
      "ÑģÐ¾Ð½Ð¸Ñı": 7056,
      "ÑģÐµÒ£": 7057,
      "ĠÑĦÐ¸ÑĢ": 7058,
      "ĠÐ±Ð¸Ð·Ð½": 7059,
      "ĠÑģÐ¸Ð»ÐµÑĢ": 7060,
      "ĠÑĢÐµÐ¿": 7061,
      "Ð¶ÑĭÐ»Ð´Ð°ÑĢ": 7062,
      "ĠÐ¼Ð°Ð½Ð´": 7063,
      "ĠÑĤÐ°ÑĢÐ°Ð¿ÑĤÑĭÐ½": 7064,
      "ĠÑįÐ¿Ð¾Ñģ": 7065,
      "ĠÐºÒ¯Ð½Ó©Ó©Ð»Ò¯Ò¯": 7066,
      "ĠÐŁÑĢÐµÐ·Ð¸Ð´ÐµÐ½ÑĤÑĤÐ¸Ð½": 7067,
      "Ó©ÑĢÒ¯Ð½Ò¯Ð½": 7068,
      "ĠÐ¶ÑĭÐ»Ð´ÑĭÐ³ÑĭÐ½Ð°": 7069,
      "Ð£ÐļÐľÐļ": 7070,
      "ĠÑįÐ»Ð¸Ð½Ðµ": 7071,
      "ĠÒ¯Ð·Ð³Ò¯Ð»ÑĤÒ¯ÐºÑģÒ¯Ð·": 7072,
      "ĠÐºÐ¾Ð»Ð´Ð¾Ð¹": 7073,
      "ĠÐ¾Ð¹Ð»Ð¾ÑĢ": 7074,
      "ĠÐºÑĥÐ¹Ð¼Ð°ÑģÑĭ": 7075,
      "53": 7076,
      "ĠÑģÐ²": 7077,
      "ĠÐ¡Ñĥ": 7078,
      "ĠÐ±Ð°ÑĢÐ°Ð±Ð°ÑĢ": 7079,
      "ĠÑįÐºÑģÐ¿Ð¾ÑĢÑĤÑĤ": 7080,
      "ĠÐĶÒ¯Ð¹Ð½Ó©": 7081,
      "ĠÐºÐ¾Ð½ÑĦ": 7082,
      "ÑĨÐ¸ÑıÑģÑĭÐ½Ð´Ð°": 7083,
      "Ð±Ò¯Ð»Ó©ÑģÒ¯": 7084,
      "Ð¿ÑĢÐµÐ·Ð¸Ð´ÐµÐ½": 7085,
      "ĠÐĸÐµÒ£Ð¸ÑĪ": 7086,
      "Ó©Ð¼Ó©": 7087,
      "ĠÐºÐ°ÑĢÐ°Ð¶Ð°ÑĤÑĤÐ°ÑĢÑĭÐ½": 7088,
      "ÐµÑĢÐ¸ÐºÑĤ": 7089,
      "ĠÐ´ÐµÐ¼ÐµÐº": 7090,
      "ÑģÑĭÐ½Ð´Ð°Ð³Ñĭ": 7091,
      "Ð¿Ð¾Ð³Ð¾Ð½": 7092,
      "Ð¸Ð¼Ðµ": 7093,
      "ÐĲÐŃÐĳ": 7094,
      "ĠÐĲÐ¹Ð´Ð°ÑĢ": 7095,
      "ĠÐŁÑĢÐµÐ·Ð¸Ð´ÐµÐ½ÑĤÐ¸Ð½Ð¸Ð½": 7096,
      "ĠÐ¶Ð°Ð³ÑĭÐ¼Ð´ÑĥÑĥ": 7097,
      "ĠÐ¶Ò¯Ð¹": 7098,
      "ĠÐ½ÐµÑĢÐ²": 7099,
      "ĠÐºÐ¸Ð¹Ð»Ð¸Ð³": 7100,
      "Ð°ÑĪÑĤÐ°ÑĢ": 7101,
      "ĠÐ´Ð¾ÐºÑĥÐ¼ÐµÐ½ÑĤÑĤÐµÑĢ": 7102,
      "ĠÐ¼ÑĭÐ½Ð´Ð°": 7103,
      "Ð¸Ð¾": 7104,
      "Ó¨Ðº": 7105,
      "ÑĥÑĥÐ»ÑĥÐºÑĤÑĥ": 7106,
      "ÑıÐ·": 7107,
      "ĠÑĩÑĭÐ³Ð°ÑĢÑĭ": 7108,
      "ĠÐ¾Ð¹Ð½Ð¾Ð¿": 7109,
      "ĠÐľÐ°ÑĢÐº": 7110,
      "ĠÑĤÓ©Ð¼Ó©Ð½ÐºÒ¯Ð´Ó©Ð¹": 7111,
      "Ð»ÐµÐ¹": 7112,
      "ÐµÐ½Ð¸Ñı": 7113,
      "ÐŃÒ£": 7114,
      "ĠÐ¿Ð°Ð¹Ð´Ð°Ð»Ð°Ð½ÑĭÐ»Ð°ÑĤ": 7115,
      "ĠÐ°ÑĢÑĤÑĭÐ½Ð´Ð°": 7116,
      "Ò®Ð¹": 7117,
      "ĠÑĩÐ¾Ð³ÑĥÐ»Ð³Ð°Ð½": 7118,
      "ĠÐ±Ð¸Ð»Ð´Ð¸ÑĢÒ¯Ò¯Ð´Ó©": 7119,
      "ĠÑįÑĦÑĦÐµÐºÑĤ": 7120,
      "ĠÐºÐ»Ð°Ñģ": 7121,
      "ĠÐ¾ÑĢÐ½Ð¾ÑĤÑĥÑĥ": 7122,
      "ĠÐĿÐµÐ³Ð¸Ð·Ð³Ð¸": 7123,
      "Ð²ÐµÑĢÐ´": 7124,
      "ĠÐ´ÐµÐ»": 7125,
      "Ð¸Ð»Ð´Ó©Ó©": 7126,
      "Ð¸Ð¼Ð¾Ð²Ð´ÑĥÐ½": 7127,
      "Ð°Ð»Ð°ÑĢÐ´Ð°Ð½": 7128,
      "ĠÐ¾ÑĦ": 7129,
      "ÑĩÐ°Ð»Ð°Ð¹": 7130,
      "ĠÑģÐ°Ð»ÑĥÑĥÐ³Ð°": 7131,
      "ĠÑįÐ¿Ð¾ÑģÑĤ": 7132,
      "ĠÐ½Ð°Ð¼Ð°Ð·": 7133,
      "ĠÐĸÐ°ÐºÑĭÐ¿": 7134,
      "ĠÐ¼ÐµÐºÐµÐ½Ð´ÐµÑĪÑĤ": 7135,
      "ĠÐ±Ð¸Ð¹Ð¸ÐºÑĤÐ¸Ð³Ð¸": 7136,
      "ĠÐ¼Ò¯Ð½Ó©ÑĤ": 7137,
      "ĠÑĥÑĩÐ°ÑģÑĤ": 7138,
      "Ð¸ÑģÑģÑĳÑĢ": 7139,
      "ĠÐ°Ð½ÑĭÐºÑĤÐ°Ð»Ð°ÑĤ": 7140,
      "ĠÓ¨ÑĢ": 7141,
      "ĠÐ±Ð¾Ð»ÑĥÑĪÐ°ÑĤ": 7142,
      "ĠÐļÑĥÐ±Ð°Ð½ÑĭÑĩ": 7143,
      "ÑģÑĤÓ©Ð½": 7144,
      "ÑĩÑĥÐ»Ð°ÑĢÐ³Ð°": 7145,
      "Ð³Ð°Ð½Ð°": 7146,
      "Ð´ÑĭÐ¹": 7147,
      "Ð·Ð°Ð¼Ð°ÑĤ": 7148,
      "ĠÐĳÑĭÐ¹ÑĭÐ»": 7149,
      "Ð°ÑĢÐ¸Ð¶": 7150,
      "ĠÐ¶Ð¾Ð»ÐºÑĥ": 7151,
      "ĠÐ¼Ð°Ð´Ð°Ð½Ð¸ÑıÑĤÑĭ": 7152,
      "ĠÐ±ÐµÐºÐµÐ¼Ð´Ó©Ó©": 7153,
      "Ð¼Ð°ÑģÑĭÐ½ÑĭÐ½": 7154,
      "ĠÑĤÐ¾Ð»Ð³Ð¾Ð½": 7155,
      "ĠÐ±Ð°ÑĢÐ°ÐºÑĩÐ°ÑģÑĭÐ½Ð°": 7156,
      "ÑĭÐ»Ð±Ð°Ð¹": 7157,
      "Ð°Ð¼Ñĭ": 7158,
      "Ð¾Ð»Ð¾Ð³Ð¸ÑıÑģÑĭ": 7159,
      "ÐķÐ²ÑĢ": 7160,
      "ĠÑĭÐºÐ¼Ð°": 7161,
      "ÐļÐŀ": 7162,
      "ÐŀÐº": 7163,
      "ĠÐ¾Ð±Ð»Ð°ÑģÑĤ": 7164,
      "ĠÐĺÐ½Ð´Ð¸Ñı": 7165,
      "ĠÐ¿ÑĢÐµÑģÑģ": 7166,
      "ÑĥÑĥÐ»ÑĥÐ³ÑĥÐ½": 7167,
      "ÑĩÐ¸Ð»Ð¸ÐºÑĤÐ¸": 7168,
      "ĠÐĺÐ·ÑĢÐ°": 7169,
      "Ð»Ñİ": 7170,
      "ĠÑįÐ»Ð°ÑĢÐ°Ð»ÑĭÐº": 7171,
      "ĠÐĺÑģÐ¿": 7172,
      "ÐŃÐºÐ¸": 7173,
      "ĠÐ¼ÑĭÐ¹Ð·Ð°Ð¼Ð´Ñĭ": 7174,
      "Ð³ÑĥÑĩ": 7175,
      "ĠÓ©Ð»ÐºÓ©Ð»Ó©ÑĢÒ¯Ð½Ò¯Ð½": 7176,
      "Ð°ÑĪÑĤÑĭÑĢÑĭÐ»Ð³Ð°Ð½": 7177,
      "ĠÑĤÑĥÑĢÑĥÑĪÐ°ÑĤ": 7178,
      "ĠÐ²ÐµÐ´Ð¾Ð¼ÑģÑĤÐ²": 7179,
      "ĠÑĦÐ¸Ð·Ð¸ÐºÐ°Ð»ÑĭÐº": 7180,
      "ĠÐļÐ¾ÑĪÐ¼Ð¾": 7181,
      "ĠÐŀÐ¹": 7182,
      "ÐĳÐ¾ÑĢÐ±Ð¾ÑĢ": 7183,
      "ĠÐ°ÑģÐºÐµÑĢÐ»ÐµÑĢÐ¸": 7184,
      "ĠÐļÐ°Ð±Ð¸Ð½": 7185,
      "Ð¼ÑĥÑĪ": 7186,
      "ĠÐ¡ÐµÑĢ": 7187,
      "ĠÐºÒ¯Ð½Ð´Ó©ÑĢ": 7188,
      "Ð°ÑĪÑĤÐ°ÑĢÑĭ": 7189,
      "ĠÐ¾Ð½Ð´Ð¾Ð³Ð¾Ð½": 7190,
      "ĠÐ¶Ð°ÑĪÑĤÐ°": 7191,
      "ĠÐŁÐµÑĩÐ¾ÑĢÐ°": 7192,
      "ĠÑĤÒ¯Ð·Ò¯Ð»Ò¯ÑĪ": 7193,
      "ĠÐĲÐ¼": 7194,
      "âĢĻ": 7195,
      "Ð»ÐµÑĢÐ´Ð¸": 7196,
      "ĠÑĤÒ¯ÑĪÒ¯Ð½Ð´Ò¯ÑĢÐ´Ò¯": 7197,
      "ĠÐ¸ÑĩÐ¸": 7198,
      "ĠÐĳÐ°Ð»ÑĭÐº": 7199,
      "ĠÑįÑģÐµÐ¿ÑĤÐµÐ»Ð³ÐµÐ½": 7200,
      "ÐµÑĤÐµÑĢÐ±ÑĥÑĢÐ³": 7201,
      "Ùı": 7202,
      "ĠÐ¶Ð°Ð½ÑĢ": 7203,
      "ĠÑįÐ½ÐµÑĢÐ³Ð¸ÑıÑģÑĭÐ½": 7204,
      "Ð·ÐµÐ»": 7205,
      "Ð¾ÑĢÑĥÑģ": 7206,
      "ĠÐ±Ð°ÑģÐºÑĭÑĩ": 7207,
      "ĠÐºÐ¸ÑĪÐ¸Ð½Ð¸": 7208,
      "ĠÐ¶Ð¾ÑİÑĥ": 7209,
      "ÐĲÐ·Ð°ÑĤÑĤÑĭÐºÑĤÑĭÐ½": 7210,
      "98": 7211,
      "ĠÑģÑĥÐ¼Ð¼Ð°": 7212,
      "ĠÐ¡Ð°ÐºÑģÐ¾Ð½Ð¸Ñı": 7213,
      "ĠÐŀÑĢÑĥÑģÐ¸ÑıÐ³Ð°": 7214,
      "Ð³ÑĭÐ»Ð°": 7215,
      ");Ċ": 7216,
      "ĠÑĤÐ¸Ð¿": 7217,
      "ĠÐºÐ°Ð½Ð´ÑĥÑĥ": 7218,
      "ĠÐ¶Ò¯Ð·Ò¯": 7219,
      "ĠÐºÐ°Ð»Ð³Ð°Ð½Ñĭ": 7220,
      "ĠÑĥÐ½Ð¸Ð²ÐµÑĢÑģÐ¸ÑĤ": 7221,
      "ĠÐ´ÐµÐ¼Ð¸Ð»Ð³Ðµ": 7222,
      "ÑĪÐ°Ð½": 7223,
      "ĠÐ±Ð°ÑĪÑĩÑĭÐ»Ð°ÑĢÑĭ": 7224,
      "ĠÐ±Ð°Ð»Ð±Ð°Ð½": 7225,
      "ÑĩÑĥÐ½": 7226,
      "ĠÐ³ÑĥÐ±ÐµÑĢÐ½": 7227,
      "Ð°Ð»Ð¸ÑĦÐ¸ÐºÐ°ÑĨÐ¸Ñı": 7228,
      "ĠÐĺÑģÐ¼Ð°": 7229,
      "ĠÐ¿ÑĢÐ¾ÑĨÐµÑģÑģÐ¸": 7230,
      "ĠÐ±ÑĢÐ¸": 7231,
      "Ð¿Ð¾Ð»": 7232,
      "ĠÑĤÐ¸ÐºÑĤ": 7233,
      "ĠÐ±Ð¾ÑĢÐ±Ð¾ÑĢÑĥÐ½Ð´Ð°": 7234,
      "Ð¿ÑĢÐµÐ·Ð¸Ð´ÐµÐ½ÑĤ": 7235,
      "ĠÐĿÐ¸ÐºÐ¾Ð»": 7236,
      "ĠÑĦÑĢÐ°Ð½ÑĨÑĥÐ·": 7237,
      "ou": 7238,
      "ĠÐ¶Ð°ÑĪÑĭÐ½Ð´Ð°": 7239,
      "ĠÐ°ÑģÑĭÐ»": 7240,
      "ÑģÐºÐ¸": 7241,
      "ĠÐºÐ°ÑĢÐ¼Ð¾Ð¾ÑĩÑĥ": 7242,
      "ĠÐ°Ð»Ð´ÑĭÐ¼": 7243,
      "Ð°Ð±Ð¸Ð»": 7244,
      "ĠÐ°Ð±Ð°Ð»Ð³Ð°": 7245,
      "Ð¾Ð½ÐµÐ½ÑĤÑĤ": 7246,
      "ÑĥÑĪÑĤÐ°": 7247,
      "ĠÐ¼Ð°ÑģÐµÐ»ÐµÐ»ÐµÑĢÐ¸Ð½": 7248,
      "Ð°ÑĢÐ°ÑĤ": 7249,
      "Ó©Ð»Ò¯": 7250,
      "Ð´Ð°ÑĢÑĭÐ½Ð°Ð½": 7251,
      "ÑĩÒ¯Ð»Ó©ÑĢÒ¯": 7252,
      "ĠÐĸÐµ": 7253,
      "ĠÐĴÐµÐ½": 7254,
      "ĠÑĭÐºÐ¼Ð°ÑģÑĭ": 7255,
      "ĠÑįÑĢÐºÐµÐºÑĤÐµÑĢ": 7256,
      "Ð¾ÑĢÐ³Ð¾": 7257,
      "ĠÐºÐ¾ÑİÑĪÐºÐ°Ð½": 7258,
      "Ð´ÑĭÐ³ÑĭÐ½ÑĭÐ½": 7259,
      "ĠÐ¾ÑĢÐ´Ð¾": 7260,
      "Ð²ÐµÑĢÐ´Ð»Ð¾Ð²": 7261,
      "ĠÐºÐ°Ð½ÑĤ": 7262,
      "ĠÑģÐ¾Ð·ÑĥÐ»Ð³Ð°Ð½": 7263,
      "ĠÑĥÑİÐ»": 7264,
      "Ð¾Ð¾Ð´Ð¾Ð½": 7265,
      "ĠÐ³ÑĥÐ¼Ð°Ð½Ð¸ÑĤÐ°ÑĢÐ´ÑĭÐº": 7266,
      "ĠÐĳÒ¯ÑĤÐºÒ¯Ð»": 7267,
      "ĠÑĪÐ°ÑĪ": 7268,
      "ÐµÑĤÑĤÐµÑĢÐ¸Ð½": 7269,
      "ÐľÐ°Ðº": 7270,
      "ĠÐ³Ð»Ð¾Ð±": 7271,
      "ĠÑįÐ½ÐµÑģÐ¸": 7272,
      "ĠÐ»Ð¸Ð½": 7273,
      "ĠÓ©ÐºÐ¼Ó©ÑĤÑĤÒ¯Ðº": 7274,
      "ĠÐºÐµÐ»Ð±": 7275,
      "Ò¯Ò¯Ð»Ó©ÑĢÐ´Ò¯Ð½": 7276,
      "ĠÐ¸ÑİÐ½ÑĮ": 7277,
      "ĠÐ¶ÑĥÐ¼ÑĥÑĪÐºÐ°": 7278,
      "Ò¯Ð±Ò¯Ð·Ð´Ó©Ð³Ò¯": 7279,
      "ĠÐºÑĭÑıÐ½": 7280,
      "ĠÐ½ÑĭÐ¼": 7281,
      "ĠÐ¶Ò¯Ð³Ò¯ÑĢ": 7282,
      "ĠÐ¡Ð¾Ð³": 7283,
      "ĠÐ°ÑĢÑĤÐºÐ°": 7284,
      "ĠÑģÐ°Ð¼": 7285,
      "ÑİÑĤÐ°": 7286,
      "ĠÓ©Ð·Ð´Ò¯Ðº": 7287,
      "ĠÐºÐµÑĤÐ¸ÑĢ": 7288,
      "ĠÐ°Ð¹Ð´Ð¾Ð¾ÑĩÑĥ": 7289,
      "Ó©Ð¼Ð±Ò¯": 7290,
      "ĠÐļÑĭÐ»": 7291,
      "ĠÐºÐ¾Ð¾Ð¿ÑĤÑĥÑĥ": 7292,
      "ĠÐĲÐ·Ð¸ÑıÐ´Ð°Ð³Ñĭ": 7293,
      "ÑįÐ»ÐµÐºÑĤÑĢ": 7294,
      "ĠÐľÐ¾ÑģÐºÐ²Ð°Ð´Ð°": 7295,
      "ĠÑĩÐ°ÑĤÑĭÑĢ": 7296,
      "ĠÐ°ÐºÑĤÐµÑĢ": 7297,
      "ĠÐ¸Ð½ÑģÑĤÐ¸ÑĤÑĥÑĤÑĤ": 7298,
      "ÑĥÑĥÑĩÑĥÐ»ÑĥÐº": 7299,
      "ĠÐ¼Ð°Ð¹Ð´Ð°Ð½": 7300,
      "Ð¾Ð´Ð¸": 7301,
      "ĠÐ°Ð»ÑĥÑĥÑĩÑĥ": 7302,
      "ÐµÐ½Ð¸Ðµ": 7303,
      "ÐĳÐµÐ»Ð³Ð¸Ð»ÐµÐ¹": 7304,
      "ĠÒ¯Ð½Ò¯": 7305,
      "ĠÐ³ÐµÐ½": 7306,
      "ĠÐłÑĥÑģ": 7307,
      "ĠÐĲÐ»Ð°ÑĢÐ´Ñĭ": 7308,
      "ĠÑįÐ¼Ð´Ó©Ó©": 7309,
      "ĠÐľÐ°Ð¼Ð±ÐµÑĤ": 7310,
      "ÐĺÐĿ": 7311,
      "ĠÐĿÑĥÑĢÐ»Ð°Ð½": 7312,
      "Ð¼Ð¸": 7313,
      "ÐµÐºÑĤÐ¾ÑĢÑĥ": 7314,
      "Ð´Ð¸ÐºÑĤÐ¸": 7315,
      "ĠÒ®ÑģÓ©Ð½": 7316,
      "Turmush": 7317,
      "Ð°Ð½Ð³Ð°": 7318,
      "ĠÐºÐµÑĤÑģÐµ": 7319,
      "ine": 7320,
      "ĠÐ¶Ð¾Ð³Ð¾ÑĢÑĥÐ´Ð°": 7321,
      "ĠÐ¸ÑĩÐ¸Ð½Ðµ": 7322,
      "ÐļÑĭÐ·ÑĭÐ»": 7323,
      "ĠÑĤÒ¯ÑĪÒ¯Ð½Ð´Ò¯ÑĢÒ¯Ò¯": 7324,
      "ĠÑģÐ¾ÑİÐ·ÑĥÐ½ÑĥÐ½": 7325,
      "ÐļÑĭÑı": 7326,
      "ĠÐºÐ¾ÑĪÑĥÐ»ÑĥÐ¿": 7327,
      "ĠÐºÐ¸ÑĪÐ¸Ð³Ðµ": 7328,
      "ĠÐ¾ÑĢÐ³Ð°Ð½Ð´Ð°ÑĢÑĭÐ½Ð°": 7329,
      "ĠÐ£Ð»ÑĥÑĤÑĤÐ°ÑĢ": 7330,
      "ĠÐ¾Ð·": 7331,
      "ÑĤÐµÐ·": 7332,
      "Ð¸ÑĢÑĥÑĢÐ³": 7333,
      "ĠÐºÐ¾Ð»ÑĥÐ½Ð´Ð°": 7334,
      "Ð°Ð¼Ð±ÑĥÐ»": 7335,
      "ĠÐĳÑįÑįÐ¶Ð¸Ð½": 7336,
      "ĠÐºÑĭÐ¼Ð±Ð°ÑĤÑĤ": 7337,
      "**": 7338,
      "ĠÑĪÐ¸ÑĢ": 7339,
      "ĠÑĦÐ°ÐºÑĤÑĭÐ»": 7340,
      "ĠÐ±Ó©Ð»Ò¯Ð¼Ò¯Ð½Ó©": 7341,
      "ÑĤÐ¸ÐºÐ°Ð»ÑĭÐº": 7342,
      "ĠÐ°Ð»Ðº": 7343,
      "ĠÐ´Ð°ÑıÑĢÐ´ÑĭÐº": 7344,
      "ÐĲÐ¹ÑĭÐ»": 7345,
      "ĠÐ³Ð¾ÑĢ": 7346,
      "ĠÐ¶Ð°ÐºÑĪÑĭÑĢ": 7347,
      "ĠÐ¶Ð°Ò£Ð¶Ð°Ð»": 7348,
      "ĠÑĤÐ°Ñģ": 7349,
      "ĠÑĤÐ°ÑĢÑĤÑĥÑĥÐ³Ð°": 7350,
      "ĠÑĢÐ¾Ð»ÑĥÐ½": 7351,
      "ĠÐĵÑĢÑĥÐ·": 7352,
      "Sputnik": 7353,
      "ĠÐ¯Ð¿Ð¾Ð½": 7354,
      "ÐľÐ¾ÑģÐº": 7355,
      "ĠÑĩÑĭÐ³Ð°ÑĢÑĥÑĥÐ³Ð°": 7356,
      "ĠÑĤÐ°ÑĢÐ¼Ð°Ð³ÑĭÐ½Ð´Ð°Ð³Ñĭ": 7357,
      "ĠÐ±Ð°Ð¹Ð»Ð°Ð½ÑĭÑĪÑĤÑĭÑĢ": 7358,
      "ÐĲÑĤÐ°Ð»Ð³Ð°Ð½": 7359,
      "ĠÐ¸ÑĤ": 7360,
      "ĠÐºÐ¾ÑĢÐºÑĥÐ½ÑĥÑĩÑĤÑĥÑĥ": 7361,
      "ĠÑģÐ¸Ð¼Ð²": 7362,
      "ĠÐĳÐ°Ð±Ð°Ð½Ð¾Ð²": 7363,
      "452": 7364,
      "ÐºÐ°Ð½Ð´Ð°Ð¹": 7365,
      "ĠÐºÐ¸ÑĢÒ¯Ò¯": 7366,
      "ĠÐ¼ÑĥÐ·ÑĭÐºÐ°": 7367,
      "ĠÐ¼Ð°Ð°Ð½Ð°Ð¹": 7368,
      "ĠÐºÒ¯Ð¹Ò¯Ò¯ÑĩÒ¯": 7369,
      "ĠÐļÐµÒ£ÐµÑĪÑĤ": 7370,
      "ÑĭÐ´ÑĭÑĢ": 7371,
      "ĠÐ´ÐµÐ³ÐµÐ½Ð´ÐµÐ¹": 7372,
      "ĠÐ±Ð¾Ð»ÑĥÑĪÑĤÑĥ": 7373,
      "ÐļÐł": 7374,
      "ĠÐ¼Ð¸Ð»Ð´ÐµÑĤÐ¸": 7375,
      "ÐľÐĲ": 7376,
      "ĠÐ²Ð¸Ð·": 7377,
      "ĠÐºÐ¾Ð»ÑĥÐ½": 7378,
      "ÐºÐ°Ð»ÑĭÐ¹": 7379,
      "ĠÑģÑĭÑĢÑĤÐºÐ°": 7380,
      "ÐļÑĥÐ»": 7381,
      "ĠÓ¨ÐºÐ¼Ó©ÑĤÒ¯Ð½Ò¯Ð½": 7382,
      "ĠÐ¼Ò¯ÑĩÓ©Ð»Ó©ÑĢ": 7383,
      "ĠÐ¼Ð°Ð¼Ð»ÐµÐºÐµÑĤÐ¸": 7384,
      "ĠÐ³ÑĢÐ°Ð¼Ð¾ÑĤ": 7385,
      "ĠÐŀÑĢÑĥÑģÐ¸ÑıÐ´Ð°": 7386,
      "ĠÐºÐ°Ð»Ð¿": 7387,
      "ÐłÐ¾ÑģÑģ": 7388,
      "Ð¸Ð·Ð¼Ð³Ðµ": 7389,
      "ĠÐľÐµÐ»": 7390,
      "ĠÐºÐ°ÑĤÐ¼": 7391,
      "ĠÐļÐ¸Ð¹Ð¸Ð½ÑĩÐµÑĢÑįÑįÐº": 7392,
      ".com": 7393,
      "ĠÑĤÑĭÑĢ": 7394,
      "Ð°Ð³ÑĭÐ»Ð°": 7395,
      "Ð¶Ð°ÑĪ": 7396,
      "ĠÑĤÐ°Ð»Ð°Ð±Ñĭ": 7397,
      "ĠÐ¶Ð°Ð¹Ð´ÑĭÐ½": 7398,
      "ĠÒ¯ÑģÑĤÓ©Ð¼": 7399,
      "ĠÐºÐµÐ»Ð¸ÑĪÐ¸Ð¼Ð³Ðµ": 7400,
      "Ð½Ð¸ÑĢ": 7401,
      "Ð°ÐºÑĤÑĭÐ»ÑĥÑĥ": 7402,
      "111": 7403,
      "ĠÐ¿Ð¾Ð´": 7404,
      "ĠÐľÐµÐº": 7405,
      "ĠÐ°ÑıÐ»Ñĭ": 7406,
      "ĠÐ°ÑĢÐ°Ð»ÑĭÐºÑĤÐ°": 7407,
      "ĠÑģÑĭÐ½Ð°": 7408,
      "ĠÐ±Ð¾Ñĳ": 7409,
      "ĠÐ±Ó©Ð»Ò¯Ð¼Ò¯Ð½Ð´Ó©": 7410,
      "ÑĭÑĪÑĤÐ°ÑĢ": 7411,
      "Ð´ÑĭÐºÑĤÐ°ÑĢÑĭ": 7412,
      "Ð½Ð¾ÑıÐ±ÑĢ": 7413,
      "ĠÐĸÐµÑĢÐ³Ð¸Ð»Ð¸ÐºÑĤÒ¯Ò¯": 7414,
      "ÙĴ": 7415,
      "ÑĥÐºÐºÐ°Ð½": 7416,
      "102": 7417,
      "ĠÐºÐ°Ð±Ð°ÑĢÑĩÑĭ": 7418,
      "ĠÐ²Ð°ÐºÑĨÐ¸Ð½": 7419,
      "ĠÐ¡Ð°ÑĤ": 7420,
      "ĠÐŁÐ°ÑĢÐ»Ð°Ð¼": 7421,
      "ĠÐ¶ÐµÑĤÐµÐºÑĩÐ¸": 7422,
      "ĠÐ¾ÐºÑĤÑıÐ±ÑĢÑĮ": 7423,
      "ĠÑĤÐ°Ð±Ð°": 7424,
      "ĠÑĢÐµÐ¶Ð¸ÑģÑģÐµÑĢ": 7425,
      "Ð°Ð³ÑĭÐ½ÑĭÐ½": 7426,
      "ĠÑģÐ°Ð¿Ð°ÑĤÑĤÑĥÑĥ": 7427,
      "ĠÑįÐ»ÐµÑģÑĤ": 7428,
      "Ð¸ÑģÐ¸Ð½Ðµ": 7429,
      "ĠÓ©Ð»ÐºÓ©Ð½Ò¯": 7430,
      "ĠÐ±Ð°Ð³ÑĭÑĤÑĭ": 7431,
      "ĠÐºÑĭÐ»ÑĭÐ¼Ð´ÑĭÐ½": 7432,
      "ĠÑĤÐ°ÑĢÐ¼Ð°ÐºÑĤÐ°ÑĢÐ´Ð°": 7433,
      "110": 7434,
      "ĠÐ±Ð°Ð¹Ð»Ð°Ð½ÑĭÑĪÑĤÐ°": 7435,
      "ĠÐ¾ÑĤÑĥÑĢÐ°ÑĤ": 7436,
      "ĠÑįÐºÓ©Ó©Ð±Ò¯Ð·": 7437,
      "Ð¸ÑĨÐ¸": 7438,
      "ĠÑĤÐ°ÑĢÐ°Ð»Ð³Ð°Ð½": 7439,
      "ĠÐºÐ°Ð»Ð´ÑĭÐº": 7440,
      "ĠÐ³Ð¸Ð¿": 7441,
      "ĠÐ¸ÑĩÐ¸Ð¿": 7442,
      "ĠÑĥÐ»ÑĥÐº": 7443,
      "ĠÑĤÐ¾ÑģÐºÐ¾Ð¾Ð»Ð´ÑĥÐº": 7444,
      "ĠÐ¾ÐºÑĢÑĥÐ³Ñĥ": 7445,
      "ĠÑĩÑĭÐºÐ¿Ð°Ð¹": 7446,
      "ĠÐ´Ð°Ð¹ÑĭÐ½Ð´Ð°Ð»Ð´Ñĭ": 7447,
      "ĠÑįÑįÐ»ÐµÐ¹ÑĤ": 7448,
      "ĠÐºÓ©Ð¿Ò¯ÑĢ": 7449,
      "ĠÑģÐ°Ð»ÑĭÐ½Ð°ÑĤ": 7450,
      "ĠÐľÐ¾Ð»Ð´Ð¾": 7451,
      "ĠÐ³ÑĢÐ°Ð´Ñĥ": 7452,
      "Ð°ÑģÐ°Ðº": 7453,
      "ĠÑĩÑĭÐ³Ð°ÑĢÐ¼Ð°Ð»Ð°ÑĢÑĭ": 7454,
      "ĠÑįÐ¿Ð¸Ð·": 7455,
      "ĠÐĿÑĮÑİ": 7456,
      "ĠÑĪÐµÐºÑĤÐµÐ»Ð¸Ð¿": 7457,
      "ĠÐ±ÑĥÐ·ÑĥÐ¿": 7458,
      "ÑĭÐºÐµÐ¹": 7459,
      "ĠÐĴÐ°Ð»": 7460,
      "ĠÐ¡ÐµÐ¹": 7461,
      "ÑĢÐ°Ð°Ðº": 7462,
      "152": 7463,
      "ĠÑĤÑĥÑĤÐº": 7464,
      "ÐµÐ»Ð»ÐµÐºÑĤ": 7465,
      "ĠÐłÐĺÐĺÐĳ": 7466,
      "ÑĩÑĥÐ»Ð°ÑĢÐ´Ñĭ": 7467,
      "Ð´Ð¸Ð³Ð¸Ð½Ð¸Ð½": 7468,
      "ĠÑĤÐ°Ð¿ÑĪÑĭÑĢÐ´Ñĭ": 7469,
      "Ð±Ð¾Ð¹": 7470,
      "ĠÐ¢Ð¾Ð»": 7471,
      "ĠÐļÑĢÐ°Ñģ": 7472,
      "ĠÑĢÐµÐ´Ð°ÐºÑĨÐ¸ÑıÑģÑĭ": 7473,
      "ĠÐºÐ¾ÑĢÑĥÑĤ": 7474,
      "Ó©Ð½Ò¯Ð¿": 7475,
      "ĠÐ¡Ð¾ÑĨÐ¸Ð°Ð»Ð´ÑĭÐº": 7476,
      "ĠÐ²Ð¸ÑĤ": 7477,
      "ĠÐºÐ°Ð±Ð°ÑĢÐ»Ð°Ð³Ð°Ð½": 7478,
      "ĠÐ¶Ð¾ÑİÐ»": 7479,
      "ĠÐĳÐ°Ð°ÑĢÑĭ": 7480,
      "ve": 7481,
      "ĠÑģÐ°ÐºÑĤÐ¾Ð¾Ð³Ð¾": 7482,
      "ĠÐĳÐ¸ÑĪÐºÐµÐºÐºÐµ": 7483,
      "ĠÐ¼Ó©Ó©Ð½Ó©ÑĤÐºÓ©": 7484,
      "ÐĳÐ¸Ð»Ð¸Ð¼": 7485,
      "ÑĢÐ°Ð¼Ð¿": 7486,
      "ĠÐºÐµÑĩÐ¸ÑĢÐ¸Ð¼": 7487,
      "ĠÐºÐµÐ»ÐµÑĩÐµÐ³Ð¸": 7488,
      "ĠÐºÐµÐ»ÐµÑĩÐµÐºÑĤÐµ": 7489,
      "ĠÑģÑĥÑİÐºÑĤ": 7490,
      "Ð´ÑĥÐ³ÑĥÐ½Ð°": 7491,
      "Ð±Ð°ÑģÑĭÐ½": 7492,
      "ĠÐ±Ð¸Ð»Ð¸Ð½": 7493,
      "ĠÐ°Ð±Ð°Ð»Ð´Ñĭ": 7494,
      "ĠÐŁÑĢÐµÐ¼ÑĮÐµÑĢ": 7495,
      "ĠII": 7496,
      "ĠÐļÐ°Ð½Ð´Ð°Ð¹": 7497,
      "ĠÐºÐ°ÑĢÑĪÑĭÐ»ÑĭÐº": 7498,
      "ÑĥÐ°Ð»Ð´ÑĥÑĥ": 7499,
      "Ð¾Ð½Ð°": 7500,
      "ÑĭÐ¼ÑĭÐ½": 7501,
      "ĠÐ°ÑĤÐ°ÐºÑĤÑĥÑĥ": 7502,
      "ĠÐºÐ¸Ð¹Ð¸Ð¿": 7503,
      "ĠÑĢÐµÐ´Ð°ÐºÑĤÐ¾ÑĢÑĥ": 7504,
      "ĠÓ©Ð¹Ð´Ó©": 7505,
      "ÐµÑĤÐµ": 7506,
      "ĠÑģÐ¾Ð³ÑĥÑĪÐºÐ°": 7507,
      "Ð´Ð°Ð±Ð¸Ñı": 7508,
      "ÑĥÑĥÐ»Ð°ÑĢÐ´ÑĭÐ½": 7509,
      "ĠÐļÑĭÐ¹": 7510,
      "ÐľÐ°Ð¹": 7511,
      "ĠÐĲÐ½Ð³Ð»": 7512,
      "ĠÐŀÑĪÐ¾Ð½Ñĥ": 7513,
      "ĠÐ¼ÐµÐ´Ð°Ð»ÑĮ": 7514,
      "ĠÐ¡Ð¡ÐłÐ¸Ð½Ð¸Ð½": 7515,
      "ĠÐ±ÐµÐ»Ð³Ð¸Ð»ÐµÐ³ÐµÐ½Ð´ÐµÐ¹": 7516,
      "Ð°Ð»Ð¸Ñı": 7517,
      "ĠÐ±Ð°Ð»Ð°Ð¼": 7518,
      "ĠÐ¨Ð°Ð¼": 7519,
      "ÑģÑĤÐ°Ð½Ð°": 7520,
      "Ð°Ð±Ð°Ð¹ÑĤ": 7521,
      "ebook": 7522,
      "ress": 7523,
      "ĠÐ±ÐµÐ»Ð³Ð¸Ð»ÐµÑĪÑĤÐ¸": 7524,
      "ĠÐĴÐ°ÑĪÐ¸Ð½Ð³ÑĤÐ¾Ð½": 7525,
      "ĠÐ°ÑĢÐ±ÑĭÐ½": 7526,
      "ĠÐ¶Ð°ÐºÑĪÑĭÐ»": 7527,
      "Ð´ÐµÐ»": 7528,
      "ĠÑĤÐ°Ð»Ð°Ð±": 7529,
      "ĠÑĤÓ©Ð¼Ó©Ð½ÐºÒ¯Ð»": 7530,
      "ĠÑĩÐµÐ¼Ð¿Ð¸Ð¾Ð½Ñĥ": 7531,
      "ĠÐºÑĭÐ·Ð¼Ð°ÑĤÑĤÑĭÐ½": 7532,
      "ĠÐ¶Ð°ÐºÑĭÐ½Ð´Ð°ÑĢÑĭ": 7533,
      "Ð°Ð³ÑĭÐ¼Ð±Ð°Ð¹": 7534,
      "ĠÑĪÐ¸Ð»ÑĤÐµÐ¼Ðµ": 7535,
      "Ð°Ð±ÑĭÑĢ": 7536,
      "Ð³Ð¸Ñĩ": 7537,
      "ĠÐĳÐ¸Ð·Ð´Ðµ": 7538,
      "ĠÐ·Ð¾Ð¼Ð±ÑĥÐ»ÑĥÐº": 7539,
      "Ð°ÑĥÑĢÐµ": 7540,
      "ĠÑģÐµÐ½Ð¸Ð½": 7541,
      "ĠÓ©ÑĤÐºÓ©ÑĢÒ¯Ò¯Ð³Ó©": 7542,
      "ĠÐºÐ¸ÑĢÐ³Ð¸Ð·Ð¸Ð»Ð´Ð¸": 7543,
      "Ġ)": 7544,
      "ÑĭÑĪÑĤÐ°Ð³Ñĭ": 7545,
      "ÐĿÐµÐ³Ð¸Ð·": 7546,
      "ĠÑģÑĥÑĢÐ°Ð´Ñĭ": 7547,
      "ĠÑĤÐ¸Ð¹Ð³Ð¸Ð·Ð³ÐµÐ½": 7548,
      "ĠÐ´ÐµÐ¿Ð°ÑĢÑĤÐ°Ð¼ÐµÐ½ÑĤ": 7549,
      "79": 7550,
      "ĠÐ³ÑĢÐµÐº": 7551,
      "ĠÐŀÑĢÑĤ": 7552,
      "ÑĩÐ°ÑĢÐ°Ð»Ð°ÑĢ": 7553,
      "ĠÑģÓ©Ð·Ð´Ò¯": 7554,
      "ĠÐĺÐ½Ð´": 7555,
      "ÑĥÐ°Ð»Ð´ÑĭÐº": 7556,
      "ĠÑģÐ¿Ð¾ÑĢÑĤÑĩÑĥ": 7557,
      "Ð¾Ð³Ð¾ÑĢÑĥ": 7558,
      "ĠÑģÐ°Ñı": 7559,
      "Ð¡Ð¾": 7560,
      "ĠÐĲÐ½Ð´Ð°Ð¹": 7561,
      "ĠÑĩÐ¾Ð¾": 7562,
      "ÐµÑģÑģÐ¸Ð¾Ð½": 7563,
      "ĠÐºÐµÑĤÐ¸ÑĪÑĤÐ¸": 7564,
      "ĠÑģÐ°Ð»ÑĤ": 7565,
      "Ð´Ð¾ÑĢÑĥÐ½": 7566,
      "ĠÐ¼ÐµÐºÐµÐ¼Ðµ": 7567,
      "ĠâĢķ": 7568,
      "ĠÐ¶ÐµÒ£Ò¯Ò¯ÑĩÒ¯": 7569,
      "ĠÑģÐµÐ¹ÑĢÐµÐº": 7570,
      "ĠÓ©Ð±Ó©Ð»": 7571,
      "Ð¢Ð°Ð¶Ð¸Ðº": 7572,
      "72": 7573,
      "ĠÐĶÐ°ÑĢ": 7574,
      "ĠÐ¼Ð°ÑģÑĪÑĤ": 7575,
      "ĠÐºÐ¾Ð¼Ð¸ÑģÑģÐ¸ÑıÑģÑĭ": 7576,
      "ĠÐ±Ð°Ð¹ÐºÐ°Ð»Ð°ÑĤ": 7577,
      "ĠÐ¡Ð¸Ð·Ð´Ð¸Ð½": 7578,
      "ĠÑĤÑĭÐ¹ÑĭÐ½": 7579,
      "ĠÑįÐ»Ð´ÐµÑĢ": 7580,
      "ÑģÑĤÐ°Ð½Ð´Ð°": 7581,
      "ĠÐºÑĭÐ¹ÑĢ": 7582,
      "acebook": 7583,
      "ĠÐ°Ð¹ÑĭÐ½Ð°": 7584,
      "Ð±Ð°Ð´Ñĭ": 7585,
      "ĠÑĤÐ°ÑĢÑĤÑĭÐ»ÑĭÐ¿": 7586,
      "ĠÐ¼Ð°Ð°Ð»ÑĭÐ¼Ð°ÑĤÐºÐ°": 7587,
      "ĠÑģÑĥÐ½ÑĥÑĪÑĤÐ°Ð´Ñĭ": 7588,
      "od": 7589,
      "ĠÐ±Ð°ÑĪÑĤÐ°Ð¿ÐºÑĭ": 7590,
      "ĠÐŁÐ°ÐºÐ¸ÑģÑĤÐ°Ð½": 7591,
      "ĠÑģÑĨÐµÐ½": 7592,
      "Ð°Ð±ÐµÐºÐ¾Ð²": 7593,
      "Ð¸Ð±ÐµÐº": 7594,
      "ĠÐ¼Ð°ÐµÐº": 7595,
      "ĠÐĲÐĲÐļ": 7596,
      "ĠÐ£Ð±": 7597,
      "ĠÐ°Ð½ÑĭÐº": 7598,
      "ÑĩÑĥÒ£": 7599,
      "ĠÐ¼ÑĥÐ³Ð°Ð»Ð¸Ð¼Ð´ÐµÑĢ": 7600,
      "Ð¼Ð°ÑĤÐ¾Ð²Ð°": 7601,
      "ÑĭÐ¼Ð´Ð°": 7602,
      "ĠÐºÐ¾Ð»Ð´Ð¾Ð¾ÑģÑĥ": 7603,
      "ÑģÑĤÐ¸ÑĨÐ¸Ñı": 7604,
      "ĠÐ°Ð¹Ñĭ": 7605,
      "ĠÑĢÐ¾Ð»ÑĮ": 7606,
      "003": 7607,
      "ĠÐ¶Ð°Ð»Ð°Ò£": 7608,
      "ĠÐºÒ¯Ð¹Ò¯Ð¿": 7609,
      "ĠÐ¶ÑĥÐ±Ð°Ð¹Ñĭ": 7610,
      "ĠÐ¶Ò¯ÑĢÓ©Ð³Ò¯": 7611,
      "ĠÐºÐ°ÑĤÑĭÑĪÑĥÑĥÑĩÑĥÐ»Ð°ÑĢÑĭ": 7612,
      "ĠÐ¾ÑĤÑĥÑĢÐ³ÑĥÐ·": 7613,
      "Ð¾ÑĢÐ°Ð½": 7614,
      "ĠÐļÐ°Ð½ÑĤ": 7615,
      "ÑĦÐ°": 7616,
      "ĠÐºÐµÐ»Ð¸ÑĪÑĤÐ¸": 7617,
      "ĠÐ±Ð°ÑĪÐºÐ°ÑĢÐ³Ð°Ð½": 7618,
      "ĠÑĢÐµÑģÐ¿ÑĥÐ±Ð»Ð¸ÐºÐ°": 7619,
      "ĠÓ©ÐºÒ¯Ð½": 7620,
      "ĠÑįÑįÑĢÑĩ": 7621,
      "ce": 7622,
      "ĠÐ°Ð¹ÑĭÑĢÐ¼Ð°": 7623,
      "ĠÐĸÐ°ÐºÑĭÐ½": 7624,
      "ĠÐ¼Ð¾Ð±Ð¸Ð»Ð´Ð¸Ðº": 7625,
      "Ð°ÑĪÐºÐ°": 7626,
      "ĠÓ©Ð»ÐºÓ©Ð±Ò¯Ð·": 7627,
      "ÑĩÐ¾": 7628,
      "ĠÐ°ÑĤÐ°Ð»ÑĭÐ¿": 7629,
      "ÐºÑĥÐ¼": 7630,
      "ĠÐļÓ©Ð±": 7631,
      "ÐľÐ°Ð½": 7632,
      "ĠÐºÑĭÑĢÐ³ÑĭÐ·ÑģÑĤÐ°Ð½Ð´ÑĭÐºÑĤÐ°ÑĢ": 7633,
      "ĠÐ±ÐµÐ»Ð³Ð¸Ð»ÐµÐ½ÐµÑĤ": 7634,
      "ĠÐ¾ÐºÑĢÑĥÐ³": 7635,
      "ĠÑĪÐ°ÑĢÑĤÑĤÐ°ÑĢÐ´Ñĭ": 7636,
      "Ð°ÑĢÐ¼Ð¾Ð½": 7637,
      "ĠÐĸÑĥÐ½": 7638,
      "ĠÐ¾Ð¹Ð´Ñĥ": 7639,
      "ĠÑĤÑĭÐ½ÑĩÑģÑĭÐ·Ð´Ð°Ð½": 7640,
      "ÑĤÐµÑħÐ½Ð¸ÐºÐ°Ð»ÑĭÐº": 7641,
      "ĠÓ©ÑģÓ©ÑĤ": 7642,
      "ĠÐļÐ°Ð·Ð°ÐºÑģÑĤÐ°Ð½Ð´Ð°": 7643,
      "Ð°ÑĤÐºÐ°Ð»": 7644,
      "Ð¾Ð¼Ð°": 7645,
      "ĠÑĩÐµÑĩÐ¸Ð¿": 7646,
      "ÐĲÐ·ÑĭÑĢÐºÑĭ": 7647,
      "ĠÑįÐ½ÐµÑĢÐ³Ð¸Ñı": 7648,
      "ĠÐºÑĥÐ¹Ð¼Ð°ÑģÑĭÐ½Ð°": 7649,
      "og": 7650,
      "ĠÐºÐ°ÑĢÐ°Ð½ÑĤ": 7651,
      "ÐµÑĢÐ»ÐµÑĢÐ´Ð¸Ð½": 7652,
      "ĠÑįÐºÑģÐ¿ÐµÑĢÑĤÐ¸Ð·": 7653,
      "ÑĩÓ©Ð¹ÑĢ": 7654,
      "Ð±Ð¾ÑĢ": 7655,
      "ĠÐĲÐ»Ð»Ð°Ñħ": 7656,
      "ĠÐºÓ©ÑĢÑģÓ©ÑĤÑĤÒ¯": 7657,
      "Ð¾Ð»Ð¾ÑĢÐ´Ñĥ": 7658,
      "ĠÐºÑĥÑĢÑĥÐ»ÑĤÐ°Ð¹": 7659,
      "ĠÑĢÐ¾Ð¼Ð°Ð½": 7660,
      "ÐºÐµÐ»Ð¸Ð½": 7661,
      "ÑģÓ©ÑĤ": 7662,
      "ĠÐ¼Ð°ÐºÐ°Ð»Ð°": 7663,
      "ĠÐ»Ð°ÑĥÑĢÐµ": 7664,
      "160": 7665,
      "ĠÑĢÐµÐ³Ð¸Ð¾Ð½": 7666,
      "ÐŁÑĢÐµÐ·Ð¸Ð´ÐµÐ½": 7667,
      "ĠÐ¶Ð¸Ð¿": 7668,
      "185": 7669,
      "ĠÓ©ÑĤÐºÓ©Ð½Ð´Ó©Ð½": 7670,
      "ĠÑģÑĥÐ±ÑĬÐµÐºÑĤ": 7671,
      "ĠÐ¶Ð°Ð·ÑĭÐ»ÑĭÐ¿": 7672,
      "ĠÐ°ÐºÑģÐ°Ðº": 7673,
      "ĠÐºÐµÑĩÐ¸Ð½Ð´Ðµ": 7674,
      "ĠÐºÐ°Ð»ÑĭÐ¿ÑĤÑĭÑĢ": 7675,
      "ĠÑģÐ¾Ð³ÑĥÑĪÑĤÑĥÐ½": 7676,
      "Ð¸Ð±Ð¸Ð·Ð´Ð¸": 7677,
      "ĠÐŀÐºÑĥÑı": 7678,
      "ĠÓ©ÑĤÒ¯ÑĪÒ¯": 7679,
      "ĠÑģÓ©Ó©ÐºÑĤ": 7680,
      "ÑĤÑĤÐ°Ð³Ñĭ": 7681,
      "ÑĥÑģÑĥÐ½ÑĥÐ½": 7682,
      "Ð´Ð°Ð¼Ð¶Ð°Ð¹": 7683,
      "ĠÐ°Ð¿Ð°Ð¼": 7684,
      "Ð°ÑħÑĤÐ°": 7685,
      "ĠÓ©ÐºÒ¯Ð»Ð´Ó©ÑĢÒ¯Ð½Ò¯Ð½": 7686,
      "ĠÓ©Ð¿": 7687,
      "ĠÐĲÐ±Ð´ÑĭÐº": 7688,
      "Ð¿Ð¸Ð´ÐµÐ¼Ð¸Ð¾Ð»Ð¾Ð³Ð¸ÑıÐ»ÑĭÐº": 7689,
      "Ð°ÐºÑĤÐ°ÑĢÑĭÐ½": 7690,
      "ĠÑĤÐµÑģÐºÐµÑĢÐ¸ÑģÐ¸Ð½ÑĩÐµ": 7691,
      "ĠÒ¯Ð³Ò¯ÑĤ": 7692,
      "76": 7693,
      "ÑįÐ½ÐµÑģÐ¸": 7694,
      "ĠÐľÐ¸Ñħ": 7695,
      "Ð£Ð»ÑĥÑĥ": 7696,
      "ĠÐ¶Ð°ÑģÐ¾Ð¾Ð³Ð¾": 7697,
      "ĠÐ°Ð¹ÑĭÑĢÐ¼Ð°Ð»Ð°Ð½Ð°ÑĤ": 7698,
      "ĠÐ¢ÐµÑĢÐ³Ó©Ó©": 7699,
      "ĠÐµÐ²ÑĢÐ¾Ð¿": 7700,
      "ĠÐ±ÐµÑĤÐ¸": 7701,
      "ĠÑĤÑĥÑĢÐ³ÑĥÐ·": 7702,
      "ĠÐ±Ð°Ð»Ð°Ð³Ð°": 7703,
      "ĠÐºÐ°Ð±Ð°ÑĢÐ»Ð°ÑĢÑĭ": 7704,
      "Ð½Ð¸Ñģ": 7705,
      "ÑĥÐ¶": 7706,
      "ÐºÑĤÐ°": 7707,
      "ĠÐ½ÐµÐ±ÐµÑĢ": 7708,
      "ĠÓ©Ð½Ò¯Ð³Ò¯Ð¿": 7709,
      "ĠÐ¡Ð²ÐµÑĢÐ´Ð»Ð¾Ð²": 7710,
      "ĠÐłÐµÑģÐ¿ÑĥÐ±Ð»Ð¸ÐºÐ°Ð»ÑĭÐº": 7711,
      "ĠÐ°ÐºÑĤÐ¸Ð²Ð¸ÑģÑĤÑĤÐµÑĢ": 7712,
      "ĠÐ¶ÑĭÐ½ÑĭÑģÑĤÑĭÐº": 7713,
      "ĠÐºÐ¾ÑĢÐ³Ð¾Ð½ÑĥÑĥ": 7714,
      "ĠÐ°Ð¿ÑĢÐµÐ»ÑĮ": 7715,
      "ph": 7716,
      "ĠÐ¶Ð¾Ð»Ð´Ñĥ": 7717,
      "184": 7718,
      "ÐµÑĢÐ³ÐµÐ¹": 7719,
      "ĠÐºÓ©ÑĢÒ¯Ð½Ò¯ÐºÑĤÒ¯Ò¯": 7720,
      "ĠÐºÐ°ÑĢÐ°Ð¶Ð°ÑĤÑĤÐ°ÑĢÑĭÐ½ÑĭÐ½": 7721,
      "Ð¸Ð½ÑĤÐ¸Ð¿": 7722,
      "ĠÑĤÒ¯ÑĪÒ¯Ð¼": 7723,
      "ĠÐ¼Ð°Ð°Ð»ÑĭÐ¼Ð°ÑĤÑĭÐ½Ð´Ð°": 7724,
      "ĠÑĤÐµÑħÐ½Ð¸ÐºÐ°": 7725,
      "ĠÑĩÐ°Ð°Ð¿": 7726,
      "ÑĥÑĥÐ»Ð³Ð°Ð½": 7727,
      "ĠÐ¸Ð¹Ð³Ð¸Ð»Ð¸Ðº": 7728,
      "ĠÐ¿Ð°Ð»": 7729,
      "Ð¡Ð¿": 7730,
      "ĠÑĤÐµÑĢÐ¼": 7731,
      "ÑĢÐ¸Ð´": 7732,
      "ĠÓ©Ð·Ò¯Ò£Ò¯Ð·": 7733,
      "ĠÐ°Ð»Ð´Ð°": 7734,
[...]
