{
  "version": "1.0",
  "truncation": null,
  "padding": null,
  "added_tokens": [],
  "normalizer": null,
  "pre_tokenizer": {
    "type": "Sequence",
    "pretokenizers": [
      {
        "type": "Split",
        "pattern": {
          "Regex": "[^\\r\\n\\p{L}\\p{N}]?[\\p{Lu}\\p{Lt}\\p{Lm}\\p{Lo}\\p{M}]*[\\p{Ll}\\p{Lm}\\p{Lo}\\p{M}]+(?i:'s|'t|'re|'ve|'m|'ll|'d)?|[^\\r\\n\\p{L}\\p{N}]?[\\p{Lu}\\p{Lt}\\p{Lm}\\p{Lo}\\p{M}]+[\\p{Ll}\\p{Lm}\\p{Lo}\\p{M}]*(?i:'s|'t|'re|'ve|'m|'ll|'d)?|\\p{N}{1,3}| ?[^\\s\\p{L}\\p{N}]+[\\r\\n/]*|\\s*[\\r\\n]+|\\s+(?!\\S)|\\s+"
        },
        "behavior": "Removed",
        "invert": true
      },
      {
        "type": "ByteLevel",
        "add_prefix_space": false,
        "trim_offsets": true,
        "use_regex": false
      }
    ]
  },
  "post_processor": {
    "type": "ByteLevel",
    "add_prefix_space": true,
    "trim_offsets": false,
    "use_regex": true
  },
  "decoder": {
    "type": "ByteLevel",
    "add_prefix_space": true,
    "trim_offsets": true,
    "use_regex": true
  },
  "model": {
    "type": "BPE",
    "dropout": null,
    "unk_token": null,
    "continuing_subword_prefix": null,
    "end_of_word_suffix": null,
    "fuse_unk": false,
    "byte_fallback": false,
    "ignore_merges": false,
    "vocab": {
      "!": 0,
      "\"": 1,
      "#": 2,
      "$": 3,
      "%": 4,
      "&": 5,
      "'": 6,
      "(": 7,
      ")": 8,
      "*": 9,
      "+": 10,
      ",": 11,
      "-": 12,
      ".": 13,
      "/": 14,
      "0": 15,
      "1": 16,
      "2": 17,
      "3": 18,
      "4": 19,
      "5": 20,
      "6": 21,
      "7": 22,
      "8": 23,
      "9": 24,
      ":": 25,
      ";": 26,
      "<": 27,
      "=": 28,
      ">": 29,
      "?": 30,
      "@": 31,
      "A": 32,
      "B": 33,
      "C": 34,
      "D": 35,
      "E": 36,
      "F": 37,
      "G": 38,
      "H": 39,
      "I": 40,
      "J": 41,
      "K": 42,
      "L": 43,
      "M": 44,
      "N": 45,
      "O": 46,
      "P": 47,
      "Q": 48,
      "R": 49,
      "S": 50,
      "T": 51,
      "U": 52,
      "V": 53,
      "W": 54,
      "X": 55,
      "Y": 56,
      "Z": 57,
      "[": 58,
      "\\": 59,
      "]": 60,
      "^": 61,
      "_": 62,
      "`": 63,
      "a": 64,
      "b": 65,
      "c": 66,
      "d": 67,
      "e": 68,
      "f": 69,
      "g": 70,
      "h": 71,
      "i": 72,
      "j": 73,
      "k": 74,
      "l": 75,
      "m": 76,
      "n": 77,
      "o": 78,
      "p": 79,
      "q": 80,
      "r": 81,
      "s": 82,
      "t": 83,
      "u": 84,
      "v": 85,
      "w": 86,
      "x": 87,
      "y": 88,
      "z": 89,
      "{": 90,
      "|": 91,
      "}": 92,
      "~": 93,
      "¡": 94,
      "¢": 95,
      "£": 96,
      "¤": 97,
      "¥": 98,
      "¦": 99,
      "§": 100,
      "¨": 101,
      "©": 102,
      "ª": 103,
      "«": 104,
      "¬": 105,
      "®": 106,
      "¯": 107,
      "°": 108,
      "±": 109,
      "²": 110,
      "³": 111,
      "´": 112,
      "µ": 113,
      "¶": 114,
      "·": 115,
      "¸": 116,
      "¹": 117,
      "º": 118,
      "»": 119,
      "¼": 120,
      "½": 121,
      "¾": 122,
      "¿": 123,
      "À": 124,
      "Á": 125,
      "Â": 126,
      "Ã": 127,
      "Ä": 128,
      "Å": 129,
      "Æ": 130,
      "Ç": 131,
      "È": 132,
      "É": 133,
      "Ê": 134,
      "Ë": 135,
      "Ì": 136,
      "Í": 137,
      "Î": 138,
      "Ï": 139,
      "Ð": 140,
      "Ñ": 141,
      "Ò": 142,
      "Ó": 143,
      "Ô": 144,
      "Õ": 145,
      "Ö": 146,
      "×": 147,
      "Ø": 148,
      "Ù": 149,
      "Ú": 150,
      "Û": 151,
      "Ü": 152,
      "Ý": 153,
      "Þ": 154,
      "ß": 155,
      "à": 156,
      "á": 157,
      "â": 158,
      "ã": 159,
      "ä": 160,
      "å": 161,
      "æ": 162,
      "ç": 163,
      "è": 164,
      "é": 165,
      "ê": 166,
      "ë": 167,
      "ì": 168,
      "í": 169,
      "î": 170,
      "ï": 171,
      "ð": 172,
      "ñ": 173,
      "ò": 174,
      "ó": 175,
      "ô": 176,
      "õ": 177,
      "ö": 178,
      "÷": 179,
      "ø": 180,
      "ù": 181,
      "ú": 182,
      "û": 183,
      "ü": 184,
      "ý": 185,
      "þ": 186,
      "ÿ": 187,
      "Ā": 188,
      "ā": 189,
      "Ă": 190,
      "ă": 191,
      "Ą": 192,
      "ą": 193,
      "Ć": 194,
      "ć": 195,
      "Ĉ": 196,
      "ĉ": 197,
      "Ċ": 198,
      "ċ": 199,
      "Č": 200,
      "č": 201,
      "Ď": 202,
      "ď": 203,
      "Đ": 204,
      "đ": 205,
      "Ē": 206,
      "ē": 207,
      "Ĕ": 208,
      "ĕ": 209,
      "Ė": 210,
      "ė": 211,
      "Ę": 212,
      "ę": 213,
      "Ě": 214,
      "ě": 215,
      "Ĝ": 216,
      "ĝ": 217,
      "Ğ": 218,
      "ğ": 219,
      "Ġ": 220,
      "ġ": 221,
      "Ģ": 222,
      "ģ": 223,
      "Ĥ": 224,
      "ĥ": 225,
      "Ħ": 226,
      "ħ": 227,
      "Ĩ": 228,
      "ĩ": 229,
      "Ī": 230,
      "ī": 231,
      "Ĭ": 232,
      "ĭ": 233,
      "Į": 234,
      "į": 235,
      "İ": 236,
      "ı": 237,
      "Ĳ": 238,
      "ĳ": 239,
      "Ĵ": 240,
      "ĵ": 241,
      "Ķ": 242,
      "ķ": 243,
      "ĸ": 244,
      "Ĺ": 245,
      "ĺ": 246,
      "Ļ": 247,
      "ļ": 248,
      "Ľ": 249,
      "ľ": 250,
      "Ŀ": 251,
      "ŀ": 252,
      "Ł": 253,
      "ł": 254,
      "Ń": 255,
      "Ð°": 256,
      "ĠÐ": 257,
      "Ð½": 258,
      "ÑĤ": 259,
      "ÑĢ": 260,
      "Ðµ": 261,
      "Ñĭ": 262,
      "Ð»": 263,
      "Ð¸": 264,
      "Ñĥ": 265,
      "Ð¾": 266,
      "Ðº": 267,
      "Ð´": 268,
      "Ñģ": 269,
      "Ð³": 270,
      "Ò¯": 271,
      "Ð¼": 272,
      "Ó©": 273,
      "ĠÐº": 274,
      "Ð°Ð½": 275,
      "Ð°ÑĢ": 276,
      "Ð¹": 277,
      "ÑĪ": 278,
      "ĠÐ±": 279,
      "Ñĩ": 280,
      "Ð¿": 281,
      "Ð·": 282,
      "ÑĭÐ½": 283,
      "Ð°Ð»": 284,
      "ĠÐ¶": 285,
      "ÐµÐ½": 286,
      "Ð±": 287,
      "Ð°ÑĤ": 288,
      "ĠÑĤ": 289,
      "Ð¸Ð½": 290,
      "ÐµÑĢ": 291,
      "ĠÐ¼": 292,
      "Ñı": 293,
      "Ð´Ð°": 294,
      "ĠÑģ": 295,
      "Ð²": 296,
      "Ð°Ð¹": 297,
      "ÑĥÑĥ": 298,
      "Ñį": 299,
      "Ð¾Ð»": 300,
      "ÐºÑĤ": 301,
      "ĠÐ´": 302,
      "ÑĭÐ»": 303,
      "Ò¯Ð½": 304,
      "ÑĥÐ½": 305,
      "ĠÑį": 306,
      "ÑģÑĤ": 307,
      "ÐµÑĤ": 308,
      "Ð¾ÑĢ": 309,
      "Ð¾Ð½": 310,
      "Ð¸ÑĢ": 311,
      "ĠÐ¾": 312,
      "ĠÐ¸": 313,
      "ÑĥÑĢ": 314,
      "ĠÐ°": 315,
      "Ð³Ð°Ð½": 316,
      "Ð¸Ð»": 317,
      "Ð¸Ñı": 318,
      "Ð´Ñĭ": 319,
      "ĠÐ¿": 320,
      "Ð³Ñĭ": 321,
      "ÐµÐ»": 322,
      "Ð°Ñģ": 323,
      "ÑĥÐ»": 324,
      "ÐµÐº": 325,
      "ĠÑĩ": 326,
      "Ð°Ð¼": 327,
      "Ð¶": 328,
      "ÑĭÑĢ": 329,
      "Ð°ÑĪ": 330,
      "Ð¸Ðº": 331,
      "ĠÐĲ": 332,
      "ĠÐ°Ð»": 333,
      "ĠÓ©": 334,
      "Ò£": 335,
      "Ð°Ðº": 336,
      "ĠÐļ": 337,
      "âĢ": 338,
      "ÑĭÐº": 339,
      "Ñİ": 340,
      ".Ċ": 341,
      "ÑĮ": 342,
      "Ó©ÑĢ": 343,
      "Ð°Ð½Ð°": 344,
      "Ð³Ð°": 345,
      "Ò¯Ò¯": 346,
      "Ð°ÑĢÑĭ": 347,
      "ĠÐĳ": 348,
      "Ð¾Ð²": 349,
      "Ó©Ð½": 350,
      "ÑĨ": 351,
      "ĠÐ±Ð¾Ð»": 352,
      "ÑĪÑĤ": 353,
      "ĠÐ½": 354,
      "Ð¾Ð¼": 355,
      "Ð´ÑĭÐ½": 356,
      "Ð´Ðµ": 357,
      "ĠÐ¶Ð°Ð½Ð°": 358,
      "Ð¾Ð³": 359,
      "Ð¸Ð·": 360,
      "Ð´Ð¸": 361,
      "ÑĭÐ¿": 362,
      "Ñħ": 363,
      "ĠâĢ": 364,
      "ĠÐ¼ÐµÐ½": 365,
      "ÐµÑģ": 366,
      "ĠÑĥ": 367,
      "ĠÐ°Ð¹": 368,
      "ÑĭÐ½Ð´Ð°": 369,
      "Ò¯ÑĢ": 370,
      "ÑĭÐ·": 371,
      "ÑĦ": 372,
      "Ð°Ð¿": 373,
      "ĠÐ´Ðµ": 374,
      "ÑĤÑĤ": 375,
      "Ð¾Ð¾": 376,
      "ĠÐ¼ÐµÐ½ÐµÐ½": 377,
      "Ð´Ñĥ": 378,
      "Ð°Ð±": 379,
      "ĠÐ²": 380,
      "Ð¸Ð¼": 381,
      "ĠÑĢ": 382,
      "Ð³ÐµÐ½": 383,
      "ÐºÐ°": 384,
      "Ðļ": 385,
      "Ð´Ð°ÑĢ": 386,
      "Ð¸ÑĤ": 387,
      "ÑĭÐ¼": 388,
      "ĠÐľ": 389,
      "ÐµÐ¹": 390,
      "ÐºÐ°Ð½": 391,
      "Ð¸Ð¹": 392,
      "ÐµÐ¼": 393,
      "ĠÐ±Ð¸ÑĢ": 394,
      "Ð´Ó©": 395,
      "Ð°Ð·": 396,
      "Ð¾Ðº": 397,
      "Ð¾ÑĤ": 398,
      "ÑĭÐ¹": 399,
      "Ð´Ð°Ð½": 400,
      "ÑĭÐ½ÑĭÐ½": 401,
      "ĠÐ¿ÑĢ": 402,
      "ÑĩÐ°": 403,
      "ĠÑįÐ»": 404,
      "ÑĭÑĪ": 405,
      "ĠÐ°ÑĢ": 406,
      "Ġ(": 407,
      "Ó©Ð»": 408,
      "Ò¯Ð»": 409,
      "ĠÐºÐ°ÑĢ": 410,
      "Ð°ÑĤÑĤ": 411,
      "Ð¾Ð¹": 412,
      "ĠÐ±Ð°ÑĪ": 413,
      "ĠÐ¡": 414,
      "ĠÐ¢": 415,
      "ĠÒ¯": 416,
      "ÑĥÐ¿": 417,
      "Ð°ÐºÑĤ": 418,
      "Ð¸Ð¿": 419,
      "ÐµÐºÑĤ": 420,
      "ÐĲ": 421,
      "ĠÐºÓ©": 422,
      "Ð³ÑĭÐ·": 423,
      "Ð¾Ñİ": 424,
      "ĠâĢĶ": 425,
      "ĠÐ±ÐµÑĢ": 426,
      "ĠÐ´Ð°": 427,
      "ÐµÐ²": 428,
      "Ð¸ÑĪ": 429,
      "Ð´Ð¸Ð½": 430,
      "ĠÐĸ": 431,
      "ĠÑĪ": 432,
      "ÐµÐ³": 433,
      "ÑĭÑĢÐ³ÑĭÐ·": 434,
      "ÑĨÐ¸Ñı": 435,
      "ÐµÐ·": 436,
      "ÑĭÐ½Ð°": 437,
      "Ó©ÑĤ": 438,
      "ÑĥÐº": 439,
      "ĠÐºÐµÐ»": 440,
      "-Ð¶": 441,
      "ĠÐ³": 442,
      "Ð¾Ñģ": 443,
      "20": 444,
      "ĠÐŀ": 445,
      "Â«": 446,
      "Â»": 447,
      "Ð»Ð°ÑĢ": 448,
      "ĠÐ°Ð½": 449,
      "ÐµÑĤÑĤ": 450,
      "Ð¸ÑģÑĤ": 451,
      "Ò¯Ð·": 452,
      "ÑĥÑģ": 453,
      "ĠÑįÐº": 454,
      "ÑĢÐ°": 455,
      "Ð´ÑĭÐº": 456,
      "ÐµÐ¿": 457,
      "ĠÐ°ÑĤ": 458,
      "ÑģÑĤÐ°Ð½": 459,
      "ĠÑĤÑĥÑĢ": 460,
      "Ð³Ó©": 461,
      "ĠÓ©Ð·": 462,
      "ĠÑįÐ¼": 463,
      "ĠÐ´ÐµÐ¿": 464,
      "ĠÑĤÐ°ÑĢ": 465,
      "ĠÐ¼Ð°": 466,
      "ÑĥÐ¼": 467,
      "Ðĳ": 468,
      "Ð¸Ñģ": 469,
      "Ð´ÐµÐ½": 470,
      "Ð³Ð¾Ð½": 471,
      "Ð¾ÑİÐ½": 472,
      "ĠÐºÐ¾": 473,
      "ĠÐºÑĭÐ·": 474,
      "Ð°Ð»ÑĭÐº": 475,
      "ÑĥÑĪ": 476,
      "ĠÐ·": 477,
      "ĠÐºÐ°Ð»": 478,
      "Ð¸Ð½Ð¸Ð½": 479,
      "ÐºÑĭ": 480,
      "ĠÂ«": 481,
      "ÐµÑĢÐ¸": 482,
      "ĠÐ±Ð¾ÑİÐ½": 483,
      "ĠÒ¯Ñĩ": 484,
      "Ð»Ð¸": 485,
      "ÑĭÐºÑĤ": 486,
      "ĠÐ¾ÑĢ": 487,
      "Ġ-": 488,
      "ĠÐ±Ð¾ÑİÐ½ÑĩÐ°": 489,
      "ĠÐ±Ð°ÑĢ": 490,
      "ÐºÑĥ": 491,
      "Ð½Ð¾": 492,
      "Ð½ÑĭÐ½": 493,
      "Ðľ": 494,
      "19": 495,
      "Ò¯Ð¿": 496,
      "Ð°Ð³": 497,
      "ĠÐ¶Ð°ÑĤ": 498,
      "Ð¸Ð½Ð´Ðµ": 499,
      "Ð±Ð»": 500,
      "-Ð¶ÑĭÐ»": 501,
      "ÑĭÐ³": 502,
      "Ð´Ð°Ð¼": 503,
      "Ð»Ð°Ð½": 504,
      "Ð¡": 505,
      "Ð³Ó©Ð½": 506,
      "ĠÑįÐ»Ðµ": 507,
      "Ð³Ð¸": 508,
      "ĠÐ±Ð¸Ð»": 509,
      "ĠÑĦ": 510,
      "ĠÐ¸ÑĪ": 511,
      "Ð³Ðµ": 512,
      "Ð´Ð°Ð³Ñĭ": 513,
      "ÑĤÐ°": 514,
      "ĠÒ¯ÑĩÒ¯Ð½": 515,
      "ÑģÐº": 516,
      "Ò¯ÑĪ": 517,
      "ĠÐºÐ°ÑĤ": 518,
      "ĠÐł": 519,
      "ÑģÑĭ": 520,
      "ÑĥÑĤ": 521,
      "ÑĥÐ·": 522,
      "ĠÐºÓ©ÑĢ": 523,
      "ĠÐŃ": 524,
      "Ð±Ð°": 525,
      "ĠÐºÑĭÐ»": 526,
      "Ò¯Ð¼": 527,
      "ĠÐĲÐ»": 528,
      "Ð¾Ð¿": 529,
      "ÐµÑĩ": 530,
      "ĠÐ¶Ð°ÑĢ": 531,
      "ÑĤÐº": 532,
      "ÐµÒ£": 533,
      "ĠÐºÐ¾Ð»": 534,
      "Ð¸Ð²": 535,
      "Ð°ÑģÑĭ": 536,
      "Ò¯Ðº": 537,
      "ÐµÐ´": 538,
      "ĠÐļÑĭÑĢÐ³ÑĭÐ·": 539,
      "ĠÐ±Ð¾Ð»Ð³Ð¾Ð½": 540,
      "Ð°Ð»ÑĥÑĥ": 541,
      "Ò¯Ð³": 542,
      "Ð¼Ð°ÑĤ": 543,
      "Ð³Ð¸Ð»": 544,
      "ĠÐ°Ð¹ÑĤ": 545,
      "Ò¯Ð¹": 546,
      "Ð±ÐµÐº": 547,
      "ĠÐ¸ÑĪÑĤ": 548,
      "Ð´Ð°Ð¹": 549,
      "Ð»ÐµÐº": 550,
      "ĠÑĤÑĥÑĥ": 551,
      "Ò¯Ð½Ð´Ó©": 552,
      "ÑĭÐ½Ð°Ð½": 553,
      "ÑĩÑĥ": 554,
      "ĠÐĺ": 555,
      "Ð°Ð°ÑĢ": 556,
      "Ð°Ð»ÑĭÐ¼": 557,
      "Ð´ÑĥÐ½": 558,
      "Ð¢": 559,
      "Ð°Ñı": 560,
      "Ð°Ð»Ð°ÑĢ": 561,
      "Ð¾Ð±": 562,
      "ÐµÑĪ": 563,
      "Ð¾Ð´": 564,
      "ÐºÐ¸": 565,
      "ĠÐĶ": 566,
      "Ð¾Ð³Ð¾": 567,
      "ĠÐŁ": 568,
      "ÑĥÐ½ÑĥÐ½": 569,
      "ĠÐ±ÑĥÐ»": 570,
      "ĠÐ¶ÑĭÐ»": 571,
      "Ð°Ð»Ð³Ð°Ð½": 572,
      "Ð°Ð¼Ð»ÐµÐº": 573,
      "Ð¸Ð½Ðµ": 574,
      ".ĊĊ": 575,
      "Ð°Ð³Ð°Ð½": 576,
      "ĠÐ£": 577,
      "Ð½Ñĭ": 578,
      "Ð»ÑĭÐº": 579,
      "ÐµÐ±": 580,
      "ĠÐ¶ÐµÑĢ": 581,
      "ĠÐ¶Ð¾Ð»": 582,
      "Ð¼Ð°": 583,
      "ĠÐĿ": 584,
      "Ð°Ð²": 585,
      "Ð°Ð¹ÑĤ": 586,
      "ĠÓ©Ð»": 587,
      "Ð¾Ð·": 588,
      "ĠÐ±Ð¾Ð»ÑĥÐ¿": 589,
      "ĠâĢĵ": 590,
      "ÐµÐ½Ð¸": 591,
      "Ð´ÐµÑĢ": 592,
      "ÐµÑģÑĤ": 593,
      "Ðĺ": 594,
      "Ð´ÑĥÐº": 595,
      "ĠÐ¶Ò¯ÑĢ": 596,
      "Ð°Ò£": 597,
      "ÑĥÐ³": 598,
      "ĠÐºÐ¾Ð¼": 599,
      "ĠÐĳÑĥÐ»": 600,
      "Ðŀ": 601,
      "ĠÐºÑĥÑĢ": 602,
      "ÑĥÐ½Ð°": 603,
      "ĠÐºÐ°Ð½": 604,
      "ĠÐ»": 605,
      "ÐºÐµ": 606,
      "ĠÐ¶Ð°ÑĪ": 607,
      "Ð¼Ð°Ð½": 608,
      "Ð´Ð¸ÑĢ": 609,
      "ÑĭÑĪÑĤ": 610,
      "ĠÐ¼Ð°Ð°Ð»ÑĭÐ¼": 611,
      "ÑĩÑĭÐ»": 612,
      "ÑĭÐ³Ñĭ": 613,
      "ĠÐ½Ð°": 614,
      "Ó©Ó©": 615,
      "Ñī": 616,
      "Ò¯Ð½Ò¯Ð½": 617,
      "ĠÐ¶ÐµÑĤ": 618,
      "Ð¾Ð½Ð´": 619,
      "Ð´Ð¸Ðº": 620,
      "ÑĤÐ¾": 621,
      "Ð¾ÑĢÑĥ": 622,
      "âĢĿ": 623,
      "ÑĨÐ¸": 624,
      "Ó¨": 625,
      "Ó©Ð¼": 626,
      "00": 627,
      "ĠÐ°Ðº": 628,
      "ÑĩÑĭ": 629,
      "ĠÐ±ÐµÐ»": 630,
      "ÑįÑį": 631,
      "ĠÐ°Ð´Ð°Ð¼": 632,
      "ÐºÐµÐ½": 633,
      "Ð°Ð¶": 634,
      "ĠÑĩÑĭÐ³": 635,
      "ĠÐ±Ð°Ñģ": 636,
      "ĠÐºÑĭÐ·Ð¼Ð°ÑĤ": 637,
      "Ò¯Ñĩ": 638,
      "Ð°ÑĢÐ´ÑĭÐ½": 639,
      "ĠÐºÐ¾ÑĢ": 640,
      "ĠÐ±Ð¸Ð»Ð´Ð¸ÑĢ": 641,
      "ÐµÐ¹Ð¸Ð½": 642,
      "ÑģÑı": 643,
      "Ð°Ð¼Ð»ÐµÐºÐµÑĤÑĤ": 644,
      "Ò¯Ð½Ó©": 645,
      "ĠÐ±Ð°Ð¹": 646,
      "ĠÐºÐµÑĤ": 647,
      "ĠÐºÐ¸ÑĢ": 648,
      "ĠÐ¾ÑĤ": 649,
      "ĠÐ±Ó©Ð»": 650,
      "ÑĩÐ¸": 651,
      "Ð´Ò¯": 652,
      "ĠÐ¾Ðº": 653,
      "Ð»ÐµÑĢ": 654,
      "Ð´Ð¾Ð½": 655,
      "ĠÐºÐ¸Ð¹": 656,
      "ÑĥÑĥÐ³Ð°": 657,
      "ĠÐ¸Ð½": 658,
      "ĠÐºÐ°Ð¹": 659,
      "ĠÑĩÐµÐ¹Ð¸Ð½": 660,
      "ÑĥÐ½Ð´Ð°": 661,
      "Ġ\"": 662,
      "Ð¸Ð½Ð¸ÑģÑĤ": 663,
      "ĠÐºÐµÑĢ": 664,
      "Ð°Ð³Ñĭ": 665,
      "ĠÑĥÑĩ": 666,
      "ĠÑĤÒ¯Ð·": 667,
      "Ð¾ÑģÑĤ": 668,
      "ĠÑģÐ°Ð»": 669,
      "Ð°ÑĢÑĤ": 670,
      "Ðĸ": 671,
      "ĠÐ§": 672,
      "ÐµÐ½ÑĤ": 673,
      "Ð¸ÐºÑĤ": 674,
      "ĠÑĤÐ°Ð»": 675,
      "ĠÑĤÑĥÑĥÑĢ": 676,
      "ĠÑģÑĤ": 677,
      "ÐºÐ°ÑĢ": 678,
      "ĠÐ´ÐµÐ³ÐµÐ½": 679,
      "Ð´ÑĥÑĥ": 680,
      "ĠâĢľ": 681,
      "ÐµÑģÐ¿": 682,
      "Ð°Ð½Ñĭ": 683,
      "ĠÐ±Ð°Ð»": 684,
      "ÑıÐ½": 685,
      "ĠÐļÑĭÑĢÐ³ÑĭÐ·ÑģÑĤÐ°Ð½": 686,
      "ĠÐ¶Ð°Ðº": 687,
      "ĠÐ¶Ð°Ð¹": 688,
      "ĠÐĴ": 689,
      "Ðł": 690,
      "201": 691,
      "ÑĤÐµÑĢ": 692,
      "Ð±Ð°Ð¹": 693,
      "ĠÑĪÐ°Ð°ÑĢ": 694,
      "ĠÐŀÑĪ": 695,
      "Ð¸Ñĩ": 696,
      "Ð¸Ð½Ð¸ÑģÑĤÑĢ": 697,
      "ĠÐ¶Ðµ": 698,
      "ĠÐ¶Ð¾Ðº": 699,
      "ÑĩÑĥÐ»": 700,
      "ÑĭÐ»Ð³Ð°Ð½": 701,
      "ÐµÐ·Ð¸": 702,
      "Ð¸ÐºÐ°Ð»ÑĭÐº": 703,
      "ÐºÓ©": 704,
      "ĠÑĢÐ°Ð¹": 705,
      "ĠÐĵ": 706,
      "ÐŁ": 707,
      "ÐºÐµÑĢ": 708,
      "Ð°ÑĢÐ´Ñĭ": 709,
      "ÑĥÑĥÐ½": 710,
      "ĠÐºÐ°Ð±": 711,
      "ĠÑĥÐ»": 712,
      "ĠÓ©Ð½": 713,
      "Ð´ÑĭÑĢ": 714,
      "Ð°ÑģÑĭÐ½ÑĭÐ½": 715,
      "ĠÐ¸Ñĩ": 716,
      "ĠÑĤÑĥÑĥÑĢÐ°Ð»ÑĥÑĥ": 717,
      "ĠÑįÐ¼ÐµÑģ": 718,
      "Ð³Ð¾": 719,
      "ĠÐ¶Ó©Ð½": 720,
      "ÑĥÐ±Ð»": 721,
      "Ð°ÑĢÑĭÑı": 722,
      "ÑĪÑĭ": 723,
      "ÐµÐ³Ð¸Ð·": 724,
      "ĠÑģÐ¾": 725,
      "Ð´Ð¾": 726,
      "Ð¾ÐºÑĤ": 727,
      "ĠÐ¶Ð°Ð·": 728,
      "Ð°Ð½ÑĭÐ½": 729,
      "ĠÓ©ÑĤ": 730,
      "ĠÐ°Ð·": 731,
      "Ð³Ò¯": 732,
      "Ó©Ð·": 733,
      "Ð´Ð°ÑĢÑĭ": 734,
      "ĠÐ¸Ð·": 735,
      "Ð¸Ò£": 736,
      "ÐµÐ»ÑĮ": 737,
      "Ð´Ó©ÑĢ": 738,
      "ĠÐ¾ÑĪ": 739,
      "ĠÐºÓ©Ð¿": 740,
      "ĠÐ¿Ð°Ð¹": 741,
      "ĠÐºÐ°": 742,
      "ÐµÐ·Ð¸Ð´ÐµÐ½": 743,
      "ĠÐºÒ¯Ð½": 744,
      "Ð¸ÑıÐ»ÑĭÐº": 745,
      "ÑĭÐ½Ð´Ð°Ð³Ñĭ": 746,
      "ĠÐºÐ¸Ð¹Ð¸Ð½": 747,
      "ĠÐ¶Ð°ÑĤÐºÐ°Ð½": 748,
      "Ð¸Ð³": 749,
      "Ð¾Ð¶": 750,
      "Ð°Ð¼Ð»ÐµÐºÐµÑĤÑĤÐ¸Ðº": 751,
      "Ð»Ñĥ": 752,
      "ÑĤÑĭ": 753,
      "ĠÑĤÑĥÑĢÐ³Ð°Ð½": 754,
      "200": 755,
      "Ð´Ð°ÑĢÐ´ÑĭÐ½": 756,
      "-Ð¶ÑĭÐ»Ñĭ": 757,
      "ĠÐĳÐ¸ÑĢ": 758,
      "ÐµÑģÐ¿ÑĥÐ±Ð»": 759,
      "Ð±ÑĢ": 760,
      "ĠÐ±ÐµÐ»Ð³Ð¸Ð»": 761,
      "ĠÐ°Ð»ÑĭÐ¿": 762,
      "Ð´Ò¯Ò¯": 763,
      "ĠÒ¯Ð¹": 764,
      "Ð£": 765,
      "Ð¸Ð½ÐµÐ½": 766,
      "ÑģÑĭÐ·": 767,
      "ĠÓ©Ðº": 768,
      "Ð¸ÐºÐ°": 769,
      "ĠÓ©ÑĤÐº": 770,
      "ĠÓ¨": 771,
      "Ð°ÑĤÑĮ": 772,
      "ĠÑĤÒ¯ÑĪ": 773,
      "ÐŃ": 774,
      "ĠÑĤÐ°": 775,
      "ĠÑĥÑĩÑĥÑĢ": 776,
      "ĠÑģÑĥÑĥ": 777,
      "ÑģÐ¿": 778,
      "ĠÐ¿ÑĢÐ¾": 779,
      "ĠÑĢÐ°Ð¹Ð¾Ð½": 780,
      "ĠÐ¾Ð±Ð»": 781,
      "ÑĥÑĪÑĤ": 782,
      "ÐĶ": 783,
      "ĠÑĤÒ¯ÑĢ": 784,
      "ĠÑĤÐ°ÑĢÑĤ": 785,
      "ÑĩÒ¯": 786,
      "ĠÐ±Ð¸Ð·": 787,
      "ÑģÑĤÐ²": 788,
      "ĠÐºÐµÑĢÐµÐº": 789,
      "Ð¸ÑıÐ½ÑĭÐ½": 790,
      "ĠÐ°Ð½ÑĭÐ½": 791,
      "Ð¸ÑĪÐ¸": 792,
      "ÑĭÑĤ": 793,
      "ĠÑįÐºÐµÐ½": 794,
      "ĠÐĲÐ½": 795,
      "Ð¾Ð¾Ð¿": 796,
      "ÐĿ": 797,
      "Ð°ÑĢÑĭÐ½": 798,
      "ÑģÑĭÐ½ÑĭÐ½": 799,
      "Ð¨": 800,
      "Ð·Ð°Ð¼": 801,
      "ĠÐ±Ð°": 802,
      "ĠÐºÐ°Ð¼": 803,
      "ÑĥÐºÑĤ": 804,
      "ÑĢÐ°Ð½": 805,
      "Ð»Ñı": 806,
      "ĠÐ¤": 807,
      "ĠÐ±Ð¾Ð»Ð¾ÑĤ": 808,
      "Ò¯ÐºÑĤ": 809,
      "Ð°ÑĤÑĭ": 810,
      "ĠÐ½ÐµÐ³Ð¸Ð·": 811,
      "ĠÐºÑĭÑĢÐ³ÑĭÐ·": 812,
      "Ð°Ð»Ð´ÑĭÐº": 813,
      "Ð°Ð»ÑĮ": 814,
      "ĠÐºÓ©Ð·": 815,
      "ĠÑĩÑĭÐ³Ð°ÑĢ": 816,
      "Ð¸Ð±": 817,
      "ĠÐ½Ðµ": 818,
      "ĠÐ°Ð¹ÑĭÐ»": 819,
      "Ð»Ð°": 820,
      "Ð¾Ð³Ð¾ÑĢ": 821,
      "ĠÑģÓ©Ð·": 822,
      "Ð´Ò¯Ð½": 823,
      "ĠÐ±Ð°ÑĪÐºÐ°": 824,
      "ĠÑĢÐµ": 825,
      "Ð°ÑĪÑĤ": 826,
      "ÑĭÐ»ÑĥÑĥ": 827,
      "ĠÐ¼Ð¸Ð»": 828,
      "Ð¾Ò£": 829,
      "ÐµÐ»ÐµÑĢ": 830,
      "Ð¾Ð»Ð¾Ð³": 831,
      "ĠÐºÓ©ÑĢÑģ": 832,
      "Ó©Ð»Ó©ÑĢ": 833,
      "ĠÐºÐ¾Ð½": 834,
      "ÐµÑĢÑģ": 835,
      "ĠÐ¨": 836,
      "ÑĭÐ¹Ð·Ð°Ð¼": 837,
      "ÐµÑģÐ¿ÑĥÐ±Ð»Ð¸Ðº": 838,
      "ĠÑįÑĢ": 839,
      "Ð¸Ð½ÑĩÐ¸": 840,
      "ÐºÒ¯Ð½": 841,
      "Ð¸ÑĪÐº": 842,
      "Ð´Ð¾Ð¾": 843,
      "Ó©Ð¹": 844,
      "ĠÐ´Ð¾Ð»": 845,
      "ĠÐ°Ð»Ð³Ð°Ð½": 846,
      "ÐºÐ¾": 847,
      "ÐºÓ©Ð½": 848,
      "Ð±Ð°ÐµÐ²": 849,
      "ÑĥÐ±": 850,
      "ĠÐ°Ñı": 851,
      "10": 852,
      "-Ð±": 853,
      "ĠÐ°ÑĪ": 854,
      "ĠÐ¿Ð¾": 855,
      "ĠÐºÐ¾ÑĪ": 856,
      "ÑĥÑİ": 857,
      "ĠÐºÓ©ÑĢÑģÓ©ÑĤ": 858,
      "ÐµÐ´Ð¸": 859,
      "ĠÑįÑģ": 860,
      "Ò¯Ò¯Ð³Ó©": 861,
      "ÑģÐ°": 862,
      "ĠÐ±Ð¸Ð¹": 863,
      "ĠÐ¾Ð±": 864,
      "ĠÐ°Ð±": 865,
      "ĠÐ¼Ð°Ñģ": 866,
      "ĠÑĤÐ¸Ð»": 867,
      "ĠÑįÐºÐ¸": 868,
      "Ð°Ð¹Ð»": 869,
      "ĠÐ¼Ð°Ðº": 870,
      "ĠÐłÐµÑģÐ¿ÑĥÐ±Ð»Ð¸Ðº": 871,
      "ÑĭÑģ": 872,
      "ÑĩÒ¯Ð»": 873,
      "Ðĵ": 874,
      "Ð¸ÐµÐ²": 875,
      "ĠÑĥÑİ": 876,
      ":Ċ": 877,
      "Ð¾Ð»ÑĮ": 878,
      "ĠÐ°Ð¹Ð¼": 879,
      "Ò¯Ð¼ÐºÒ¯Ð½": 880,
      "ĠÐ´Ð°Ð³Ñĭ": 881,
      "ĠÐ¼Ð°Ð¼Ð»ÐµÐºÐµÑĤÑĤÐ¸Ðº": 882,
      "Ò¯Ð³Ò¯Ð½": 883,
      "Ð¾ÑĢÐ±": 884,
      "ÐµÐ¿ÑĤ": 885,
      "ÑĢÐ¸": 886,
      "Ð¸Ðµ": 887,
      "Ð°Ð½Ð¸Ñı": 888,
      "Ð´Ð°Ð»": 889,
      "Ð´Ó©Ð½": 890,
      "ĠÐ¶Ð°Ò£": 891,
      "ĠÐ¼Ò¯Ð¼ÐºÒ¯Ð½": 892,
      "ÑģÐ¾": 893,
      "Ò¯ÑĤ": 894,
      "ÑĩÐ¸Ð»": 895,
      "ÑĢÐ°Ð¼": 896,
      "ÐµÐ¹ÑĤ": 897,
      "Ð°Ð¹ÑĭÐ½": 898,
      "ĠÑįÐ¼Ð¸": 899,
      "ÐµÑħ": 900,
      "ĠÑĤÐµÑĢ": 901,
      "ÑĩÓ©": 902,
      "Ð°Ð»Ñĭ": 903,
      "Ð¾Ð³Ð¾ÑĢÐºÑĥ": 904,
      "Ð°ÑģÑĭÐ½Ð´Ð°": 905,
      "ĠÐ±Ð°Ð¹Ð»Ð°Ð½": 906,
      "ĠÐ¼Ð¸Ð½Ð¸ÑģÑĤÑĢ": 907,
      "ÑģÒ¯": 908,
      "ĠÐºÐµÐ»Ð³ÐµÐ½": 909,
      "ĠÐ¼ÑĭÐ¹Ð·Ð°Ð¼": 910,
      "ĠÐ¶Ð°Ñģ": 911,
      "),": 912,
      "Ð°ÑĢÐ°": 913,
      "ÑĥÑĥÑĩÑĥ": 914,
      "Ð¸ÑĨ": 915,
      "ÑĭÐ¹ÑĭÐ½": 916,
      "ĠÑħ": 917,
      "ĠÐºÐ¾Ð»Ð´Ð¾Ð½": 918,
      "Ð¾Ð¾ÑĢ": 919,
      "ĠÑĭÑĢ": 920,
      "ĠÐºÐ°Ð½Ð´Ð°Ð¹": 921,
      "Ð°Ð¿ÑĤ": 922,
      "ÑĥÑĥÐ»": 923,
      "ÑģÑĥ": 924,
      "ÑĤÑĤÑĥÐº": 925,
      "ĠÐ¼ÑĥÑĢ": 926,
      "Ð¼Ó©": 927,
      "ĠÑĥÑĪ": 928,
      "ĠÐ¿ÑĢÐµÐ·Ð¸Ð´ÐµÐ½": 929,
      "ĠÐµ": 930,
      "Ð°ÑıÑģ": 931,
      "ĠÐ¼Ð¸Ò£": 932,
      "ĠÐ±Ð°ÑĪÑĤ": 933,
      "ÑĥÑģÑĤ": 934,
      "ÑıÑĢ": 935,
      "ĠÐ¶Ð°Ð»": 936,
      "ĠÐ³Ð°Ð½Ð°": 937,
      "ĠÑįÑĤ": 938,
      "ĠÐ¶Ð°ÑĤÐ°ÑĤ": 939,
      "Ð»Ð¸Ð¼": 940,
      "Ð»Ó©ÑĢ": 941,
      "ĠÐŀÑĢ": 942,
      "-Ð¼": 943,
      "Ð¾Ð½Ð´Ð¾Ð¹": 944,
      "ĠÐºÐ¸ÑĪÐ¸": 945,
      "Ð°ÑĢÐ³Ð°": 946,
      "ĠÑĩÐµÑĩ": 947,
      "ÑĤÓ©ÑĢ": 948,
      "15": 949,
      "ĠÐºÐµÒ£": 950,
      "ÑĭÑĢÐºÑĭ": 951,
      "Ð°ÑĨÐ¸Ñı": 952,
      "ĠÐºÒ¯Ñĩ": 953,
      "ĠÐĽ": 954,
      "ĠÐºÐ¾Ð¼Ð¿": 955,
      "Ð°Ñħ": 956,
      "Ð¸Ñħ": 957,
      "ĠÐ¾Ð±Ð»ÑĥÑģ": 958,
      "Ð¸Ð»Ð³ÐµÐ½": 959,
      "Ð¼Ð°Ð»": 960,
      "Ð³ÐµÑĢ": 961,
      "ÐµÐ³ÐµÐ½": 962,
      "ÐĴ": 963,
      "ĠÐ¾Ð¹": 964,
      "ĠÐĲÐ¹": 965,
      "ĠÑĩÑĭÐº": 966,
      "ĠÐ¶Ó©Ð½Ò¯Ð½Ð´Ó©": 967,
      "ÑıÐ±ÑĢ": 968,
      "Ò¯Ð¹Ð½": 969,
      "ÐµÐ½Ð¸Ñı": 970,
      "Ð¾ÑĪ": 971,
      "Ð±ÑĭÐ·": 972,
      "ĠÐĳÐ¸ÑĪÐº": 973,
      "Ó©ÑĪ": 974,
      "ĠÐ¾ÐºÑĥ": 975,
      "ĠÑĩÑĭÐ³Ñĭ": 976,
      "Â»,": 977,
      "Ð°ÑĤÐ°": 978,
      "Ò¯ÑĪÑĤ": 979,
      "Ð½Ðµ": 980,
      "ĠÑįÑį": 981,
      "Ð½Ð°": 982,
      "ÑĭÑĪÑĭ": 983,
      "ĠÑĤÓ©ÑĢ": 984,
      "ĠÑģÐ¿": 985,
      "ĠÐ¼Ð°Ð°Ð»ÑĭÐ¼Ð°ÑĤ": 986,
      "ÑĥÑĥÐ´Ð°": 987,
      "Ð°ÑģÑĭÐ½": 988,
      "ÑİÐ½": 989,
      "Ð¾ÑĢÑĤ": 990,
      "ĠÐłÐµÑģÐ¿ÑĥÐ±Ð»Ð¸ÐºÐ°ÑģÑĭÐ½ÑĭÐ½": 991,
      "Ð°Ð´Ð°": 992,
      "ÐµÐ³Ð¸": 993,
      "ÑģÐºÐµÑĢ": 994,
      "ĠÑģÐ°ÐºÑĤ": 995,
      "Ð¸ÑĤÑĮ": 996,
      "ĠÑĥÑĢ": 997,
      "Ò¯Ð³Ò¯": 998,
      "Ð¸Ð´": 999,
      "ĊĊ": 1000,
      "ĠÐĲÐ·": 1001,
      "ÐļÑĭÑĢÐ³ÑĭÐ·": 1002,
      "ÑĭÐºÑĤÑĭ": 1003,
      "-Ðº": 1004,
      "Ð½Ð¾ÑģÑĤ": 1005,
      "ĠÐ°Ð²": 1006,
      "ĠÑĭÐ»": 1007,
      "ĠÐ°Ð»ÑĭÐ½": 1008,
      "ĠÑģÐ°Ð½": 1009,
      "ÐµÐ»Ðµ": 1010,
      "18": 1011,
      "Ð½ÑĭÑħ": 1012,
      "ĠÑģÐ°ÑıÑģ": 1013,
      "ÑĭÑĪÐºÐ°Ð½": 1014,
      "ĠÑĤÐ°Ðº": 1015,
      "ĠÐ¶ÑĥÐ¼": 1016,
      "ĠÐ±Ñĥ": 1017,
      "Ð¸ÑĨÐ¸Ñı": 1018,
      "ĠÐºÐ°ÑĤÐ°ÑĢÑĭ": 1019,
      "Ð³ÑĥÐ½": 1020,
      "ÐµÑģÐ¸": 1021,
      "Ð¾Ñĩ": 1022,
      "ĠÑĥÐ±": 1023,
      "Ð¸Ð·Ð¼": 1024,
      "ĠÐ°Ð»Ð´ÑĭÐ½": 1025,
      "ĠÐ±Ð¾Ð»ÑģÐ¾": 1026,
      "Ð³Ð¸Ð·": 1027,
      "Ð½Ð¾Ð¹": 1028,
      "ĠÑģÑĥÑĢ": 1029,
      "ĠÑĤÐ¾Ð»": 1030,
      "ĠÐºÐ°Ð»Ð³Ð°Ð½": 1031,
      "..": 1032,
      "Ð½ÑĭÐµ": 1033,
      "Ð°Ð»Ð°ÑĤ": 1034,
      "12": 1035,
      "ĠÐĳÐ¸ÑĢÐ¾Ðº": 1036,
      "ĠÐ±ÐµÑĢÒ¯Ò¯": 1037,
      "Ð»Ð°ÑĢÐ´ÑĭÐ½": 1038,
      "Ð°Ð»Ð°": 1039,
      "ÑĩÑĭÑģÑĭ": 1040,
      "ĠÓ©ÑĤÐºÓ©ÑĢ": 1041,
      "ĠÐ¸ÑĪÑĤÐµÑĢ": 1042,
      "ÑĭÒ£": 1043,
      "Ð¼ÐµÑĢ": 1044,
      "ĠÐ¾ÑĢÐ³Ð°Ð½": 1045,
      "ĠÑģÒ¯Ð¹": 1046,
      "Ð°ÑĢÐ»": 1047,
      "ĠÐ±Ð¸Ð»Ð´Ð¸ÑĢÐ´Ð¸": 1048,
      "Ð¾Ð²Ð°": 1049,
      "Ð¾ÑĤÐ¾ÑĢ": 1050,
      "Ð°ÑĤÑĤÐ°ÑĢ": 1051,
      "ĠÐºÐ¾Ð¾Ð¼": 1052,
      "ĠÐºÐ¾Ñİ": 1053,
      "Ñĳ": 1054,
      "ÐµÐ½ÑĤÑĤ": 1055,
      "ĠÐ¾Ð¾ÑĢ": 1056,
      "ĠÑĤÐ¾Ð¿": 1057,
      "Ò¯Ð»Ð³Ó©Ð½": 1058,
      "ĠÐ¶Ò¯ÑĢÐ³": 1059,
      "ĠÐ°Ð»ÑĥÑĥ": 1060,
      "Ð²Ð°": 1061,
      "ÑİÑĤ": 1062,
      "-ÑĤ": 1063,
      "ĠÐ°Ñĩ": 1064,
      "ÑĭÐ½Ð´Ð°Ð¹": 1065,
      "ÑĥÐ»Ð³Ð°Ð½": 1066,
      "Ð¾ÑĢÐ±Ð¾ÑĢ": 1067,
      "ĠÑĤÐ°Ð±": 1068,
      "ĠÐ¾Ð¿": 1069,
      "Ð´Ò¯ÑĢ": 1070,
      "Ð´Ó©Ó©": 1071,
      "Ðķ": 1072,
      "-Ð¶ÑĭÐ»Ð´ÑĭÐ½": 1073,
      "Ð´ÑĥÐºÑĤ": 1074,
      "Ð¸Ð³Ð¸": 1075,
      "ĠÐ¾ÑĢÑĥÐ½": 1076,
      "ÐºÒ¯": 1077,
      "Ð°ÑĪÐºÐ°Ð½": 1078,
      "Ð¸ÑĪÑĤ": 1079,
      "ĠÐºÐ¼": 1080,
      "Ð¸ÑĤÐµÑĤ": 1081,
      "ĠÐķ": 1082,
      "ĠÐ¶Ð°Ò£Ñĭ": 1083,
      "Ð¾Ð½Ð¾Ð¼": 1084,
      "Ð°ÑģÑĤ": 1085,
      "Ð´Ð°ÑĢÐ´Ñĭ": 1086,
      "Ð´Ð¾ÑĢ": 1087,
      "ĠÑĩÐ°ÑĢ": 1088,
      "ÐµÑģÑģ": 1089,
      "ÑĥÐ½Ð´Ð°Ð³Ñĭ": 1090,
      "ĠÐĲÐº": 1091,
      "ĠÐºÐ°Ð±ÑĭÐ»": 1092,
      "ĠÐºÐµÐ·": 1093,
      "ĠÐºÑĢ": 1094,
      "Ð½ÑĭÐ¹": 1095,
      "ĠÐ°Ð½Ñĭ": 1096,
      "ÑıÑĤ": 1097,
      "ĠÐ¸ÑĩÐ¸Ð½Ð´Ðµ": 1098,
      "Ð½Ð¾Ð³Ð¾": 1099,
      "ĠÐºÑĭÐ¹": 1100,
      "Ð¸Ð½Ð°": 1101,
      "ĠÐĲÑĢ": 1102,
      "ĠÐ¿Ð¾Ð»": 1103,
      "ĠÐ°ÑĢÐ°Ðº": 1104,
      ").": 1105,
      "ĠÑĢÐ°Ñģ": 1106,
      "ĠÐ´Ò¯Ð¹Ð½": 1107,
      "ÑĥÑĥÐ½Ñĥ": 1108,
      "Ð´ÑĭÐºÑĤ": 1109,
      "ĠÐºÑĭÑĢ": 1110,
      "ĠÐ¶Ð°ÑĢÐ°Ð½": 1111,
      "30": 1112,
      "ĠÓ©Ð»ÐºÓ©": 1113,
      "Ð§": 1114,
      "ĠÐ´Ð°ÑĢÑĭÑı": 1115,
      ";Ċ": 1116,
      "ĠÐ¸Ð¼": 1117,
      "ÐµÑĤÑģÑı": 1118,
      "Ð°ÑĤÑĤÑĭÐº": 1119,
      "ĠÐºÐ°ÑĢÑĪÑĭ": 1120,
      "ĠÑĩÑĭÐºÐºÐ°Ð½": 1121,
      "Ð¸ÑģÐ¸": 1122,
      "ÑĥÑĩ": 1123,
      "ĠÐ¶Ò¯ÑĢÐ³Ò¯Ð·": 1124,
      "ĠÐºÐ°Ð·": 1125,
      "ÑĤÐ¸": 1126,
      "202": 1127,
      "Ð´ÐµÐ¹": 1128,
      "ÑĭÐ»ÑĭÐ¿": 1129,
      "ĠÐ°ÑĢÐ°Ð»ÑĭÐº": 1130,
      "ÐµÑĪÑĤ": 1131,
      "ĠÐºÐ¾Ð´Ñĥ": 1132,
      "ÑģÑĤÑĢ": 1133,
      "ĠÑģÐ¾Ð¼": 1134,
      "Ð»Ð¸Ðº": 1135,
      "ĠÑĪÐ°Ð¹Ð»": 1136,
      "Ð¿Ñĭ": 1137,
      "ĠÐºÐ¾Ð¹": 1138,
      "ĠÐºÐ¾ÑĤÐ¾ÑĢ": 1139,
      "ĠÐ¥": 1140,
      "ÑģÑĥÐ·": 1141,
      "ĠÑĭÐ»Ð°Ð¹": 1142,
      "ĠÐ°ÑĢÐº": 1143,
      "Ð°ÐºÑĭÑĢ": 1144,
      "Ð»Ð¾ÑĢ": 1145,
      "ĠÑĤÐ°ÑĢÐ°Ð±": 1146,
      "Ð´Ò¯Ðº": 1147,
      "ĠÐ±Ð°Ð¹Ð»Ð°Ð½ÑĭÑĪÑĤ": 1148,
      "Ð°Ð½ÑĤ": 1149,
      "âĢĵ": 1150,
      "Ð´ÑĭÐ³": 1151,
      "ÐĲÐ»": 1152,
      "ÐµÐ½Ð¸Ðµ": 1153,
      "ĠÑĩÐ¾Ò£": 1154,
      "ÐµÐ½Ð¸Ð½": 1155,
      "Ó©Ó©Ð½": 1156,
      "Ð°ÑĢÑĭÐ»": 1157,
      "ĠÐ´Ð°ÑıÑĢ": 1158,
      "ÑĥÑĪÑĥ": 1159,
      "ĠÐ´ÐµÐ¿ÑĥÑĤ": 1160,
      "ĠÐ±Ð¾Ð»Ð´Ñĥ": 1161,
      "âĢĶ": 1162,
      "ÑĥÑĥÑĩÑĥÐ»": 1163,
      "Ð°ÑĢÑĭÐ¿": 1164,
      "ĠÐ±Ð°ÑĪÐºÐ°ÑĢ": 1165,
      "Ó©Ðº": 1166,
      "Ð¾Ð²Ð´ÑĥÐ½": 1167,
      "ĠÐŁÑĢ": 1168,
      "ĠÑĤÐ°Ð¿": 1169,
      "Ò¯Ð½Ò¯": 1170,
      "199": 1171,
      "ĠÐ¶ÑĭÐ¹ÑĭÐ½": 1172,
      "Ó©Ð¿": 1173,
      "Ð¼Ð°ÑĤÑĤ": 1174,
      "Ð³Ó©ÑĢ": 1175,
      "ĠÑĥÐºÑĥ": 1176,
      "ĠÐ¶Ð°ÑĢÐ´Ð°Ð¼": 1177,
      "ÑĭÑĪÐ°ÑĤ": 1178,
      "ÑģÑĭÐ½": 1179,
      "Ð¼Ó©ÑĤ": 1180,
      "ĠÑĥÑĩÑĥÑĢÐ´Ð°": 1181,
      "ĠÑįÒ£": 1182,
      "ĠÐ¼Ð°ÑģÐµÐ»": 1183,
      "ĠÑĤÐ°Ð¼": 1184,
      "ĠÑĤÐ°Ð»Ð°Ð¿": 1185,
      "ĠÐ¶Ð°Ð½": 1186,
      "ÑģÐµ": 1187,
      "ĠÐºÐµÐ»Ð¸Ð¿": 1188,
      "ÐµÑĢÐ´Ð¸": 1189,
      "ĠÐºÐ°ÑĢÐ°Ð³Ð°Ð½": 1190,
      "ÐµÑĢÐ´Ð¸Ð½": 1191,
      "ĠÐĲÑĤ": 1192,
      "ĠÐ±Ð¸ÑĢÐ¸": 1193,
      "Ð»Ð¸ÐºÑĤ": 1194,
      "ĠÐ¶Ð¾Ð»Ñĥ": 1195,
      "ĠÑįÑĩ": 1196,
      "Ð¾Ð¾Ð³Ð¾": 1197,
      "Ð¾Ð½Ñĥ": 1198,
      "ĠÐ±Ð¾Ð»Ð±": 1199,
      "Ð¸ÑıÑģÑĭ": 1200,
      "Ð¸ÑģÑģ": 1201,
      "ĠÐ¸Ð»Ð¸Ð¼": 1202,
      "ĠÐ¼Ð°Ð¹": 1203,
      "ĠÐ¼ÐµÐºÑĤ": 1204,
      "ĠÑģÐ°ÑĤ": 1205,
      "ĠÑĤÒ¯ÑĪÒ¯Ð½": 1206,
      "Ð¤": 1207,
      "ĠÐ°Ð¹ÑĢ": 1208,
      "ĠÐ¶Ð°ÐºÑĤ": 1209,
      "ÐµÐ¶": 1210,
      "Ð°Ð¼Ð»ÐµÐºÐµÑĤ": 1211,
      "ĠÑĤÐ¾ÐºÑĤ": 1212,
      "ĠÐ¶Ð¾Ð¾Ð¿": 1213,
      "Ð¾Ð»Ð¾ÑĢ": 1214,
      "ĠÑįÐ½": 1215,
      "ÐĽ": 1216,
      "ĠÑģÑĥÐ½": 1217,
      "Ò®": 1218,
      "Ð¾Ð½ÑĥÐ½": 1219,
      "ĠÐ°ÐºÑĤ": 1220,
      "ĠÓ©Ð·Ð³Ó©ÑĢ": 1221,
      "ÐºÐ¸Ð½": 1222,
      "ĠÑĤÐ°ÑĢÐ°Ð±ÑĭÐ½Ð°Ð½": 1223,
      "ĠÐ¶Ð°ÐºÑĪÑĭ": 1224,
      "ĠÐ¼Ð°Ð°Ð½": 1225,
      "ĠÐĳÐ¸ÑĪÐºÐµÐº": 1226,
      "Ð¿ÑĢ": 1227,
      "ÑĬ": 1228,
      "ĠÐ°Ð¹Ð¼Ð°ÐºÑĤ": 1229,
      "ĠÐºÐ°ÑĤÑĤ": 1230,
      "ĠÓ©ÐºÒ¯Ð»": 1231,
      "ĠÑģÐ¾ÑĤ": 1232,
      "ĠÑĤÐ°Ð°Ð½": 1233,
      "ÑĪÑĤÑĥÑĢ": 1234,
      "ÐµÐºÑĤÑĢ": 1235,
      "Ò¯Ò¯Ð´Ó©": 1236,
      "ĠÐĲÐ½ÑĭÐ½": 1237,
      "-Ñģ": 1238,
      "ĠÐ¾Ð½": 1239,
      "11": 1240,
      "ĠÐºÐµÑģ": 1241,
      "ĠÐ±ÐµÐº": 1242,
      "-Ðļ": 1243,
      "ÑĭÑı": 1244,
      "ĠÑĢÐ°Ð·": 1245,
      "ĠÐ±Ð¸ÑĢÐ¾Ðº": 1246,
      "ĠÐ°ÑĤÐºÐ°ÑĢ": 1247,
      "ĠÐ°ÑĢÐºÑĭÐ»ÑĥÑĥ": 1248,
      "ĠÐ¶Ð°Ð¹Ð³": 1249,
      "ĠÐ´ÐµÐ´Ð¸": 1250,
      "Ð°ÑĢÑĭÑħ": 1251,
      "ÐļÐ¨": 1252,
      "ÐµÐ¹Ð½": 1253,
      "ĠÑĭÐ»Ð°Ð¹ÑĭÐº": 1254,
      "Ð°Ð³Ð°": 1255,
      "ĠÐºÑĥ": 1256,
      "ĠÓ¨Ð·": 1257,
      "ĠÐ´Ð»Ñı": 1258,
      "ĠÐ¿Ð°ÑĢÑĤ": 1259,
      "ĠÐºÐ°Ð¹ÑĢÐ°": 1260,
      "ĠÐºÐ¾ÑĢÐ³": 1261,
      "ÑĩÑĭÐ»ÑĭÐº": 1262,
      "ĠÐ°Ð´": 1263,
      "ĠÐĲÐ±": 1264,
      "ĠÐ¼Ð°ÐºÑģ": 1265,
      "ĠÐ±ÐµÑĢÐ³ÐµÐ½": 1266,
      "ĠÐºÑĭÐ»Ð¼": 1267,
      "Ð´Ð°ÑĢÐ³Ð°": 1268,
      "-ÐĲ": 1269,
      "er": 1270,
      "ĠÐĹ": 1271,
      "Ð°Ð»Ð´Ñĭ": 1272,
      "ÐµÑħÐ½": 1273,
      "Ð°Ð¼Ð°Ð½": 1274,
      "Ð¼Ò¯ÑĢ": 1275,
      "ĠÐºÑĭÐ·Ð¼Ð°ÑĤÐºÐµÑĢ": 1276,
      "ĠÐ°Ð»Ð°ÑĢÐ´ÑĭÐ½": 1277,
      "ĠÐ°Ð½ÑĭÐºÑĤ": 1278,
      "Ð¸Ð¸": 1279,
      "Ð¸ÑģÑĤÐµÐ¼": 1280,
      "Ð°ÑĢÑĭÐ¼": 1281,
      "14": 1282,
      "ĠÑįÐ¼Ð³": 1283,
      "?Ċ": 1284,
      "ĠÐ¾ÑĪÐ¾Ð»": 1285,
      "ĠÓ©ÑĤÐºÓ©Ð½": 1286,
      "ĠÐĳÐ°ÑĪ": 1287,
      "Ð¸ÐºÑĤÒ¯Ò¯": 1288,
      "ĠÐ´ÐµÐ¼": 1289,
      "ĠÐ«": 1290,
      "ÑĤÑĭÐ½": 1291,
      "ĠÐ°Ð»Ð°ÑĢ": 1292,
      "ĠÓ©Ð·Ò¯": 1293,
      "ĠÐºÓ©Ð±": 1294,
      "ÐºÑĤÑĥÑĥ": 1295,
      "ĠÑĩÑĤÐ¾": 1296,
      "Ð»Ð°ÑĢÐ´Ñĭ": 1297,
      "Ð°Ð»Ð¸ÐµÐ²": 1298,
      "ĠÑĩÐµÐº": 1299,
      "Ð°Ð¿Ð°ÑĢ": 1300,
      "ĠÐ¿Ð¾Ð´": 1301,
      "ĠÐ°Ð¹ÑĤÐºÐ°Ð½": 1302,
      "ĠÐºÐ°ÑĤÑĭÑĪ": 1303,
      "Ó©Ð³Ó©Ð½": 1304,
      "ÑĦÐ¾ÑĢ": 1305,
      "Ð¸ÑıÑģÑĭÐ½ÑĭÐ½": 1306,
      "ĠÐ±Ð°ÑĢÐ´ÑĭÐº": 1307,
      "ĠÐ´Ð¾Ð»Ð±": 1308,
      "ĠÐ¶Ð°Ð±": 1309,
      "ÑģÑĥÐ½": 1310,
      "ÐµÐºÐµ": 1311,
      "Ð±ÐµÐºÐ¾Ð²": 1312,
      "ĠÐ¶ÐµÑĤÐµÐº": 1313,
      "ĠÐ´ÐµÒ£": 1314,
      "Ð´ÐµÑĤ": 1315,
      "ĠÐĳÐ¸Ð·": 1316,
      "Ð¹ÑĤ": 1317,
      "Ò¯Ò¯ÑĩÒ¯": 1318,
      "Ð»Ð¸Ð³": 1319,
      "ĠÑĤÐµÐ¼": 1320,
      "ĠÑĩÐ°ÐºÑĭÑĢ": 1321,
      "ĠÐºÐ¸ÑĢÐ³Ð¸Ð·": 1322,
      "ĠÐºÐ°Ð¹ÑĢ": 1323,
      "ĠÐ¿Ð°Ð¹Ð´Ð°": 1324,
      "ĠÑĥÐ·": 1325,
      "16": 1326,
      "ĠÑĥÑĪÑĥÐ»": 1327,
      "Ð°Ð»ÑĭÐ¿": 1328,
      "Ð½ÑĭÐ¼": 1329,
      "Ð°Ð´Ñĭ": 1330,
      "17": 1331,
      "ĠÑĤÑĥÑĢÐ°ÑĤ": 1332,
      "ÑĢÐ°ÑĦ": 1333,
      "ĠÐ±Ð¸Ð»Ð¸Ð¼": 1334,
      "Ð°Ð±ÑĭÐ·": 1335,
      "ĠÐ°ÑıÐ»": 1336,
      "ĠÐŀÑĢÑĥÑģ": 1337,
      "Ð¼Ð°Ð»Ð°ÑĢ": 1338,
      "ĠÐºÐ°ÑĢÐ¼": 1339,
      "ĠÑģÐ²": 1340,
      "ĠÐ¾ÑĪÐ¾Ð½Ð´Ð¾Ð¹": 1341,
      "ĠÐºÐµÐ»Ð¸ÑĪ": 1342,
      "ĠÑģÒ¯Ð¹Ð»": 1343,
      "ĠÐ±Ð°ÑĪÑĩÑĭÑģÑĭ": 1344,
      "Ð°Ð°ÑĤ": 1345,
      "Ð°ÑģÑĭÐ½Ð°": 1346,
      "ĠÑģÐ¸ÑģÑĤÐµÐ¼": 1347,
      "Ð´ÑĭÐ³Ñĭ": 1348,
      "Ó©Ð¼Ó©Ð½": 1349,
      "-Ñĩ": 1350,
      "ÑĭÐ»Ð°ÑĤ": 1351,
      "ÑĥÐ´": 1352,
      "ĠÑĥÑİÐ¼": 1353,
      "ĠÐ¼Ð¸Ð»Ð»Ð¸": 1354,
      "ĠÑģÑĭÐ¹": 1355,
      "ĠÑģÐµÐ±": 1356,
      "Ð´ÐµÐº": 1357,
      "ĠÐŃÐ»": 1358,
      "Ò¯Ò¯Ð»Ó©ÑĢ": 1359,
      "ĠÑĥÐ½": 1360,
      "Ð¶Ðµ": 1361,
      "Ð°ÑĤÑĤÑĥÑĥ": 1362,
      "ÑģÑĤÐ°Ð½Ð´ÑĭÐ½": 1363,
      "in": 1364,
      "ĠS": 1365,
      "Ð¸ÑıÑĤ": 1366,
      "ĠÐ¶Ð°ÐºÑĭÐ½": 1367,
      "ÑĥÑĥÐ½ÑĥÐ½": 1368,
      "ĠÐ°Ð¹ÑĤÑĭÐ¿": 1369,
      "ĠÐ±Ð¸ÑĢÐ¸Ð½ÑĩÐ¸": 1370,
      "Ð±Ò¯Ð·": 1371,
      "50": 1372,
      "ĠÑĤÐ¸Ð¹": 1373,
      "ĠÑįÑģÐµÐ¿ÑĤ": 1374,
      "ÑĭÑĢÑĤ": 1375,
      "ÑģÑĤÐ¸ÑĤ": 1376,
      "ÑĥÐ³Ñĥ": 1377,
      "ĠÐĲÐļÐ¨": 1378,
      "ĠÐ±Ð°Ð³Ñĭ": 1379,
      "ĠÐ¾ÑĢÑĤ": 1380,
      "ĠÐļÑĭÑĢÐ³ÑĭÐ·ÑģÑĤÐ°Ð½Ð´ÑĭÐ½": 1381,
      "Ð¸Ð´Ðµ": 1382,
      "ĠÐ°Ð»Ð´Ñĭ": 1383,
      "Ð´Ð°Ð»Ð°Ð½": 1384,
      "ĠÑĥÐº": 1385,
      "Ð¸Ð½Ð³": 1386,
      "ĠÐºÑĭÐ·Ð¼Ð°ÑĤÑĤ": 1387,
      "ĠÐļÐ°ÑĢ": 1388,
      "ÑĤÐ¾ÑĢ": 1389,
      "ĠÐ¼Ð°Ð°Ð»ÑĭÐ¼Ð°ÑĤÑĤ": 1390,
      "ĠÐ¾ÑĤÑĥÑĢ": 1391,
      "ĠÑģÒ¯ÑĢ": 1392,
      "Ð¾Ð´Ð¸": 1393,
      "Ð°ÑĤÐ¸Ð²": 1394,
      "Ð½Ð°Ð»": 1395,
      "ĠÐºÐµÑĤÐºÐµÐ½": 1396,
      "ĠÐĸÐ¾Ð³Ð¾ÑĢÐºÑĥ": 1397,
      "ĠÐºÐ°Ðº": 1398,
      "ÑĭÑĤÐ°Ð¹": 1399,
      "Ð¸Ð»ÑĮ": 1400,
      "ĠÐºÐ°ÑĢÐ°ÑĤÐ°": 1401,
      "ÑĤÐ°Ð½": 1402,
      "ĠÐ±ÐµÑĢÐ¸": 1403,
      "ÑĭÐ½Ð´Ð°Ð½": 1404,
      "Ð°Ð´": 1405,
      "Ð»ÐµÑĢÐ¸": 1406,
      "ÑĭÐ¼ÑĭÐ½Ð´Ð°": 1407,
      "Ò¯ÑĪÒ¯": 1408,
      "ĠÐºÐµÐ»ÐµÑĤ": 1409,
      "13": 1410,
      "ĠÐ¾ÐºÑĥÑı": 1411,
      "Ð²ÑĢ": 1412,
      "ÑĥÐ»Ð°ÑĤ": 1413,
      "ÑĭÑĪÑĤÑĭ": 1414,
      "ĠÐ±Ð¾ÑĢÐ±Ð¾ÑĢ": 1415,
      "ĠÐºÐ°ÑĢÐ°Ð¶": 1416,
      "ĠÐºÐ¾Ð¾Ð¿": 1417,
      "ÑįÑĢ": 1418,
      "ĠÐ¿Ð°Ð¹Ð´Ð°Ð»Ð°Ð½": 1419,
      "ĠÐ±Ð°Ð¹Ð»Ð°Ð½ÑĭÑĪÑĤÑĥÑĥ": 1420,
      "ĠÐ¶ÐµÒ£": 1421,
      "Ð°Ð½Ð´Ð°": 1422,
      "ĠÐ¼Ð°ÑĤ": 1423,
      "ĠÐ¼Ò¯Ñĩ": 1424,
      "ĠÐ°ÑĢÐ°Ð»": 1425,
      "ĠÐļÐµÒ£": 1426,
      "ĠÐ°Ð¹Ð»Ð°Ð½": 1427,
      "ĠÐ½ÐµÑĢÑģ": 1428,
      "Ð³Ð°Ñĩ": 1429,
      "ĠÐºÐ°Ð¼ÑģÑĭÐ·": 1430,
      "Ð³Ñĥ": 1431,
      "Ð¸ÑĢÐ¾Ð²": 1432,
      "Ó©Ð»Ò¯Ðº": 1433,
      "ĠÐ±Ð°ÑĪÑĤÐ°": 1434,
      "ÐµÑĢÐ¸Ð½": 1435,
      "Ð´Ó©ÑĢÒ¯": 1436,
      "ĠÑįÐºÐµÐ½Ð¸Ð½": 1437,
      "ĠÑĩÐµÑĤ": 1438,
      "ĠÐ°ÑĢÑĭ": 1439,
      "ĠÑĨ": 1440,
      "ĠÐ¸Ð·Ð¸Ð»": 1441,
      "Ð¾ÑģÑģ": 1442,
      "ĠÐ¿ÐµÑĢ": 1443,
      "ĠÑĥÑĥ": 1444,
      "ĠÐ¶Ð°ÑĢÑĭÑı": 1445,
      "ĠÐ°ÑģÐºÐµÑĢ": 1446,
      "Ð³Ð¸Ð»Ð¸ÐºÑĤÒ¯Ò¯": 1447,
      "ĠÑĤÑĭÑĪ": 1448,
      "Ò¯ÑĢÐº": 1449,
      "ĠÐºÒ¯Ð½Ò¯": 1450,
      "ĠÐ°Ð³Ð°": 1451,
      "ĠÐ¾ÐºÑĥÑĥ": 1452,
      "ĠÐºÐ°Ñĩ": 1453,
      "Ð´Ð¸ÐºÑĤ": 1454,
      "ĠÓ©Ð»Ðº": 1455,
      "Ð¾Ð³ÑĢÐ°Ð¼": 1456,
      "ÑĤÐ¸Ðº": 1457,
      "Ð¼Ð¸": 1458,
      "ĠÐ°Ð¿": 1459,
      "ĠÐ´ÐµÐ½": 1460,
      "ĠÑĩÐµÑĩÐ¸Ð¼": 1461,
      "ĠÐ°ÑıÐ½": 1462,
      "ĠÐ¾Ò£": 1463,
      "Ð±Ñĭ": 1464,
      "ĠÐ¶Ð°Ð»Ð¿Ñĭ": 1465,
      "Ð´Ð¸Ð³": 1466,
      "ĠÐ°Ð¹ÑĤÑĭÐ¼ÑĭÐ½Ð´Ð°": 1467,
      "ÐµÑĢÐ³": 1468,
      "ÑĥÐ½Ñĥ": 1469,
      "ĠÐºÐ¾ÑĢÐ³Ð¾Ð¾": 1470,
      "ĠÑĤÐ°ÑĢÑĭÑħ": 1471,
      "ÑĥÐ»ÑĮ": 1472,
      "ĠÐ¼ÐµÑĤ": 1473,
      "ĠÑįÐºÐ¾Ð½Ð¾Ð¼": 1474,
      "Ð°ÑĤÑĥÑĢ": 1475,
      "ĠÑįÐ»ÐµÐºÑĤÑĢ": 1476,
      "Ð°ÑĢÑĤÑĤ": 1477,
      "Ð´Ó©Ð³Ò¯": 1478,
      "Ò¯Ò¯Ð½Ò¯": 1479,
      "ÐµÐ·Ð³Ð¸Ð»": 1480,
      "ĠÐ±ÐµÑĢÐ¸Ð»": 1481,
      "ĠÐ°ÑĢÑĤ": 1482,
      "ĠÐºÐ¸Ð¼": 1483,
      "Ð°Ð³ÑĭÐ½Ð´Ð°": 1484,
      "ĠÐºÒ¯ÑĢ": 1485,
      "ĠÑĪÐ°Ð¹Ð»Ð¾Ð¾": 1486,
      "ĠÑĤÐ°ÑĢÐ¼": 1487,
      "ĠÐ¶Ð°Ð¹Ð³Ð°ÑĪÐºÐ°Ð½": 1488,
      "Ð²Ð°ÑĢ": 1489,
      "ĠÐ±Ò¯ÑĤ": 1490,
      "ĠÑĩÑĭÐ³ÑĭÐ¿": 1491,
      "ĠÐļÐ°Ð·": 1492,
      "ĠÐºÐµÒ£ÐµÑĪ": 1493,
      "es": 1494,
      "ĠÐ¶ÐµÑĢÐ´Ðµ": 1495,
      "Ð¼Ð¸Ð¹": 1496,
      "Ð¸ÑĩÐµÑģ": 1497,
      "Ð°Ð¼Ð¸": 1498,
      "ÐµÑĤÐ¸": 1499,
      "Ð¾Ð»Ð¾Ð³Ð¸ÑıÐ»ÑĭÐº": 1500,
      "ĠÑģÐ¾Ð³": 1501,
      "ÑģÐ¸": 1502,
      "ÑģÐ°Ðº": 1503,
      "ĠÐºÓ©ÑĤÓ©ÑĢ": 1504,
      "ĠÐ¼Ð¾Ð¶": 1505,
      "Ð¾ÑģÐº": 1506,
      "ĠÑģÐ¾ÑĨÐ¸": 1507,
      "ĠÐ¸ÑĪÐºÐµ": 1508,
      "ĠÐ¶ÑĥÑĢ": 1509,
      "ĠÐ¾ÑİÐ½": 1510,
      "ÑĭÐµ": 1511,
      "ÑĤÒ¯Ò¯": 1512,
      ",Ċ": 1513,
      "ĠÑĥÐ»Ñĥ": 1514,
      "ĠÐ¸ÑĪÑĤÐµÐ¿": 1515,
      "Ð°ÑĢÐ»Ð°Ð¼": 1516,
      "ĠÐ²Ñĭ": 1517,
      "Ð´ÐµÐ¼": 1518,
      "ĠÐºÐ°Ð¹ÑĤ": 1519,
      "Ð½Ð¸Ðº": 1520,
      "ĠÐ´Ð¾Ð»Ð±Ð¾Ð¾ÑĢ": 1521,
      "ĠÑĤÑĢ": 1522,
      "ĠÑı": 1523,
      "ÑĭÐ»Ð´Ñĭ": 1524,
      "Ð°Ð½Ð°Ñģ": 1525,
      "ĠÑĤÐµÐº": 1526,
      "ĠÑĤÐµÑħÐ½": 1527,
      "ÐļÐ°Ð»": 1528,
      "ĠÐ´Ò¯Ð¹Ð½Ó©": 1529,
      "ÑĥÑħ": 1530,
      "ĠÐ±ÑĥÐ·": 1531,
      "ÑĨÐ¸Ð¸": 1532,
      "ÑĤÑĭÑĢ": 1533,
      "ĠÓ©ÑĢ": 1534,
      "ĠÑĤÓ©Ð»": 1535,
      "ÑĥÐ³Ð°": 1536,
      "Ð«": 1537,
      "24": 1538,
      "ÐµÐ´ÐµÑĢ": 1539,
      "ĠÐ¼ÑĭÐ½Ð´Ð°Ð¹": 1540,
      "ÐĳÑĥÐ»": 1541,
      "ĠÐľÐµÐ½": 1542,
      "ĠÓ©Ð·Ð³Ó©": 1543,
      "an": 1544,
      "ĠÑĤÓ©Ð¼Ó©Ð½": 1545,
      "Ð¸Ð½Ð´ÐµÐ³Ð¸": 1546,
      "ÑģÐµÐ¹Ð½": 1547,
      "ÑĤÐ¸ÑĢ": 1548,
      "Ð°Ð»Ð´ÑĥÑĥ": 1549,
      "Ð½Ð°Ñı": 1550,
      "ĠÐ¼ÐµÐ·Ð³Ð¸Ð»": 1551,
      "on": 1552,
      "Ð°ÑĤÐºÐ°": 1553,
      "ÑĤÑĤÑĭ": 1554,
      "ĠÐ±ÐµÐ»Ð³Ð¸Ð»Ò¯Ò¯": 1555,
      "ÑĥÑģÑĥ": 1556,
      "ĠÐºÑĭÐ·Ð¼Ð°ÑĤÑĭ": 1557,
      "ÐµÑĩÐµ": 1558,
      "ĠÐ±Ó©Ð»Ò¯Ð¼": 1559,
      "ĠÐºÑĭÐ»ÑĭÐ¿": 1560,
      "ĠÐ°ÑĢÐ°": 1561,
      "ÑĢÐ¾": 1562,
      "ĠÓ©ÐºÐ¼Ó©ÑĤ": 1563,
      "-Ñį": 1564,
      "ĠÐ±Ð°Ð½": 1565,
      "ĠÐ¼Ð°Ð¼": 1566,
      "Ð»Ðµ": 1567,
      "ĠÐ¿ÑĢÐµÐ´": 1568,
      "ĠÐ¸ÑĪÐµÐ½": 1569,
      "Ð´ÐµÐ»": 1570,
      "Ð»Ð³Ð°Ð½": 1571,
      "ÑĤÑĥÑĥ": 1572,
      "198": 1573,
      "ĠÐ¼ÐµÐº": 1574,
      "ÑĢÐ°Ð²": 1575,
      "ĠÐºÐ°ÑĤÐ°ÑĢ": 1576,
      "ĠÐºÐ°Ð»Ð´Ñĭ": 1577,
      "ĠÐĲÐ»Ð°ÑĢ": 1578,
      "ÑĢÐ°ÑĤ": 1579,
      "ĠÐ¸Ð¹": 1580,
      "ĠÐ¶Ð¾Ð³": 1581,
      "Ð¸ÑĢÐ¸": 1582,
      "Ð´ÑĥÐºÑĤÐ°Ð½": 1583,
      "Ð»Ð°ÑĢÑĭ": 1584,
      "ĠÐĳÐ°ÑĤ": 1585,
      "ĠÑĥÑİÑĪÑĤÑĥÑĢ": 1586,
      "Ò¯Ð½Ó©Ð½": 1587,
      "ĠÐ±ÐµÑĢÐµÑĤ": 1588,
      "ÑĥÐ½Ð°Ð½": 1589,
      "Ð¸ÑĪÑĤÐ¸": 1590,
      "Ð´Ð°Ð¿": 1591,
      "ÑĮÑİ": 1592,
      "ÑĢÑĥÐ³": 1593,
      "Ð¾Ð³Ð¾Ð½": 1594,
      "-Ð¸": 1595,
      "Ð¶Ð¾Ð»": 1596,
      "ĠÑĤÑĥÑĥÑĢÐ°": 1597,
      "Ð¾ÐºÑĥÐ¼": 1598,
      "25": 1599,
      "ÑĤÐµ": 1600,
      "ĠÐºÐ¸ÑĤ": 1601,
      "Ð½Ð¾Ðµ": 1602,
      "Ð°Ð»Ð´Ð°ÑĢ": 1603,
      "Ð¸ÑĤÐµÐ»ÑĮ": 1604,
      "ÑĨÐ¸ÑıÐ»ÑĭÐº": 1605,
      "ĠÐ´Ð°ÑĢ": 1606,
      "ĠÓ©ÑĤÓ©": 1607,
      "ĠC": 1608,
      "Ð°Ð¹ÑĭÐ¼": 1609,
      "ÐµÑģÑĤÐ²": 1610,
      "ĠÐºÐ¾Ð¾Ð¿ÑģÑĥÐ·": 1611,
      "ĠÐ¿ÑĢÐ¾ÑĨ": 1612,
      "Ð°Ð±ÑĢ": 1613,
      "ÑģÐ»": 1614,
      "ĠÑģÐ¸Ð·": 1615,
      "ÐŀÑĢ": 1616,
      "Ð°ÑĢÑĭÐ½ÑĭÐ½": 1617,
      "ĠÓ©Ñģ": 1618,
      "Ð¾Ð³ÑĢÐ°ÑĦ": 1619,
      "ĠÑģÑĭÐ½": 1620,
      "ÑĪÑĭÑĢ": 1621,
      "ĠÑĦÐ¾ÑĢ": 1622,
      "ÐľÐļ": 1623,
      "Ð¾Ð½Ð´Ð¾": 1624,
      "ĠÐ°Ð»ÑĭÐ½Ð³Ð°Ð½": 1625,
      "ĠÐĳÐ¾Ð»": 1626,
      "-Ð¢": 1627,
      "ĠÑĥÐ»Ð°Ð¼": 1628,
      "ĠÓ©Ð»ÐºÓ©Ð»Ó©ÑĢ": 1629,
      "ÐºÐ°Ð·": 1630,
      "Ð»Ð°Ñģ": 1631,
      "ĠÐ¼Ð°Ð¼Ð»ÐµÐºÐµÑĤÑĤ": 1632,
      "Ð°ÑĪÑĤÑĭÑĢ": 1633,
      "Ð¼Ð°ÑģÑĭ": 1634,
      "ĠÐºÑĭÐ»Ð¼ÑĭÑĪ": 1635,
      "Ð°Ð¼Ð±": 1636,
      "Ð¾Ð³Ñĥ": 1637,
      "ĠI": 1638,
      "ĠÐºÐµÑĩ": 1639,
      "ĠÐºÑĭÐ»Ð³Ð°Ð½": 1640,
      "Ò¯ÑĢÒ¯Ò¯": 1641,
      "ĠÐ½ÐµÐ³Ð¸Ð·Ð³Ð¸": 1642,
      "Ð°ÑĢÐº": 1643,
      "Ð°ÑĤÐ¾ÑĢ": 1644,
      "ĠÐºÐ¾Ð¼Ð¿Ð°Ð½Ð¸Ñı": 1645,
      "ĠÐ¾ÑĢÑĤÐ¾Ñģ": 1646,
      "ĠÐºÐ°ÑĢÐ°Ð³Ð°Ð½Ð´Ð°": 1647,
      "Ð¾Ð»Ð¾Ð³Ð¸Ñı": 1648,
      "ÑģÐ°Ð½": 1649,
      "ĠÑĢÐ°ÑģÐ¼Ð¸Ð¹": 1650,
      "ĠÑĤÐ°Ð°Ñģ": 1651,
      "ÑĤÑĥÑĢ": 1652,
      "ÐµÐ³Ð¾": 1653,
      "ĠÐĸÐ°Ð»": 1654,
      "ĠÐ°Ð³ÐµÐ½": 1655,
      "Ó©ÑĢÒ¯": 1656,
      "ÐºÓ©Ð½Ò¯Ð½": 1657,
      "Ð°ÑĤÐºÐ°Ð½": 1658,
      "ÑģÑĭÐº": 1659,
      "ĠÐ°Ð½Ð´Ð°Ð½": 1660,
      "Ð´ÐµÐ³Ð¸": 1661,
      "ÐµÑģÑĤÑĢ": 1662,
      "ÑĨÐ¸Ð¾Ð½": 1663,
      "197": 1664,
      "Ð±ÐµÐ¹": 1665,
      "ĠÐ¿Ð»Ð°Ð½": 1666,
      "ĠÐ±Ò¯Ð³Ò¯Ð½": 1667,
      "ĠÐ°ÑĤÐ°": 1668,
      "ÑĥÐ¶": 1669,
      "ĠÐ°Ð²ÑĤ": 1670,
      "ĠÐ¸Ð»Ð¸": 1671,
      "Ð¾Ð¼Ñĥ": 1672,
      "ÐļÐ°Ð»ÐºÑĭ": 1673,
      "ĠÐ°ÑĤÐ°Ð¹ÑĭÐ½": 1674,
      "ĠÐ¿ÑĢÐµÐ·Ð¸Ð´ÐµÐ½ÑĤ": 1675,
      "Ð°ÐºÐºÐ°": 1676,
      "ĠÑĥÐ±Ð°ÐºÑĤ": 1677,
      "ĠÐºÓ©ÑĢÒ¯Ð½": 1678,
      "ĠÐºÓ©Ñĩ": 1679,
      "Ð°Ð»Ð´Ð°": 1680,
      "ĠÐ±ÑĥÑĢ": 1681,
      "Ð´Ð°ÑĢÑĭÐ½ÑĭÐ½": 1682,
      "ĠÐ°Ð¹ÑĭÐ¿": 1683,
      "ĠÐ¼Ð°ÑĤÐµÑĢÐ¸": 1684,
      "ĠÐ¼Ð°Ð¼Ð»ÐµÐºÐµÑĤ": 1685,
      "ĠF": 1686,
      "ĠÑĤÐ¾": 1687,
      "Ð»Ð°Ð½Ð³Ð°Ð½": 1688,
      "Ð°Ð¼Ð°": 1689,
      "ĠÑģÐ°ÑıÑģÐ¸Ð¹": 1690,
      "Ð°Ð»Ð¸": 1691,
      "ĠÑģÑĥÐ½ÑĥÑĪÑĤ": 1692,
      "-Ð±Ò¯Ð»": 1693,
      "ĠÐ¶Ò¯Ð·": 1694,
      "Ð°Ð´ÑĭÑĢ": 1695,
      "ĠÐ°Ð·ÑĭÑĢ": 1696,
      "ar": 1697,
      "ĠÑĤÐ°ÑĪ": 1698,
      "ĠÐºÑĥÑĢÑĥÐ»": 1699,
      "Ð¸Ð²ÐµÑĢÑģ": 1700,
      "Ð¿Ð°Ð¹": 1701,
      "Ð´ÑĭÐ³ÑĭÐ½": 1702,
      "ĠÑĪÑĤ": 1703,
      "ĠÓ©Ð½Ð´Ò¯ÑĢ": 1704,
      "ĠÐ¼ÑĥÐ·": 1705,
      "ĠÐ´Ð¸Ð½": 1706,
      "ÐºÐ°Ð»": 1707,
      "ÐµÑĤÑĤÐ¸": 1708,
      "ĠÓ©Ð·Ò¯Ð½Ò¯Ð½": 1709,
      "Ð°Ð³ÑĭÐ½": 1710,
      "Ð°Ð°ÑĢÑĭ": 1711,
      "100": 1712,
      "ĠÐŀÑĢÑĥÑģÐ¸Ñı": 1713,
      "Ð´Ò¯Ò¯Ð»": 1714,
      "ĠÐ½ÐµÑĩÐµ": 1715,
      "Ó©ÑĤÑĤ": 1716,
      "ĠÑįÐ¼Ð½Ðµ": 1717,
      "ÐĹ": 1718,
      "Ð¼ÑĭÐ»": 1719,
      "ĠÐ°Ð¹ÑĢÑĭÐ¼": 1720,
      "ĠÐ¼Ð»": 1721,
      "ĠÐ´Ð¾": 1722,
      "Ð¾Ð¹ÑĤ": 1723,
      "ÑĭÑħ": 1724,
      "ĠÑĭÐ¹": 1725,
      "ti": 1726,
      "ĠÐ¿ÑĢÐ¸": 1727,
      "Ð³ÑĢ": 1728,
      "ÑĥÑĥÑģÑĥ": 1729,
      "ĠÐ¿ÑĢÐ¾Ð³ÑĢÐ°Ð¼": 1730,
      "ĠÐ¶Ð¾Ð³Ð¾ÑĢÐºÑĥ": 1731,
      "ĠÑįÐºÑģÐ¿": 1732,
      "ĠÐ±Ð¸Ð·Ð´Ð¸Ð½": 1733,
      "ÐµÑĢÐµÐ½": 1734,
      "ĠÐ°Ð¶": 1735,
      "ĠÐ¿Ð°ÑĢÐ»Ð°Ð¼": 1736,
      "ĠÐ·Ð°": 1737,
      "ÑģÐºÐµ": 1738,
      "ĠÐ¼Ð°Ð¼Ð¸Ð»": 1739,
      "ĠÑģÐ¾ÑĨÐ¸Ð°Ð»Ð´ÑĭÐº": 1740,
      "ÑĩÐ¸ÑģÐ¸": 1741,
      "ĠÑģÐ¾Ð¾": 1742,
      "ÑĮÐµÑĢ": 1743,
      "ĠÑģÐ°Ð½Ñĭ": 1744,
      "ĠÐ°ÑĤÐ°Ð»Ð³Ð°Ð½": 1745,
      "Ġ()": 1746,
      "ÑĤÑĤÐ¸Ðº": 1747,
      "Ð¸ÐºÐ¸ÑĢ": 1748,
      "ĠÑģÑĭÑı": 1749,
      "ĠÑĤÐ¸": 1750,
      "ĠÐ¶ÑĭÐ¹ÑĭÐ½ÑĤ": 1751,
      "Ð»ÑĥÑĥ": 1752,
      "Ò¯Ð»Ò¯Ð¿": 1753,
      "ÐºÑĥÐ»": 1754,
      "ÑĥÐ½Ð¸ÑĨ": 1755,
      "ÑĢÐµÐ¼": 1756,
      "kg": 1757,
      "ĠÐ¶Ò¯ÑĢÐ³Ó©Ð½": 1758,
      "ÑĥÐ½Ð¸ÑĨÐ¸Ð¿": 1759,
      "ĠÐ¼Ð°Ð´Ð°Ð½": 1760,
      "Ð³ÑįÑį": 1761,
      "ĠÑĥÐ»ÑĥÑĤÑĤÑĥÐº": 1762,
      "ÑĩÑĤ": 1763,
      "Ð°ÑĤÑĭÐ¹": 1764,
      "ĠÑģÑĭÑĢ": 1765,
      "ĠÐ´Ð¾ÐºÑĥÐ¼": 1766,
      "Ð¸ÑĪÐºÐµÐ½": 1767,
      "ÑģÑĭÐ½Ð°": 1768,
      "or": 1769,
      "Ð°Ð½Ð´Ñĭ": 1770,
      "ĠÐļÐ°Ð·Ð°Ðº": 1771,
      "ÑĤÐºÐµÐ½Ð¸": 1772,
      "ĠÐºÐ¸ÑĢÐµÑĤ": 1773,
      "ÐµÐ³Ðµ": 1774,
      "ĠÐ¼Ð¸Ð»Ð»Ð¸Ð¾Ð½": 1775,
      "Ð°ÑĤÐ¸Ð²Ð´Ð¸Ðº": 1776,
      "Ð»ÐµÐ½": 1777,
      "ĠÒ®": 1778,
      "Ð°Ð»Ð°ÑĢÐ´Ñĭ": 1779,
      "ÑİÑī": 1780,
      "ĠÐ°Ð»Ð±Ð°Ð¹": 1781,
      "ĠÑĤÑĥÑĢÐ³ÑĥÐ½": 1782,
      "ĠÐŃÑĢ": 1783,
      "ĠÑĪÐ°Ð°ÑĢÑĭÐ½Ð´Ð°": 1784,
      "Ð°ÑĢÐ°ÑĤ": 1785,
      "ĠÑģÐ°ÐºÑĤÐ¾Ð¾": 1786,
      "ĠÐ´Ð°Ð»": 1787,
      "Ð°Ð±Ð¾ÑĤ": 1788,
      "ÐµÐ±Ð¸": 1789,
      "ĠÐłÐ¾ÑģÑģ": 1790,
      "ĠÐĺÐ½": 1791,
      "ÑģÐ¸Ð·": 1792,
      "Ð»Ñİ": 1793,
      "ĠÑĩÑĭÐ½": 1794,
      "Ð°ÑĤÑĭÐ¹Ð¶": 1795,
      "Ñ³": 1796,
      "en": 1797,
      "ÐĲÐ·": 1798,
      "||": 1799,
      "ÑĢÐ¸ÑĤ": 1800,
      "ĠÑģÐ¾Ò£": 1801,
      "ĠÐ±Ð°ÑģÐ¼Ð°": 1802,
      "Ð¾Ð³ÑĥÐ»": 1803,
      "196": 1804,
      "ĠÐ±Ð°ÑĪÐºÑĭ": 1805,
      "ÑģÒ¯Ð½": 1806,
      "Ð°Ð·Ð°": 1807,
      "ĠÑĢÐµÐµÑģÑĤÑĢ": 1808,
      "Ð°Ð¶Ð¸Ðº": 1809,
      "ĠÑģÑĭÑıÐºÑĤÑĥÑĥ": 1810,
      "Ð±Ð°Ð¹ÑĤ": 1811,
      "ĠÑĤÓ©ÑĢÐ°Ð³": 1812,
      "Ð»Ð¸Ð³Ð¸": 1813,
      "ĠÐ°Ð³ÐµÐ½ÑĤÑĤ": 1814,
      "Ð·Ð³": 1815,
      "ĠÐ¶ÐµÐºÐµ": 1816,
      "ĠÐĸÐ°Ð¿Ð°ÑĢ": 1817,
      "ĠÐ·Ð°ÑĢÑĭÐ»": 1818,
      "Ð½ÐµÑģ": 1819,
      "ĠÑĤÐ°Ð¿ÑĪÑĭÑĢ": 1820,
      "ĠÐ´ÐµÐ¹ÑĤ": 1821,
      "ĠÐ¾Ð¹Ð»": 1822,
      "ĠÐ¶Ð°Ð³": 1823,
      "Ð´ÐµÐ¿": 1824,
      "ÐµÑĪÑĤÐ¸Ð½": 1825,
      "Ð½Ð¾ÑģÑĤÐ¸": 1826,
      "ĠÒ¯ÑģÑĤ": 1827,
      "ĠÐ¶ÑĥÑĢÐ½Ð°Ð»": 1828,
      "ĠÐ¼Ð¸Ð½": 1829,
      "Ð´ÑĢ": 1830,
      "ĠÐºÑĭÐ¹Ð¼ÑĭÐ»": 1831,
      "ÐµÑĢÐ³Ðµ": 1832,
      "Ð°Ð°Ð»ÑĭÐ¼": 1833,
      "ĠÐºÑĭ": 1834,
      "Ð»ÑĥÑĤÑĤÑĥÐº": 1835,
      "ĠÐºÐµÐ»ÑĤÐ¸ÑĢ": 1836,
      "Ð°Ð»Ð°ÑĢÑĭ": 1837,
      "ĠÐ´ÐµÒ£Ð³ÑįÑį": 1838,
      "ĠÐ¶ÐµÑĢÐ³Ð¸Ð»Ð¸ÐºÑĤÒ¯Ò¯": 1839,
      "ĠÐ°Ð½Ð´Ð°": 1840,
      "Ð¼Ð°Ðº": 1841,
      "ĠÑģÐµÐ·": 1842,
      "ĠÑģÐ°Ð¿": 1843,
      "ĠÐ±ÐµÑĢÐ¸Ð¿": 1844,
      "ÑĥÑĥÐ»Ð°ÑĢ": 1845,
      "Ð±Ð°Ð´": 1846,
      "ÑıÐ±ÑĢÐ´Ð°": 1847,
      "ĠÐ¢ÑĥÑĢ": 1848,
      "Ò¯Ð±": 1849,
      "ĠÑĤÐµ": 1850,
      "ĠÐ±Ó©Ð»Ò¯Ð½": 1851,
      "ÐµÐµ": 1852,
      "Ð¿Ð¸": 1853,
      "ĠÐ¼ÐµÐ´Ð¸": 1854,
      "Ð°ÑĢÐ¸": 1855,
      "Ð´Ð°Ð±": 1856,
      "ÐĵÐĺ": 1857,
      "Ð¸Ð¼Ð¸": 1858,
      "ĠÐºÐ°Ð±Ð°ÑĢ": 1859,
      "ĠÐ´Ð¾Ð»Ð»Ð°ÑĢ": 1860,
      "ĠÐ¾Ð±ÑĬ": 1861,
      "ÐºÐ°ÑĢÑĭ": 1862,
      "ÑĢÑĥÐ¿": 1863,
      "Ó©Ð³": 1864,
      "ĠÐ´ÐµÐ»Ðµ": 1865,
      "ĠA": 1866,
      "Ð¾Ðµ": 1867,
      "ĠÐºÐ¾ÑĪÑĥÐ¼": 1868,
      "ĠÐ±Ð¾Ð»ÑĥÑĪÑĥ": 1869,
      "ĠÐ°ÑĢÐ°ÐºÐµÑĤ": 1870,
      "ÑĥÐ½Ð´Ñĥ": 1871,
      ".kg": 1872,
      "ÑĩÒ¯Ð»Ò¯Ðº": 1873,
      "Â²": 1874,
      "Ð»Ð°ÑĤ": 1875,
      "ĠÐ¶ÑĭÐ¹": 1876,
      "ĠÐ°ÑĪÑĭÑĢ": 1877,
      "ÑıÐ½Ð²Ð°ÑĢ": 1878,
      "ÐµÐ»Ò¯Ò¯": 1879,
      "ĠÐļÐ¾Ð½": 1880,
      "Ð»Ð¸Ð½": 1881,
      "Ð¿ÐµÑĢ": 1882,
      "Ð°ÑıÐ½": 1883,
      "ÐŀÑĪ": 1884,
      "ĠÐºÐ¾Ð¾Ð¼Ð´ÑĥÐº": 1885,
      "ĠÑĤÐ°ÑĢÐ°Ð¿ÑĤ": 1886,
      "ĠÑĥÐºÑĥÐºÑĤ": 1887,
      "ÑĤÐ°Ð³Ñĭ": 1888,
      "Ð½Ð¸": 1889,
      "ĠÐ¢Ò¯ÑĢÐº": 1890,
      "âĢľ": 1891,
      "Ò£Ò¯Ð»": 1892,
      "Ð¸ÑıÐ´Ð°": 1893,
      "\",": 1894,
      "ĠÓ©Ð½Ò¯ÐºÑĤ": 1895,
      "ÑĭÐ»ÑĭÐº": 1896,
      "22": 1897,
      "ĠÐļÑĥÑĢ": 1898,
      "ĠÑĤÐ°Ð°ÑģÐ¸ÑĢ": 1899,
      "ÑĤÑĤÐ¸Ð½": 1900,
      "ÑĨÐ¸Ð½": 1901,
      "ĠÑĥÐ½Ð¸Ð²ÐµÑĢÑģ": 1902,
      "ĠÐ±ÐµÑĢÐ´Ð¸": 1903,
      "ĠÑĤÑĭ": 1904,
      "ĠÐºÐ¾Ð¼Ð¸ÑģÑģ": 1905,
      "Ò¯ÑĪÑĤÒ¯Ðº": 1906,
      "ĠÐ±Ð°ÑģÑģÐµÐ¹Ð½": 1907,
      "ĠÐ¼Ð¸Ð½Ð¸ÑģÑĤÑĢÐ»Ð¸Ð³": 1908,
      "ĠÐ¼ÐµÐºÑĤÐµÐ¿": 1909,
      "ĠÐĶÐ°ÑĢÑĭÑı": 1910,
      "ÐµÑĢÑĤ": 1911,
      "ĠÐ°Ð»Ð°ÑĤ": 1912,
      "ĠÐ¼ÑĥÑĢÐ´Ð°Ð³Ñĭ": 1913,
      "ĠÐķÐ²ÑĢ": 1914,
      "ĠÐ°ÐºÑĩÐ°": 1915,
      "Ð´Ð°ÑĢÑĭÐ½": 1916,
      "Ò¯Ð½Ð´Ó©Ð³Ò¯": 1917,
      "Ð°ÐºÑĤÐ°ÑĢ": 1918,
      "ĠÐºÒ¯ÑĢÓ©ÑĪ": 1919,
      "Ð³ÑĭÐ½Ð´Ð°": 1920,
      "ĠÐºÑĥÑĢÐ°Ð¼": 1921,
      "Ð°Ð´Ð¸": 1922,
      "-Ð¶ÑĭÐ»Ð´Ð°Ð½": 1923,
      "ĠÐºÓ©Ð»": 1924,
      "Ð¾ÐºÑĥÑĢ": 1925,
      "Ð°ÑĤÑĤÑĭ": 1926,
      "ÐµÑĢÐ¼Ð°Ð½": 1927,
      "Ð½Ð¾Ð²": 1928,
      "Ð´Ð¸Ð³Ð¸": 1929,
      "Ð¸ÑģÑĤÑĤÐµÑĢ": 1930,
      "Ð°ÑĢÐ´ÑĭÐº": 1931,
      ".,": 1932,
      "ĠÑģÐ°Ð¹ÑĤ": 1933,
      "ĠÑĤÑĭÐ½": 1934,
      "ĠÐ±Ð°Ð°ÑĢ": 1935,
      "ÑģÑĤÐ¸ÑĤÑĥ": 1936,
      "ĠÐ±ÑĭÐ»": 1937,
      "ÑĩÒ¯Ð»Ó©ÑĢ": 1938,
      "ÑĭÐ³ÑĭÐ½": 1939,
      "ĠÐ±Ð°Ð°ÑĢÑĭ": 1940,
      "ĠÐļÑĭÑĤÐ°Ð¹": 1941,
      "Ð°Ð·Ð°ÑĢ": 1942,
      "Ó©Ð¼Ó©Ð»": 1943,
      "ÐµÑĤÑĤÐ¸Ð½": 1944,
      "ĠÐ¶Ð°ÑĪÐ¾Ð¾": 1945,
      "ĠÑģÒ¯Ð¹Ð»Ó©ÑĪ": 1946,
      "ĠÑĤÐ°ÑĢÑĤÑĭÐ¿": 1947,
      "23": 1948,
      "Ó©ÐºÑĤ": 1949,
      "ĠÐ±Ð°ÑĤ": 1950,
      "ĠÐºÐ°Ð°Ð»": 1951,
      "Ð°Ð¿ÑĢ": 1952,
      "Ð°Ð½Ð¸Ðµ": 1953,
      "ÐºÑĥÐ½": 1954,
      "ĠÐ¿Ð¾Ñģ": 1955,
      "Ð°Ð·Ñĭ": 1956,
      "ĠÐŀÑĪÐ¾Ð½Ð´Ð¾Ð¹": 1957,
      "ĠÐ¾ÑĢÑĤÐ¾": 1958,
      "ÑĭÐºÑĤÐ°ÑĢ": 1959,
      "ĠÐ¾ÑĢÑĥÑģ": 1960,
      "ĠÐ°Ð±Ð°Ð»": 1961,
      "ĠÑĤÐµÒ£": 1962,
      "ĠÐ°ÑĢÐ°ÐºÐµÑĤÑĤ": 1963,
      "Ð´Ð°Ð³Ð°Ð½": 1964,
      "ĠÐ¿Ð¸ÐºÐ¸ÑĢ": 1965,
      "Ð°Ð¹Ð½": 1966,
      "ÐĳÐ¸ÑĢ": 1967,
      "ĠÐ¶Ð¾Ð»ÑĥÐ³": 1968,
      "ĠÐ±ÐµÑĤ": 1969,
      "ĠÐ¶ÐµÑĤÐº": 1970,
      "ĠÐ°Ð´Ð°Ð¼Ð´Ð°ÑĢ": 1971,
      "Ð±Ð°Ð³Ð°Ð½": 1972,
      "ĠÐ±Ð°ÑĪÑĤÐ°Ð³Ð°Ð½": 1973,
      "Ð´ÐµÑĢÐ´Ð¸Ð½": 1974,
      "Ð¼Ó©ÑĤÑĤ": 1975,
      "ĠT": 1976,
      "Ð°Ñĩ": 1977,
      "Ð¾Ð´Ð°": 1978,
      "195": 1979,
      "Ó©ÑģÒ¯": 1980,
      "ĠÐ½Ð°Ñĩ": 1981,
      "ÐµÐºÑĤÐµ": 1982,
      "ĠÑģÐ°ÑĤÑĭÐ¿": 1983,
      "ĠÐ¶ÑĥÐ¼ÑĥÑĪ": 1984,
      "ĠÐºÑĥÐ¹": 1985,
      "ÑĤÑĤÐ°ÑĢ": 1986,
      "Ð¼ÐµÐ½": 1987,
      "ĠÓ©Ð»ÐºÓ©Ð½Ò¯Ð½": 1988,
      "ĠÐ°ÑıÐ½ÑĤÑĭ": 1989,
      "ĠÐ²Ð¾Ð·": 1990,
      "ĠÐ¼Ð°ÑĪ": 1991,
      "ÑĤÐµÑĢÐ½": 1992,
      "ĠÓ©Ð·Ð³Ó©ÑĩÓ©": 1993,
      "ÑİÐ»": 1994,
      "Ò¯Ð»Ó©ÑĤ": 1995,
      "Ð»Ð¾Ð¾": 1996,
      "ÑĪÐµÑĢ": 1997,
      "ĠÑĩÐµÐºÑĤ": 1998,
      "ĠÑĩÐµÐ¹Ð¸Ð½ÐºÐ¸": 1999,
      "ĠÐºÐ°Ð¿": 2000,
      "-Ð¡": 2001,
      "28": 2002,
      "ĠÐºÑĥÐ±": 2003,
      "ĠÐ±Ó©Ð»Ò¯Ð³Ò¯": 2004,
      "Ð³Ó©Ó©": 2005,
      "Ð´Ð°ÑĪ": 2006,
      "ĠÐ±Ð¾Ð»ÑĩÑĥ": 2007,
      "Ò¯Ò¯Ð½Ò¯Ð½": 2008,
      "Ð¾ÑģÐ¾": 2009,
      "40": 2010,
      "ĠÐ±Ð°Ð»Ð°": 2011,
      "ĠÐ¼Ð°ÐºÑģÐ°ÑĤ": 2012,
      "ĠÐ°Ð»Ð³Ð°Ñĩ": 2013,
      "ÐŀÑĢÑĥÑģ": 2014,
      "Ð±Ð¸Ð·": 2015,
      "ĠÐ±Ð¸Ð¹Ð»Ð¸Ðº": 2016,
      "Ð°Ð»Ð°ÑĢÐ´ÑĭÐ½": 2017,
      "ĠÐ°ÐºÑĤÐ¸Ð²": 2018,
      "Ð°ÑģÐ°": 2019,
      "ĠÑĭÐº": 2020,
      "ĠÑĤÐ¾Ð»ÑĥÐº": 2021,
      "ĠÑĦÐ°ÐºÑĤ": 2022,
      "ĠÑĤÒ¯Ð½": 2023,
      "ÑĢÐµÐ´": 2024,
      "ĠÑĪÐ°ÑĢÑĤÑĤ": 2025,
      "Ð¸Ð»Ò¯Ò¯": 2026,
      "Ó©Ò£": 2027,
      "ĠÓ©Ð½Ò¯Ð³": 2028,
      "ĠÑĥÐ½Ð°": 2029,
      "Ð³Ð»": 2030,
      "ĠÐŃÐ³ÐµÑĢ": 2031,
      "-ÐĲÐ±Ð°Ð´": 2032,
      "ĠÑĤÑĭÑĪÐºÐ°ÑĢÑĭ": 2033,
      "Ð°Ð³ÑĭÐ»": 2034,
      "ÑĤÐ¸Ð¿": 2035,
      "Ð°ÑĤÑĢ": 2036,
      "ĠÑįÐ¿": 2037,
      "ĠÐ°Ð»Ð°": 2038,
      "ĠÐ¸Ð·Ð¸Ð»Ð´Ó©Ó©": 2039,
      "Ġâ": 2040,
      "ĠÐºÓ©Ò£Ò¯Ð»": 2041,
      "ĠÐºÓ©Ð·Ó©Ð¼Ó©Ð»": 2042,
      "Ð°ÑĤÑĤÑĭÐ½": 2043,
      "Ð»Ð¾": 2044,
      "-ÐļÓ©Ð»": 2045,
      "ĠÑĪÐ°Ð°ÑĢÑĭ": 2046,
      "ÐµÑģÐ¸Ð½": 2047,
      "al": 2048,
      "ĠÑģÐ°ÑıÑģÐ°ÑĤ": 2049,
      "ĠÑĩÐ°ÑĢÐ±Ð°": 2050,
      "ĠÐ°Ð´Ð¼": 2051,
      "ĠÐ°Ñģ": 2052,
      "27": 2053,
      "ĠÑģÐ°Ð¼": 2054,
      "ĠÐºÐµÐ¼": 2055,
      "ĠÐºÐ°Ð»ÑĭÐ¿": 2056,
      "ĠÐ¾Ð±Ð»ÑĥÑģÑĥÐ½ÑĥÐ½": 2057,
      "Ð¼Ð¾Ð½": 2058,
      "ĠÐºÐ°ÑĢÐ°Ð¿": 2059,
      "ĠÑĤÐ¾Ð¾": 2060,
      "ĠÐ¿Ð°Ð¹ÑĭÐ·": 2061,
      "ĠÐŁÑĢÐµÐ·Ð¸Ð´ÐµÐ½": 2062,
      "ĠÐ½Ð¾": 2063,
      "ĠÐĲÑĤÐ°Ð¼": 2064,
      "ĠÐºÐµÐ·Ð´Ðµ": 2065,
      "Ð¡Ðł": 2066,
      "ÑģÐ»Ð¸": 2067,
      "26": 2068,
      "ĠÑģÐ°Ð±": 2069,
      "ĠÑĥÑĥÐ»Ñĥ": 2070,
      "Ð´Ð¸Ð³Ð¸Ð½": 2071,
      "ÑĥÐ»ÑĥÐ¿": 2072,
      "ĠÐºÐµÐ»Ð¸ÑĪÐ¸Ð¼": 2073,
      "ĠÑĥÐ±Ð°Ðº": 2074,
      "ĠÐ¾Ð¿ÐµÑĢ": 2075,
      "ĠÐ°ÑĢÐ°ÑģÑĭÐ½Ð´Ð°": 2076,
      "ĠÐ¸ÑĩÐºÐ¸": 2077,
      "Ð´ÐµÑĢÐ¸": 2078,
      "ĠÐŀÑĪÐ¾Ð»": 2079,
      "ĠÐ±Ð¸Ð»Ð´Ð¸ÑĢÐ³ÐµÐ½": 2080,
      "ĠÑĪÐ°Ð°ÑĢÐ´ÑĭÐº": 2081,
      "ĠÐļÑĭÐ·": 2082,
      "Ð¾Ð½Ð´Ð¾ÑĢ": 2083,
      "ĠÐ½Ð°ÑĤÑĭÐ¹Ð¶": 2084,
      "ÐļÐľÐļ": 2085,
      "ĠÐ°ÑĩÑĭÐº": 2086,
      "Ð½Ð¾ÑģÑĤÑĮ": 2087,
      "ÑģÐµÐº": 2088,
      "ĠÐ£Ð»ÑĥÑĤÑĤÑĥÐº": 2089,
      "Ð´Ó©Ð¹": 2090,
      "ĠÐ¶Ð°ÑĤÐºÐ°Ð½ÑĭÐ½": 2091,
      "ĠÑĤÐ¸ÐµÑĪ": 2092,
      "Ð°ÑĤÐµÐ»ÑĮ": 2093,
      "ĠÐ±Ð¾Ð»ÑĥÑĪ": 2094,
      "194": 2095,
      "ĠÐ¼Ð°Ð»": 2096,
      "ĠÐ¸ÑĪÐ¸": 2097,
      "Ð¾Ð´Ð¸ÑĤ": 2098,
      "âĢ¦": 2099,
      "ĠÑģÐ°Ð»ÑĥÑĥ": 2100,
      "Ð³Ð°Ð·": 2101,
      "ĠÐ±Ð°ÑĢÑĭÐ¿": 2102,
      "ÑĥÐ½Ð¸ÑĨÐ¸Ð¿Ð°Ð»": 2103,
      "ĠÐ¸ÑĪÑĤÐµÐ³ÐµÐ½": 2104,
      "ĠÐ°ÑĪÑĭÐº": 2105,
      "ĠÓ©Ð½Ó©ÑĢ": 2106,
      "ÑĥÐ½Ð´Ð°Ð¹": 2107,
      "...": 2108,
      "Ð¥": 2109,
      "ĠM": 2110,
      "ÑĢÐµÑĤ": 2111,
      "ĠÐ¶ÐµÑĤÐµÐºÑĩÐ¸Ð»": 2112,
      "ĠÐľÐ¾ÑģÐº": 2113,
      "ÑĥÑĢÐ´Ð°": 2114,
      "Ð²ÐµÑģÑĤ": 2115,
      "Ò£ÑĭÐ·": 2116,
      "ĠÐŃÐ¼": 2117,
      "Ð¸ÑģÐ°Ð»Ñĭ": 2118,
      "ĠÐĳÐ°Ðº": 2119,
      "ÐļÑĭÑĢÐ³ÑĭÐ·ÑģÑĤÐ°Ð½": 2120,
      "ĠÐ¼Ð°Ð°Ð»ÑĭÐ¼Ð°ÑĤÑĭ": 2121,
      "Ð´Ð¶": 2122,
      "ÐµÐ»Ð¸": 2123,
      "ĠÐºÒ¯Ð¹": 2124,
      "ÑĥÑĥÑģ": 2125,
      "Ð¾Ð»Ð³Ð¾Ð½": 2126,
      ")Ċ": 2127,
      "Ð¸ÑıÐ³Ð°": 2128,
      "Ò¯ÐºÑĤÓ©ÑĢ": 2129,
      "âĢĿ,": 2130,
      "ÐµÐ¼ÑĮÐµÑĢ": 2131,
      "ĠÐ¼Ð°ÐºÑĥÐ»": 2132,
      "ÐºÐ¾Ð½": 2133,
      "Ð°ÑĪÑĭ": 2134,
      "ĠÐļÑĭÑĢÐ³ÑĭÐ·ÑģÑĤÐ°Ð½Ð´Ð°": 2135,
      "ÑįÑįÐ½": 2136,
      "ĠÐºÐµÑĢÐµÐºÑĤ": 2137,
      "ĠÐºÐ°Ð·Ð°": 2138,
      "Ò¯ÑĤÐº": 2139,
      "ĠÐ°Ð´Ð°Ð±": 2140,
      "Ð¾Ð½Ð´ÑĥÐºÑĤÐ°Ð½": 2141,
      "ĠÐĸÐ°Ð¿Ð°ÑĢÐ¾Ð²": 2142,
      "ĠÐ¶Ð°": 2143,
      "31": 2144,
      "ĠÑĤÐ°Ð»Ðº": 2145,
      "ĠÐºÑĭÑĢÐ´Ð°": 2146,
      "Ð¼Ð¾": 2147,
      "ĠÐºÐµÐ½": 2148,
      "ĠÐ£ÑĪ": 2149,
      "ÑĥÐ³Ð°Ð»": 2150,
      "ĠÐļÐ°ÑĢÐ°": 2151,
      "ĠÐĲÐ½Ð´Ð°Ð½": 2152,
      "Ħĸ": 2153,
      "Ð¼Ð¸Ð½": 2154,
      "ĠÑģÐ°Ð°ÑĤ": 2155,
      "ĠÐ¼Ó©Ó©Ð½": 2156,
      "ÐĲÐº": 2157,
      "ĠÐ±ÑĥÐ³Ð°": 2158,
      "ĠÓ©Ð·Ò¯Ð½": 2159,
      "ĠÐ²Ð¸Ð´Ðµ": 2160,
      "Ð¸ÑĢÐµÐºÑĤ": 2161,
      "Ð°ÑĪÐ°": 2162,
      "ĠÐ°ÑĤÑĭÐ½Ð´Ð°Ð³Ñĭ": 2163,
      "ĠÑģÐ¼": 2164,
      "ĠÐ³Ðµ": 2165,
      "ĠÐĲÐ»Ð¼": 2166,
      "Ð´ÐµÑĤÑĤ": 2167,
      "ĠÐ±ÐµÐºÐ¸ÑĤ": 2168,
      "ĠÐ¢Ð°Ð»": 2169,
      "ĠÑĤÐ¾Ð±": 2170,
      "ĠÐļÐ°Ð½": 2171,
      "-Ð´ÐµÐº": 2172,
      "ĠÐ¾Ð±ÑĢ": 2173,
      "ĠÐĵÐµÑĢÐ¼Ð°Ð½": 2174,
      "ĠÐ²Ñģ": 2175,
      "ĠÐ¼Ò¯Ð½Ó©": 2176,
      "ut": 2177,
      "ÑģÒ¯Ð·": 2178,
      "ĠÐ¸ÑĪÐ¼ÐµÑĢ": 2179,
      "Ð¼ÑĥÐ½": 2180,
      "ĠÑįÑĤÐ¾": 2181,
      "ĠV": 2182,
      "Ó©Ð¹ÑĢ": 2183,
      "80": 2184,
      "ĠÑįÐ½ÐµÑĢÐ³": 2185,
      "Ð³ÑĥÑģÑĤ": 2186,
      "ĠÐ¾Ð¾ÑĢÑĥ": 2187,
      "ĠÐ°Ð´Ð¸": 2188,
      "ĠÐ±ÐµÑĢÐ¸Ð»Ð³ÐµÐ½": 2189,
      "ÐµÐºÑĤÐµÐ½": 2190,
      "ĠÑĤÐ¾ÐºÑĤÐ¾ÑĤ": 2191,
      "ĠÐ±Ð°Ð³ÑĭÑĤÑĤ": 2192,
      "ÐºÐ°ÑĤ": 2193,
      "ĠÐ¿ÑĢÐ¾ÐºÑĥÑĢ": 2194,
      "ĠÓ©ÑĤÒ¯Ð¿": 2195,
      "ÐŁÑĢ": 2196,
      "Ð¸ÑĢÑĥÑģ": 2197,
      "ĠÐĲÐ»Ð°ÑĢÐ´ÑĭÐ½": 2198,
      "Ð°Ð±Ð°": 2199,
      "ÑģÐºÐ¸Ð¹": 2200,
      "ĠÐ±Ð°ÑģÐ°ÑĢÑĭ": 2201,
      "ĠÐ¼ÑĥÑĢÑĥÐ½": 2202,
      "ĠÑĤÑĥÑĤ": 2203,
      "21": 2204,
      "-Ðĳ": 2205,
      "ĠÑĤÐ¾Ð¿ÑĤ": 2206,
      "ĠÐ¾Ð±ÑĬÐµÐºÑĤ": 2207,
      "ÑĤÑĤÑĥÐ½": 2208,
      "Ð¾Ð»ÑĮÐºÐ¾": 2209,
      "-Ð´ÐµÐºÐ°Ð±ÑĢ": 2210,
      "ÑĤÐ°ÑĢ": 2211,
      "ÐµÑĢÐ²": 2212,
      "Ð¾ÑģÑĥ": 2213,
      "ĠÐ°ÑĩÑĭÐ»": 2214,
      "ÐµÐ²ÑĢ": 2215,
      "ĠÐ±Ð¾ÑĪ": 2216,
      "Ð·Ð°": 2217,
      "ĠÑįÐºÐ¸Ð½ÑĩÐ¸": 2218,
      "ĠÐļÑĥ": 2219,
      "ĠÐ«ÑģÑĭÐº": 2220,
      "ĠÐ¼Ð»Ð½": 2221,
      "ĠÑĢÐ°Ð¹Ð¾Ð½Ð´ÑĥÐº": 2222,
      "ĠÐ°Ð»Ð´ÑĭÐ½Ð´Ð°": 2223,
      "ĠÑĤÑĥÑĥÐ³Ð°Ð½": 2224,
      "ĠÐ±ÐµÐ»Ð³Ð¸Ð»ÐµÐ´Ð¸": 2225,
      "ĠÑĤÐµÐºÑĪÐµÑĢ": 2226,
      "ĠÐ´Ð¾Ð±": 2227,
      "ĠÑĥÑĩÑĥÑĢÑĥÐ½Ð´Ð°": 2228,
      "Ó©Ð½Ò¯Ð½": 2229,
      "Ð±Ð¸": 2230,
      "ĠÐ°Ð¹ÑĤÑĤÑĭ": 2231,
      "ĠÑįÐ»ÐµÐº": 2232,
      "ĠÐ½Ð¾Ð¼": 2233,
      "ĠÐĲÑĤÐ°Ð¼Ð±Ð°ÐµÐ²": 2234,
      "Ð°ÐµÑĤ": 2235,
      "ĠÐĿÑĥÑĢ": 2236,
      "ÑĨÐ¸ÑıÑģÑĭ": 2237,
      "ĠÐ¼ÑĥÑĢÐ´Ð°": 2238,
      "Ð°ÑģÑĭÐ·": 2239,
      "ĠÐ°Ð»Ð¼": 2240,
      "ÑĩÑĥÐ»Ð°ÑĢ": 2241,
      "Ð¸Ð³Ð¸Ð½": 2242,
      "ĠÐ¾Ñģ": 2243,
      "ÐºÐ¾Ð²": 2244,
      "Ð¶Ð°Ð½": 2245,
      "ÑĤÑĤÐµÑĢ": 2246,
      "ĠÐ¼Ð°Ð°Ð½Ð¸Ð»Ò¯Ò¯": 2247,
      "-Ð¼Ð¸Ð½Ð¸ÑģÑĤÑĢ": 2248,
      "Ġ/": 2249,
      "Ò¯Ò£": 2250,
      "ĠÐ´Ð¸": 2251,
      "ĠÐ¸Ð»Ð¸Ð¼Ð¸Ð¹": 2252,
      "ĠÐ±Ð°Ð»Ð´Ð°ÑĢ": 2253,
      "ĠÐ¶Ð¸Ð±": 2254,
      "ÑĭÑĪÑĤÑĭÑĢ": 2255,
      "ĠÐ¸ÑĪÑĤÐµÑĢÐ¸": 2256,
      "ĠÓ¨Ð·Ð±ÐµÐº": 2257,
      "ĠÐ¾Ð±Ð»ÑĥÑģÑĥ": 2258,
      "ÐºÐµÑĢÐ»ÐµÑĢ": 2259,
      "ĠÐºÓ©Ð¿ÑĤ": 2260,
      "60": 2261,
      "ĠÓ©ÑĤÓ©ÑĤ": 2262,
      "ĠÑĥÐºÑĥÐº": 2263,
      "ÑĩÐµ": 2264,
      "ĠÐ´ÐµÒ£Ð³ÑįÑįÐ»": 2265,
      "ĠÐ´Ð¾ÑģÑĤ": 2266,
      "ĠÐ¯": 2267,
      "ĠÑģÐ°Ð½Ð°Ð»Ð°ÑĤ": 2268,
      "ĠÐ¾ÐºÑĢÑĥÐ³": 2269,
      "ĠÑįÑĢÐº": 2270,
      "Ð¾Ð»ÑĮÐ·": 2271,
      "Ð¸Ð»Ð¸": 2272,
      "ĠÐļÐ¾ÑĢ": 2273,
      "ÐµÐ½ÑĮ": 2274,
      "Ð¾Ð¾ÑĩÑĥ": 2275,
      "ÐµÑĤÑĢ": 2276,
      "ÑıÐ±ÑĢÑĮ": 2277,
      "ĠÐ´Ð¸ÑĢÐµÐºÑĤ": 2278,
      "ĠÐ´Ð°ÑĢÑĭ": 2279,
      "ĠÐ°ÑĤÑĤÑĥÑĥ": 2280,
      "ĠP": 2281,
      "Ð½Ð¾Ð¼": 2282,
      "Ð°Ð½ÑĭÐ¿": 2283,
      "ĠÐļÐµÒ£ÐµÑĪÑĤÐ¸Ð½": 2284,
      "29": 2285,
      "ĠÑĤÒ¯ÑĢÐ´Ó©": 2286,
      "ĠÐºÐµÑģÐ¸Ð¿": 2287,
      "Ð¾Ð½Ð°Ð²": 2288,
      "ĠÐ¶ÑĭÐ»Ñĭ": 2289,
      "ĠÐļÐł": 2290,
      "ĠÐ¶Ð°ÑĪÑĤÐ°Ð³Ñĭ": 2291,
      "ĠÐ¸ÑĪÐºÐ°Ð½": 2292,
      "ĠÐ±ÐµÑĪ": 2293,
      "ĠÐºÒ¯ÑĤ": 2294,
      "ĠÐŃÐº": 2295,
      "ĠÐ±Ð°Ð¹Ðº": 2296,
      "ÑĤÑĢ": 2297,
      "Ó©Ñģ": 2298,
      "ĠÐ°ÑĢÑĭÐ·": 2299,
      "ĠÐ°Ð»ÐºÐ°": 2300,
      "ĠÐ°Ð»Ð°ÑĢÐ´Ñĭ": 2301,
      "ÑĤÐ¸Ð½": 2302,
      "ĠÐ°Ð³Ñĭ": 2303,
      "ĠÑĤÐµÐ·": 2304,
      "Ð°Ð»Ð°Ð¼": 2305,
      "ĠÐ½ÐµÐ³Ð¸Ð·Ð¸Ð½Ð´Ðµ": 2306,
      "ĠÐ°Ð·ÑĭÑĢÐºÑĭ": 2307,
      "ĠÑĤÓ©ÑĢÑĤ": 2308,
      "ÑĩÑĥÑģÑĥ": 2309,
      "ĠÒ¯Ð»": 2310,
      "ĠÐ¾Ð±Ð»ÑĥÑģÑĤ": 2311,
      "ÑĥÑĥÑĩÑĥÐ»Ð°ÑĢ": 2312,
      "ĠÐ¼ÐµÐºÐµÐ¼": 2313,
      "Ð¹ÑĢ": 2314,
      "Ð¸ÑĢÒ¯Ò¯": 2315,
      "ni": 2316,
      "ĠÐĳÐµÐ»": 2317,
      "Ð»ÑĥÐº": 2318,
      "ÑĭÐ½Ñĭ": 2319,
      "ĠÐ¶Ð°ÑĢÑĭÐ¼": 2320,
      "ĠÐĳÐ°ÑĤÐºÐµÐ½": 2321,
      "ĠÐ¸ÑģÐ¿": 2322,
      "ÐºÑĤÑĭÐ½": 2323,
      "ĠÑĤÒ¯ÑĪÒ¯Ð½Ð´Ò¯ÑĢ": 2324,
      "ĠÑĤÐ°ÑĢÐ°Ð¿": 2325,
      "Ð½Ñı": 2326,
      "ĠÑĤÐ°ÐºÑĤ": 2327,
      "Ð±Ð¾Ð»": 2328,
      "Ð¾ÑĢÐ±Ð¾ÑĢÑĥ": 2329,
      "Ð½ÑĥÐ½": 2330,
      "ĠÐºÐ¾Ð·Ð³": 2331,
      "Ð°Ð½Ð´": 2332,
      "Ð´Ð°Ðº": 2333,
      "ÑĮÑĪ": 2334,
      "ĠÑĤÒ¯Ð·Ò¯Ð»Ð³Ó©Ð½": 2335,
      "-ÑıÐ½Ð²Ð°ÑĢ": 2336,
      "ĠÐ°Ð±Ð´Ð°Ð½": 2337,
      "ĠÐ¼Ð°ÑģÐµÐ»ÐµÐ»ÐµÑĢ": 2338,
      "ÑĥÒ£": 2339,
      "ĠÑģÐ»": 2340,
      "ĠÐ°Ð¶ÑĭÑĢ": 2341,
      "ÐºÐ¾ÑĢ": 2342,
      "ĠÐ¶Ð°ÑĢÐ°ÑĤ": 2343,
      "ĠÑĤÐ¾Ð¼": 2344,
      "ĠÓ©Ð¼Ò¯ÑĢ": 2345,
      "ĠÐºÐ¸ÑĪ": 2346,
      "ĠÐ¼Ò¯Ð½Ó©Ð·": 2347,
      "ĠÐºÐ¾Ð¼Ð¸ÑĤÐµÑĤ": 2348,
      "ĠÐ¼Ð¸Ð»Ð¸ÑĨÐ¸Ñı": 2349,
      "Ð°ÑĢÐ°Ðº": 2350,
      "ĠÐ½ÐµÑĢÑģÐµ": 2351,
      "ĠÓ©ÐºÐ¼Ó©ÑĤÑĤ": 2352,
      "ĠÑģÐ¿Ð¾ÑĢÑĤ": 2353,
      "ĠÑģÐ¾Ð²": 2354,
      "ĠÑĤÐµÑĢÐ³Ó©Ó©": 2355,
      "ĠÐ¸Ð»": 2356,
      "ĠÑĢÐ°Ð¹Ð¾Ð½ÑĥÐ½ÑĥÐ½": 2357,
      "ĠÐºÓ©Ð±Ó©Ð¹": 2358,
      "ĠÐºÐ¾Ð¹Ð³Ð¾Ð½": 2359,
      "ĠÐºÐµÐ»Ð´Ð¸": 2360,
      "ĠÐºÐ¸ÑĤÐµÐ¿": 2361,
      "ÑįÑįÑĢ": 2362,
      "Ð±ÑĥÑĢ": 2363,
      "ÑĤÑĤÑĥÑĥ": 2364,
      "ĠÐºÑĥÐ»": 2365,
      "ĠÐ°ÐºÑĭÑĢÐºÑĭ": 2366,
      "ĠÐºÐ°ÑĤÑĥÑĥ": 2367,
      "Ð²ÐµÑĤ": 2368,
      "le": 2369,
      "ÐºÓ©Ð¼": 2370,
      "ÐµÐºÑĤÐ¸Ð½": 2371,
      "at": 2372,
      "ĠÐ¿Ð°ÑĢÑĤÐ¸Ñı": 2373,
      "ÑĭÐºÑĤÑĥÑĥ": 2374,
      "ĠÑĥÐ½Ð¸Ð²ÐµÑĢÑģÐ¸ÑĤÐµÑĤ": 2375,
      "ĠÐ¼ÑĭÐºÑĤÑĭ": 2376,
      "ĠÐ»Ñİ": 2377,
      "ĠÑĤÐ°Ñģ": 2378,
      "ĠÐ¾ÑĢÐ´ÑĥÐ½": 2379,
      "Ð±Ó©Ð¹": 2380,
      "ÐµÐ»Ð´Ðµ": 2381,
      "ÑĮÑı": 2382,
      "Ð°ÑĤÑĭÐ½ÑĭÐ½": 2383,
      "ĠâĦĸ": 2384,
      "ĠÐ£ÐļÐľÐļ": 2385,
      "ĠÐ¶ÑįÑį": 2386,
      "ĠÐ±Ð°ÑĪÐºÐ°ÑĢÐ¼Ð°Ð»": 2387,
      "ĠÐ´ÐµÐ»": 2388,
      "ĠÐ±Ñİ": 2389,
      "Ð±ÐµÐ¹ÑĤ": 2390,
      "Ð¾ÑģÑĤÐ¾": 2391,
      "ĠÐºÑĭÐ·Ð¼Ð°ÑĤÐºÐµÑĢÐ»ÐµÑĢ": 2392,
      "ĠB": 2393,
      "ÑĭÐºÑĤÑĭÐ½": 2394,
      "ĠÑįÑģÐºÐµÑĢ": 2395,
      "ĠÐĸÐ°Ð»Ð°Ð»": 2396,
      "ĠÐ¿ÑĢÐ¾ÑĦ": 2397,
      "70": 2398,
      "193": 2399,
      "ĠÐ±ÐµÐ»Ð³Ð¸Ð»ÐµÐ½": 2400,
      "ĠÑįÐ¼Ð³ÐµÐº": 2401,
      "ĠÐ¸Ð»Ð¸ÐºÑĤ": 2402,
      "ĠÐ¶Ò¯ÑĢÒ¯Ð¿": 2403,
      "ÐµÐ³Ð¸Ð½Ð´Ðµ": 2404,
      "ĠÐ´Ð°ÑĢÑĭÐ»": 2405,
      "ÑĥÐ»ÑĮÑĤ": 2406,
      "ĠÐľÑĭÐ½Ð´Ð°Ð½": 2407,
      "ÐµÐ»ÐµÑĢÐ¸": 2408,
      "ĠÑĢÐ°Ð¹Ð¾Ð½ÑĥÐ½Ð´Ð°Ð³Ñĭ": 2409,
      "ĠÐ°Ð»ÑĥÑĥÐ³Ð°": 2410,
      "ĠÑĥÑĩÐ°": 2411,
      ".ÐĲ": 2412,
      "ĠÐľÑĭÐ½Ð´Ð°Ð¹": 2413,
      "ĠÑĩÐµÐ¼": 2414,
      "000": 2415,
      "ĠÐ¸ÑĢÐ¸": 2416,
      "ĠÐ³ÑĢ": 2417,
      "Ð¶Ð¾Ð»Ð´ÑĥÑĥ": 2418,
      "ÐŀÑĢÑĥÑģÐ¸ÑıÐ½ÑĭÐ½": 2419,
      "ĠÑįÑĢÐºÐ¸Ð½": 2420,
      "ĠÑģÐ°Ð»ÑĭÐ½": 2421,
      "ĠÐºÑĭÐ·ÑĭÐº": 2422,
      "ĠÐ¼Ð¸Ð»Ð´ÐµÑĤÑĤ": 2423,
      "ĠÑĤÓ©ÑĢÐ°Ð³Ð°ÑģÑĭ": 2424,
      "Ð°ÑĤÑĤÐ°ÑĢÑĭ": 2425,
      "ĠÐ§Ò¯Ð¹": 2426,
      "ĠÑĤÑĥÑĢÐ¼": 2427,
      "ÑĨÐ¸ÑıÐ½ÑĭÐ½": 2428,
      "Ð´ÐµÑĢÐ´Ð¸": 2429,
      "ĠÑİ": 2430,
      "Ð½ÑĥÑİ": 2431,
      "Ð³Ó©Ð¹": 2432,
      "!Ċ": 2433,
      "ÑĤÒ¯ÑĢ": 2434,
      "ĠÐºÑĭÐ»ÑĥÑĥ": 2435,
      "ÑĭÐ±": 2436,
      "ÐµÐ²Ð°": 2437,
      "ÑĭÐ»ÑĭÑĪ": 2438,
      "ÐºÑĭÑĢ": 2439,
      "ĠÐ¶ÐµÑĢÐ¸": 2440,
      "st": 2441,
      "ĠÑĪÐ°Ð°ÑĢÑĭÐ½ÑĭÐ½": 2442,
      "Ð´Ð°ÑĢÑĭÐ½Ð°": 2443,
      "ÐµÑĤÑĤÐµ": 2444,
      "Ð°ÑĤÑĤÐ°Ð½": 2445,
      "ĠÐľÐ°Ð¼Ð»ÐµÐºÐµÑĤÑĤÐ¸Ðº": 2446,
      "ĠÐ¿Ð°ÑĢÐ»Ð°Ð¼ÐµÐ½ÑĤÑĤ": 2447,
      "ĠÐºÑĭÐ·Ð¼Ð°ÑĤÐºÐµÑĢÐ»ÐµÑĢÐ¸": 2448,
      "ĠÑģÑĤÐ°Ð½": 2449,
      "ĠÐ¼Ð¾Ð¶ÐµÑĤ": 2450,
      "ÑĤÑĤÒ¯": 2451,
      "ĠÑĤÒ¯Ð·Ò¯Ð»": 2452,
      "ĠÑĤÐ°ÑĪÑĤ": 2453,
      "ÑĭÐ»ÑĭÐ¼": 2454,
      "Ð¾Ð¾Ð»Ð¾ÑĢ": 2455,
      "ĠÑĤÑĥÑĢÑĥÐºÑĤ": 2456,
      "ĠÑĢÐ°Ð±Ð¾ÑĤ": 2457,
      "Ð°Ð³ÑĭÐ½Ð°": 2458,
      "ÑĢÐ°Ðº": 2459,
      "ĠÐ·Ð°Ðº": 2460,
      "ĠÐ¤ÐµÐ´ÐµÑĢ": 2461,
      "ĠÑĤÐµÐ»": 2462,
      "ĠÐ¢Ð¾ÐºÑĤ": 2463,
      "-Ð¶ÑĭÐ»Ð´Ð°ÑĢÑĭ": 2464,
      "Ð°ÑĤÑĭÑĢ": 2465,
      "ĠÐ¶Ó©Ð½Ò¯Ð½Ð´Ó©Ð³Ò¯": 2466,
      "ÑĥÐ´ÐµÐ½": 2467,
      "ĠÐ¿Ð¾Ð¼": 2468,
      "ÑĭÐ»ÑĭÑĪÑĭ": 2469,
      "Ð¾Ð½Ð´ÑĥÐº": 2470,
      "Ð°Ò£Ñĭ": 2471,
      "ÑĭÐ³ÑĭÐ½ÑĭÐ½": 2472,
      "Ð¸Ð±Ð¸Ð·": 2473,
      "Ð³ÐµÐ»": 2474,
      "ĠÑĪÐ°ÑĢÑĤ": 2475,
      "ĠÐ±Ð°Ðº": 2476,
      "ĠÐ±Ð¸ÑĢÐ³Ðµ": 2477,
      "ÑģÑĤÐ²ÐµÐ½": 2478,
      "ĠÑĤÒ¯Ð·Ó©ÑĤ": 2479,
      "ĠÐĶÐ°ÑĢÑĭÑıÐ½ÑĭÐ½": 2480,
      "Ð°ÑĪÑĤÑĭ": 2481,
      "ĠÑĥÐ³": 2482,
      "ĠÑģÒ¯ÑĢÓ©ÑĤ": 2483,
      "ÐºÑĭÐ½": 2484,
      "ÐĳÐ¸ÑĪÐº": 2485,
      "ĠÐ¶ÑĭÐ»Ð´ÑĭÐ½": 2486,
      "Ð¾ÑģÑĤÐ°Ð²": 2487,
      "ĠÑĩÑĭ": 2488,
      "ĠÐĿÐ°ÑĢÑĭÐ½": 2489,
      "ĠÑĤÑĥÑĥÐ»Ð³Ð°Ð½": 2490,
      "ĠÐ¡Ð°Ð´ÑĭÑĢ": 2491,
      "ĠÐ¶Ð¾Ð³Ð¾ÑĢÑĥ": 2492,
      "Ð½Ð¾ÑĤ": 2493,
      "ÑģÑĤÐ²Ð¾": 2494,
      "Ð¨Ðļ": 2495,
      "Ð°Ð½Ñģ": 2496,
      "ĠÐ±Ð¸Ð¹Ð»Ð¸ÐºÑĤ": 2497,
      "ĠÐĸÑįÑįÐ½": 2498,
      "ĠÐ¼ÑĥÐ³Ð°Ð»": 2499,
      "ĠÑĤÒ¯ÑĪÐºÓ©Ð½": 2500,
      "-Ð¾ÐºÑĤ": 2501,
      "ĠÐ¿ÑĢÐ¾Ð²": 2502,
      "ÑĩÑĥÑĢÐ´Ð°": 2503,
      "Ð´ÑĭÐºÑĤÐ°Ð½": 2504,
      "ĠÑģÐ¾Ð³ÑĥÑĪ": 2505,
      "ĠÐ±Ð¾ÑĢÐ±Ð¾ÑĢÑĥ": 2506,
      "ĠÐ¿ÑĢÐµÐ·Ð¸Ð´ÐµÐ½ÑĤÐ¸": 2507,
      "ĠÑįÐºÐ¾Ð½Ð¾Ð¼Ð¸ÐºÐ°Ð»ÑĭÐº": 2508,
      "ÑģÑĤÐ°Ð²": 2509,
      "ĠÑĢÐµÐ¶": 2510,
      "ĠÐºÑĭÐ»Ð°ÑĤ": 2511,
      "ĠÐ°ÑıÐºÑĤ": 2512,
      "ÑĥÑĢÑģÑĤ": 2513,
      "ĠÐĲÐ½Ð´Ð°": 2514,
      "ÐµÑĨ": 2515,
      "ĠÑģÐ¾Ð¾Ð´Ð°": 2516,
      "ÑİÑĤÑģÑı": 2517,
      "ĠÐ¢Ð°Ð¶Ð¸Ðº": 2518,
      "ÑģÑĤÑĭÐºÑĤ": 2519,
      "ÐºÐ°Ð»Ð°ÑĢ": 2520,
      "ĠÐ¿Ð°Ð¹Ð´Ð°Ð»Ð°Ð½ÑĥÑĥ": 2521,
      "ĠÐ®": 2522,
      "ĠÐ±Ð°ÑĪÑĤÐ°Ð¿": 2523,
      "ĠÐºÓ©ÑĢÐ³Ó©Ð½": 2524,
      "ÑģÑĤÐ²Ð°": 2525,
      "ĠÐ±Ð°ÑģÑĭÐ¿": 2526,
      "ĠÐķÐ²ÑĢÐ¾Ð¿": 2527,
      "ĠÐµÐ³Ð¾": 2528,
      "ĠÐļÐ¾Ð¼": 2529,
      "ĠÑĥÑĪÑĥÐ½Ð´Ð°Ð¹": 2530,
      "ĠÑģÑĭÐ¹Ð»": 2531,
      "-ÑĦ": 2532,
      "-Ð¿ÑĢ": 2533,
      "ĠÑĦÐ¸Ð½": 2534,
      "ĠÐºÐ¾Ð»Ð´Ð¾Ð¾": 2535,
      "ĠÑĤÐ¸Ð·Ð¼": 2536,
      "ra": 2537,
      "ĠÐºÐµÐ»Ðµ": 2538,
      "Ð´ÐµÐ³ÐµÐ½": 2539,
      "ĠÐºÑįÑį": 2540,
      "ĠÐºÐ°ÑĢÐ°": 2541,
      "ĠÑģÐ°Ð¹ÑĭÐ½": 2542,
      "ĠÐ¼Ð¸Ð½Ð¸ÑģÑĤÑĢÐ»Ð¸Ð³Ð¸Ð½Ð¸Ð½": 2543,
      "ĠÑĤÐ¸ÐµÑĪÐµÐ»Ò¯Ò¯": 2544,
      "ĠÐ¾ÐºÑĪ": 2545,
      "ÑıÐ·": 2546,
      "Ð´Ò¯ÐºÑĤ": 2547,
      "ĠÐ¶Ð¾Ð»ÑĥÐ³ÑĥÑĪ": 2548,
      "ĠÐĸÐ¾Ð»": 2549,
      "ĠÑĦÐ¾Ð½": 2550,
      "ĠÐ¶ÑĭÐ»Ð´Ð°Ð½": 2551,
      "Ð°Ð´Ð°Ð½": 2552,
      "ĠÐĲÐ·Ð¸Ñı": 2553,
      "ĠÐ°Ð´Ð°Ð¼Ð´ÑĭÐ½": 2554,
      "Ð°Ð°Ð»ÑĭÐ¼Ð°ÑĤÐºÐ°": 2555,
      "Ð°ÑģÑĭÐ½Ð°Ð½": 2556,
      "ĠÐºÐµÑĤÑĤÐ¸": 2557,
      "Ð°ÑģÑĭÐ½Ð´Ð°Ð³Ñĭ": 2558,
      "ĠÑįÑģÑĤ": 2559,
      "ĠÐĳÐ¾ÑĢÐ±Ð¾ÑĢ": 2560,
      "ĠÑĢÐµÑģ": 2561,
      "ÐµÐºÑĤÐµÑĢ": 2562,
      "ĠÐ¼Ð¾Ð¶Ð½Ð¾": 2563,
      "ĠÐ¢Ð°ÑĪ": 2564,
      "Ð¸Ð»ÐµÑĢ": 2565,
      "ĠÐ£Ðº": 2566,
      "ÑĭÑĪÑĭÐ¿": 2567,
      "ĠÑĤÐ°Ð½": 2568,
      "ÑĥÐºÑĤÑĥÑĢ": 2569,
      "Ó©Ð±": 2570,
      "ĠÐ¿ÑĢÐ¸Ð½": 2571,
      "Ð¾ÑİÐ·": 2572,
      "ĠÐĳÐ¾Ð»Ð¶Ð¾Ð»Ð´ÑĥÑĥ": 2573,
      "Ð°Ð»Ð»": 2574,
      "|Ċ": 2575,
      "ĠÐ¶Ð°ÑĤÑĭÑĪÐ°ÑĤ": 2576,
      "Ð°Ð¹Ð¼": 2577,
      "ĠÐ±Ð¸Ð»Ð´Ð¸ÑĢÐ¸ÑĪÑĤÐ¸": 2578,
      "Ð°ÑĪÑĭÐ¿": 2579,
      "-Ð°Ð²": 2580,
      "ĠÑįÐ»Ð´Ð¸Ð½": 2581,
      "ĠÐ¼Ò¯Ð¼ÐºÒ¯Ð½ÑĩÒ¯Ð»": 2582,
      "ĠÐ´ÐµÒ£Ð¸Ð·": 2583,
      "-Ð¼Ð°Ð¹": 2584,
      "Ò¯ÑĪÑĤÒ¯": 2585,
      "ĠÑĤÐµÐ»Ðµ": 2586,
      "ÓĬ": 2587,
      "ÑĦÑĦ": 2588,
      "ĠÐ±Ð°ÑĪÑĩÑĭ": 2589,
      "ĠÑĤÑĢÐ°Ð½": 2590,
      "ĠÑģÐ¾Ð·": 2591,
      "ĠÐļÐ°Ð·Ð°ÐºÑģÑĤÐ°Ð½": 2592,
      "ĠÐºÐ¸ÑĢÐ³ÐµÐ½": 2593,
      "ÐµÑĢÐ»ÐµÑĢ": 2594,
      "ĠÐºÓ©Ð¹": 2595,
      "ĠÐ¼Ð°ÐºÑģÐ°ÑĤÑĭÐ½Ð´Ð°": 2596,
      "ĠÐĳÑĥÐ³Ð°": 2597,
      "Ð¸Ð»ÐµÑĤ": 2598,
      "ÑĩÑĭÐ»Ð°ÑĢ": 2599,
      "ĠÐ´Ð¾ÐºÑĥÐ¼ÐµÐ½ÑĤÑĤ": 2600,
      "ĠÓ©Ð»Ñĩ": 2601,
      "ĠÐ°Ð»Ð³Ð°ÑĩÐºÑĭ": 2602,
      "ĠÐºÐ¸Ð½": 2603,
      "ÑĨÐ¸Ð½Ð°Ð»ÑĭÐº": 2604,
      "ĠÐ¶Ð°Ð·Ð³Ð°Ð½": 2605,
      "ĠÐºÒ¯Ð½Ð´Ó©": 2606,
      "ĠÐ¸Ð´Ðµ": 2607,
      "ÑĨÐ¸ÑıÐ»Ð°ÑĢ": 2608,
      "ĠÓ©Ð½Ò¯ÐºÑĤÒ¯ÑĢÒ¯Ò¯": 2609,
      "ĠÐºÐ¾ÑĢÐ¾Ð½Ð°Ð²": 2610,
      "ĠÐ°Ð¹ÑĭÐ½Ð´Ð°": 2611,
      "ĠÑĢÐµÐµÑģÑĤÑĢÐ¸Ð½Ð¸Ð½": 2612,
      "Ð¿Ð¾Ð·": 2613,
      "ÐĲÑĢ": 2614,
      "45": 2615,
      "ĠÐ±Ð¾Ð¹": 2616,
      "ĠÐºÐ¾Ð¾Ð¿ÑģÑĥÐ·Ð´ÑĥÐº": 2617,
      "ÐĺÐľ": 2618,
      "ĠÐ¶Ð°ÐºÑĤÐ°Ð½": 2619,
      "Ð»Ð°Ð´Ñĭ": 2620,
      "Ð´Ð¸Ð¼": 2621,
      "ÐµÑĢÐ½": 2622,
      "ĠÐ´Ð°Ð¹ÑĭÐ½": 2623,
      "ĠÐ¶Ð°ÑĪÐ°Ð³Ð°Ð½": 2624,
      "ĠÐĳÐ°Ð»": 2625,
      "ĠÑįÑģÐµÐ¿ÑĤÐµÐ»": 2626,
      "ĠÐºÓ©ÑĩÓ©": 2627,
      "ĠÑģÐ°Ð»ÑĭÐ¿": 2628,
      "ĠÐ·Ð°Ð²": 2629,
      "Ð¸ÑģÑĤÑĤÐ¸Ðº": 2630,
      "ÑģÑĭÐ½Ð´Ð°": 2631,
      "ĠÐ°Ð»ÐºÐ°Ð³ÑĭÐ½Ð´Ð°": 2632,
      "ĠÐľÐ°Ð¼Ð»ÐµÐºÐµÑĤ": 2633,
      "-ÑĩÐ°ÑĢ": 2634,
      "ĠÐ¶ÐµÑĢÐ³Ðµ": 2635,
      "ÐµÑģÐº": 2636,
      "ĠÑĩÑĭÐ³ÑĭÑĪ": 2637,
      "Ð°ÐºÑĤÑĭ": 2638,
      "Ð¸Ð¹Ð¸Ð½": 2639,
      "ĠÐ¸ÑĩÐ¸Ð½ÐµÐ½": 2640,
      "ĠÑĤÐ¾Ñģ": 2641,
      "ĠÐºÐµÑĤÑģÐµÐº": 2642,
      "ĠÐ¼ÐµÐ´": 2643,
      "ĠÓ©ÐºÒ¯Ð»Ð´Ó©ÑĢÒ¯": 2644,
      "ĠÑĭÐ¹Ð³": 2645,
      "Ð¾Ð¾Ð½ÑĥÐ½": 2646,
      "ĠÐ¶Ò¯ÑĢÒ¯ÑĪ": 2647,
      "ĠÑĩÑĭÐºÑĤÑĭ": 2648,
      "ĠÐ¼Ð¸Ð½Ð¸ÑģÑĤÑĢÐ»Ð¸Ð³Ð¸": 2649,
      "Ð¸ÐºÐ»": 2650,
      "ĠÐ¿Ð¾Ð·": 2651,
      "ÑĥÑĥÐ»ÑĥÐº": 2652,
      "ĠÑįÐ»Ð´Ð¸Ðº": 2653,
      "ro": 2654,
      "Ð°ÐºÑĤÐ°": 2655,
      "Ð¼Ó©Ð½": 2656,
      "ĠÐ¼Ð¸Ð½Ð¸ÑģÑĤÑĢÐ¸": 2657,
      "ĠÐļÐ°Ð»": 2658,
      "ĠÐ¶Ð°Ð±ÑĭÑĢ": 2659,
      "ÐºÒ¯Ñĩ": 2660,
      "Ð´ÑĥÐ¼": 2661,
      "ĠÐ²ÑĢÐµÐ¼": 2662,
      "ĠÐĵÐµÑĢÐ¼Ð°Ð½Ð¸Ñı": 2663,
      "-Ð¸ÑİÐ½": 2664,
      "Ð¾Ð±Ñĭ": 2665,
      "Ð°Ð½Ð´ÑĭÐ½": 2666,
      "Ð¼Ðµ": 2667,
      "ÑģÑĤÐ¸ÑĤÑĥÑĤ": 2668,
      "ĠÐ¿Ð¾ÑĤ": 2669,
      "ĠÑĤÐ¾Ðº": 2670,
      "Ð±Ð¸Ñı": 2671,
      "ĠÐ¶ÐµÒ£Ð¸Ð»": 2672,
      "ĠÐ±ÐµÐ»Ð³": 2673,
      "ĠÐ±ÑĥÑİ": 2674,
      "ĠÐ±Ñĭ": 2675,
      "ĠÐ¿Ð¾Ð²": 2676,
      "ĠÐºÑĥÑĥ": 2677,
      "ĠÐ°Ð¹ÑĤÑĭÐ»Ð°ÑĤ": 2678,
      "-Ð°Ð¿ÑĢ": 2679,
      "ĠÐ°Ð»ÑĤÑĭÐ½": 2680,
      "Ð¾ÑĢÐ»Ð¾ÑĢ": 2681,
      "ÑĭÐ³ÑĭÐ½Ð´Ð°": 2682,
      "Ð°ÑĤÑĮÑģÑı": 2683,
      "ĠÐºÓ©Ð¿ÑĤÓ©Ð³Ó©Ð½": 2684,
      "ĠÐºÐ°Ð»Ð°ÑĤ": 2685,
      "ĠÐĲÐ·ÑĭÑĢ": 2686,
      "ÑĪÐµÐ½": 2687,
      "Ð³ÐµÐ¼": 2688,
      "ĠÐ¼Ó©Ó©Ð½Ó©ÑĤ": 2689,
      "ĠÐĲÐ»Ð¼Ð°Ð·": 2690,
      "ĠÐ¶Ð¸Ð±ÐµÑĢ": 2691,
      "ĠÐ¸ÑĪÐ¸Ð½": 2692,
      "Ð°ÑĤÑĤÐ°": 2693,
      "ĠÑģÐµÑĢ": 2694,
      "ĠÑĤÐ°Ð¶": 2695,
      "ĠÐ±ÑİÐ´Ð¶": 2696,
      "ÐºÐ°Ð´ÐµÐ¼": 2697,
      "ĠÐ¿ÑĢÐ°Ð²": 2698,
      "ĠÐ¶ÐµÐ»": 2699,
      "ĠÐ¾ÐºÑĢÑĥÐ³ÑĥÐ½Ð°": 2700,
      "ĠÐ³Ð°Ð·": 2701,
      "ÐµÑĤÑĤÐ¸Ðº": 2702,
      "ĠÑĩÐ¾Ð³ÑĥÐ»": 2703,
      "-ÐºÑĭÐ»ÑĭÐ¼": 2704,
      "ĠÑĩÓ©Ð¹ÑĢ": 2705,
      "192": 2706,
      "ÑģÐºÐ°": 2707,
      "ĠÐ±Ð°ÑĢÐ³Ð°Ð½": 2708,
      "ĠÐ±Ð°ÑĪÐºÐ°ÑĢÑĥÑĥ": 2709,
      "ĠÐºÐ°Ð»Ðº": 2710,
      ")ĊĊ": 2711,
      "ÑĦÐ¾Ð½": 2712,
      "ĠÑĩÑĭÐ³Ð°ÑĢÐ¼Ð°": 2713,
      "ĠÑģÐµÐº": 2714,
      "ĠÐ¶ÐµÑĢÐ»ÐµÑĢ": 2715,
      "ĠÐºÐ°Ð¹ÑģÑĭ": 2716,
      "ĠÑĤÒ¯": 2717,
      "us": 2718,
      "ĠÐºÓ©ÑĢÒ¯Ð¿": 2719,
      "ÐµÐ½Ð¸Ð¸": 2720,
      "Ð¸ÑĩÐµÑģÐº": 2721,
      "put": 2722,
      "-Ð¸ÑİÐ»": 2723,
      "Ð¸ÑĤÐµÑĤÑĤÐ¸Ð½": 2724,
      "ĠÐºÑĭÑĢÐ³ÑĭÐ·ÑģÑĤÐ°Ð½": 2725,
      "ĠÑĪÐ°Ð¹": 2726,
      "ĠÐ´Ð°Ð¹ÑĭÐ¼": 2727,
      "ĠÐ´ÐµÐ¿ÑĥÑĤÐ°ÑĤ": 2728,
      "Ð°ÑĢÐ´Ð°": 2729,
      "nik": 2730,
      "ĠÐ¼Ð¾Ð½": 2731,
      "ÐµÐ±Ð¸Ð·": 2732,
      "-ÑģÐµÐ½ÑĤ": 2733,
      "ÐµÐ²Ð´Ð¸Ð½": 2734,
      ".:": 2735,
      "ĠÐºÐµÑĤÐ¸Ð¿": 2736,
      "ĠÐ¿ÑĢÐ¾ÑĨÐµÑģÑģ": 2737,
      "Ò¯Ò¯Ñģ": 2738,
      "ĠÐĲÐ³Ð°": 2739,
      "Ð¸ÑĤÐµ": 2740,
      "ĠÐĲÐ½ÑĤÐºÐµÐ½Ð¸": 2741,
      "Ð»ÐµÑĤ": 2742,
      "ĠÐ°Ð¿Ð¿": 2743,
      "ĠÒ¯Ð¹ÑĢ": 2744,
      "ĠÐºÑĭÑģ": 2745,
      "Ð³ÑĭÐ»": 2746,
      "ĠÐºÐ°ÑĤÑĭÑĪÐºÐ°Ð½": 2747,
      "ĠÐ±Ð¸Ð·Ð½ÐµÑģ": 2748,
      "ÐĳÐ¸Ð·": 2749,
      "Ð°Ð»Ð¸Ð·": 2750,
      "ĠÐºÐ»Ð°Ñģ": 2751,
      "Ð´Ð°Ð»Ð³Ð°Ð½": 2752,
      "ÑĨÐ¸ÑıÑģÑĭÐ½ÑĭÐ½": 2753,
      "ĠÓ©ÐºÒ¯Ð»Ò¯": 2754,
      "ĠÐ¸Ð½Ð²ÐµÑģÑĤ": 2755,
      "ĠÑģÐµÐ±ÐµÐ¿": 2756,
      "Ð°ÑĤÑĭÐ¿": 2757,
      "ĠÐºÐµÒ£Ð¸ÑĢÐ¸": 2758,
      "ÑİÑĥ": 2759,
      "ĠÐ¶Ð¾Ð³Ð¾ÑĢ": 2760,
      "ÐµÐ´Ð°": 2761,
      "ĠÐºÐ°Ð½ÑĩÐ°": 2762,
      "ĠÐ¸ÑĪÑĤÐµÑĤ": 2763,
      "Ð°Ð±Ð°Ð¹": 2764,
      "ĠÐľÐ°Ð½Ð°Ñģ": 2765,
      ").Ċ": 2766,
      "03": 2767,
      "ĠÐ±ÐµÐ·": 2768,
      "putnik": 2769,
      "Ð¼Ð°Ð³Ñĭ": 2770,
      "Ó©ÑĪÑĤ": 2771,
      "ĠÑĥÑĥÐ»": 2772,
      "ĠÐºÑĭÐ¹ÑĭÐ½": 2773,
      "ĠÐ¿Ð°ÑĢ": 2774,
      "ĠÐĸÐ°Ðº": 2775,
      "ĠÐ°Ð´Ð¸ÑģÑĤ": 2776,
      "Ð¾Ð¾Ð½Ñĥ": 2777,
      "ĠÐĳÐ°ÑĪÐºÑĭ": 2778,
      "Ð°Ð±Ñĭ": 2779,
      "ĠÐ¼ÑĥÐ³Ð°Ð»Ð¸Ð¼": 2780,
      "Ð°ÐºÑģ": 2781,
      "ĠÐ±ÐµÐºÐ¸ÑĤÐ¸Ð»Ð³ÐµÐ½": 2782,
      "ĠÐºÐ¸Ð¹Ð¸Ð½ÐºÐ¸": 2783,
      "Ð³Ò¯Ð»": 2784,
      "ĠÐ°Ð¹ÑĭÑĢ": 2785,
      "ÑģÐ»Ð°Ð¼": 2786,
      "Ð½ÑĭÐ¼Ð¸": 2787,
      "Ð¸ÑĦ": 2788,
      "ĠÐ°ÐºÑĭ": 2789,
      "ĠÑĤÑĥÑĢÑĥÐ¿": 2790,
      "ĠÐľÐ¾ÑģÐºÐ²Ð°": 2791,
      "ĠÓ¨Ðº": 2792,
      "Ð°Ð½Ð³Ð°Ð½": 2793,
      "ĠÐ¶ÐµÑĤÐ¸ÑĪ": 2794,
      "ĠG": 2795,
      "ĠÐºÐ¾ÑĢÑĢÑĥÐ¿": 2796,
      "ĠÐ¼ÑĥÐ·ÑĭÐº": 2797,
      "ĠÑĢÐ°Ð¹Ð¾Ð½Ñĥ": 2798,
      "ÑĥÐ½Ð´ÑĥÐ³Ñĥ": 2799,
      "ÐµÐ»Ñı": 2800,
      "ĠÐŀÐ±": 2801,
      "ĠÑĪÐµÐºÑĤ": 2802,
      "ĠÐĸÑĥÐ¼": 2803,
      "ÐºÐµÑĢÑĩÐ¸Ð»": 2804,
      "ĠÐ¼ÑĭÐ¹Ð·Ð°Ð¼ÑģÑĭÐ·": 2805,
      "ĠÐ¼ÑįÑĢ": 2806,
      "Ð²Ð»Ñı": 2807,
      "ÐĲÐ¹": 2808,
      "ĠÑĤÒ¯ÑĢÐ´Ò¯Ò¯": 2809,
      "ĠÐ¸Ð½ÑģÑĤÐ¸ÑĤÑĥÑĤ": 2810,
      "ĠÑģÐ²Ð¾": 2811,
      "-Ð½Ð¾": 2812,
      "ĠÐºÐµÐ¿": 2813,
      "ĠÑĢÐ°Ð¹Ð¾Ð½ÑĥÐ½Ð°": 2814,
      "Ð¸ÑĪÑĤÒ¯Ò¯": 2815,
      "Ð»Ð°Ð²": 2816,
      "ĠÐŀÑĪÐ¾Ð½Ð´ÑĥÐºÑĤÐ°Ð½": 2817,
      "ĠÐ¼ÐµÐºÑĤÐµÐ¿ÑĤ": 2818,
      "ĠÐºÐ°ÑĢÐ°ÑĪÑĤ": 2819,
      "ÑĭÐ½ÑĩÐ°": 2820,
      "ÐµÐ´ÐµÐ½": 2821,
      "ĠÑģÐ°Ð¹": 2822,
      "Ð±ÑĥÐ»": 2823,
      "ĠÐ¾Ñĩ": 2824,
      "Ð»ÐµÐ½Ð¸Ñı": 2825,
      "ÑĭÐ³ÑĭÐ½Ð°": 2826,
      "ĠÐ¾Ð±Ð»ÑĥÑģÑĥÐ½Ð´Ð°": 2827,
      "ĠÐ¶ÐµÑĤÐµÐºÑĩÐ¸ÑģÐ¸": 2828,
      "ĠÐºÓ©Ð»Ó©Ð¼": 2829,
      "ĠÐ±Ð¾Ð»Ð¾": 2830,
      "ĠÐºÐ¾Ð»Ð´": 2831,
      "ĠÐ°Ð¹ÑĤÐºÐ°Ð½Ð´Ð°": 2832,
      "ĠÐ·Ð°Ð¼Ð°Ð½": 2833,
      "Ð¾Ð»ÑĥÐº": 2834,
      "ĠÐ¸ÑĪÐµÐ½Ð¸Ð¼": 2835,
      "Ó©Ð»Ó©ÑĢÒ¯": 2836,
      "ĠÐ¶Ð°ÑĢÑĭÐº": 2837,
      "ĠÐĲÐ¹ÑĤ": 2838,
      "Ð¶ÑĭÐ»": 2839,
      "ÑĨÐ¸ÑıÐ³Ð°": 2840,
      "ĠÐ±Ð¾ÑĪÐ¾ÑĤ": 2841,
      "ĠÐ±Ò¯ÑĤÐº": 2842,
      "ÑĭÐ¹ÑĭÐ»": 2843,
      "ÐľÐ°Ð½Ð°Ñģ": 2844,
      "ÑĢÑĭÐ¹": 2845,
      "ÐµÐºÑĤÐµÐ³Ð¸": 2846,
      "ĠÑģÐ¾Ð»": 2847,
      "ĠÐļÐµÒ£ÐµÑĪ": 2848,
      "-Ð°Ð²Ð³ÑĥÑģÑĤ": 2849,
      "Ó©Ó©Ð³Ó©": 2850,
      "om": 2851,
      "ĠÑģÑĤÑĢ": 2852,
      "ĠÑĤÐ¾Ð²": 2853,
      "ĠÐļÑĢ": 2854,
      "Ð°ÐºÑĤÑĭÐ½": 2855,
      "ĠÑįÑģÐºÐµ": 2856,
      "ĠÐ¶Ð°ÐºÑĪ": 2857,
      "ĠÐºÐ°Ð»ÑĤÑĭÑĢ": 2858,
      "Ð¸Ð²Ð°": 2859,
      "Ð»ÑĥÐºÑĤ": 2860,
      "ÐµÑı": 2861,
      "Ð¸ÑĩÐµÑģÐºÐ¸": 2862,
      "ĠÑģÑĤÑĥÐ´ÐµÐ½": 2863,
      "ÑģÓ©": 2864,
      "ĠÑĢÐµÑģÑĥÑĢÑģÑĤ": 2865,
      "ĠÑĥÐ±Ð°ÐºÑĭÑĤ": 2866,
      "ÐĸÐ°Ð»": 2867,
      "ĠÐ±Ð°Ð·": 2868,
      "ur": 2869,
      "ĠÐ¶ÐµÑĢÐ¸Ð½Ð´Ðµ": 2870,
      "Ð¾Ð¿ÑĢ": 2871,
      "ĠÐ¼Ò¯ÑĩÓ©ÑģÒ¯": 2872,
      "ĠÐ°ÐºÑĩ": 2873,
      "Ð°Ð»Ð°ÑĢÑĭÐ½": 2874,
      "Ð¸Ð¼Ð¾Ð²": 2875,
      "Ð²ÐµÑĢ": 2876,
      "ÑĭÐ¼Ð°Ð»": 2877,
      "ĠÐĳÐ°Ð¹": 2878,
      "ĠÑįÐ»ÐµÐ¼": 2879,
      "ÐĲÐ½": 2880,
      "ÐŃÐ»": 2881,
      "ĠÐºÓ©Ð¹Ð³Ó©Ð¹": 2882,
      "ĠÐľÐµÐº": 2883,
      "ĠÐ·Ð¾ÑĢ": 2884,
      "ĠÐ°Ð¹ÑĤÑĭÐ»Ð³Ð°Ð½": 2885,
      "ĠÐ°Ð²ÑĤÐ¾Ð¼": 2886,
      "ĠÓ©Ð·Ð³Ó©ÑĢÑĤ": 2887,
      "ÑĢÑĥ": 2888,
      "ĠÐ¡ÑĤ": 2889,
      "ĠÐ»Ð¸": 2890,
      "ĠÐ²ÑģÐµ": 2891,
      "ĠÐ¾ÑĢÑĤÐ¾ÑģÑĥÐ½Ð´Ð°": 2892,
      "ĠÑĤÐ°Ò£": 2893,
      "ÑħÐ¾Ð´": 2894,
      "ĠÐ¶Ó©Ð½Ó©ÑĤ": 2895,
      "ĠÑįÑĢÐµÐ¶": 2896,
      "ĠÑĭÑģ": 2897,
      "ĠÐ¾Ð´": 2898,
      "ĠÐ¡Ð¸Ð·": 2899,
      "ĠÐ³Ð¾ÑĢ": 2900,
      "Ġ+": 2901,
      "Ð°Ð»Ð°Ð¹": 2902,
      "ĠÑģÒ¯ÑĢÓ©ÑĤÑĤ": 2903,
      "ĠL": 2904,
      "Ð°ÑĪÐ°ÑĤ": 2905,
      "Ð»Ð°ÑĢÐ³Ð°": 2906,
      "ÐºÓ©Ð¹": 2907,
      "ÐµÑģÐµ": 2908,
      "ĠÐ°Ð³": 2909,
      "ĠÑĤÐµÐ°ÑĤÑĢ": 2910,
      "Ò¯Ò¯ÑģÒ¯": 2911,
      "ÑĭÐ²": 2912,
      "ÑģÐ¸Ñħ": 2913,
      "ĠÐºÐ¾ÑĪÑĥÐ¼Ñĩ": 2914,
      "35": 2915,
      "ÐºÑĭÐ»": 2916,
      "Ð°Ð½Ð¸": 2917,
      "ĠD": 2918,
      "ĠÑĤÐ°Ð»Ð°Ð¿ÐºÐµÑĢ": 2919,
      "ĠÐ¾ÑĢÑĤÐ¾ÑģÑĥÐ½Ð´Ð°Ð³Ñĭ": 2920,
      "ÑĭÐ³ÑĭÑĪ": 2921,
      "Ð»Ð°ÑĢÐ´Ð°": 2922,
      "ĠÐļÐ°Ð¹": 2923,
      "ÐºÐ°Ð½Ð°": 2924,
      "ÑĥÐ³ÑĥÐ½": 2925,
      "Ð°Ð»Ð°Ð¿": 2926,
      "ĠÐ±Ð°Ð½Ðº": 2927,
      "Ð¸Ð½Ð¸ÑģÑĤÑĢÐ°ÑĤÐ¸Ð²Ð´Ð¸Ðº": 2928,
      "Ð¾Ð³Ð´Ð°": 2929,
      "ĠÐ´Ð¾Ð±ÑĥÑĪ": 2930,
      "Ð°ÑĢÐ´": 2931,
      "ĠÐ¿ÑĢÐ¾ÑĤ": 2932,
      "ĠÐ£ÐºÑĢÐ°": 2933,
      "ĠÐĲÐ½Ñĭ": 2934,
      "ĠÑĢÐ°Ð´Ð¸": 2935,
      "ĠÐºÐ°ÑĢÐ¼Ð°Ð»": 2936,
      "ĠÑģÐ»Ñĥ": 2937,
      "ĠÑĤÐ¾Ð½": 2938,
      "ĠÐ°Ð¹Ð¼Ð°Ð³ÑĭÐ½Ð´Ð°": 2939,
      "Ð¾Ð¾ÑĢÐ¾Ð½": 2940,
      "ĠÐ¾Ð¾Ð·": 2941,
      "ĠÐ±Ð°ÑģÑĭÐ¼": 2942,
      "ĠÐ¶Ð°ÑĢÑĭÑıÐ»": 2943,
      "ÑįÑįÐº": 2944,
      "ĠÐ·Ñĭ": 2945,
      "ĠÐ°ÐºÑĭÐ»": 2946,
      "ĠÐºÓ©ÑĢÑģÓ©ÑĤÐºÒ¯Ñĩ": 2947,
      "ĠÑįÑįÐ»": 2948,
      "ĠÐ´Ò¯Ð¹Ð½Ó©Ð»Ò¯Ðº": 2949,
      "IP": 2950,
      "ÑĤÐ°Ð¹": 2951,
      "ĠÐ¾ÑĢÐ½Ð¾ÑĤ": 2952,
      "ÐµÑĤÑĤÐµÑĢ": 2953,
      "he": 2954,
      "ĠÑģÐ¾ÑĤÑĤ": 2955,
      "ÑģÐ¸Ð½": 2956,
      "ĠÐºÐ°ÑĢÑĭ": 2957,
      "Ð¾ÑĢÑĤÑĤ": 2958,
      "ĠÐ´Ð°Ð½": 2959,
      "ĠÐ±Ð¾Ð»ÑĮÑĪ": 2960,
      "ĠÑĦÐµÐ´ÐµÑĢ": 2961,
      "ĠÐºÐ°Ð½ÑĤÐ¸Ð¿": 2962,
      "Ð²Ð¸": 2963,
      "ĠÐºÓ©ÑĢÐºÓ©Ð¼": 2964,
      "ĠÐ¡Ð¾Ð²": 2965,
      "Ð°Ð»Ð´ÑĭÐ½": 2966,
      "ĠÓ©ÑĤÑĤÒ¯": 2967,
      "ĠÑĤÒ¯Ð·Ò¯Ò¯": 2968,
      "ĠÐ½Ð°Ð°ÑĢ": 2969,
      "ĠÐ±Ð¾Ñİ": 2970,
      "ĠÐ½Ð°ÑĢ": 2971,
      "ĠÐºÐ¾Ð½ÑĨ": 2972,
      "it": 2973,
      "ĠÐ¸ÑģÐº": 2974,
      "ĠÐºÐ¾Ð¾Ð¼ÑĩÑĥÐ»": 2975,
      "ĠÑģÑĥÐ¼": 2976,
      "ĠÐ±Ð¾Ð»Ð±Ð¾Ð¹ÑĤ": 2977,
      "ĠÐ°ÑĤÐ°Ð»": 2978,
      "Ð´ÑĭÑĢÑĥÑĥ": 2979,
      "ĠÐ°Ð¹ÑĭÐ¿ÑĤ": 2980,
      "ÐµÑī": 2981,
      "ĠÐ²Ð¾": 2982,
      "Ġ,": 2983,
      "ĠÓ©Ð»ÑĩÓ©Ð¼": 2984,
      "ĠÑĤÓ©Ð¼Ó©Ð½ÐºÒ¯": 2985,
      "ĠÐĳÐ¸ÑĢÐ¸Ð½ÑĩÐ¸": 2986,
      "ĠÐ¶Ð¾Ð¾Ð¿ÐºÐµÑĢÑĩÐ¸Ð»": 2987,
      "ĠÐ¼ÑĭÐ½Ð´Ð°Ð½": 2988,
      "Ð¸Ð³Ð¸Ð½Ðµ": 2989,
      "Ó©Ó©Ðº": 2990,
      "Ò¯Ð½Ð´Ò¯Ðº": 2991,
      "ĠÐ¼ÐµÐ½Ð¸Ð½": 2992,
      "ĠÐļÑĥÐ´Ð°Ð¹": 2993,
      "ĠÐ¶ÐµÑĤÐºÐ¸ÑĢ": 2994,
      "Ð¸Ð½Ð¸": 2995,
      "ÑĥÑĪÑĤÑĥ": 2996,
      "Ð¡Ð¡Ðł": 2997,
      "ĠW": 2998,
      "ĠÐ¸Ð½ÑĦ": 2999,
      "ÐµÑĤÐ¸Ð½Ð¸Ð½": 3000,
      "ÑĥÑĢÐ°": 3001,
      "ĠÐºÑĭÐ·Ð¼Ð°ÑĤÑĭÐ½ÑĭÐ½": 3002,
      "Ð¾Ð½Ð´Ð¾Ð½": 3003,
      "ÐµÐ½ÐµÑĢ": 3004,
      "Ð¸ÐºÐ°ÑģÑĭ": 3005,
      "Ð¸ÑģÐ¸Ð½Ð¸Ð½": 3006,
      "Ð¸ÐºÑĤÐµÑĢ": 3007,
      "Ð¾ÑģÑĤÐ¸": 3008,
      "ĠÐºÐ¸ÑĢÐ¸Ð¿": 3009,
      "ĠÑĤÐ°Ð¼Ð°Ðº": 3010,
      "ĠN": 3011,
      "Ð±ÐµÐ³ÐµÐ½": 3012,
      "ĠÐĸÑįÑįÐ½Ð±ÐµÐºÐ¾Ð²": 3013,
      "Ð¾Ð»Ñİ": 3014,
      "ĠÐ¡Ð¾": 3015,
      "90": 3016,
      "Ð¾ÐºÑĢÐ°ÑĤ": 3017,
      "ĠÐºÑĭÐ»ÑĭÐ¼": 3018,
      "ÑĤÐ¾Ð±Ñĭ": 3019,
      "ÐľÐ°Ð¼Ð»ÐµÐºÐµÑĤÑĤÐ¸Ðº": 3020,
      "ĠÑĤÑĥÑĢÑĥÐºÑĤÑĥÑĥ": 3021,
      "ĠÑįÐºÐµÐ½Ð´Ð¸Ð³Ð¸Ð½": 3022,
      "ĠÐ°Ò£": 3023,
      "ĠR": 3024,
      "ĠÐ¾Ð¾ÑĢÑĥÐ»": 3025,
      "ĠÐºÒ¯ÑĩÑĤÓ©ÑĢ": 3026,
      "Ð¾ÑĤÐ¾Ð²": 3027,
      "ĠÑĪÑĤÐ°ÑĤÑĭÐ½ÑĭÐ½": 3028,
      "ĠÐ°Ð³ÐµÐ½ÑĤÑĤÐ¸Ð³Ð¸": 3029,
      "ÑĨÐ¸ÐºÐ»": 3030,
      "Ð¸ÑģÑĮ": 3031,
      "ÐµÑģÐ¸Ð½Ðµ": 3032,
      "ÑĥÑĢÑĥ": 3033,
      "ÑĭÒ£ÑĭÐ·": 3034,
      "ac": 3035,
      "ĠÐ¶ÑįÑįÐ³": 3036,
      "ĠÐºÑĥÑĤ": 3037,
      "ÐµÐ¼Ð¸ÑĢ": 3038,
      ".Ðļ": 3039,
      "ĠÐºÒ¯Ð±": 3040,
      "Ð¸ÑĨÐµ": 3041,
      "ĠÐ¾Ð±ÑĢÐ°Ð·": 3042,
      "ĠÑĤÐ°Ð¶ÑĢÑĭÐ¹": 3043,
      "ĠÐ±ÑĥÑİÐ¼": 3044,
      "ĠÑĤÒ¯ÑĢÐº": 3045,
      "ÐĲÐ½ÑĭÐ½": 3046,
      "ĠÐºÐ¾ÑİÐ»Ð³Ð°Ð½": 3047,
      "ĠÐºÑĥÑĢÑĥÐ»ÑĥÑĪ": 3048,
      "ÐķÐļ": 3049,
      "ĠÐ¶Ð°Ð·ÑĭÐ¿": 3050,
      "Ð£Ð½ÑĥÐ½": 3051,
      "ÐµÐ»ÐµÑĢÐ´Ð¸": 3052,
      "ĠÐ±Ð»": 3053,
      "Ð°ÑĤÑĭÐ½": 3054,
      "Ð¿Ð¾Ð½": 3055,
      "ic": 3056,
      "ÑĤÐ¾Ð½": 3057,
      "ĠÐ¶ÑĭÐ»Ð³Ð°": 3058,
      "ÐµÐ³ÐµÑĢ": 3059,
      "ht": 3060,
      "ĠÐ¿ÑĢÐ¾ÐºÑĥÑĢÐ°ÑĤÑĥÑĢ": 3061,
      "ĠÑģÑĥÐ½ÑĥÑĪ": 3062,
      "ĠÓ¨Ð·Ð±ÐµÐºÑģÑĤÐ°Ð½": 3063,
      "ĠÐ°Ð»Ñĭ": 3064,
      "ĠÐ±Ð°ÑĪÑĭÐ½Ð´Ð°": 3065,
      "ÑıÑĤÑĮ": 3066,
      "ÑĥÐºÐ°Ð½Ð°": 3067,
      "ĠÐ¶Ð°ÑĤÑĭÐ¿": 3068,
      "ĠÐ°Ð±Ð°": 3069,
      "Ð°Ð½Ð¾Ð²": 3070,
      "ĠÑģÐ°Ð»Ð°Ð¼": 3071,
      "ĠÐºÐ¾Ð»Ð´Ð¾Ð½ÑĥÑĥ": 3072,
      "-ÑĦÐµÐ²ÑĢ": 3073,
      "ĠÐ°ÑĢÐ½": 3074,
      "ĠÐ°ÑĢÑħ": 3075,
      "ÑĤÐµÑĢÐ½ÐµÑĤ": 3076,
      "ÑĥÑī": 3077,
      "ĠÑĩÐ°Ð±": 3078,
      "ĠÐ´ÐµÐ¹": 3079,
      "ĠÐºÐµÐ»ÐµÑĩ": 3080,
      "ĠÓ¨Ð¼Ò¯ÑĢ": 3081,
      "ĠÐ´ÐµÐº": 3082,
      "ĠÐļÐ¾Ð½ÑģÑĤÐ¸ÑĤÑĥ": 3083,
      "Ð´ÐµÑĢÐ¸Ð½Ð¸Ð½": 3084,
      "ÐºÑĢ": 3085,
      "ÑĢÐ°Ñħ": 3086,
      "Ð¸ÑĩÐ¸Ð½": 3087,
      "ĠÐĲÐ±Ð´": 3088,
      "Ð¾Ð»ÑĮÐ·Ð¾Ð²": 3089,
      "ÑģÐ°Ð¼": 3090,
      "Ð¼Ð°ÑĤÐ¾Ð²": 3091,
      "ĠÒ¯Ð½": 3092,
      "ĠÑĥÐ·ÑĥÐ½Ð´ÑĥÐ³Ñĥ": 3093,
      "ĠÐ¶Ð°ÑĢÐ°ÑĪÐ°": 3094,
      "oo": 3095,
      "ĠÐĲÐ»Ð¼Ð°Ð·Ð±ÐµÐº": 3096,
      "Ð¾Ð¿ÐµÐ´": 3097,
      "ĠÑĢÐµÐ·": 3098,
      "ĠÑĢÐµÑģÐ¿ÑĥÐ±Ð»": 3099,
      "-ÑįÐ½": 3100,
      "ĠÑĥÑĢÑĥÐº": 3101,
      "ĠÐ±ÑĥÑĤ": 3102,
      "ĠÑĤÐ¸ÑĢ": 3103,
      "ĠÐ¼ÐµÐ´Ð¸ÑĨÐ¸Ð½Ð°Ð»ÑĭÐº": 3104,
      "Ð°Ð¹Ñĭ": 3105,
      "ÐĲÐ¢": 3106,
      "Ð°ÑĢÑĭÐ½Ð°": 3107,
      "ĠÐ¼ÐµÑĤÑĢ": 3108,
      "Ð¸Ð»Ð¸Ð¿": 3109,
      "ÑĢÐ°Ð¶": 3110,
      "191": 3111,
      "Ð´Ð¸Ñı": 3112,
      "Ð¸ÑĪÐµÑĤ": 3113,
      "ÑĥÐ½Ð¸ÑĨÐ¸Ð¿Ð°Ð»Ð¸ÑĤÐµÑĤ": 3114,
      "Ó©Ð½Ò¯": 3115,
      "IPS": 3116,
      "ÑİÐ¼": 3117,
      "ĠÑĥÑĤ": 3118,
      "ÐĲÐ·Ð°ÑĤÑĤÑĭÐº": 3119,
      "ĠÐ¼Ð°ÑģÐµÐ»Ðµ": 3120,
      "ĠFIPS": 3121,
      "ĠÐ½Ð¸": 3122,
      "Ð°Ð³ÑĭÐ¼": 3123,
      "Ð°ÑĤÑĤÐ°ÑĢÐ´Ñĭ": 3124,
      "ĠÐ£ÑĩÑĥÑĢÐ´Ð°": 3125,
      "Ð°ÐºÑĤÐ°Ð½": 3126,
      "ĠÑģÓ©Ð·Ð´Ó©ÑĢ": 3127,
      "ĠÐ¿ÑĢÐ¾ÑĦÐµÑģÑģ": 3128,
      "ĠÐĺÑĢ": 3129,
      "ĠÐ¶Ð°ÑģÐ°Ð»Ð³Ð°Ð½": 3130,
      "ĠÑĤÒ¯ÑĢÒ¯": 3131,
      "ĠÓ©Ð»Ò¯Ð¼": 3132,
      "ĠÐºÑĭÐ»Ð¼ÑĭÑĪÑĤ": 3133,
      "Ð°ÑĪÑĥÑĥ": 3134,
      "Ð¾ÑĢÐ°": 3135,
      "ĠÐ¶ÑĭÐ»Ð´ÑĭÐº": 3136,
      "Ð°Ð»Ð³Ð°": 3137,
      "ÐµÑģÐ¸Ð½Ð¸Ð½": 3138,
      "ĠÑģÐ°Ð»Ð³Ð°Ð½": 3139,
      "ĠÐłÐ¤": 3140,
      "ĠÐ°ÐºÐ°Ð´ÐµÐ¼": 3141,
      "ĠÐ¶Ð°Ð·ÑĭÐ»Ð³Ð°Ð½": 3142,
      "-Ðĸ": 3143,
      "ĠÐ°Ð»Ð°ÑĢÐ³Ð°": 3144,
      "ĠÐľÐ¸ÑģÐ°Ð»Ñĭ": 3145,
      "Ð¾Ð´Ñĥ": 3146,
      "ĠÐļÑĭÑĢÐ³ÑĭÐ·ÑģÑĤÐ°Ð½Ð³Ð°": 3147,
      "Ð´Ð°ÑĤ": 3148,
      "ww": 3149,
      "ÐµÐ»ÐµÐ½": 3150,
      "ĠÐĲÑģ": 3151,
      "ĠÑĤÐ°ÑĢÐ±Ð¸Ñı": 3152,
      "ĠÐ´ÐµÐ¼Ð¸Ð»": 3153,
      "ĠÐ¡Ð¾Ð¾ÑĢÐ¾Ð½": 3154,
      "ÑĩÑĭÐ»ÑĭÐºÑĤ": 3155,
      "ĠÑĤÒ¯Ð·Ð³Ó©Ð½": 3156,
      "ĠÓ©ÑģÒ¯Ð¼": 3157,
      "ĠÐ°Ð¹Ð´Ð¾Ð¾": 3158,
      "ĠÐ¼Ð¸Ð»Ð´ÐµÑĤ": 3159,
      "ĠÐºÐ°ÑĢÐ¼Ð°Ð»Ð³Ð°Ð½": 3160,
      "ĠÐ±Ð°Ð¹Ð»Ð°Ð½ÑĭÑĪ": 3161,
      "ĠÐ¶Ð°ÑģÐ°Ð³Ð°Ð½": 3162,
      "ĠÐ°ÐºÑĭÑĢ": 3163,
      "ĠÐºÐ¾Ð»Ð´Ð¾Ð½ÑĥÐ»Ð°ÑĤ": 3164,
      "is": 3165,
      "ĠÐ±Ð°ÑĪÑĤÐ°Ð»Ð³Ð°Ð½": 3166,
      "ĠÑģÐ°Ð»ÑĭÑĪÑĤÑĭÑĢ": 3167,
      "ĠÐ°Ð´Ð°Ð¼Ð´Ð°ÑĢÐ´ÑĭÐ½": 3168,
      "ĠÐ¼Ð¾Ð»": 3169,
      "ĠÐĳÐµÐº": 3170,
      "Ð¾ÑģÑĥÐ½": 3171,
      "ÑıÐ»": 3172,
      "ÑĭÑĤÑĮ": 3173,
      "ĠÑĦÐ¸Ð»": 3174,
      "ĠÐºÐ¾ÑİÐ¿": 3175,
      "ĠÐ¿ÑĢÐµÐ¼ÑĮÐµÑĢ": 3176,
      "ĠÐľÑĥÑĢ": 3177,
      ".)": 3178,
      "as": 3179,
      "Ð°ÐºÐ°Ð½": 3180,
      "ĠÐºÐ°Ð±Ð°ÑĢÐ»": 3181,
      "ĠÑģÑĭÑĢÑĤÐº": 3182,
      "ĠÑģÑĤÐ°": 3183,
      "ÑģÐºÐ¾Ð¹": 3184,
      "ĠÑĦÑĥÐ½": 3185,
      "Ð¾ÑĢÑĥÐ½": 3186,
      "ĠÐ²Ð½": 3187,
      "ĠÐºÐ°Ð»Ð°": 3188,
      "ÑĭÐ»Ð¼": 3189,
      "Ð¸ÐºÐ¸": 3190,
      "ĠÐ±Ð°ÑĪÑĤÐ°Ð´Ñĭ": 3191,
      "ĠÐ·ÑĭÑıÐ½": 3192,
      "ÑģÐµÐ½": 3193,
      "Ð¾Ð»Ð½": 3194,
      "ĠÓ©Ð»ÑĤÒ¯ÑĢ": 3195,
      "Ó©Ð³Ò¯": 3196,
      "ĠÑĢÐ¾Ð»": 3197,
      "et": 3198,
      "Ò¯Ð½ÑĩÓ©": 3199,
      "ÑīÐµ": 3200,
      "ĠÐºÐ¸Ð¹Ð¸Ð¼": 3201,
      "Ó©Ð³Ó©": 3202,
      "Ð¾ÑĦ": 3203,
      "ĠÐºÐ²": 3204,
      "ÐºÑĥÐ½ÑĥÑĩ": 3205,
      "ĠÐ²Ð°ÑĢÐ¸": 3206,
      "ÐµÐ»Ð¸Ð¿": 3207,
      "Ð¸ÑĢÐ°": 3208,
      "ĠÓ©Ð»ÐºÓ©Ð´Ó©": 3209,
      "ĠÑĥÐ±Ð°ÐºÑĤÑĭÐ»ÑĥÑĥ": 3210,
      "Ð±ÑĥÐ·": 3211,
      "ĠÑģÑĭÑĢÑĤÐºÐ°ÑĢÑĭ": 3212,
      "ĠÐ¼Ð°Ð°Ð»ÑĭÐ¼Ð°ÑĤÑĤÐ°ÑĢ": 3213,
      "Ð±Ð°Ð½": 3214,
      "ĠÐ±Ð¸ÑĢÐ³ÐµÐ»": 3215,
      "ÑĦÐµÑĢÐµÐ½": 3216,
      "Ð¾ÑģÐ¿": 3217,
      "ĠÑģÐ¾Ð±": 3218,
      "ĠÑĤÐµÑĢÐµÒ£": 3219,
      "ĠH": 3220,
      "Ó¨Ð·": 3221,
      "ĠÐĳÐ°ÑĪÐº": 3222,
      "ĠÑĤÐ¾Ð»ÑĮÐºÐ¾": 3223,
      "ĠÐĲÐ²": 3224,
      "ĠÐ¾Ð¾ÑĢÑĥÐºÐ°Ð½Ð°": 3225,
      "ÑĭÑģÑĭ": 3226,
      "ĠÐ¢Ð°Ð»Ð°Ñģ": 3227,
      "ĠÑĤÑĭÑĪÐºÑĭ": 3228,
      "ÑĪÐºÐ°Ð½": 3229,
      "-Ð¿": 3230,
      "Ð°Ð»Ð°Ð´Ñĭ": 3231,
      "Ð´Ð°ÑĢÐ´Ð°": 3232,
      "Ð°Ò£ÑĭÐ·": 3233,
      "500": 3234,
      "ĠÐľÐ°Ð¼": 3235,
      "ĠÐ°Ð´Ð¼Ð¸Ð½Ð¸ÑģÑĤÑĢÐ°ÑĤÐ¸Ð²Ð´Ð¸Ðº": 3236,
      "ĠÑĤÐ°Ð·Ð°": 3237,
      "ĠÐºÐ°ÑĢÐ°Ð½Ð´Ñĭ": 3238,
      "Ð¸Ð·Ð°": 3239,
      "Ð¸Ð´ÑĢ": 3240,
      "ĠÐ±Ð°ÑıÐ½": 3241,
      "Ð°ÐºÐ¾Ð²": 3242,
      "ĠÐ°ÑĤÑĭ": 3243,
      "ĠÐ°ÑģÑĤ": 3244,
      "ÑĦÐ¾ÑĢÐ¼Ð°": 3245,
      "Ð°Ð»ÑĭÐ½Ð´Ð°": 3246,
      "el": 3247,
      "Ð´Ð¾Ð¹": 3248,
      "ÑĥÑģÑĥÐ»": 3249,
      "ĠÑĦÐ¸Ð·": 3250,
      "ĠÐ¸Ñħ": 3251,
      "Ð¿ÐµÑĢÐ°ÑĤÑĥÑĢ": 3252,
      "ĠÐ±ÐµÑĢÐµÐ½": 3253,
      "ĠÐ±ÐµÐºÐµÐ¼": 3254,
      "ÑĨÐ¸ÐºÐ»Ð¾Ð¿ÐµÐ´": 3255,
      "ĠÑĤÐ°Ð»Ð°": 3256,
      "Ð½ÐµÐ¹": 3257,
      "Ð¾ÑĤÐ¾": 3258,
      "ĠÐĲÑĤÐ°": 3259,
      "ĠÑĩÐ°ÑģÑĤ": 3260,
      "ĠÐºÐ¾ÑĪÑĥÐ¼ÑĩÐ°": 3261,
      "ĠÑĤÐ°ÑĢÑĤÐ¸Ð¿": 3262,
      "ĠÐ°Ð½ÑĤÐºÐµÐ½Ð¸": 3263,
      "ĠÐ°ÐºÑĭÐ½": 3264,
      "Ð´Ð¾Ð¾Ð³Ð¾": 3265,
      "ĠÐºÐ°Ñģ": 3266,
      "ĠÐ¶Ð°Ð¼Ð°Ð½": 3267,
      "Ùİ": 3268,
      "ĠÑĤÐ°Ð·": 3269,
      "ĠÐĺÑģ": 3270,
      "ÐµÐ½ÑĤÐ¸Ð¿": 3271,
      "ĠÓ©ÑĤÐºÓ©ÑĢÒ¯Ð¿": 3272,
      "ĠÐºÐ¾ÑĢÐ¾Ð½Ð°Ð²Ð¸ÑĢÑĥÑģ": 3273,
      "ĠÐ¶ÐµÑĢÐ´ÐµÐ½": 3274,
      "ĠÐºÐ°Ð¹ÑĢÐ°Ð´Ð°Ð½": 3275,
      "ĠÑĤÑĭÑİÑĥ": 3276,
      "Ð»Ð¾Ð²": 3277,
      "ĠÐ´Ð¸ÑĢÐµÐºÑĤÐ¾ÑĢÑĥ": 3278,
      "ed": 3279,
      "ÑĭÐ²Ð°": 3280,
      "ĠÐ±Ð°ÑģÑģÐµÐ¹Ð½Ð¸Ð½Ð¸Ð½": 3281,
      "ÐºÐµÑĢÐ¸": 3282,
      "ĠÐºÑĥÑĢÐ°Ð»": 3283,
      "ÑĭÑĩ": 3284,
      "ĠÐºÑĭÑĤÐ°Ð¹": 3285,
      "ĠÐ¶ÑĥÑĢÐ½Ð°Ð»Ð¸ÑģÑĤ": 3286,
      "ĠÑĤÑĥÑĢÐ³Ð°Ð½ÑĭÐ½": 3287,
      "Ð°ÑģÐ¿": 3288,
      "Ð»Ð°ÑĢÑĭÐ½": 3289,
      "ĠÑĪÐ°Ð°ÑĢÑĭÐ½Ð´Ð°Ð³Ñĭ": 3290,
      "ĠÑĥÐ»Ð°Ð½ÑĤ": 3291,
      "Ð¸ÑģÐ¸Ð½": 3292,
      "ÐĺÐ½": 3293,
      "Ð¾ÑĢÐ¸Ñı": 3294,
      "ĠÐ±ÐµÑĢÐµ": 3295,
      "ĠÐ°ÑĪÑĥÑĥÐ½": 3296,
      "ĠÐ´ÐµÐ¿ÑĥÑĤÐ°ÑĤÑĭ": 3297,
      "ĠÐ¼Ð°ÑĤÐµÑĢÐ¸Ð°Ð»": 3298,
      "ĠÐºÐ¾Ð¼Ð°Ð½Ð´Ð°": 3299,
      "ĠÐ±ÑĥÐ´ÐµÑĤ": 3300,
      "01": 3301,
      "ĠÐ¿Ð¾ÑĢ": 3302,
      "ĠÐ¼Ð¸Ð³": 3303,
      "ĠÐ°Ð¹ÑĭÐ»ÑĭÐ½Ð´Ð°": 3304,
      "ĠÐºÐ°ÑĢÐ°ÑĪÑĤÑĥÑĥ": 3305,
      "ÐµÑĤÐ°": 3306,
      "ĠÑĤÑĥÑĪ": 3307,
      "ĠÐ¿Ð»": 3308,
      "Ð¶Ð°": 3309,
      "ĠÑĩÐµÐ¼Ð¿Ð¸": 3310,
      "ĠÐ¼Ð¾Ð´": 3311,
      "ĠÐĳÐ°ÑĪÐºÑĭÑĢÑĤ": 3312,
      "Ð±Ð°ÑĢ": 3313,
      "Ð´Ð¾Ð³Ñĥ": 3314,
      "Ð¼Ñĭ": 3315,
      "ĠÐºÐ¾ÑĢÐºÑĥÐ½ÑĥÑĩ": 3316,
      "ĠÐ¼Ð°Ð´Ð°Ð½Ð¸ÑıÑĤ": 3317,
      "Ð¸Ð»Ð¸Ð¼": 3318,
      "ĠÐĸÐµÑĢ": 3319,
      "ĠÐ´Ð°ÑĢÑĭÑıÑģÑĭÐ½ÑĭÐ½": 3320,
      "ĠÐºÓ©Ðº": 3321,
      "ĠÐ½Ð¾Ð²": 3322,
      "ĠÐ¦": 3323,
      "Ð°ÑĤÑĤÐ°ÑĢÐ´ÑĭÐ½": 3324,
      "ĠÑĥÑĩÐ°ÑģÑĤ": 3325,
      "ĠSputnik": 3326,
      "ĠÐĳÒ¯Ð³Ò¯Ð½": 3327,
      "Ð¾Ð³ÑĢÐ°ÑĦÐ¸ÑıÐ»ÑĭÐº": 3328,
      "ĠÐ¶Ð¾Ð¾": 3329,
      "ĠÐ´Ð°Ð»Ð¸Ð»": 3330,
      "ĠÐ£ÑĪÑĥÐ»": 3331,
      "ĠÐ±ÑĥÐ¹ÑĢ": 3332,
      "Ð¼Ð°Ð½Ñĭ": 3333,
      "ÑĩÐ°Ð»ÑĭÐº": 3334,
      "ĠÓ©Ñĩ": 3335,
      "Ð´Ó©ÑĢÒ¯Ð½Ò¯Ð½": 3336,
      "ĠÑĩÑĭÐ³Ð°ÑĤ": 3337,
      "ĠÐļÐ°Ð¼": 3338,
      "ÐºÑĥÑĢ": 3339,
      "Ð´Ð¾ÑĪ": 3340,
      "ÑĪÐµÑĤ": 3341,
      "ĠÐ¼ÐµÐºÐµÐ½": 3342,
      "ĠÐļÐ¸Ð¹Ð¸Ð½": 3343,
      "ĠÑģÑĤÐ°ÑĤ": 3344,
      "Ð±Ð°ÐµÐ²Ð°": 3345,
      "ĠÐ¼Ð°ÑģÑģ": 3346,
      "ĠÐ±Ð°Ð°ÑĤÑĭÑĢ": 3347,
      "ĠÐºÑĭÐ·Ñĭ": 3348,
      "ÑģÑĥÐ»": 3349,
      "Ð¸ÑģÐ¸Ð·": 3350,
      "ĠÑĭÑĢÐ°": 3351,
      "ĠÑĤÐµÐ¼Ð¸ÑĢ": 3352,
      "ÑĥÑģÑĥÐ»Ð¼Ð°Ð½": 3353,
      "ÑĢÐ°ÑĨÐ¸Ñı": 3354,
      "ÐĺÐĳ": 3355,
      "ĠÑĤÒ¯ÑĪÒ¯Ð¿": 3356,
      "Ð¼Ð°Ð»Ð°ÑĢÑĭ": 3357,
      "ĠÐ½ÑĥÐ¶": 3358,
      "Ð°ÑĢÑĭÐ½Ð´Ð°": 3359,
      "ÑħÐ¾Ð´Ð¸": 3360,
      "Ð´ÐµÑĢÐ³Ðµ": 3361,
      "ĠÑĩÑĭÐ³ÑĥÑĥ": 3362,
      "ĠÐºÐ°Ð¿ÑĤ": 3363,
      "ĠÐ»Ð¸ÑĨ": 3364,
      "ĠÐļÐ¾Ð»": 3365,
      "Ð±ÐµÑĤÑĤÐµ": 3366,
      "ĠÐĳÐ¸Ð·Ð´Ð¸Ð½": 3367,
      "Ð¸ÑĤÐ¸Ð½Ð³": 3368,
      "ĠÑĤÐµÐ¼Ð¿ÐµÑĢÐ°ÑĤÑĥÑĢ": 3369,
      "Ð½Ð°Ðº": 3370,
      "Ġt": 3371,
      "ĠÑĤÑĥÑĢÐ¼ÑĥÑĪ": 3372,
      "ĠE": 3373,
      "ĠÐ¾Ð¿ÐµÑĢÐ°ÑĨÐ¸Ñı": 3374,
      "ĠÑĩÐµÐ½": 3375,
      "Ð³Ð°Ð»": 3376,
      "ĠÑĢÐµÐº": 3377,
      "ĠÐŁÑĢÐµÐ·Ð¸Ð´ÐµÐ½ÑĤ": 3378,
      "ĠÐ¿ÑģÐ¸Ñħ": 3379,
      "ÑĪÐ°": 3380,
      "ĠÐłÐ¾ÑģÑģÐ¸Ñı": 3381,
      "ÐĸÐ¾Ð³Ð¾ÑĢÐºÑĥ": 3382,
      ".Ðľ": 3383,
      "Ð»Ð¾Ð¼": 3384,
      "Ó©Ð»Ð³Ó©Ð½": 3385,
      "ĠÐ¿ÑĢÐµÐ·Ð¸Ð´ÐµÐ½ÑĤÑĤÐ¸Ðº": 3386,
      "ĠÐ¶Ð°Ð³Ð´Ð°Ð¹": 3387,
      "Ð¯": 3388,
      "ĠÑĤÐµÑĢÑĢÐ¸ÑĤ": 3389,
      "ĠÐ°Ð³ÑĭÐ¿": 3390,
      "ĠÐ¡Ð¾Ð¾ÑĢÐ¾Ð½Ð±Ð°Ð¹": 3391,
      "ÑĩÐºÐ¸": 3392,
      "ĠÐ±Ð°Ð°Ð»": 3393,
      "ÑģÑĤÑĮ": 3394,
      "Ð±Ñĥ": 3395,
      "ĠÐ´Ð¾Ð¼": 3396,
      "ÐµÐ½Ñģ": 3397,
      "Ð¸Ð²Ð´Ò¯Ò¯": 3398,
      "ĠÐ¼Ð°Ð³Ð°": 3399,
      "Ð½Ð°Ñĩ": 3400,
      "ol": 3401,
      "ĠÑĥÑĢÑĥÐºÑģ": 3402,
      "ĠÓ©Ð·Ò¯Ð½Ó©": 3403,
      "Ð¿Ð°": 3404,
      "Ð¾ÑĤÑĢ": 3405,
      "Ġ.": 3406,
      "Ð³ÑĭÐ½": 3407,
      "ĠÐºÐ¾Ð´ÐµÐº": 3408,
      "ĠÐ·Ð°Ð¿": 3409,
      "Ó©ÑĢÒ¯Ð½": 3410,
      "ĠÐ¶Ð°Ð»Ð³ÑĭÐ·": 3411,
      "ĠÐ¾ÑĢÐ´ÑĥÐ½Ð°": 3412,
      "Ð¿Ð°Ð¹ÑĤ": 3413,
      "ĠÐ¶Ð°ÑĤÐ°Ð±ÑĭÐ·": 3414,
      "ĠÐºÐ¸ÑĢÐµÑĪ": 3415,
      "ÑģÑĤÐ°": 3416,
      "ĠÐ±Ð¸Ð·Ð³Ðµ": 3417,
      "ÐµÑĪÐºÐµÐ½": 3418,
      "Â».": 3419,
      "Ð»Ð°Ð¿": 3420,
      "ĠÐŃÐ¼Ð¸": 3421,
      "ÑĩÐ¾": 3422,
      "ĠÐ¡ÑĥÐ»": 3423,
      "ĠÑĤÐ°Ð³": 3424,
      "ĠÑĤÐ°Ð»Ð°Ð¿ÑĤ": 3425,
      "ĠÑģÑĭÑĢÑĤ": 3426,
      "Ð¼Ð¾Ðº": 3427,
      "Ð¸ÑĤÐ°ÑĢÐ´ÑĭÐº": 3428,
      "Ð±Ð¸ÑĢ": 3429,
      "ĠÐ¿Ð¾Ð¿": 3430,
      "Ð¾Ð¾Ð¼": 3431,
      "Ò¯ÑĢÒ¯Ð¿": 3432,
      "Ð¼ÐµÑĤ": 3433,
      "Ð°Ð½Ð°ÑĤ": 3434,
      "ÑıÐ´": 3435,
      "ÑįÐ½": 3436,
      "ÐµÐ·Ð¸ÑĤ": 3437,
      "05": 3438,
      "ĠÐ±Ò¯Ð³Ò¯Ð½ÐºÒ¯": 3439,
      "ĠÑĤÐ°ÐºÐ¶Ðµ": 3440,
      "ĠÐ¼Ð°Ð¼Ð¸Ð»Ðµ": 3441,
      "ÑĩÐµÑĢ": 3442,
      "ĠÑĤÑĢÐ°Ð½ÑģÐ¿": 3443,
      "300": 3444,
      ".Ð±": 3445,
      "ĠÐļÑĭÐ·ÑĭÐ»": 3446,
      "Ð¸Ð²Ð´Ð¸Ðº": 3447,
      "Ð°ÐºÑĤÑĥÑĥ": 3448,
      "Ð³Ð°Ð¹": 3449,
      "ĠÐ½Ð°Ñģ": 3450,
      "ĠÐŀÐ¾": 3451,
      "Ð¾Ð¾Ð´Ð¾": 3452,
      "ÐĻ": 3453,
      "Ð¸ÐºÑĤÐµ": 3454,
      "ĠÐ²ÑĭÐ¿": 3455,
      "ĠÐĵÑĢ": 3456,
      "ĠÐºÑĭÐ¼": 3457,
      "ĠÐ°Ð¹ÑĢÑĭÐ³Ñĭ": 3458,
      "ĠÐ¾Ð±Ð»ÑĥÑģÑĤÑĥÐº": 3459,
      "Ð¾Ð±ÑħÐ¾Ð´Ð¸": 3460,
      "ÐĳÐĺ": 3461,
      "esti": 3462,
      "ÑĥÑĥÐ´Ð°Ð½": 3463,
      "ÑĤÐºÐµ": 3464,
      "__": 3465,
      "Ð¶Ñĭ": 3466,
      "ĠÐ¿Ð¾ÑģÑĤ": 3467,
      "ÐºÐ¾Ð¼": 3468,
      "Ð»Ð¸Ñĩ": 3469,
      "ÑģÑĤÐ°Ð½Ð¾Ð²": 3470,
      "ĠÐ¾Ð±Ð»Ð°ÑģÑĤ": 3471,
      "ĠÓ©ÑĢÓ©Ó©Ð½": 3472,
      "ĠÐ¾ÐºÑĥÑĤ": 3473,
      "ÑĩÑĥÐ½ÑĥÐ½": 3474,
      "Ð»Ð°Ð¹Ð½": 3475,
      "ĠÐ¡Ð¡Ð¡Ðł": 3476,
      "ĠÐºÐ¾Ð¼Ð¿Ð»ÐµÐº": 3477,
      "il": 3478,
      "ĠÑĩÐµÐ»": 3479,
      "ĠÐ±Ð¾Ð»Ð³Ð¾Ð½Ñĥ": 3480,
      "ĠÐ¼Ò¯Ð»": 3481,
      "ĠÐ±ÐµÐ¹ÑĤ": 3482,
      "ĠÐľÐ°ÑĢ": 3483,
      "Ð¿Ó©Ð¹": 3484,
      "ĠÐ±ÐµÑĢÐ¸Ð»ÐµÑĤ": 3485,
      "Ð¸ÐºÐºÐµ": 3486,
      "ĠÐ¶ÑĥÐ¼ÑĪ": 3487,
      "ĠÑĤÐ°ÑĢÑĭÑħÑĭÐ¹": 3488,
      "ÐºÐ¾Ð¹": 3489,
      "ĠÑįÐ³ÐµÑĢ": 3490,
      "ĠÐµÑģÐ»Ð¸": 3491,
      "ĠÐºÐ°ÑĩÐ°Ð½": 3492,
      "ĠÐ¿ÑĢÐµÐ·Ð¸Ð´ÐµÐ½ÑĤÑĤÐ¸Ð½": 3493,
      "Ð´Ð°ÑĪÑĤ": 3494,
      "ÑģÑĥÐ½Ð°": 3495,
      "ĠÐŀÑģ": 3496,
      "ĠÐ´Ð¾Ð»Ð¶": 3497,
      "ÑįÐ»": 3498,
      "Ð´ÑĥÐ³ÑĥÐ½": 3499,
      "ĠÐ´Ð°ÑĢÑĭÐ³ÐµÑĢ": 3500,
      "ÑĥÐµÑĤ": 3501,
      "ĠÑĩÑĭÐ³Ð°ÑĢÐ³Ð°Ð½": 3502,
      "ĠÐ¶ÐµÑĤÐºÐµÐ½": 3503,
      "ÑĤÐ°Ð»": 3504,
      "ÐĳÒ¯Ð³Ò¯Ð½": 3505,
      "ĠÐ²ÑĢÐµÐ¼Ñı": 3506,
      "ĠÑģÐ°ÑĢ": 3507,
      "ĠÐ¾ÐºÑĥÐ¿": 3508,
      "ĠÐ±Ð°Ð°Ð»ÑĥÑĥ": 3509,
      "33": 3510,
      "ÑĭÑĢÑĭÐ¿": 3511,
      "ĠÑģÐ°Ð»ÑĭÐ¼": 3512,
      "ÐºÑĭÑĩ": 3513,
      "ĠÐºÐ¾ÑĤÐ¾ÑĢÑĭÐµ": 3514,
      "ĠÐ¿Ð¾Ñį": 3515,
      "Ò¯Ð¹ÑĪ": 3516,
      "ĠÐ½ÐµÐ³Ð¸Ð·Ð¸Ð½ÐµÐ½": 3517,
      "ÑĩÑĭÐ»ÑĭÐ³Ñĭ": 3518,
      "ÑĩÑĥÐ»Ð°ÑĢÐ´ÑĭÐ½": 3519,
      "ĠÐ±Ð°ÑĪÐºÐ°Ð»Ð°ÑĢ": 3520,
      "Ò¯Ò¯Ð»Ó©ÑĢÐ´Ò¯": 3521,
      "ÑĨÐµÐ½": 3522,
      "Ð¼Ð°Ð½ÑĭÐ½": 3523,
      "ĠÐ¼Ð°Ð¼Ð»ÐµÐºÐµÑĤÑĤÐ¸Ð½": 3524,
      "ĠÐ·Ð°Ð¼": 3525,
      "ĠÑĩÑĤÐ¾Ð±Ñĭ": 3526,
      "Ð¸Ò£Ð¸Ð·": 3527,
      "ĠÑĤÐµÑĢÑĢÐ¸ÑĤÐ¾ÑĢ": 3528,
      "Ð±ÑĥÑĢÐ³": 3529,
      "ÑĥÐºÐºÐ°": 3530,
      "ĠÐļÓ©Ð¿": 3531,
      "Ó©Ó©Ð»Ó©ÑĢ": 3532,
      "ÑĤÑĤÐ°": 3533,
      "ĠÐ£ÐļÐľÐļÐ½ÑĭÐ½": 3534,
      "ĠÐºÐ°ÑĢÐ°Ð¹ÑĤ": 3535,
      "ÑĩÓ©Ð»": 3536,
      "ĠÐĲÐ½Ð°Ð½": 3537,
      ":ĊĊ": 3538,
      "ĠÑĤÐ°ÑĢÑĤÐºÐ°Ð½": 3539,
      "ĠÐ±ÐµÐ»Ð³Ð¸Ð»ÐµÐ½Ð³ÐµÐ½": 3540,
      "Ð´ÑĥÑĢ": 3541,
      "Ð³Ð°Ðº": 3542,
      "ĠÑĤÐ¸Ð»Ð¸": 3543,
      "Ð¢ÑĥÑĢ": 3544,
      "Ð³Ð¾Ð³": 3545,
      "ĠÐ¶Ð°ÑĢÐ°Ðº": 3546,
      "ĠÐŀÑĢÑĥÑģÐ¸ÑıÐ´Ð°Ð³Ñĭ": 3547,
      "ĠÐ¼ÐµÐ½Ð¸": 3548,
      "ÐµÐ³Ð¸Ð½": 3549,
      "Ð¼Ð¾Ð¶": 3550,
      "ÑĥÐ»Ð´Ñĥ": 3551,
      "ĠÐ´ÐµÑĤ": 3552,
      "ĠÑģÐ¾Ð³ÑĥÑĪÑĤ": 3553,
      "ĠÑģÐµÐ½": 3554,
      "ĠÐ¼ÐµÐ¹": 3555,
      "ĠÑĩÐ¾Ð³": 3556,
      "ÑĢÐ¾ÑĢ": 3557,
      "ĠÐ¶ÐµÑĤÐµÐºÑĤ": 3558,
      "Ġ[": 3559,
      "ĠÐ±ÑĢ": 3560,
      "Ð»ÐµÐ½Ð¸Ðµ": 3561,
      "ĠÐ£Ð»ÑĥÑĥ": 3562,
      "ĠÑģÐ¸Ò£": 3563,
      "ÑĤÐµÒ£": 3564,
      "Ò¯ÑĢÐ³Ó©Ð½": 3565,
      "ĠÐĺÐ·": 3566,
      "Ð´ÑĭÐ³ÑĭÐ½Ð°": 3567,
      "ĠÑĩÐ°ÑĢÐ±": 3568,
      "-Ð¡ÑĥÑĥ": 3569,
      "ĠÑĥÐ½Ð°Ð°": 3570,
      "-ÐŁ": 3571,
      "Ð»ÐµÐ´Ñĥ": 3572,
      "ĠÐļÑĥÐ±": 3573,
      "ĠÐºÐ°ÑĤÑĤÐ°Ð»Ð³Ð°Ð½": 3574,
      "ĠÐ¶Ð°Ð¿": 3575,
      "ĠÑģÑĥÑĢÐ¾Ð¾": 3576,
      "ĠÐŃÐ³ÐµÑĢÐ´Ðµ": 3577,
      "ĠÐ¤ÐµÐ´ÐµÑĢÐ°ÑĤÐ¸Ð²Ð´Ð¸Ðº": 3578,
      "ĠÐŀÑĢÑĥÑģÐ¸ÑıÐ½ÑĭÐ½": 3579,
      "ÑĦÑĤ": 3580,
      "Ð°Ð¼Ð±ÐµÑĤ": 3581,
      "ĠÐ¸ÑĢÐµÑĤ": 3582,
      "ĠÑĩÑĭÐ³Ð°ÑĢÑĭÐ¿": 3583,
      "ĠÓ¨ÐºÐ¼Ó©ÑĤ": 3584,
      "ĠÐ±Ó©Ð»Ò¯Ð½Ó©ÑĤ": 3585,
      "ÐµÐ½Ð°": 3586,
      "ĠÐ¶Ð°Ð³ÑĭÐ½Ð°Ð½": 3587,
      "Ò¯ÑĢÓ©ÑĤ": 3588,
      "Ð´ÑĥÐ³Ñĥ": 3589,
      "ÑĤÑĤÑĭÐ½": 3590,
      "ĠÐŃÐ½": 3591,
      "ĠÐºÐ°Ð¼ÑĤ": 3592,
      "ÑģÑĭÐ½Ð°Ð½": 3593,
      "Ð²Ð¾Ð»": 3594,
      "ĠÐļÑĭÑĢÐ³ÑĭÐ·ÑģÑĤÐ°Ð½Ð´Ð°Ð³Ñĭ": 3595,
      "ÐµÑħÐ°Ð½": 3596,
      "ĠÑģÐ¾ÑİÐ·": 3597,
      "ÑĦÐ¾ÑĢÐ¼Ð°ÑĤ": 3598,
      "ĠÑĭÐ¹Ð³Ð°ÑĢÑĭÐ¼": 3599,
      "ĠÑĤÐ¾Ð²Ð°ÑĢ": 3600,
      "ĠÓ¨Ð»": 3601,
      "ĠÐ¨Ð°Ð°ÑĢ": 3602,
      "Ð¸ÐºÐ°Ð½ÑĭÐ½": 3603,
      "ĠÑĩÐ°Ð³ÑĭÐ»": 3604,
      "ĠÑĩÑĭÐ³Ð°ÑĢÑĥÑĥ": 3605,
      "Ð¼ÐµÐ½ÑĤ": 3606,
      "ĠÑĩÐ°Ð»": 3607,
      "ĠÑĤÐ°Ð±ÑĭÐ»Ð³Ð°Ð½": 3608,
      "ÐµÐ½Ð½Ð¾": 3609,
      "Ð±Ð»ÐµÐ¼": 3610,
      "VI": 3611,
      "ĠÐ°Ð¹Ð¼Ð°Ð³": 3612,
      "ÐĳÐ¸ÑĪÐºÐµÐº": 3613,
      "ĠÐ°ÑģÐºÐµÑĢÐ´Ð¸Ðº": 3614,
      "34": 3615,
      "ĠÐ¿ÑĢÐ¾Ð³ÑĢÐ°Ð¼Ð¼": 3616,
      "Ð¾Ð¾ÑĢÑĥ": 3617,
      "ĠÐ±ÐµÑĢÒ¯Ò¯Ð³Ó©": 3618,
      "ĠÑĤÐ°Ð°Ð½Ð´ÑĭÐº": 3619,
      "ĠÑĩÑĭÐ³Ð°": 3620,
      "Ð°ÑĢÐ¸Ð¹": 3621,
      "Ð¼ÐµÐº": 3622,
      "ĠÑįÐºÐµÐ½Ð¸": 3623,
      "-Ð±Ð¸ÑĢ": 3624,
      "ĠÐ±Ð¸Ð¹Ð¸ÐºÑĤ": 3625,
      "ĠÐ»ÑİÐ±": 3626,
      "ĠÑĤÐ°ÑĢÑĤÑĥÑĥ": 3627,
      "ĠÐ³ÐµÐ·Ð¸ÑĤ": 3628,
      "ĠÓ©ÑĤÒ¯Ð½": 3629,
      "Ð¸ÑĢÐ³ÐµÐ½": 3630,
      "ĠÐ¶Ð°ÑģÐ°Ð»": 3631,
      "Ð¾Ð»ÑĥÐ¿": 3632,
      "ĠÐ¼ÑĥÐ½Ð¸ÑĨÐ¸Ð¿Ð°Ð»Ð¸ÑĤÐµÑĤ": 3633,
      "ÑıÑī": 3634,
      "ĠÑģÐ°": 3635,
      "ĠÑģÐ¾ÑģÑĤÐ°Ð²": 3636,
      "ÐµÐ½Ð·": 3637,
      "ĠÐ¢Ò¯ÑĪÑĤÒ¯Ðº": 3638,
      "Ò£ÑĥÐ·": 3639,
      "ĠÑĥÐ»ÑĥÑĥ": 3640,
      "ÐľÐµÐ½": 3641,
      "ĠÐ¼ÐµÑģÑĤ": 3642,
      "Ð¾ÐºÑĤÐ¾ÑĢ": 3643,
      "ĠÐ°Ð²ÑĤÐ¾ÑĢ": 3644,
      "Ð¸ÑĤÑģÑı": 3645,
      "ĠÐ½ÐµÐ¾Ð±ÑħÐ¾Ð´Ð¸": 3646,
      "ĠVesti": 3647,
      "ÑĩÐµÑĤ": 3648,
      "ĠÐĺÐĺÐľ": 3649,
      "ĠÐºÐ°ÑĤÑĤÐ¾Ð¾": 3650,
      "ĠÐ¤ÑĢÐ°Ð½": 3651,
      "Ó©ÐºÓ©Ð¹": 3652,
      "ĠÐ¶Ð°Ð½Ñĭ": 3653,
      "ĠÑģÓ©Ó©": 3654,
      "ÑĥÐ½ÐºÑĤ": 3655,
      "ĠÑįÑģÐµÐ±": 3656,
      "ĠÐ´Ð°ÑıÑĢÐ´Ð°Ð³Ð°Ð½": 3657,
      "Ò¯Ð»Ð´Ò¯": 3658,
      "ÐµÐ´Ð°Ð³Ð¾Ð³": 3659,
      "ĠÐļÐ°Ð±": 3660,
      "Ð¾Ñī": 3661,
      "ĠÐ°Ð¹Ð»Ð°Ð½Ð°ÑģÑĭÐ½Ð´Ð°": 3662,
      "ĠÐĲÐ¼ÐµÑĢ": 3663,
      "ĠÐ¾ÑĢÐ³Ð°Ð½Ð¸Ð·Ð¼": 3664,
      "Ð°ÐºÑĩ": 3665,
      "ÑĤÐµÐ¼": 3666,
      "ĠÐľÑĭÐ¹Ð·Ð°Ð¼": 3667,
      "ĠÓ©ÑĤÐºÓ©ÑĢÒ¯Ò¯": 3668,
      "Ð´ÑĭÑĢÑĭÐ¿": 3669,
      "ĠÑĭÒ£": 3670,
      "ĠÓ©ÐºÐ¼Ó©ÑĤÑĤÒ¯Ð½": 3671,
      "38": 3672,
      "ĠÐ¢Ó©ÑĢ": 3673,
      "ĠÐķÐ²ÑĢÐ¾Ð¿Ð°": 3674,
      "ÑĭÐºÑĤÐ°Ð½": 3675,
      "ĠÐ¸ÑĪÑĤÐµÑĢÐ¸Ð½": 3676,
      "ĠÑįÐ»Ð³Ðµ": 3677,
      "Ð°Ð»Ð¾Ð³": 3678,
      "ÑĥÐ¹": 3679,
      "Ð¾Ð²Ð¸Ñĩ": 3680,
      "ĠÐ°Ð¹Ð»": 3681,
      "ĠÐ±ÐµÐ»Ð³Ð¸ÑģÐ¸Ð·": 3682,
      "36": 3683,
      "ĠÐ¶Ð°ÑĢÑĭ": 3684,
      "ÑĪÑĤÑĥÑĢÑĥÑĥ": 3685,
      "Ð»ÐµÐ´": 3686,
      "ĠÐĲÑĦ": 3687,
      "Ò¯ÑĪÒ¯Ð½Ó©": 3688,
      "ĠÐ¼Ð°ÐºÑĥÐ»Ð´Ð°ÑĪ": 3689,
      "-Ð¶ÑĭÐ»Ð³Ð°": 3690,
      "Ð°Ð¶Ñĭ": 3691,
      "ĠÐ¢Ò¯Ð½Ð´Ò¯Ðº": 3692,
      "ĠÐ¸Ð½ÑĤ": 3693,
      "ĠÐºÑĥÐ¹Ð³Ð°Ð½": 3694,
      "ĠÐºÓ©ÑĢÑģÓ©ÑĤÒ¯Ò¯": 3695,
      "ĠÓ©Ð½Ó©ÐºÑĤ": 3696,
      "ĠÐ¶Ð°ÑĢÐ°Ð½Ð´ÑĭÐº": 3697,
      "ĠÐ°Ð´Ð°Ð±Ð¸ÑıÑĤ": 3698,
      "ĠÑĤÐ¸Ð¹Ð¸ÑĪ": 3699,
      "ĠÐ¼Ð°ÐºÐ°Ð»": 3700,
      "ÐµÑĢÐ¸Ð½Ð¸Ð½": 3701,
      "ĠÐ¿ÑĢÐ¾ÑĨÐµÑģ": 3702,
      "Ð¿Ð¾Ð·Ð¸ÑĨÐ¸Ñı": 3703,
      "ĠÐĸÐ°Ò£Ñĭ": 3704,
      "ĠÐĶÐµÐ¼": 3705,
      "ĠÐ½Ð¾ÑĢ": 3706,
      "ÐµÐºÑĤÐ¾ÑĢ": 3707,
      "ĠÐ½ÐµÐ¼": 3708,
      "Ð¨ÐļÐķÐļ": 3709,
      "ĠÓ©Ò£": 3710,
      "ĠÐ¿ÑĢÐ¸Ð¼": 3711,
      "Ð¾ÑģÑĤÑĮ": 3712,
      "ĠÐ±Ð°Ð°ÑĢÑĭÐ½": 3713,
      "ĠÐ±ÑĭÑĤÑĮ": 3714,
      "ĠÐºÓ©ÑĢÑģÓ©ÑĤÒ¯Ð»Ð³Ó©Ð½": 3715,
      "Ð¸Ð·Ð°ÑĨÐ¸Ñı": 3716,
      "ÐµÐ·Ð¸Ð´ÐµÐ½ÑĤ": 3717,
      "Ð´ÑĭÐ¼": 3718,
      "ÐµÐ»ÐµÐ¹": 3719,
      "ĠÐ±Ð¸ÑĢÐ¸Ðº": 3720,
      "ĠÐ¸Ð½ÑĤÐµÑĢ": 3721,
      "ĠÑĦÑĥÐ½Ðº": 3722,
      "Ð¸ÑıÑģÑĭÐ½": 3723,
      "ÑĥÑĥÑĩÑĥÐ»Ð°ÑĢÑĭ": 3724,
      "ĠÐºÐ°ÑĢÐ¼Ð°Ð¿": 3725,
      "ĠÐ°Ð»ÑĭÑĪÐ°ÑĤ": 3726,
      "Ò¯ÐºÑĤÒ¯": 3727,
      "ĠÑģÐ¾ÑĤÐºÐ¾": 3728,
      "ĠÐĿÐ°": 3729,
      "ĠÐ°Ð»Ð´ÑĭÐ½ÑĩÐ°": 3730,
      "Ð¾Ñħ": 3731,
      "ÐĳÐĺÐ¨ÐļÐķÐļ": 3732,
      "-Ð½": 3733,
      "ĠÐľÐ°ÑĤ": 3734,
      "ĠÐºÐ¾ÑĪÑĤ": 3735,
      "ÐºÐ°Ð³Ð°Ð½": 3736,
      "-Ð¶Ð¶": 3737,
      "Ò¯Ð³Ò¯Ð½Ó©": 3738,
      "ÑĪÐµÐ¼": 3739,
      "ÑĥÑĤÐ±Ð¾Ð»": 3740,
      "ĠÐ¸Ð»Ð¸ÐºÑĤÓ©Ó©": 3741,
      "ĠÑĤÐ¸Ð¹Ð³Ð¸Ð·": 3742,
      "Ð¿ÐµÐ¹": 3743,
      "Ð»Ð°ÑĢÑĭÐ½ÑĭÐ½": 3744,
      "ĠÑĥÐºÑĥÐºÑĤÑĥÑĥ": 3745,
      "99": 3746,
      "ĠÐ°Ð»ÑĭÑĪ": 3747,
      "Ð°ÑĢÐ´Ð°Ð½": 3748,
      "ĠÐ±ÐµÐ¹": 3749,
      "ÑĤÑĥÐ½": 3750,
      "ĠÐ°Ð²ÑĤÐ¾": 3751,
      "ÑģÐºÐ°ÑĢ": 3752,
      "ÑĤÑĤÐ¸": 3753,
      "Ð¾Ð¸Ð½": 3754,
      "ĠÐ¼Ð°Ð°Ð»ÑĭÐ¼Ð°ÑĤÑĤÐ°ÑĢÑĭ": 3755,
      "ĠÐ°Ð½Ð°Ð½": 3756,
      "Ð¾ÑĤÐ°": 3757,
      "ÐĳÐ°Ñģ": 3758,
      "ĠÑģÑĢÐµÐ´": 3759,
      "ÑģÑĤÑĭÐ½": 3760,
      "ĠÐ±Ð°ÑĢÐ°": 3761,
      "ÑĥÐ»Ð°": 3762,
      "07": 3763,
      "ĠÐ¼Ð¸ÑĤÐ¸Ð½Ð³": 3764,
      "150": 3765,
      "121": 3766,
      "37": 3767,
      "ĠÐ½Ð°Ð¼": 3768,
      "ĠÐºÐ°Ð»ÑĭÐ±": 3769,
      "ĠÐ°Ð»ÑĭÐ½ÑĭÐ¿": 3770,
      "ĠÑģÐ¸Ð¼": 3771,
      "Ð¸ÑĤÑĮÑģÑı": 3772,
      "ĠÐºÐ°Ð¹ÑĢÑĭÐ»": 3773,
      "ĠÑĤÒ¯ÑĢÐ»Ó©ÑĢ": 3774,
      "Ð¸ÑģÑĤÐ¸": 3775,
      "ĠÐºÑĥÑĢÑĩ": 3776,
      "ĠÐºÐ¾Ð¼Ð¸ÑģÑģÐ¸Ñı": 3777,
      "ĠÐºÑĭÐ»ÑĭÐ½": 3778,
      "Ò¯Ð³Ò¯Ð½Ð´Ó©": 3779,
      "ÐºÐ¸Ð¼": 3780,
      "Ð´Ð¾ÑĢÐ´ÑĥÐ½": 3781,
      "ĠÑĤÐ°ÑĢÑĤÐ°": 3782,
      "ĠÐ¶Ð°Ð·ÑĥÑĥ": 3783,
      "ĠÐ±Ð¾Ð»Ð³Ð¾Ð½ÑĥÐ½": 3784,
      "ĠÐ¼Ð°Ð°Ð»ÑĭÐ¼Ð°ÑĤÑĤÑĭ": 3785,
      "ĠÑĤÐ°ÑĢÑĤÑĭÐ»Ð³Ð°Ð½": 3786,
      "ÐµÐ¹Ð»": 3787,
      "ĠÐºÐ¾Ð¹Ð´Ñĥ": 3788,
      "ĠÐºÐ°Ð¶": 3789,
      "Ð±Ð°Ñģ": 3790,
      "ÐµÐ»ÐµÑĢÐ´Ð¸Ð½": 3791,
      "ĠÐ´Ð¾Ð¾ÑĢ": 3792,
      "ĠÐ°ÑĤÐºÐ°ÑĢÑĥÑĥ": 3793,
      "ĠÐ¼Ð¾Ð³": 3794,
      "ĠÐ°Ð»Ð±Ð°Ð¹ÑĤ": 3795,
      "ĠÑĢÐµÑģÑĥÑĢÑģÑĤÐ°ÑĢÑĭ": 3796,
      "Ð¾ÑĢÐ¾Ð½": 3797,
      "ÑĥÐ»ÑĥÑĪ": 3798,
      "ĠÐ´Ð¾ÐºÑĥÐ¼ÐµÐ½ÑĤ": 3799,
      "ĠÐļÐ¾ÑĪ": 3800,
      "ĠÐ¸Ð¹Ð³Ð¸Ð»": 3801,
      "ĠÐĳÐ¾ÑĢÐ±Ð¾ÑĢÐ´ÑĥÐº": 3802,
      "Ð¡ÑĥÑĥ": 3803,
      "ĠÑįÐºÑģ": 3804,
      "ĠÐ¶Ð°ÑĪÐ°Ð¿": 3805,
      "Ð¿ÑĤ": 3806,
      "ÐµÐ±ÐµÑĢ": 3807,
      "ĠÐ¼Ð°Ð¹ÑĢÐ°Ð¼": 3808,
      "ÑĦÑĦÐµÐºÑĤ": 3809,
      "ĠÐºÓ©ÑĢÑģÓ©ÑĤÐºÓ©Ð½": 3810,
      "ÑĥÑĢÑĤ": 3811,
      "ĠÐ±Ð¾Ð»Ð±Ð¾ÑģÐ¾": 3812,
      "ĠÑĤÒ¯ÑĪÑĤÒ¯Ðº": 3813,
      "ĠÐºÐ°ÑĢÐ°Ð¶Ð°ÑĤ": 3814,
      "ĠÐºÑĭÐ·ÑĭÐ»": 3815,
      "ĠK": 3816,
      "ĠÑĤÑĭÐ½Ñĩ": 3817,
      "ĠÑįÐºÓ©Ó©": 3818,
      "ĠÐ°ÑĢÑĤÑĭÐº": 3819,
      "ĠÐĶÒ¯Ð¹Ð½": 3820,
      "Ð¸Ð³Ð¸ÑĤ": 3821,
      "ĠÑģÐ°Ð»ÑģÐ°Ðº": 3822,
      "ĠÐĲÐ´": 3823,
      "ĠÐ¡Ð°": 3824,
      "Ð´Ð°ÑĢÐ´Ð°Ð½": 3825,
      "Ð¾ÑĢÐ¾": 3826,
      "Ð³ÑĭÑĢ": 3827,
      "ĠÐ±Ð¸Ð»Ð´Ð¸ÑĢÐµÑĤ": 3828,
      "ĠÐ¶Ð°ÑģÐ°Ð¿": 3829,
      "ĠÐ£ÑĢ": 3830,
      "ÑģÑĥÐ½ÑĥÐ½": 3831,
      "ĠÐ±Ð¾Ð»Ð³Ð¾Ð½Ð´ÑĥÐºÑĤÐ°Ð½": 3832,
      "Ð´Ð°ÑĢÑĭÐ½Ð´Ð°": 3833,
      "ĠÐ±Ð°ÑĪÐºÐ°ÑĢÐ¼Ð°Ð»ÑĭÐ³ÑĭÐ½ÑĭÐ½": 3834,
      "ÐµÑĢÐ°": 3835,
      "ĠÓ©Ð·Ð³Ó©ÑĩÓ©Ð»": 3836,
      "ĠÐºÐµÒ£ÐµÑĪÐ¸Ð½Ð¸Ð½": 3837,
      "ĠÐ±Ó©Ð»Ò¯Ð¼Ò¯Ð½Ò¯Ð½": 3838,
      "ĠÑĤÐµÐ»ÐµÑĦÐ¾Ð½": 3839,
      ".Ðĳ": 3840,
      "Ð°Ð»ÑĥÑĥÐ´Ð°": 3841,
      "ĠÑįÑģÐµÐ¿ÑĤÐµÐ»ÐµÑĤ": 3842,
      "Ð¸ÐºÐ°ÑĨÐ¸Ñı": 3843,
      "ÑįÑįÑĢÐ»Ð¸Ðº": 3844,
      "ĠÐºÐ°Ð¹ÑĢÑĭÐ»ÑĥÑĥ": 3845,
      "ĠÐ°Ð»ÑĤÑĭ": 3846,
      "ÑĭÑĪÐºÑĭ": 3847,
      "ĠÐ§Ð¾Ò£": 3848,
      "ĠÑįÐ¼Ð³ÐµÐºÑĤÐµÐ½": 3849,
      "ĠÑĥÐ¿": 3850,
      "ÐļÐ¾Ð»": 3851,
      "ĠÐľÐ°Ñģ": 3852,
      "ÑĥÐ»Ð¾Ð²": 3853,
      "ÑĥÑİÑĤ": 3854,
      "ÑĥÐ²": 3855,
      "ĠÐĲÑģÐ°Ð½": 3856,
      "ÐĲÑĤ": 3857,
      "Ð¸ÑĤÐ°": 3858,
      "ĠÐ°Ð¹ÑĭÑĢÐ¼Ð°Ð»": 3859,
      "ĠÐ°Ð¹ÑĭÐ»Ð´ÑĭÐº": 3860,
      "ĠÑĥÐ¹": 3861,
      "Ð´ÐµÑĢÐ¸Ð½": 3862,
      "ĠÐ¾ÐºÑĤ": 3863,
      "Ð°Ð¼Ð¸Ð½": 3864,
      "ĠÐĵÒ¯Ð»": 3865,
      "ĠÐ¢Ð°Ð¶Ð¸ÐºÑģÑĤÐ°Ð½": 3866,
      "ÑĥÐ½Ð¸ÑĨÐ¸Ð¿Ð°Ð»Ð¸ÑĤÐµÑĤÑĤÐ¸Ð½": 3867,
      "ĠÐľÐ¸Ð½Ð¸ÑģÑĤÑĢ": 3868,
      "ĠÑģÐ»ÑĥÑĩÐ°": 3869,
      "-Ð±ÐµÑĢÐµÐ½": 3870,
      "ĠÑĢÐµÐ¶Ð¸Ð¼": 3871,
      "ĠÐ¿ÑĢÐ°ÐºÑĤ": 3872,
      "Ð¸Ð»Ð´Ð¸": 3873,
      "ĠÐĸÐ°Ð½": 3874,
      "ĠÐ¼ÑĥÑĢÑĥÐ½ÐºÑĥ": 3875,
      "ĠÑģÐ¸Ð»": 3876,
      "ĠÐ±Ð¸Ð»Ð³ÐµÐ½": 3877,
      "ĠÐ¿ÑĢÐ¾Ð±Ð»ÐµÐ¼": 3878,
      "ÑĳÑĢ": 3879,
      "Ð°ÑıÐº": 3880,
      "ĠÐ¿Ð¾Ð»ÑĥÑĩ": 3881,
      "ĠÐ±Ð¸": 3882,
      "ÑĭÑģÑĭÐ½Ð°Ð½": 3883,
      "ĠÐ±Ð°ÑĢÐ°ÑĤ": 3884,
      "Ó©Ó©Ð½Ò¯Ð½": 3885,
      "ĠÑģÐµÐ¼": 3886,
      "ĠÐºÑĥÑĢÑĥÑĥ": 3887,
      "ĠÐºÑĢÐµÐ´Ð¸": 3888,
      "ĠÐºÐ°Ð±Ð¸Ð½": 3889,
      "Ð´ÑĭÐºÑĤÐ°ÑĢ": 3890,
      "ÑĭÐ¹ÐºÐ°Ð½": 3891,
      "ĠÐ¶Ð¾Ð³Ð¾ÑĢÑĥÐ»Ð°ÑĤ": 3892,
      "ĠÑıÐ²Ð»Ñı": 3893,
      "ĠÐ±Ð°Ð¹ÑĭÑĢÐºÑĭ": 3894,
      "Ġ%": 3895,
      "55": 3896,
      "ĠÐ¶Ñĭ": 3897,
      "ÐµÐ½Ð¸Ñİ": 3898,
      "ÑģÐºÐ¾Ð³Ð¾": 3899,
      "ĠÐĳÐ¸ÑĪÐºÐµÐºÑĤÐµ": 3900,
      "ĠÑĤÐ¾Ð»ÑĥÐ³Ñĥ": 3901,
      "ĠÑĥÑĢÑĥÐºÑģÐ°ÑĤ": 3902,
      "ĠÐºÐ°Ð´Ð°Ð¼": 3903,
      "Ð¸Ð³Ð¸Ð½Ð¸Ð½": 3904,
      "ĠÐ¸Ð½ÑĤÐµÑĢÐ½ÐµÑĤ": 3905,
      "ĠÐºÐ°Ð°Ð»Ð°Ð³Ð°Ð½": 3906,
      "ĠÐ¶ÑĭÐ¹Ð½": 3907,
      "ĠÐºÐ¾ÑĪÑĥÐ¼ÑĩÐ°Ð»Ð°Ð´Ñĭ": 3908,
      "Ð¾ÑģÐ¾ÑĦ": 3909,
      "am": 3910,
      "ĠÑĦÑĢÐ°Ðº": 3911,
      "ch": 3912,
      "ÑģÐ¸Ð½Ð¸Ð½": 3913,
      "ĠÐºÐ¾ÑĢÐº": 3914,
      "ĠÑĢÐ°Ð¹Ð¾Ð½Ð´Ð¾": 3915,
      "ĠÑģÑĢ": 3916,
      "ĠÑįÐ¼Ð½": 3917,
      "ĠÐ°Ð¹Ð¼Ð°ÐºÑĤÐ°ÑĢÑĭÐ½": 3918,
      "ing": 3919,
      "ĠÐºÐ°Ð»ÑĭÐ±ÑĭÐ½Ð°": 3920,
      "ĠÑĥÑģÑĤ": 3921,
      "ÐŃÐº": 3922,
      "ĠÑĢÐ°Ð·Ð²": 3923,
      "ĠÐºÒ¯Ð¼": 3924,
      "ÑĤÑĤÐ°Ð½": 3925,
      "Ò¯Ð½ÑĩÒ¯": 3926,
      "ĠÑĦÐµÐ´ÐµÑĢÐ°Ð»Ð´ÑĭÐº": 3927,
      "ĠÐ¸ÑĪÐºÐµÑĢ": 3928,
      "ĠÐ´Ð¸Ð¿": 3929,
      "ĠÑĤÐµÑĢÐ¸": 3930,
      "Ð»Ð°Ð½Ð´Ñĭ": 3931,
      "ĠÐ¤ÑĢ": 3932,
      "ĠÐ¶ÑĭÐ¹ÑĭÐ½ÑĭÐ½Ð´Ð°": 3933,
      "Ð»Ð°Ð´": 3934,
      "ĠÐľÐ°Ð¹": 3935,
      "ĠÐ³Ò¯Ð»": 3936,
      "ĠÐ¶Ò¯Ð³": 3937,
      ".Ð¡": 3938,
      "ĠÐ¡Ð°Ð»Ð°Ð¼": 3939,
      "ÑĥÑĩÑĪ": 3940,
      "ĠÒ¯Ð»Ð³Ò¯": 3941,
      "Ó©ÑĢÐ´Ò¯": 3942,
      "ÐµÑģÑĤÐ¸": 3943,
      "ĠÒ¯Ð¹Ð»Ó©ÑĢ": 3944,
      "ĠÐºÒ¯ÑĩÑĤÒ¯Ò¯": 3945,
      "Ð¸Ð¾Ð½": 3946,
      "ÑĭÐºÑĩÐ°": 3947,
      "ĠÑĦÐ¾ÑĢÐ¼": 3948,
      "Ð»ÑİÑĩ": 3949,
      "Ð¾Ð²Ð¾ÑĢ": 3950,
      "Ð°ÑĤÑĤÐ°ÑĢÑĭÐ½": 3951,
      "ĠÐ°ÑĤÐº": 3952,
      "ĠÑĤÐ°Ð¿ÐºÐ°Ð½": 3953,
      "ÑĥÑĪÐ°ÑĤ": 3954,
      "Ð±Ò¯": 3955,
      "Ð°ÑĤÑĥÑĥ": 3956,
      "ĠÐºÐ°Ð³Ð°Ð·": 3957,
      "Ð¼Ó©Ðº": 3958,
      "ĠÐ¶ÑĥÑĢÐ½Ð°Ð»Ð¸ÑģÑĤÑĤÐµÑĢ": 3959,
      "ĠÐ¿Ð¾ÑģÐ»Ðµ": 3960,
      "ĠÐ°Ð¼ÐµÑĢ": 3961,
      "ÑĥÑħÐ°Ð¼": 3962,
      "ĠÐ¼Ð°Ð·": 3963,
      "ĠÐĲÐ¹ÑĢ": 3964,
      "ĠÑĩÑĭÑĢ": 3965,
      "Ò¯ÑĢÓ©Ó©Ðº": 3966,
      "Ð¸Ð±Ð¸": 3967,
      "Ò¯ÐºÑĤÒ¯Ò¯": 3968,
      "ĠÐ´Ð¸Ð½Ð¸Ð¹": 3969,
      "ĠÑĤÐ°Ð¶ÑĢÑĭÐ¹Ð±": 3970,
      "ĠÐºÓ©Ð¿ÑĩÒ¯Ð»Ò¯Ðº": 3971,
      "ĠÐ¸ÑģÐºÑĥÑģ": 3972,
      "Ð¾Ð¾Ð»": 3973,
      "ÑĤÐºÓ©Ð½": 3974,
      "Ð»ÑĥÐ±": 3975,
      "ĠÐľÐ¾Ð»": 3976,
      "-Ð°ÑĢÐ°Ðº": 3977,
      "ÐµÐ½Ð´ÐµÑĢ": 3978,
      "ÐµÐ»Ð³ÐµÐ½": 3979,
      "ĠÑĢÑĭÐ½": 3980,
      "ĠÐ°Ð»ÑĭÑĪÐºÐ°Ð½": 3981,
      "ÑĥÐ±Ð°Ð¹": 3982,
      "ĠÐ¶Ð¾Ð»Ð´Ð¾ÑĢ": 3983,
      "ĠÐ°Ð´Ð¼Ð¸Ð½Ð¸ÑģÑĤ": 3984,
      "ĠÐ°ÑĢÐ½Ð°Ð»Ð³Ð°Ð½": 3985,
      "ĠÐºÐ¾Ð¼Ð¸ÑĤÐµÑĤÐ¸Ð½Ð¸Ð½": 3986,
      "ĠÐ¸ÑĪÐ¼ÐµÑĢÐ´Ò¯Ò¯Ð»": 3987,
      "Ð¾Ð±Ð¸Ð»": 3988,
      "ĠÑĩÑĭÐ³Ð°ÑĢÑĭÐ»ÑĭÑĪÑĭ": 3989,
      "ĠÑĤÐ¸Ð»Ð¸Ð½Ð´Ðµ": 3990,
      "-Ð´ÐµÐºÐ°Ð±ÑĢÑĮ": 3991,
      "ÑĥÑĥÑģÑĥÐ½": 3992,
      "ĠÐ¸ÑĪÑĤÐµÐ¹ÑĤ": 3993,
      "ĠÐ°ÑįÑĢ": 3994,
      "ĠÐ¾Ð½Ð»Ð°Ð¹Ð½": 3995,
      "ĠÐºÓ©Ð½": 3996,
      "ĠÑģÐ°Ð¹ÑĤÑĭÐ½Ð°": 3997,
      "ĠÑĤÐµÑħÐ½Ð¸ÐºÐ°Ð»ÑĭÐº": 3998,
      "ĠÐ²Ð¸ÑĨÐµ": 3999,
      "Ð¸Ð»Ð°": 4000,
      "Ð¾ÐºÑĢ": 4001,
      "ĠÑħÐ°Ð½": 4002,
      "ĠÐ±Ð°Ð³ÑĭÑĤ": 4003,
      "Ð´Ó©Ð¿": 4004,
      "001": 4005,
      "Ð³ÑĭÐ½Ð°": 4006,
      "ĠÐ¼ÑĥÐ½Ñĥ": 4007,
      "ĠÐ°ÑĤÐ°ÑģÑĭ": 4008,
      "ĠÓ©Ð·Ò¯Ð¼": 4009,
      "Ð´ÐµÐ»Ð³ÐµÐ½": 4010,
      "ĠÑįÐ»ÐµÐºÑĤÑĢÐ¾Ð½Ð´ÑĥÐº": 4011,
      "ĠÐ±ÑĭÐ¹ÑĭÐ»": 4012,
      "ĠÐ¢Ð¾Ðº": 4013,
      "ĠÑĤÐ°ÑĤ": 4014,
      "-Ð¼Ð°ÑĢÑĤÑĤ": 4015,
      "ĠÐ¼ÐµÑħÐ°Ð½": 4016,
      "Ð¾Ð¾Ð·": 4017,
      "ĠÐĺÑĢÐ°Ð½": 4018,
      "ĠÑĥÑĥÑĢ": 4019,
      "ĠÐºÓ©ÑĢÒ¯Ò¯": 4020,
      "ĠÐ¼ÐµÐºÑĤÐµÐ¿ÑĤÐµÑĢ": 4021,
      "ĠÐ´Ð°ÑĢÑĭÑıÐ½ÑĭÐ½": 4022,
      "ĠÐºÑĭÑģÐºÐ°": 4023,
      "ÑĥÐ¼ÑĥÑĪÑĤ": 4024,
      "id": 4025,
      "Ð°Ð»Ð°ÑĢÐ³Ð°": 4026,
      "Ð±Ð°ÐµÐ²Ð´Ð¸Ð½": 4027,
      "ĠÑįÑĤÐ¾Ð¼": 4028,
      "ĠÐ¿Ð°ÑĢÑĤÐ¸ÑıÑģÑĭÐ½ÑĭÐ½": 4029,
      "ÐµÑĤÑĤÒ¯Ò¯": 4030,
      "ÑĨÐ¸Ñİ": 4031,
      "ĠÑģÐ°Ð»ÑĭÐ½Ð³Ð°Ð½": 4032,
      "ÑĤÐµÐ½": 4033,
      "ĠÐ°Ð»Ð¼Ð°ÑĪÑĤÑĭÑĢ": 4034,
      "ĠÐ¼Ð°Ð°Ð»ÑĭÐ¼Ð°ÑĤÑĤÐ°ÑĢÐ´Ñĭ": 4035,
      "ĠÑĩÐ°ÑĢÐ±Ð°ÑĩÑĭÐ»ÑĭÐº": 4036,
      "ĠÐľÑĥÐ½Ð¸ÑĨÐ¸Ð¿Ð°Ð»Ð¸ÑĤÐµÑĤÑĤÐ¸Ð½": 4037,
      "ĠÑįÑģÐµÐ¿": 4038,
      "ĠÐļÐµÐ¼": 4039,
      "ĠÐºÐ°ÑĢÐ°Ð¶Ð°ÑĤÑĤÐ°ÑĢ": 4040,
      "ĠÐĲÐ»ÐµÐº": 4041,
      "ĠÐ¾ÑģÐ½Ð¾Ð²": 4042,
      "ĠÑĩÑĭÒ£": 4043,
      "Ð³Ó©Ð·": 4044,
      "ĠÐºÐ¸ÑĢÐ³Ð¸Ð·Ð¸Ð»Ð³ÐµÐ½": 4045,
      "Ð¾Ð´Ð¾": 4046,
      "Ð¦": 4047,
      "ĠÐºÐ¸Ð»": 4048,
      "Ð°Ð½Ð¸Ð¸": 4049,
      "ĠÐŃÐºÐ¸": 4050,
      "ĠÐ±Ð¸Ð¹Ð¸Ðº": 4051,
      "Ò¯ÑĪÐºÓ©Ð½": 4052,
      "ĠÑĩÐµÑĢ": 4053,
      "ÐŃÑĢ": 4054,
      "ÑĥÐºÐ°": 4055,
      "ÐµÐºÐºÐµ": 4056,
      "ÑģÑĤÐµÑĢ": 4057,
      "ĠÐºÐ°ÑĤÑĩÑĭÑģÑĭ": 4058,
      "ĠÑģÑĥÐ´": 4059,
      "ĠÑĤÒ¯Ð¿": 4060,
      "Ð»Ð°ÑĢÑĭÐ½Ð´Ð°": 4061,
      "ĠÑĤÑĭÐ½ÑĩÑĤ": 4062,
      "ÑĢÐ¸Ð´Ð¸Ðº": 4063,
      "Ð¾Ð¼Ð±ÑĥÐ»": 4064,
      "Ð¿Ð¾Ð»": 4065,
      "ĠÑįÑģÐº": 4066,
      "ĠÐ°Ð±Ð°Ð»Ñĭ": 4067,
      "ter": 4068,
      "ĠÐ¶Ð°Ò£ÑĭÐ»": 4069,
      "Ð´Ó©Ð¼": 4070,
      "ĠÐ²Ð¸Ð´ÐµÐ¾": 4071,
      "ĠÐºÐ¸ÑĢÐ³Ð¸Ð·Ò¯Ò¯": 4072,
      "ĠÐ±Ð°ÑģÑģÐµÐ¹Ð½Ð¸": 4073,
      "ĠÐ°ÑģÐ¿": 4074,
      "ĠÑģÑĥÑĤ": 4075,
      "ĠÐĲÐ´Ð°Ð¼": 4076,
      "ĠÐºÑĭÑĪÑĤ": 4077,
      "ĠÐłÐµÑģÐ¿ÑĥÐ±Ð»Ð¸ÐºÐ°ÑģÑĭ": 4078,
      "ĠÐļÓ©Ðº": 4079,
      "ĠÐ½Ð¾Ð¼ÑĥÑĢÑĥ": 4080,
      "ÐµÐ¼Ð°ÑĤ": 4081,
      "ĠÑĢÐ°Ð¹Ð¾Ð½ÑĥÐ½Ð´Ð°": 4082,
      "ĠÐºÐµÑĤÐµÑĤ": 4083,
      "ĠÑĤÐ°Ð¹": 4084,
      "ÐĲÐł": 4085,
      "ĠÐ¿ÑĢÐ¾Ð¸Ð·": 4086,
      "ĠÐ¾Ð»": 4087,
      "Ð°ÐºÑĥÐ»ÑĮÑĤ": 4088,
      "ĠÐ¼ÑĥÑĥÐ½": 4089,
      "Ð¾ÑģÑĮ": 4090,
      "Ð»ÐµÑĢÐ´Ð¸Ð½": 4091,
      "ĠÐ¿ÐµÑĢÐ²": 4092,
      "ÑĨÐ¸Ð¿": 4093,
      "ĠÐ¿Ð°ÑĢÐ»Ð°Ð¼ÐµÐ½ÑĤ": 4094,
      "97": 4095,
      "ĠÐ¼Ð¸Ð»Ð»Ð¸Ð°ÑĢÐ´": 4096,
      "ĠÐ¼ÑĥÑģÑĥÐ»Ð¼Ð°Ð½": 4097,
      "Ð°Ð¼ÑĭÐ½": 4098,
      "ĠÑĥÐ²": 4099,
      "re": 4100,
      "ĠÐ¡ÐµÐ±": 4101,
      "ĠÐ¶Ð°ÑĢÑĭÑıÐ»Ð°Ð½Ð³Ð°Ð½": 4102,
      "ĠÐ±Ð¸ÑĢÐ´Ð¸ÐºÑĤ": 4103,
      "ĠÐ±Ð¸ÑĢÓ©Ó©": 4104,
      "ÐºÑĥÐ»Ð¾Ð²": 4105,
      "Ð°Ð½Ð¸ÑıÐ½ÑĭÐ½": 4106,
      "ĠÐ¶Ð°ÐºÑĪÑĭÑĢÑĤ": 4107,
      "ÐµÑĤÐ¸Ð½": 4108,
      "ĠÐºÐ°ÑĢÐ°Ð»Ð³Ð°Ð½": 4109,
      "ĠÑĥÐ±Ð°ÐºÑĤÐ°": 4110,
      "ĠÐ¿Ð°Ð½": 4111,
      "ĠÐºÒ¯Ð½Ó©": 4112,
      "ĠÑħÐ¸Ð¼": 4113,
      "ĠÐĽÐµÐ½Ð¸Ð½": 4114,
      "ÐµÐ½Ð¸Ð¹": 4115,
      "ÑĤÐ°Ð¶": 4116,
      "ĠÐľÐ°Ð°Ð»ÑĭÐ¼Ð°ÑĤÐºÐ°": 4117,
      "ĠÑĤÐ°ÑģÑĤÑĭÐºÑĤ": 4118,
      "ĠÐ¿ÑĢÐ¸Ð²": 4119,
      "Ð¸ÐºÑĤÐ¸Ð½": 4120,
      "ĠÐ±Ð°Ð°ÑģÑĭ": 4121,
      "ÐĵÐ¸Ð´ÑĢ": 4122,
      "ĠÑĩÑĭÐ³Ð°ÑĢÐ¼Ð°Ð»Ð°ÑĢ": 4123,
      "ĠÐľÐµÐºÐµÐ½": 4124,
      "ĠÐĿÐµÐ³Ð¸Ð·": 4125,
      "ĠÐ¶Ð°ÑĤÐºÐ°Ð½Ñĭ": 4126,
      "ĠÐļÑĥÑĢÐ¼Ð°Ð½": 4127,
      "Ð¸ÑĩÐ¸": 4128,
      "ĠÐºÑĥÐ¼": 4129,
      "ĠÐ¸Ð¼Ð°ÑĢ": 4130,
      "ĠÐ¶Ò¯ÑĢÐ³Ò¯Ð·Ò¯Ò¯": 4131,
      "ĠÑĤÐ°Ð½Ð´Ð°": 4132,
      "ĠÐĳÐ°ÑĢ": 4133,
      "ĠÐ´ÐµÑģ": 4134,
      "ĠÑĢÐµÐ²": 4135,
      "48": 4136,
      "ĠÐ´Ð¾Ð»Ð±Ð¾Ð¾ÑĢÑĥ": 4137,
      "ĠÐ¶Ð¾Ñİ": 4138,
      "ĠÑĤÑĥÑĢÐ°Ðº": 4139,
      "ĠÐ´Ð°Ð¹ÑĭÐ¼Ð°": 4140,
      "ĠÑģÐº": 4141,
      "ĠÐºÑĭÑĢÐ³ÑĭÐ·ÑģÑĤÐ°Ð½Ð´ÑĭÐº": 4142,
      "ĠÑĤÒ¯Ð½Ð´Ò¯Ðº": 4143,
      "Ð¾ÑģÐ¾Ð±": 4144,
      "-Ð±Ò¯Ð»Ó©": 4145,
      "ÐµÑĨÐ¸": 4146,
      "ÑħÐ°Ð½": 4147,
      "ĠÐ¡Ð°Ð½": 4148,
      ".Â«": 4149,
      "ĠÑģÐ¾Ð¼Ð³Ð¾": 4150,
      "ĠX": 4151,
      "ĠÐ°Ð»ÑĭÑģ": 4152,
      "ĠÐ½Ð°Ð¿": 4153,
      "ĠÒ¯Ð¹ÑĢÓ©Ð½": 4154,
      "ĠÐ¼Ð°Ð´Ð°Ð½Ð¸Ñı": 4155,
      "ĠÓ©Ð·Ò¯Ð½ÑĩÓ©": 4156,
      "ÑĥÐºÑĥÐ¼": 4157,
      "Ð¾Ð»Ð¾": 4158,
      "ĠÐ¸ÑĢ": 4159,
      "ĠÑĪÐ¸Ð»": 4160,
      "ÑĭÐºÑĤÐ°ÑĢÑĭ": 4161,
      "ÐµÑĤÐµ": 4162,
      "ÐĺÐĺÐĳ": 4163,
      ".Ð¢": 4164,
      "-Ðľ": 4165,
      "ÑĥÐ¼ÑĤÓ©ÑĢ": 4166,
      "ĠÐºÑĭÐ·Ð¼Ð°ÑĤÐºÐµÑĢÐ¸": 4167,
      "ĠÑĩÐµÐ»Ð¾Ð²": 4168,
      "ĠÐĲÐļÐ¨Ð½ÑĭÐ½": 4169,
      "ĠÐ¶Ò¯ÐºÑĤ": 4170,
      "ĠÐ¶Ó©Ð½Ó©ÐºÓ©Ð¹": 4171,
      "ĠÐ¸Ð·Ð´Ó©Ó©": 4172,
      "ĠÐ½Ð¸Ðº": 4173,
      "ĠÐ¶Ò¯ÑĢÓ©ÑĤ": 4174,
      "Ò¯Ð±Ò¯Ð·": 4175,
      "ĠÐºÐ°ÑĢÐ°Ð¹": 4176,
      "ĠÐ±ÐµÐ»Ð³Ð¸Ð»ÐµÐ³ÐµÐ½": 4177,
      "ĠÐºÐ°ÑĦ": 4178,
      "Ð´Ó©Ð³Ó©Ð½": 4179,
      "ĠÐºÐ¾Ñĳ": 4180,
      "ĠÑģÐ»ÐµÐ´Ñĥ": 4181,
      "ĠÐľÐ°": 4182,
      "ĠÑĤÐ°ÑıÐ½": 4183,
      "ĠÐ³Ð¾Ð´Ð°": 4184,
      "ĠÐ¶Ð°ÐºÑĭÐ½Ð´Ð°": 4185,
      "ÐµÐ»Ð¸Ðº": 4186,
      "ĠÑģÐ°ÐºÑĤÐ°Ð¿": 4187,
      "ĠÓ©ÑģÒ¯Ð¼Ð´Ò¯ÐºÑĤ": 4188,
      "ĠÑĤÓ©Ð»Ó©Ð¼": 4189,
      "ĠÐ±Ð°ÑģÐ°": 4190,
      "ĠÐ¶Ð¾Ð³Ð¾ÑĤ": 4191,
      "ĠÐºÑĭÐ·Ð¼": 4192,
      "ĠÐ¢ÐµÑĢ": 4193,
      "ĠÐºÑĭÐ·Ð¼Ð°ÑĤÑĭÐ½Ð°Ð½": 4194,
      "ĠÑĤÐµÐºÑģÑĤ": 4195,
      "ĠÐºÐ°Ð½Ð´Ð°Ð¹Ð´ÑĭÑĢ": 4196,
      "ÑĥÐ±ÑĥÐ·": 4197,
      "ĠÐ¸Ð´ÐµÑı": 4198,
      "ÑĩÑĭÐ»Ð°ÑĢÑĭ": 4199,
      "ĠÐºÑĭÐ·Ð¼Ð°ÑĤÑĤÐ°ÑĪÑĤ": 4200,
      "Ð¸ÑıÐ½Ñĭ": 4201,
      "ĠÐ±Ð°Ð³ÑĭÑĤÑĤÐ°Ð»Ð³Ð°Ð½": 4202,
      "ĠÑĤÐ°Ð»ÐºÑĥÑĥ": 4203,
      "ĠÐ°Ð»ÑĭÑģÑĤÑĭÐºÑĤ": 4204,
      "ĠÑĤÐµÐ³ÐµÑĢ": 4205,
      "ĠÑĤÐ¾Ð±Ñĥ": 4206,
      "ĠÐ¾Ð»Ñĥ": 4207,
      "ĠÐºÒ¯Ð·": 4208,
      "ÐĲÐ¢Ðŀ": 4209,
      "Ð³Ð¾Ð»": 4210,
      "ÐĳÐµÐ»": 4211,
      "32": 4212,
      "-ÐĲÑĤÐ°": 4213,
      "Ð¾ÐºÐ¾Ð»": 4214,
      "ÑĨÐ¸Ð½Ð°": 4215,
      "Ð´Ð°ÐºÑĤ": 4216,
      "ĠÐ¿ÑĥÐ½ÐºÑĤ": 4217,
      "Ð¾Ð³ÑĥÐ·": 4218,
      "ÐļÑĭÐ·": 4219,
      "ĠÑįÐºÑģÐ¿ÐµÑĢÑĤ": 4220,
      "ĠÑįÑĦÑĦÐµÐºÑĤ": 4221,
      "ĠÐ±Ð¸Ð¹Ð»Ð¸Ð³Ð¸": 4222,
      "ĠÐºÐ°Ð¼ÑģÑĭÐ·Ð´Ð¾Ð¾": 4223,
      "Ò¯ÑĪÒ¯Ð½": 4224,
      "ĠÐ¼Ð°Ð°Ð»ÑĭÐ¼Ð°ÑĤÑĭÐ½Ð°": 4225,
      "ĠÐºÐ°ÑĤÑĭÑĪÑĭÐ¿": 4226,
      "ÐĲÐļ": 4227,
      "ĠÐºÓ©ÑĢÑģÓ©ÑĤÐºÒ¯ÑĩÑĤÓ©ÑĢ": 4228,
      "ĠÑĤÐ°Ð°Ð¿": 4229,
      "ÑĥÐºÑĤÐ°Ð¶": 4230,
      "ĠÐºÑĭÐ¼Ð±": 4231,
      "ÐµÐ½Ð¸ÐµÐ¼": 4232,
      "ĠÐ´ÑįÑįÑĢÐ»Ð¸Ðº": 4233,
      "ĠÐ±Ó©Ð»Ò¯Ð¿": 4234,
      "ÑħÐ¾Ð´Ð¸ÑĤ": 4235,
      "ÑĩÑĭÐ½ÑĭÐ½": 4236,
      "ÑĢÐ°Ñģ": 4237,
      "ĠÐ±Ð¸ÑĢÐ¸Ð¼": 4238,
      "ĠÐºÓ©Ð¼Ò¯ÑĢ": 4239,
      "ĠÐŀÑĢÑĤÐ¾": 4240,
      "ĠÑģÐµÐ±ÐµÐ±Ð¸": 4241,
      "ĠÐ¡Ð°Ð¼": 4242,
      "ĠÐ°Ð»ÑĮ": 4243,
      "ĠÐ°Ð»ÑĭÑģÑĤÑĭÐºÑĤÐ°": 4244,
      "Ð°Ð½Ð¸Ð¹": 4245,
      "ÐĵÐ¸Ð´ÑĢÐ¾Ð»Ð¾Ð³Ð¸ÑıÐ»ÑĭÐº": 4246,
      "ĠÑĤÐµÑĢÑĢÐ¾ÑĢ": 4247,
      "ĠÑĢÐ°Ð¹Ð¾Ð½Ð´Ð¾ÑĪÑĤÑĥÑĢÑĥÑĥ": 4248,
      "ÑĪÑĤÑĭ": 4249,
      "ĠÐ¼ÑĥÐ½": 4250,
      "ĠÐ°Ð»ÑĭÐ½Ð´Ñĭ": 4251,
      "ĠÐ¸Ð½Ð²ÐµÑģÑĤÐ¸ÑĨÐ¸Ñı": 4252,
      "ĠÑĦÐ°ÐºÑĥÐ»ÑĮÑĤ": 4253,
      "ĠÐ´Ð²": 4254,
      "ĠÐ¢Ð°": 4255,
      "ĠÐ¸Ð¼Ðµ": 4256,
      "Ð¸ÑĢÐ¸Ð¿": 4257,
      "ĠÐºÐ°Ð°ÑĢ": 4258,
      "ĠÐ½Ð°Ð°ÑĢÐ°Ð·Ñĭ": 4259,
      "ÑĩÐ¸Ðº": 4260,
      "ÑģÐµÐ¹Ð½Ð´Ð¸Ð½": 4261,
      "Ð¾ÑĢÑĤÑĤÑĥÐº": 4262,
      "ĠÐ¶Ð°ÑĪÑĭÑĢ": 4263,
      "Ð¾Ð½Ð¾Ð¼Ð¸ÐºÐ°Ð»ÑĭÐº": 4264,
      "ÑĭÐ»Ð±ÐµÐº": 4265,
      "ĠÐ±Ð¾Ð»Ð±Ð¾Ð¹": 4266,
      "Ð»ÑĮ": 4267,
      "Ð¿ÑĭÑģÑĭÐ½Ð°Ð½": 4268,
      "ĠÐ±Ð¾": 4269,
      "ĠÐ¡Ð¡Ðł": 4270,
      "ĠÐºÓ©Ð±Ò¯ÑĢÓ©Ó©Ðº": 4271,
      "ĠÑĤÐ¾Ð¼ÑĥÐ½ÑĥÐ½": 4272,
      "ĠÐºÐ°Ð»ÐºÑĭÐ½ÑĭÐ½": 4273,
      "ÐµÑģÐ¸Ð½Ð´Ðµ": 4274,
      "ĠÐĸÐ°ÑĢ": 4275,
      "Ð¾Ð¸Ð½ÑĦÐ¾ÑĢÐ¼Ð°ÑĤ": 4276,
      "ĠÐ¶ÑĭÐ¹ÑĭÐ½ÑĤÑĭÐ³Ñĭ": 4277,
      "ĠÐ¼Ð°ÑĪÐ¸Ð½": 4278,
      "75": 4279,
      "ĠÐ·Ð°ÑĢ": 4280,
      "ĠÑĤÐ°Ð·Ð°Ð»": 4281,
      "ĠÐ³Ð¾Ð»": 4282,
      "ĠÑĦÑĥÑĤÐ±Ð¾Ð»": 4283,
      "ĠÑģÑĥÑĢÐ¾Ð¾Ð»Ð¾ÑĢ": 4284,
      "ĠÑĤÐµÑĢÑĢÐ¸ÑĤÐ¾ÑĢÐ¸ÑıÑģÑĭÐ½ÑĭÐ½": 4285,
      "ÐµÐµÐ²": 4286,
      "Ð¼Ð°Ð»ÑĥÑĥ": 4287,
      "ÐŃÐ¼": 4288,
      "ĠÐ³ÐµÐ¾Ð¸Ð½ÑĦÐ¾ÑĢÐ¼Ð°ÑĤ": 4289,
      "ĠÐ¸ÑĪÑĤÐ¸": 4290,
      "Ð°Ð±Ð°ÑģÑĤÐ°Ð½": 4291,
      "ĠÐ³ÐµÐ¾Ð¸Ð½ÑĦÐ¾ÑĢÐ¼Ð°ÑĤÐ¸Ð²Ð´Ð¸Ðº": 4292,
      "ĠÐºÐ°Ð·Ð°Ðº": 4293,
      "ĠÐºÐ°Ð¼Ð°ÐºÐºÐ°": 4294,
      "ĠÐ¼Ð°Ð´Ð°Ð½Ð¸Ð¹": 4295,
      "ĠÑĩÑĭÐ³ÑĭÐ¼": 4296,
      "ĠÑĤÐ°ÑĢÐ°Ð¿ÑĤÑĥÑĥ": 4297,
      "ĠÐºÐµÑģÐµÐ¿": 4298,
      "//": 4299,
      "ĠÐµÑģÑĤÑĮ": 4300,
      "ĠÐ¶Ð°ÑĪÑĤÐ°ÑĢ": 4301,
      "ÐĳÐ°ÑģÑģÐµÐ¹Ð½Ð´Ð¸Ð½": 4302,
      "Ð³ÑĭÐ¹": 4303,
      "ĠÐ¾Ð±ÑĬÐµÐºÑĤÐ¸ÑģÐ¸Ð½Ð¸Ð½": 4304,
      "Ð¾Ð²Ð¾Ð¹": 4305,
      "Ð¸ÑģÑĤÐ°Ð½": 4306,
      "Ð²Ð¾Ðº": 4307,
      "ĠÐ½ÐµÐ´": 4308,
      "ĠÑģÐ°Ð»ÑĭÐº": 4309,
      "ÐµÐ½ÑĤÐ°": 4310,
      "ÑĥÑĢÐ¼Ð°Ð½": 4311,
      "ĠÐ¾Ð¿Ð¿Ð¾Ð·Ð¸ÑĨÐ¸Ñı": 4312,
      "ÑĤÑĭÐ¼": 4313,
      "Ð¼Ð°ÑĢ": 4314,
      "ĠÐ¼ÑĥÐºÑĤÐ°Ð¶": 4315,
      "ĠO": 4316,
      "ĠÑĤÐ¾ÑĢ": 4317,
      "ĠÐ¢Ð°Ðº": 4318,
      "ĠÐ°ÑıÐºÑĤÐ°Ð³Ð°Ð½": 4319,
      "ĠÐºÐ¾Ò£": 4320,
      "Ð·Ðµ": 4321,
      "65": 4322,
      "ĠÐ¼ÐµÐ·Ð³Ð¸Ð»Ð´Ðµ": 4323,
      "ĠÐĳÐ°ÐºÐ¸ÐµÐ²": 4324,
      "-Ð¾ÐºÑĤÑıÐ±ÑĢÐ´Ð°": 4325,
      "ĠÐ°Ð½ÑĭÐºÑĤÐ°Ð»Ð³Ð°Ð½": 4326,
      "Ð¾Ð½Ð¸Ñı": 4327,
      "ĠÐ°Ð¹ÑĤÐ°": 4328,
      "ĠÐ°ÑĢÐ°Ð´Ð°": 4329,
      "ĠÑĢÐµÐµÑģÑĤÑĢÐ¸Ð½Ð´ÐµÐ³Ð¸": 4330,
      "ĠÐ±Ð¾Ð»ÐµÐµ": 4331,
      "ĠÐŀÑĢÐ¾Ð·": 4332,
      "ĠÑģÐµÐ¹": 4333,
      "ĠÐ±Ð°Ð°": 4334,
      "Ð¸Ð´Ð°": 4335,
      "ĠÑĤÐµÑħÐ½Ð¾Ð»Ð¾Ð³Ð¸Ñı": 4336,
      "ĠÐĲÑıÐ½": 4337,
      "ĠÐºÒ¯Ð½Ð³Ó©": 4338,
      "ĠÐºÓ©ÑĢÓ©": 4339,
      "ĠÐĺÑĩÐºÐ¸": 4340,
      "Ð°ÐºÑĤÐ°ÑĢÑĭ": 4341,
      "ĠÐ´Ð¸Ñģ": 4342,
      "ÑĢÐµÑģÑģ": 4343,
      "Ð¿Ð°Ð³Ð°Ð½": 4344,
      "ÐµÑģÑĤÐ²Ð¾": 4345,
      "ĠÐľÑĭÐ½Ð°": 4346,
      "ÐĲÑĤÐ°": 4347,
      "Ð´Ó©ÑĢÒ¯Ð½": 4348,
      "Ð®": 4349,
      "ÐĶÐµÐ¼": 4350,
      "ĠÑĭÑĢÐ°Ð°Ð·Ñĭ": 4351,
      "ÑĭÑĪÑĭÐ½Ð°": 4352,
      "Ó©Ð»Ò¯Ò¯": 4353,
      "ĠÐ¡Ð°ÑĢ": 4354,
      "ĠÑĤÐ¸Ð»Ðº": 4355,
      "ĠÐ¢Ð¾ÐºÑĤÐ¾Ð³ÑĥÐ»": 4356,
      "II": 4357,
      "Ð³ÑĥÐ·": 4358,
      "ĠÐļÐ°Ñģ": 4359,
      "ĠÐ²ÑĭÑģ": 4360,
      "ÑĥÑĥÑĩÑĥÐ»Ð°ÑĢÐ´ÑĭÐ½": 4361,
      "ĠÐºÐ°ÑĩÑĭÐ¿": 4362,
      "ĠÐºÑĭÑĢÐ´Ð°Ð°Ð»": 4363,
      "ÑĥÐ»ÑıÑĢ": 4364,
      "ĠÐºÐµÐ»Ð¸Ð½": 4365,
      "ĠÐ¸Ð³ÑĢ": 4366,
      "ĠÐ¶Ó©Ð½Ð³Ó©": 4367,
      "ÑĥÐ´Ð¸": 4368,
      "ĠÐļÐµÐ»": 4369,
      "ĠÐ¸ÑģÐ¿Ð¾Ð»ÑĮÐ·Ð¾Ð²": 4370,
      "ĠÐ¡Ð°Ð»": 4371,
      "Ð¾ÑĢÐ´ÑĥÐ½": 4372,
      "ĠÐ³Ð»": 4373,
      "ĠÑģÑĤÐ¾": 4374,
      "ĠÐ¶Ò¯ÑĢÒ¯ÑĪÒ¯Ð½Ð´Ó©": 4375,
      "ĠÐ¿Ð¾Ñĩ": 4376,
      "ĠÐ°ÑıÐ½ÑĤ": 4377,
      "ĠÐºÐ¾ÑĪÐ¾": 4378,
      "ĠÐºÐ°ÑĢÑĭÐ·": 4379,
      "ĠÐ¶Ð°ÑĪÑĤ": 4380,
      "ÑİÑĢ": 4381,
      "Ò¯Ð³Ò¯Ð½Ò¯Ð½": 4382,
      "ÐµÐ»ÐµÑĢÐ¸Ð½": 4383,
      "ĠÑĤÐ°ÑĤÐ°": 4384,
      "ĠÐ³Ð¾": 4385,
      "39": 4386,
      "ĠÐ¶ÑįÑįÐ³Ð¸Ð½ÐµÐ½": 4387,
      "ĠÑįÐºÑģÐ¿ÐµÑĢ": 4388,
      "ĠÐ°ÐºÑĤÐ¸Ð²Ð´Ò¯Ò¯": 4389,
      "Â°": 4390,
      "ĠÑĢÐµÐ³Ð¸": 4391,
      "ĠÐºÓ©ÑĢÑģÓ©ÑĤÒ¯Ð¿": 4392,
      "ĠÐ´Ð¾Ð»Ð±Ð¾Ð¾ÑĢÐ»Ð¾ÑĢ": 4393,
      "ÑĨÐ°": 4394,
      "ĠÐ½ÑĥÐ¶Ð½Ð¾": 4395,
      "-Ð¸ÑİÐ½Ð´Ð°": 4396,
      "Ð´Ð¾Ð²": 4397,
      "ĠÐ°Ð´Ð°Ð±Ð¸Ñı": 4398,
      "Ð°Ð¼ÐµÐ½ÑĤ": 4399,
      "ĠÐļÑĭÐ»Ð¼": 4400,
      "ĠÑĤÐ°Ð»ÐºÑĥÑĥÐ»": 4401,
      "Ó©ÑĢÐ´Ò¯Ð½": 4402,
      "ĠÐ¡ÐµÐ±ÐµÐ±Ð¸": 4403,
      "ĠÐ½Ð°Ð·": 4404,
      "Ð°ÑĤÑĤÑĭÐºÑĤÑĭ": 4405,
      "ÑĥÐ¼Ð°Ð½": 4406,
      "ĠÑĢÐµÐ´Ð°Ðº": 4407,
      "ĠÐ¼Ð°ÑĢ": 4408,
      "ĠÐľÐ¸ÑĢ": 4409,
      "ÑĭÐ»ÑĤ": 4410,
      "ĠÐºÐ°ÑģÐ¸": 4411,
      "ĠÐºÑĭÐ»Ð´Ñĭ": 4412,
      "ĠÑįÐ»Ð¸Ð½Ð¸Ð½": 4413,
      "ag": 4414,
      "ÑĩÐ°Ð¼": 4415,
      "ÐµÐºÐ¸": 4416,
      "tion": 4417,
      "ĠÐ±Ð¾Ð»Ð¶Ð¾Ð»": 4418,
      "ĠÐºÓ©ÑĢÐ³Ó©Ð·": 4419,
      "-ÐºÐ°ÑĢ": 4420,
      "Ð¾Ð½Ð°": 4421,
      "Ð°Ð¹Ð»ÑĥÑĥ": 4422,
      "ĠÑĩÐ°Ð³ÑĭÐ»Ð´ÑĭÑĢ": 4423,
      "ĠÐºÐ¾ÑİÑĥ": 4424,
      "ÑĩÐµÑĢÑįÑįÐº": 4425,
      "ĠÐ´Ð¸Ð¿Ð»Ð¾Ð¼": 4426,
      "ĠÐ¾ÑĤÐº": 4427,
      "ĠÐºÐ°ÑĢÐ¾Ð¾": 4428,
      "ĠÑĢÐ°": 4429,
      "ĠÐºÒ¯ÑĩÓ©ÑĤ": 4430,
      "ÑģÐºÐ°Ñı": 4431,
      "Ð¸ÑĤÑĢ": 4432,
      "Ð»Ð¸Ð¼Ð¿Ð¸": 4433,
      "ÐļÐļ": 4434,
      "ĠÐ¿Ð¾ÑĢÑĤ": 4435,
      "ĠÑĤÒ¯Ð·Ò¯Ð¿": 4436,
      "ĠÐ½Ð°ÑĪ": 4437,
      "ÑģÑĥÐ½Ð´Ð°": 4438,
      "ÑĤÐºÐµÐ½": 4439,
      "ĠÐ´Ð°ÑĢÑĭÑıÑģÑĭ": 4440,
      "Ð¸Ð»ÑĮÐ¼": 4441,
      "ĠÑĥÑİÑĪÑĤÑĥÑĢÑĥÑĥ": 4442,
      "ĠÓ©ÑģÑĤ": 4443,
      "ĠÑĩÐ°Ñĩ": 4444,
      "ĠÐ¼Ð¾ÑĢ": 4445,
      "ĠÑĤÐµÐ»ÐµÐº": 4446,
      "ÐĲÐĿ": 4447,
      "Ð¾Ð·Ð°": 4448,
      "ĠÐµÐ²ÑĢ": 4449,
      "ĠÑģÑĥÐ±": 4450,
      "ĠÒ¯ÑĩÒ¯Ð½ÑĩÒ¯": 4451,
      "ĠÐŁÐ¾": 4452,
      "ĠÐºÐ¾Ð¾Ð·": 4453,
      "ĠÐ°Ð»Ð´ÑĭÐ½Ð´Ð°Ð³Ñĭ": 4454,
      "ÐµÐºÑĤÐµÑĪ": 4455,
      "Ð°Ð±Ð°ÑĢ": 4456,
      "ĠÐ·Ð°ÑĤ": 4457,
      "ÑĢÐ´": 4458,
      "ÐµÑģÑĮ": 4459,
      "ĠÐ°ÑıÐ»Ð´Ð°ÑĢ": 4460,
      "ĠÐ·Ð°Ð»": 4461,
      "tp": 4462,
      "ĠÐ±ÐµÐ»Ð³Ð¸Ð»ÐµÐ¿": 4463,
      "Ð±Ð°ÑĪ": 4464,
      "Ð½Ð¸ÐºÐ°": 4465,
      "ĠÐ°Ð»ÑĭÐ½Ð°ÑĤ": 4466,
      "Ò¯ÐºÑĤÒ¯Ð½": 4467,
      "ÑĤÑĥ": 4468,
      "ĠÑĭÐºÑĤ": 4469,
      "ĠÑĩÐ°": 4470,
      "Ð±Ð¾ÑĢ": 4471,
      "ÑĢÐ°ÑĤÐµÐ³": 4472,
      "44": 4473,
      "Ð´ÑĥÑĥÐ»ÑĥÐº": 4474,
      "Ð°Ð»Ð°ÑĢÑĭÐ½ÑĭÐ½": 4475,
      "ĠÑĢÐ°Ð¹Ð¾Ð½Ð´Ð¾ÑĢ": 4476,
      "ÑĢÐ¸Ð´Ð¸ÐºÐ°Ð»ÑĭÐº": 4477,
      "ĠÑĤÐ¾Ð³Ð¾": 4478,
      "Ð³ÐµÐº": 4479,
      "ĠÐ¼Ð°ÑĢÐº": 4480,
      "ĠÐ¼ÐµÐ»Ð´Ðµ": 4481,
      "ÐļÐ°ÑĢ": 4482,
      "ĠÑĤÐµÐºÑĪÐµÑĢÒ¯Ò¯": 4483,
      "ĠÐ¼Ð°ÐºÑģÐ°ÑĤÑĭ": 4484,
      "Ð±Ð°Ð»": 4485,
      "Ð´Ð¾ÑĢÑĥ": 4486,
      "ĠÐ´ÑĢ": 4487,
      "ĠÑĤÒ¯Ð¹": 4488,
      "ÑĦÐµÑĢ": 4489,
      "ĠÐ´ÐµÐ¿ÑĥÑĤÐ°ÑĤÑĤÐ°ÑĢ": 4490,
      "ĠÑĤÐ¾ÐºÑĤÐ¾Ð¼": 4491,
      "ÐµÑĤÑĤÐµÐ½": 4492,
      "ĠÐ±Ð°ÑĢÐ°ÐºÑĩ": 4493,
      "ĠÑĩÐµÐ¼Ð¿Ð¸Ð¾Ð½": 4494,
      "ĠÐºÐ°Ð½Ð°": 4495,
      "08": 4496,
      "ĠÐ¾ÑĤÑĥÑĢÐ³Ð°Ð½": 4497,
      "Ð¸Ð½Ð¾Ð²": 4498,
      "ĠÐ¶Ð°ÑĢÐ´Ð°Ð¼Ñĭ": 4499,
      "Ð½Ð¾Ð³": 4500,
      "ĠÐ±Ð¾Ð¹Ð´Ð¾Ð½": 4501,
      "ÐĸÐ°Ð»Ð¿Ñĭ": 4502,
      "ĠÐ¿ÑĢÐ¾Ð´ÑĥÐºÑĤ": 4503,
      "ĠÐ¼Ð°ÑģÐµÐ»ÐµÑģÐ¸": 4504,
      "ÑĭÑĢÑĥÑĥ": 4505,
      "ĠÑĤÒ¯ÑģÑĤ": 4506,
      "ĠÑĥÑģÐ»": 4507,
      "ĠÓ©Ð½Ò¯ÐºÑĤÒ¯ÑĢ": 4508,
      "ĠÑĪÐ°Ð¹Ð»Ð¾Ð¾Ð³Ð¾": 4509,
      "Ð³Ð¸Ð½": 4510,
      "ÐµÐ½Ñĭ": 4511,
      "Ð±Ó©Ð³Ó©Ð½": 4512,
      "http": 4513,
      "ĠÐ¾Ð»ÑĥÑĤÑĤÑĥÑĥ": 4514,
      "ĠÐºÐ°Ð»ÑĭÐ¿ÑĤÐ°Ð½": 4515,
      "Ð¶Ð°Ð»": 4516,
      "Ð±ÐµÐºÐ¾Ð²Ð°": 4517,
      "ĠÑĤÒ¯ÑĢÒ¯Ð½Ð´Ó©": 4518,
      "Ð°ÑģÑĭÑı": 4519,
      "ĠÐ§ÑĭÐ½": 4520,
      "ĠÐ¾ÑĢÐ³Ð°Ð½Ð´Ð°ÑĢÑĭ": 4521,
      "ÐµÐ´Ðµ": 4522,
      "ĠÐŀÐ±ÑĮ": 4523,
      "ÐµÐºÐµÐ¹": 4524,
      "ĠÑįÐ»ÑĩÐ¸Ð»": 4525,
      "ĠÑĢÐµÑģÐ¿ÑĥÐ±Ð»Ð¸ÐºÐ°Ð»ÑĭÐº": 4526,
      "Ð´Ð°Ð¹ÑĤ": 4527,
      "ĠÐ±Ð¸ÑĢÐ¸Ð½": 4528,
      "ĠÐ³ÑĢÐ°Ð¼": 4529,
      "ĠÐ¼ÐµÑĤÐ°Ð»Ð»": 4530,
      "ĠÐ±Ð¸ÑĢÐ´ÐµÐ¹": 4531,
      "-ÑģÐµÐ½ÑĤÑıÐ±ÑĢÐ´Ð°": 4532,
      "Ð³Ð¸Ð»ÐµÐ¹": 4533,
      "Ð»Ð°Ñħ": 4534,
      "Ð»ÐµÐºÑĤ": 4535,
      "Ð¾ÑģÑĥÐ½ÑĥÐ½": 4536,
      "ĠÐºÐ°ÑĢÐ°Ð±Ð°ÑģÑĤÐ°Ð½": 4537,
      "ÑĮÑİÑĤÐµÑĢ": 4538,
      "ĠÐļÑĥÐ»": 4539,
      "://": 4540,
      "ĠÑįÑįÑģÐ¸": 4541,
      "Ð³Ó©ÑĩÓ©": 4542,
      "ĠÑģÐ¾Ð¾Ð»": 4543,
      "190": 4544,
      "ĠÐ¿ÐµÐ´Ð°Ð³Ð¾Ð³": 4545,
      "ĠÐ´ÐµÐ¼Ð¾ÐºÑĢÐ°ÑĤ": 4546,
      "ĠÐ±Ð¸Ð¹Ð»Ð¸Ð³": 4547,
      "Ð¸Ð´ÐµÑĢÐ¸": 4548,
      "Ð»Ð°ÑģÑĤ": 4549,
      "ĠÐºÐ¾Ð½ÑĤÑĢ": 4550,
      "ĠÐºÐ³": 4551,
      "ÑĥÐºÑĤÑĥ": 4552,
      "ĠÐºÑĭÑģÐº": 4553,
      "ĠÑĩÐµÐ»Ð¾Ð²ÐµÐº": 4554,
      "ÑĥÐºÑĤÑĥÐ½": 4555,
      "ĠÐ¼Ò¯ÑĩÓ©Ð»Ó©ÑĢÒ¯": 4556,
      "ĠÐ±Ð°Ð¹Ð»Ð°Ð½ÑĭÑĪÐºÐ°Ð½": 4557,
      "ĠÐ¼Ð°Ð½": 4558,
      "ĠÐ´ÐµÐ¼Ð¸Ð»Ð³": 4559,
      "ĠÐŃÑģÐºÐµ": 4560,
      "ĠÐ°Ð¹Ð¼Ð°ÐºÑĤÑĭÐº": 4561,
      "ĠÐ¼Ð¾Ð³ÑĥÑĤ": 4562,
      "Ð¼ÐµÐ´": 4563,
      "Ð°ÑĢÐ¸Ñı": 4564,
      "ĠÐ¿Ð°ÑĢÐ»Ð°Ð¼ÐµÐ½ÑĤÑĤÐ¸Ðº": 4565,
      "ĠÑĤÑĥÐºÑĥÐ¼": 4566,
      "ĠÐ²Ð¾Ð·Ð¼Ð¾Ð¶": 4567,
      "ĠÐ¢Ð¸Ð»": 4568,
      "ĠÐºÑĥÑĢÐ°Ð¼Ñĭ": 4569,
      "ĠÑģÐ¾ÑĤÑĥ": 4570,
      "ĠÐ±Ð¾Ð»ÑĥÑĥ": 4571,
      "ĠÑĥÐ¼": 4572,
      "ĠÐ¾Ð¾ÑĢÑĥÐºÐ°Ð½": 4573,
      "ĠÐºÐ¾ÑİÐ»": 4574,
      "ĠÑĤÐ¾ÐºÐ¾Ð¹": 4575,
      "ĠÐ»Ð¸Ð´ÐµÑĢÐ¸": 4576,
      "ĠU": 4577,
      "ÑģÒ¯Ð½Ó©": 4578,
      "ĠÐ¶Ð°ÑĤÐºÐ°Ð½Ð´Ð°": 4579,
      "ĠÐºÓ©ÑĤÓ©ÑĢÒ¯Ð¿": 4580,
      "ĠÐŀÑĪÐµÐ½ÑĤÐ¸Ð¿": 4581,
      "ÐµÑģÑı": 4582,
      "ĠÑĤÐµÐ¹Ð»": 4583,
      "ĠÐºÓ©Ð¿ÑĩÒ¯Ð»": 4584,
      "ĠÐ¼Ò¯Ð¼ÐºÒ¯Ð½ÑĩÒ¯Ð»Ò¯Ðº": 4585,
      "Ð»Ð°Ð½ÑĭÐ¿": 4586,
      "ĠÐ°ÑĢÐ°ÐºÐµÑĤÑĤÐµÐ½": 4587,
      "ĠÑĤÒ¯ÑĤ": 4588,
      "ĠÐµÐµ": 4589,
      "ĠÐĳÑĢÐ¸ÑĤ": 4590,
      "09": 4591,
      "ĠÑįÑĪ": 4592,
      "Ð°ÑģÑĭÒ£": 4593,
      "ĠÐ´ÑĥÑĪ": 4594,
      "ĠÐ»ÐµÑĤ": 4595,
      "ĠÐļÐ°Ð·Ð°ÐºÑģÑĤÐ°Ð½Ð´ÑĭÐ½": 4596,
      "ĠÑĥÐ±Ð°ÐºÑĭ": 4597,
      "ÐºÐ°Ñı": 4598,
      "ĠÑįÑĤÐ¾Ð³Ð¾": 4599,
      "ĠÐ±Ò¯ÑĤÐºÓ©Ð½": 4600,
      "ĠÐĲÐ·ÑĭÑĢÐºÑĭ": 4601,
      "ĠÑĤÑĥÑĤÑĥÐ¼": 4602,
      "ĠÐ¶Ð°ÐºÐºÐ°": 4603,
      "ĠÐ´Ð¸Ð½Ð°Ð¼": 4604,
      "ĠÐ±Ð°Ð»Ð´Ð°ÑĢÐ´ÑĭÐ½": 4605,
      "ÑĭÐ±ÑĭÐ·": 4606,
      "Ð¸Ð³ÑĭÐ¹": 4607,
      "ĠÑĭÐ»Ð´Ð°Ð¼": 4608,
      "ĠÐ±Ð°ÑĢÐ°ÑĤÐºÐ°Ð½": 4609,
      "ĠÐ´ÑĢÐ°Ð¼": 4610,
      "ĠÐ±Ð¾ÑĢÐ±Ð¾ÑĢÐ´ÑĥÐº": 4611,
      "ĠÐ¼Ð°Ð³": 4612,
      "Ð´Ò¯Ð³Ò¯": 4613,
      "Ð¾Ð»Ð´Ñĥ": 4614,
      "ĠÐ¸ÑĪÑĤÓ©Ó©": 4615,
      "ĠÑģÐ¸Ð½": 4616,
      ".\"": 4617,
      "em": 4618,
      "ĠÐºÐ°Ð¹ÑĤÑĭÐ¿": 4619,
      "ĠÐĲÑıÐ½ÑĤÑĭ": 4620,
      "ÑĭÐ»Ð°": 4621,
      "ÑĭÐ¹ÑĤ": 4622,
      "Ð°ÑĤÑĭÑĪ": 4623,
      "ĠÐ¶ÐµÑĤÐ¸": 4624,
      "-Ð¼Ð°Ð¹Ð´Ð°": 4625,
      "ĠÐºÑĭÐ·Ð¼Ð°ÑĤÑĤÐ°Ð½": 4626,
      "ĠÐĺÑĪ": 4627,
      "ĠÑĦÐ¸Ð»Ð¾ÑģÐ¾ÑĦ": 4628,
      "ÑĥÑĪÐºÐ°Ð½": 4629,
      "ĠÐ°Ð´Ð°Ð¼Ð´Ñĭ": 4630,
      "ad": 4631,
      "ÐļÑĭÑĢÐ³ÑĭÐ·ÑģÑĤÐ°Ð½Ð´Ð°": 4632,
      "ĠÐ°Ð½Ð°Ð»Ð¸Ð·": 4633,
      "ĠÐ²ÑĢÐ°": 4634,
      "ĠÐ°Ð½ÑĤ": 4635,
      "Ò¯ÑĢÑĤ": 4636,
      "ĠÑĤÐ°Ð¼ÑĭÑĢ": 4637,
      "ĠÐ¼Ò¯ÑĩÓ©": 4638,
      "ĠÐºÐ¾Ð½Ñģ": 4639,
      "ĠÑĥÐ½Ð¸Ð²ÐµÑĢÑģÐ¸ÑĤÐµÑĤÐ¸Ð½Ð¸Ð½": 4640,
      "ĠÐ¼Ð¸Ðº": 4641,
      "ĠÓ©Ð·Ò¯Ò£": 4642,
      "ĠÑĩÐµÑĩÐ¸Ð¼Ð¸": 4643,
      "ĠÐĳÐµÑĢ": 4644,
      "Ð°ÑĦ": 4645,
      "Ð¿Ð¸ÑĢ": 4646,
      "ÐºÐ¾Ð¾Ð»": 4647,
      "ĠÐĿÐ¾Ð²": 4648,
      "Ó©Ó©Ð½Ò¯": 4649,
      "ĠÐŀÐº": 4650,
      "Ð°Ð°Ðº": 4651,
      "ĠÐºÑĭÑĢÑģ": 4652,
      "Ð´Ó©ÑĢÐ´Ò¯Ð½": 4653,
      "ĠÒ¯Ð·": 4654,
      "ĠÐºÑĭÐ¹Ð»Ð°": 4655,
      "Ð´Ò¯Ð¼": 4656,
      "ĠÐ°Ð¹ÑĭÐ½Ð°Ð½": 4657,
      "ÑĭÐ¼Ð´Ñĭ": 4658,
      "ĠÐĲÐ»Ð°": 4659,
      "ĠÑįÐ½ÐµÑĢÐ³ÐµÑĤ": 4660,
      "ew": 4661,
      "ĠÐ¶Ð¾ÐºÐºÐ¾": 4662,
      "of": 4663,
      "ÐºÐ°ÐµÐ²": 4664,
      "ĠÐºÐµÐ»Ð³ÐµÐ½Ð´Ðµ": 4665,
      "ĠÐ¾ÑĢÐ³Ð°Ð½Ð´Ð°ÑĢÑĭÐ½ÑĭÐ½": 4666,
      "47": 4667,
      "ĠÐºÓ©Ð±Ò¯Ð½ÑĩÓ©": 4668,
      "ĠÐ§ÑĭÐ³ÑĭÑĪ": 4669,
      "ĠÐ°ÑĪÑĭÑĢÑĥÑĥ": 4670,
      "ĠÓ©Ð½Ð´Ò¯ÑĢÒ¯ÑĪ": 4671,
      "Ð¾ÑĢÐ¾ÑĪ": 4672,
      "ĠÑĤÐµÐ¿": 4673,
      "ĠÓ©ÐºÒ¯Ð¼": 4674,
      "ÐļÑĭÑĢÐ³ÑĭÐ·ÑģÑĤÐ°Ð½Ð´ÑĭÐ½": 4675,
      "ĠÐ¾Ð½Ð¸": 4676,
      "ĠÐ½Ð°ÑĤÑĭÐ¹Ð¶Ð°ÑģÑĭÐ½Ð´Ð°": 4677,
      "ĠÐ¸Ð½ÑĦÐµÐº": 4678,
      "ĠÑģÐ¿ÐµÑĨÐ¸": 4679,
      "ĠÑĥÐ±Ð°": 4680,
      "ÑĤÑĤÑĥ": 4681,
      "ĠÐºÒ¯Ð½Ð´Ó©Ð½": 4682,
      "Ð´ÐµÑĪÑĤ": 4683,
      "ÑĢÐ¾Ð½": 4684,
      "ĠÐ¶Ð¾ÐºÑĤ": 4685,
      "ĠÐºÒ¯Ð½Ð´Ó©ÑĢÒ¯": 4686,
      "ĠÑĩÑĭÐ³Ð°ÑĢÑĭÐ»Ð³Ð°Ð½": 4687,
      "ĠÐ¾ÐºÑĥÐ¼ÑĥÑĪÑĤ": 4688,
      "ĠÐ¼ÐµÐºÑĤÐµÐ±": 4689,
      "ĠÐ±Ð°Ð½ÐºÑĤ": 4690,
      "ĠÐ¾ÑĩÐµÐ½ÑĮ": 4691,
      "Ð¼ÑĥÑĢ": 4692,
      "ÑĥÑĤÐ¸Ð½": 4693,
      "ÑĥÑİÑī": 4694,
      "ĠÐ¶Ð°ÑĢÑĭÑıÐ»Ð°Ð³Ð°Ð½": 4695,
      "Ø§": 4696,
      "ĠÐ¿Ð¾Ð»Ð¸ÑĨÐ¸Ñı": 4697,
      "ĠÐ¸Ð½ÑģÐ°Ð½": 4698,
      "ĠÐ¾ÑĤÑĥÑĢÑĥÐ¼": 4699,
      "ĠÑģÐ°Ðº": 4700,
      "ĠÐ¶Ð°ÑĢÐ°Ð½Ð´Ð°ÑĢ": 4701,
      "ÑĢÐ°Ð¸Ð¼Ð¾Ð²": 4702,
      "Ð°ÑĢÐ¸Ð¿": 4703,
      "Ð¶Ð¸": 4704,
      "ĠÐļÐ°Ð´ÑĭÑĢ": 4705,
      "ĠÒ¯Ð¼": 4706,
      "Ð¸ÐºÑĤÐ¸": 4707,
      "ĠÑģÐ¾Ð¼Ð´Ð¾Ð½": 4708,
      "ĠÐ¸ÑĪÑĤÐµÑĪ": 4709,
      "ÑĥÑĥÑģÑĥÐ½Ð°": 4710,
      "ĠÐľÐ°Ðº": 4711,
      "400": 4712,
      "ÐľÐ°Ð°Ð»ÑĭÐ¼Ð°ÑĤÐºÐ°": 4713,
      "Ð´Ð°Ð»ÑĥÑĥ": 4714,
      "ĠÐ»Ð¸Ð´ÐµÑĢ": 4715,
      "ĠÑģÐ¸ÑģÑĤÐµÐ¼Ð°ÑģÑĭ": 4716,
      "ÐºÒ¯Ð»": 4717,
      "Ð¾Ð³ÑĢÐ°ÑĦÐ¸ÑıÑģÑĭ": 4718,
      "ÑĥÐ³ÑĥÐ½Ð°": 4719,
      "ĠÐ°ÑĤÐ°Ð»Ð°ÑĤ": 4720,
      "ĠÐ±Ð¸Ð»Ð´Ð¸ÑĢÒ¯Ò¯": 4721,
      "ĠÐºÐµÑĩÑįÑį": 4722,
      "ÑģÒ¯Ð½Ò¯Ð½": 4723,
      "ĠÐºÐ°Ð¹ÑĢÑĭÐ»Ð³Ð°Ð½": 4724,
      "ĠÐ¼Ð°Ð°Ð½Ð¸": 4725,
      "-Ð¢Ð¾Ð¾": 4726,
      "ĠÐ¾Ð±Ñī": 4727,
      "ĠÐĳÐµÐ¹": 4728,
      "Ð½ÐµÐ²": 4729,
      "ĠÑĤÐ¾Ð¿ÑĤÐ¾ÑĢ": 4730,
      "ĠÐ¼Ð»ÑĢÐ´": 4731,
      "ĠÑĢÐ¾Ð¼": 4732,
      "ĠÐ¡Ð¸ÑĢ": 4733,
      "ÑıÐ²": 4734,
      "ÑĨÐ¸ÑıÑģÑĭÐ½": 4735,
      "ĠÑĥÐ±Ð°Ð³ÑĭÐ½Ð´Ð°": 4736,
      "ĠÐ´ÐµÒ£Ð³ÑįÑįÐ»Ð´Ðµ": 4737,
      "ĠÐķÑģÐ»Ð¸": 4738,
      "ĠIn": 4739,
      "Ð°Ð¹ÑĭÐ¿": 4740,
      "ĠÐĳÐ£": 4741,
      "Ð°ÑĤÐ¾Ð²": 4742,
      "ÑĪÑĥ": 4743,
      "ĠÐ¸Ð½Ð´ÐµÐº": 4744,
      "ĠÑģÐ°Ð»ÑĭÑĪÑĤÑĭÑĢÐ¼Ð°Ð»ÑĥÑĥ": 4745,
      "ĠÐºÐ°ÑĢÐ¶ÑĭÐ»": 4746,
      "Éµ": 4747,
      "ÑĨÐ¸ÑıÐ½Ñĭ": 4748,
      "Ð°Ð»ÑĭÑĪÑĭ": 4749,
      "ĠÐ¿ÑĢÐ¾Ð´ÑĥÐº": 4750,
      "ĠÐ±Ð¸ÑĢÐ¸ÐºÐ¼": 4751,
      "Ð°ÐºÑĤÐ°Ð³Ñĭ": 4752,
      "ĠÑĩÐ°Ð¹": 4753,
      "ĠÐ±Ð¾Ð·": 4754,
      "Ð¸ÑıÐ´Ð°Ð³Ñĭ": 4755,
      "Ð»Ð¸Ð²": 4756,
      "ĠÑįÐ½ÑĨÐ¸ÐºÐ»Ð¾Ð¿ÐµÐ´": 4757,
      "ĠÐ¾Ò£Ð´Ð¾Ð¾": 4758,
      "Ð¶ÑĭÑĢ": 4759,
      "ĠÓ©Ð½Ò¯Ð³Ò¯Ò¯": 4760,
      "ĠÑĤÐ°Ð³Ð´ÑĭÑĢ": 4761,
      "ĠÑĤÒ¯ÑĪÑĤ": 4762,
      "ĠÐ¶Ð°ÑĪÑĭÐ»": 4763,
      "ĠÐºÓ©Ð¹Ð³Ó©Ð¹Ð»Ó©ÑĢ": 4764,
      "ĠÑĤÒ¯Ð±": 4765,
      "ÑĤÑĮ": 4766,
      "ÐŃÐ³ÐµÑĢ": 4767,
      "Ð¸Ð½Ñĭ": 4768,
      "Ð¸ÐºÐ°Ð´Ð°": 4769,
      "Ð»Ð°Ð½Ð´": 4770,
      "ĠÐ±Ð°ÑĪÐºÐ°ÑĩÐ°": 4771,
      "ĠÐ·Ð°Ð±": 4772,
      "ĠÐ°Ð·ÑĭÑĢÑĭÐ½ÑĩÐ°": 4773,
      "-Ð°Ð²Ð³ÑĥÑģÑĤÑĤÐ°": 4774,
      "Ð¼ÑĭÐ½": 4775,
      "Ð»Ð¾ÑĢÑĥ": 4776,
      "ÐĳÐ¸ÑĢÐ¾Ðº": 4777,
      "ĠÐ¢Ð°ÑĪÐ¸ÐµÐ²": 4778,
      "ĠÐľÐµÐ½Ð¸Ð½": 4779,
      "ÐºÐµÐ¼": 4780,
      "ÑĥÐ»ÑĥÑĥ": 4781,
      "ĠÑĤÐ¸Ðº": 4782,
      "ĠÐ´Ð°ÑıÑĢÐ´Ð¾Ð¾": 4783,
      "ĠÐ¸ÑģÑĤ": 4784,
      "ĠÐ°Ð½Ð³Ð»": 4785,
      "ĠÐļÐµÐ½": 4786,
      "Ð±Ð°Ð¿": 4787,
      "un": 4788,
      "ĠÑģÐ¾ÑĤÑĤÑĥÐ½": 4789,
      "-Ð½Ð¾ÑıÐ±ÑĢÐ´Ð°": 4790,
      "ĠÐ¿Ð¾Ð½": 4791,
      "ĠÐ±ÐµÑĢÒ¯Ò¯Ð½Ò¯": 4792,
      "ĠÐĴÐ»Ð°": 4793,
      "ĠÐŀÑĪÐ¾Ð½Ð´Ð¾": 4794,
      "ĠÐ´ÐµÐ¹ÑģÑĤÐ²": 4795,
      "ĠÑĥÐ¶Ðµ": 4796,
      "-Ð¼Ð°ÑĢÑĤ": 4797,
      "ĠÐ¿Ð°ÑĤ": 4798,
      "ĠÐ°ÑįÑĢÐ¾Ð¿": 4799,
      "ÑĥÐ½Ð·Ðµ": 4800,
      "ĠÐ¾ÐºÑĥÐ³Ð°Ð½": 4801,
      "ĠÐºÐ¾Ð½ÑĤ": 4802,
      "-Ð¼Ð°ÑĢÑĤÑĤÐ°": 4803,
      "ÐµÑĢÐ¸Ð½Ðµ": 4804,
      "04": 4805,
      "ĠÐ¿Ð°ÑģÐ¿": 4806,
      "ĠÐ±Ð°ÐºÑĤ": 4807,
      "ÑĭÐ½Ð´Ð°Ð¿": 4808,
      "ĠÑĦÐ¸Ð½Ð°Ð½Ñģ": 4809,
      "ÐµÑĤÐµÑĢ": 4810,
      "ĠÐĸÐ°Ð·": 4811,
      "ĠÑģÐµÐ·Ð¸Ð¼": 4812,
      "ÐµÑĢÐ¶": 4813,
      "ÐºÑĥÑĤ": 4814,
      "Ġ(Â«": 4815,
      "ĠÐºÐ°ÑĢÐ°Ð±Ð°Ð¹": 4816,
      "ĠÐľÑĥÐ½Ñĥ": 4817,
      "Â».Ċ": 4818,
      "ĠÑįÑĢÑĤÐµÒ£": 4819,
      "ĠÐ´ÑĭÐ¹ÐºÐ°Ð½": 4820,
      "ĠÐ¶Ó©Ð½Ð´Ó©Ð¼": 4821,
      "Ð°Ð½Ð³Ð»": 4822,
      "ĠÑĤÐ°ÑĤÐ°Ð°Ð»": 4823,
      "ĠÐ¶ÐµÑĤÐ¸ÑĪÐºÐµÐ½": 4824,
      "ĠÑĦÐ¾Ð½Ð´ÑĥÐ½": 4825,
      "ĠÑĤÐ¾Ð¹": 4826,
      "ÑıÐ±ÑĢÑĭÐ½Ð´Ð°": 4827,
      "ĠÐ°Ð¿Ð¿Ð°ÑĢ": 4828,
      "ĠÐºÐ°Ð¿Ð¸ÑĤ": 4829,
      "VID": 4830,
      "ĠÐ¶Ð¾Ð»ÑĥÐ½": 4831,
      "ĠÐ¼Ð°Ð¹Ð´Ð°": 4832,
      "ĠÐºÐ¾ÑĪÑĥÐ»Ð³Ð°Ð½": 4833,
      "ĠÐ°ÑĤÐ°Ð°Ð½Ð´Ð°": 4834,
      "ent": 4835,
      "ĠÐºÐ¾ÑĢÐ³Ð¾": 4836,
      "ĠÑĤÐ°ÑģÐ¼Ð°": 4837,
      "ĠÐºÒ¯Ð½Ò¯Ð½": 4838,
      "ĠÐŀÑģÐ¼Ð¾Ð½": 4839,
      "Ð¾Ð»Ð±": 4840,
      "ĠÐºÐ°Ð»ÑģÐ°": 4841,
      "ÐµÑģÑĤÐ¸Ð²": 4842,
      "ÐµÒ£Ð¸Ð·": 4843,
      "ÐµÑģÑĤÐ²ÐµÐ½": 4844,
      "ĠÐ±ÐµÑĤÑĤ": 4845,
      "Ð°Ð½ÑĭÑĩ": 4846,
      "ĠÑĤÐ°ÑĢÐ¼Ð°ÐºÑĤÐ°ÑĢ": 4847,
      "ĠÓ¨Ð¼Ò¯ÑĢÐ±ÐµÐº": 4848,
      "ĠÐ´Ð°ÑĢÐ°Ð¶": 4849,
      "Ð¼Ð°Ð»Ð°ÑĢÐ´Ñĭ": 4850,
      "ĠÐĺÑģÐ°Ðº": 4851,
      "Ð¾ÑģÑĤÐ¾ÑıÐ½": 4852,
      "ĠÐºÐ°ÑĢÐ°Ð½Ð´ÑĭÑģÑĭÐ·": 4853,
      "ĠÐºÐ°ÑĤÑĭÑĪÑĤÑĭ": 4854,
      "ÑģÐ¼": 4855,
      "ÐµÐ¼Ñĥ": 4856,
      "ĠÐºÐ¾Ð·Ð³Ð¾Ð»Ð³Ð¾Ð½": 4857,
      "ĠÐ¶ÐµÐ½": 4858,
      "ĠÐ°Ð·ÑĭÐº": 4859,
      "ĠÐ±Ð°ÑĪÑĤÐ°Ð¹ÑĤ": 4860,
      "ÑģÑĤÑĢÑĥÐº": 4861,
      "ĠÐºÐ°ÑĤÑĭÑĪÑĥÑĥ": 4862,
      "ĠÐ±Ð°ÑĢÑĭ": 4863,
      "Ð±ÑĭÑĢ": 4864,
      "ĠÐ±Ð°Ð·Ð°ÑĢ": 4865,
      "-Ð°Ð¿ÑĢÐµÐ»Ð´Ðµ": 4866,
      "ĠÐ¾Ð¾ÑĢÑĥÐºÐ°Ð½Ð°Ð³Ð°": 4867,
      "ÐµÐ¼ÐµÑĤ": 4868,
      "OVID": 4869,
      "ĠÐ°Ð½Ð´Ð°Ð¹": 4870,
      "âĢ¦Ċ": 4871,
      "ĠÐºÐµÑĢÐµÐºÑĤÐ¸Ð³Ð¸Ð½": 4872,
      "ĠÐ±Ð°Ð»Ð´Ð°ÑĢÑĭ": 4873,
      "ĠÐ¢ÑĥÑĢÐ³ÑĥÐ½": 4874,
      "ĠÐļÑĭÑĢ": 4875,
      "ÐµÐ¿ÑĥÑĤ": 4876,
      "ĠÑĤÐ¸Ð¹Ð¸ÑĪÑĤÒ¯Ò¯": 4877,
      "ĠÑ": 4878,
      "Ð¸ÑģÑģÐµÑĢ": 4879,
      "ĠÑĤÑĥÑĢÐ³ÑĥÐ½Ñĥ": 4880,
      "ĠÐ¶ÑĥÐ¼ÑĥÑĪÑĩÑĥ": 4881,
      "ÐºÐ°Ð½ÑĭÐ½": 4882,
      "ĠÐ£ÐºÑĢÐ°Ð¸Ð½Ð°": 4883,
      "Ò£ÐºÑĭ": 4884,
      "ĠÐ¿ÑĢÐ¾Ð¸Ð·Ð²": 4885,
      "ĠÐ°Ð»Ð°ÑģÑĭÐ·": 4886,
      "ĠÑĭÑĢÐ°ÑģÑĤ": 4887,
      "-ÑıÐ½Ð²Ð°ÑĢÐ´Ð°": 4888,
      "ĠÐ±Ð°Ð»Ð°Ð½ÑĭÐ½": 4889,
      "Ð¾ÑģÐ¼": 4890,
      "ĠÐ¼ÐµÑĢ": 4891,
      "ay": 4892,
      "ĠÓ©Ð·Ð³Ó©ÑĢÒ¯ÑĪÒ¯": 4893,
      "02": 4894,
      "Ġc": 4895,
      "ĠÐ¶Ð°Ð°ÑĤ": 4896,
      "Ð¾Ð»ÑĮÑĪ": 4897,
      "ĠÐ±Ð°ÑĤÑĭÑĪ": 4898,
      "ĠÑģÑĤÑĢÐ°ÑĤÐµÐ³": 4899,
      "ĠÐŀÐ½": 4900,
      "ÐĶÐŁ": 4901,
      "Ð¾Ð¾Ð¿ÑģÑĥÐ·": 4902,
      "ĠÑģÐ°Ð½ÑĭÐ½ÑĭÐ½": 4903,
      "ĠÐ´ÐµÐ³ÐµÐ½Ð´Ðµ": 4904,
      "ĠÐ¾ÑĤÑĥÑĢÑĥÐ¿": 4905,
      "ĠÐŀÐ¾Ð³Ð°Ð½": 4906,
      "ĠÑĤÐ¾Ð»ÑĤÑĥÑĢ": 4907,
      "ĠÐ½ÐµÐ³Ð¸Ð·Ð´ÐµÐ»Ð³ÐµÐ½": 4908,
      "ĠÐºÓ©Ð»Ó©Ð¼Ò¯": 4909,
      "ĠÐ°ÑıÐ³ÑĭÐ½Ð°": 4910,
      "ĠÐ¶ÐµÐ¼": 4911,
      "ĠÐ¿ÑĢÐ¸Ð½ÑĨÐ¸Ð¿": 4912,
      "ĠÑĢÐµÑĪ": 4913,
      "ĠÑĤÐ°Ð½Ð´Ð¾Ð¾": 4914,
      "Ð°Ð»ÑĮÐ½ÑĭÐ¹": 4915,
      "ĠÑĤÑĢÐ°Ð½ÑģÐ¿Ð¾ÑĢÑĤ": 4916,
      "ĠÑĥÑİÐ¼ÑĥÐ½ÑĥÐ½": 4917,
      "Ò¯ÑĪÓ©ÑĤ": 4918,
      "Ð°ÑĨÐ¸ÑıÐ»ÑĭÐº": 4919,
      "ĠÐ°Ð¹Ð¼Ð°Ð³Ñĭ": 4920,
      "ÐļÐľ": 4921,
      "ia": 4922,
      "ĠÐ¶ÑĭÐ»Ð´Ñĭ": 4923,
      "Ð½Ð¸ÐºÐ¾Ð²": 4924,
      "ĠÑĢÐµÑģÐ¿ÑĥÐ±Ð»Ð¸Ðº": 4925,
      "ĠÐºÑĥÑĢÐ¼Ð°Ð½": 4926,
      "Ð´Ð°Ð´Ñĭ": 4927,
      "ĠÐºÑĢÐ¸Ð·": 4928,
      "ÑĩÐ°Ðº": 4929,
      "Ð¸ÑĢÑĥ": 4930,
      "ÑĭÐ»ÑĥÑĥÐ´Ð°": 4931,
      "Ð°Ð½ÑģÑĭ": 4932,
      "ĠÐ½ÐµÐ¿": 4933,
      "Ð°Ð»Ð¸ÐµÐ²Ð°": 4934,
      "ĠÐĶÐ°": 4935,
      "ĠÑĥÐ»Ð°Ð½": 4936,
      "ĠÐĳÑĢ": 4937,
      "ĠÐ¶Ð¸Ð·": 4938,
      "ĠÐ¼Ñĭ": 4939,
      "ĠÐ¢ÐµÐ¼Ð¸ÑĢ": 4940,
      "ĠÐºÑĥÑİ": 4941,
      "ĠÑĤÐ¾ÑģÐºÐ¾Ð¾Ð»": 4942,
      "ĠÑģÐ´ÐµÐ»": 4943,
      "Ð¾Ð²Ð°Ð½Ð¸Ñı": 4944,
      "Ð¾Ð¼Ð¾Ð»": 4945,
      "ĠÑĥÐºÑĤ": 4946,
      "ĠÐ¾ÑĢÑĤÐ¾ÑĩÐ¾": 4947,
      "Ð»Ð¾ÑĤ": 4948,
      "ĠÐĿÐ¾": 4949,
      "ÑĨÐ¸Ð¹": 4950,
      "ĠÐ¶Ð°ÑĢÐ°ÑĤÐºÐ°Ð½": 4951,
      "ĠÐ¼Ð¸Ð³ÑĢÐ°Ð½": 4952,
      "ÑĭÐ³ÑĭÐ¿": 4953,
      "ĠÑģÐµÐ±ÐµÐ¿ÑĤ": 4954,
      "ĠÐļÐ°ÑĢÐ°Ðº": 4955,
      "-Ð¸ÑİÐ»Ð´Ð°": 4956,
      "ĠÐľÑĥÑħÐ°Ð¼": 4957,
      "ĠÑĤÐ¾Ð½Ð½Ð°": 4958,
      "ĠÐºÐ¸Ñĩ": 4959,
      "ĠÑĤÐµÑģÑĤ": 4960,
      "ĠÑģÑĤÐ°Ð½Ð´Ð°ÑĢ": 4961,
      "ĠÑĤÐµÑĢÑģ": 4962,
      "ĠÐ°Ð½ÑĭÐºÑĤÐ¾Ð¾": 4963,
      "ĠÐºÐµÒ£ÐµÑĪÐ¸Ð½Ðµ": 4964,
      "ĠÐ°Ð¼ÐµÑĢÐ¸ÐºÐ°Ð»ÑĭÐº": 4965,
      "ĠÑİÑĢÐ¸Ð´Ð¸ÐºÐ°Ð»ÑĭÐº": 4966,
      "ĠÐľÐ°ÐºÑģ": 4967,
      "ĠÐ¶ÑĥÑĥ": 4968,
      "ĠÐ°ÑĢÐ¼": 4969,
      "ÑģÑĭÒ£": 4970,
      "ĠÐºÐ°ÑĤÐµÐ³": 4971,
      "ĠÑģÐ¿Ð¾ÑģÐ¾Ð±": 4972,
      "ĠÐĲÑħ": 4973,
      "Ð³ÐµÐ¼ÐµÐ½": 4974,
      "ĠÐ°Ð¹ÑĭÐ»Ñĭ": 4975,
      "ĠÑģÐ¾Ðº": 4976,
      "ÑĤÑĤÑĥÐºÑĤ": 4977,
      "Ð¸Ð¼Ð°": 4978,
      "ĠÐ°ÑĩÑĥÑĥ": 4979,
      "ÑĥÐ´Ð°": 4980,
      "ĠÐ¼Ð°ÑģÐµÐ»ÐµÐ½Ð¸": 4981,
      "ĠÐ¼Ð°Ð¼Ð»ÐµÐºÐµÑĤÑĤÐµÑĢ": 4982,
      "ÐµÐºÑĤÐµÑĢÐ¸": 4983,
      "ĠÐ°ÑĢÐ·": 4984,
      "ĠÐ²Ðº": 4985,
      "ĠÑģÐ¸Ð·Ð´Ð¸Ð½": 4986,
      "ĠÐ±Ð°ÑģÑĭÐ»": 4987,
      "ĠÑĥÐºÑĥÐ³Ñĥ": 4988,
      "ĠÐľÐ¾ÑģÐºÐ²": 4989,
      "Ð½Ñĥ": 4990,
      "ĠÐ±Ð°Ð»Ð°ÑģÑĭ": 4991,
      "ĠÂ": 4992,
      "ĠÐ¶ÑĭÐ»Ð´Ð°ÑĢÑĭ": 4993,
      "ĠÑģÐ¾ÑĤÑĤÑĥÐº": 4994,
      "ĠÐ´Ð°ÑĢÐ¾Ð¾": 4995,
      ").ĊĊ": 4996,
      "Ò¯Ò¯ÑģÒ¯Ð½Ó©": 4997,
      "ĠÑĢÐµÐ´Ð°ÐºÑĤ": 4998,
      "ĠÑĤÐ°Ð¶Ð¸Ðº": 4999,
      "Ġs": 5000,
      "Ð°ÑĪÐºÐ°": 5001,
      "Ð¿Ð°Ð½Ð¸Ñı": 5002,
      "ĠÑĥÐºÑĥÐºÑĤÑĥÐº": 5003,
      "SB": 5004,
      "Ð¾Ð½Ð´ÑĥÐ½": 5005,
      "ĠÐ´ÑĢÑĥÐ³": 5006,
      "Ò£Ð¸Ð·": 5007,
      "-Ð´Ð°ÑĢ": 5008,
      "ĠÐ±Ð¾Ð»ÑģÑĥÐ½": 5009,
      "ĠÐ°ÑĢÐ³": 5010,
      "ĠÐ²Ð°ÑĪ": 5011,
      "ĠÐ¢ÐµÐºÐµ": 5012,
      "ĠÐºÐ°Ð¹ÑĢÑĭÐ»ÑĭÐ¿": 5013,
      "ĠÓ©Ð·Ð±ÐµÐº": 5014,
      "ĠÑĢÐµÐ³": 5015,
      "ÐµÑģÑĤÐ²Ð°": 5016,
      "ĠÐ¼ÑĥÐ·ÐµÐ¹": 5017,
      "ĠÐ°Ð¹ÑĤÐ°ÑĤ": 5018,
      "Ð¸Ð½Ð¾": 5019,
      "ĠÐºÑĭÑĢÐ³ÑĭÐ·Ð´Ð°ÑĢ": 5020,
      "ĠÐ¶Ð°Ð±ÑĭÑĢÐºÐ°Ð³Ð°Ð½": 5021,
      "ĠÓ©ÐºÐ¼Ó©ÑĤÒ¯": 5022,
      "ĠÐºÒ¯ÑĢÓ©ÑĪÒ¯Ò¯": 5023,
      "ÑĢÑĥÐ³Ð¸": 5024,
      "Ð±ÐµÐºÐ¾Ð²Ð´ÑĥÐ½": 5025,
      "ĠÑģÐ°Ð¿Ð°ÑĢ": 5026,
      "-Ð´ÐµÐºÐ°Ð±ÑĢÐ´Ð°": 5027,
      "ĠÐ¾Ð¹Ð»Ð¾Ð½": 5028,
      "Ò¯ÐºÑĤÓ©ÑĢÒ¯": 5029,
      "ĠÑįÐ»Ð¸": 5030,
      "ir": 5031,
      "ĠÐ±Ð¾Ð»Ñģ": 5032,
      "ĠÑĩÐ¾Ð³ÑĥÐ»ÑĤ": 5033,
      "Ó©Ó©ÑģÒ¯": 5034,
      "ĠÐ°ÑıÐ³ÑĭÐ½Ð´Ð°": 5035,
      "ÐŀÑĪÐ¾Ð½Ð´Ð¾Ð¹": 5036,
      "Ð°Ð±ÐµÐº": 5037,
      "ĠÐ¶Ð°ÑĢÐ°Ð½Ñĭ": 5038,
      "Ð¸ÑĢÑĥÑģÑĤ": 5039,
      "ĠÐ¶Ð°ÑĪÐºÐ°": 5040,
      "ot": 5041,
      "ĠÐ²Ð°Ð»": 5042,
      "ÑĦÐ¾ÑĢÐ¼": 5043,
      "az": 5044,
      "ĠÐ¶Ò¯Ðº": 5045,
      "ĠÐ°Ð´Ð°Ð¼Ð³Ð°": 5046,
      "ĠÐ¶Ð°Ð·Ð´Ñĭ": 5047,
      "ÐŃÐĳ": 5048,
      "ĠÑįÐ¼ÐµÑģÐ¿": 5049,
      "ĠÐ¾Ð¿ÑĢÐµÐ´": 5050,
      "ĠÐ±ÑĥÑĥ": 5051,
      "ĠÐ¶Ð¸Ð²": 5052,
      "ĠÐ°Ð¿ÑĢ": 5053,
      "ĠÑģÐ°Ð»Ð¼": 5054,
      "ĠÐ°ÑĩÑĭÐ¿": 5055,
      "ĠÐ¶Ð°Ð¹Ð³Ð°ÑĪÑĤÑĭÑĢ": 5056,
      "ĠÐ±Ð°Ð¹Ð»": 5057,
      "ĠÐ´ÐµÐ½ÑĮ": 5058,
      "ĠÐ¿Ð»Ð°ÑĤ": 5059,
      "ÙĦ": 5060,
      "ÐºÑĤÑĭ": 5061,
      "ÑĩÑĭÐ»Ð°ÑĢÐ´ÑĭÐ½": 5062,
      "ĠÐ¼Ð¸Ð»Ð´ÐµÑĤÑĤÒ¯Ò¯": 5063,
      "ĠÐ³ÑĢÐ°Ð½": 5064,
      "ĠÑĥÐ»ÑĥÑĤ": 5065,
      "Ò¯Ò£Ò¯Ð·": 5066,
      "ĠÐĳÐ°Ð½": 5067,
      "ĠÐºÐ°Ð±Ð°ÑĢÐ»Ð°Ð´Ñĭ": 5068,
      "-ÑĦÐµÐ²ÑĢÐ°Ð»Ð´Ð°": 5069,
      "ÑĭÑĢÐ·Ð°": 5070,
      "Ò¯ÑĢÒ¯Ð¼": 5071,
      "Ð¸Ñİ": 5072,
      "Ð´Ð°Ð»ÑĭÐ¿": 5073,
      "ĠÐºÐ¾Ð³Ð´Ð°": 5074,
      "Ð°Ð»Ð°Ð³Ð°Ð½": 5075,
      "ĠÐ¾ÑĢÐ´ÐµÐ½": 5076,
      "ĠÑĩÑĭÐ½ÑĭÐ³Ñĭ": 5077,
      "ĠÐ¶Ð°Ð±Ð´ÑĥÑĥ": 5078,
      "ĠÐ°Ð²ÑĤÐ¾ÑĥÐ½Ð°": 5079,
      "ĠÑĤÐ°Ð¿ÑĤ": 5080,
      "-Ċ": 5081,
      "ĠÑĩÐµÑĤÐºÐµ": 5082,
      "ĠÑĩÐµÐ½ÐµÐ¼": 5083,
      "ĠÐ¶Ð¸Ð³Ð¸ÑĤ": 5084,
      "ĠÐ±Ð°ÑĢÐ´ÑĭÐ³Ñĭ": 5085,
      "ĠÐ±Ð¸Ð¹Ð»Ð¸ÐºÑĤÐ¸Ð½": 5086,
      "ĠÐ¢Ð°Ð¶Ð¸ÐºÑģÑĤÐ°Ð½Ð´ÑĭÐ½": 5087,
      "ĠÑĢÑĥÐº": 5088,
      "ĠÐ½Ð°ÑģÑĭÑı": 5089,
      "ĠÐ¿Ð°Ð´Ñĭ": 5090,
      "ig": 5091,
      "ĠÐļÐ°Ðº": 5092,
      "ĠÐ¼ÐµÑĤÐ¾Ð´": 5093,
      "ĠÑĤÑĥÑĢÐ³ÑĥÐ½Ð´Ð°ÑĢÐ´ÑĭÐ½": 5094,
      "ÑĭÐºÑĤÐ°ÑĢÐ´Ñĭ": 5095,
      "ÑĩÑĥÐ»Ð°ÑĢÑĭ": 5096,
      "ĠÐºÐ¾ÑĤÐ¾ÑĢÑĭÐ¹": 5097,
      "Ð´Ð¸Ð³Ð¸Ð½Ðµ": 5098,
      "ĠÒ®Ð¹": 5099,
      "-ÐºÑĭÐ»ÑĭÐ¼Ð´ÑĭÐ½": 5100,
      "ĠÐ¿ÑĢÐµÐ¿": 5101,
      "ĠÐ«ÑĢ": 5102,
      "ĠÐ½Ð°Ð°Ð¼": 5103,
      "ĠÐ¼Ð¸Ò£Ð´ÐµÐ½": 5104,
      "ĠÐ°Ð¿Ð¿Ð°ÑĢÐ°ÑĤ": 5105,
      "ĠÐļÐľ": 5106,
      "ÑħÐ¾Ð·": 5107,
      "and": 5108,
      "ĠÑĢÐµÐ²Ð¾Ð»Ñİ": 5109,
      "ĠÐºÐ¾Ð¼Ð¿ÑĮÑİÑĤÐµÑĢ": 5110,
      "Ð´Ð¸Ð¼Ð¸ÑĢ": 5111,
      "ĠÐ¶ÑĥÐ¼ÑĥÑĪÑĤ": 5112,
      "ĠÐļÑĭÐ»Ð¼ÑĭÑĪ": 5113,
      "Ð¾Ð»Ð¾ÑĤ": 5114,
      "ĠÐ±ÐµÑĢÐ¸Ð»Ð´Ð¸": 5115,
      "-ÐĶ": 5116,
      "-ÑįÐº": 5117,
      "ÑĤÐµÑĢÐ¸": 5118,
      "Ð°Ð»ÑĮÐ½Ð¾": 5119,
      "ĠÐĲÐ¹ÑĢÑĭÐ¼": 5120,
      "ĠÐºÑĭÑı": 5121,
      "ĠÑĭÐºÑĩÐ°Ð¼": 5122,
      ");": 5123,
      "Ð¸Ð¼Ð´Ð¸": 5124,
      "ÑĤÑĤÑĭÐº": 5125,
      "ĠÐĺÑģÐ»Ð°Ð¼": 5126,
      "ĠÑĩÐ¾Ð³ÑĥÑĥ": 5127,
      "ĠÐ°Ð¹ÑĭÐ¼": 5128,
      "ĠÑĤÐ°Ð±Ð¸Ð³ÑĭÐ¹": 5129,
      "ĠÐ¸Ð·Ð¸Ð»Ð´Ó©": 5130,
      "ĠÐ«Ð¹": 5131,
      "ĠÑıÐ²Ð»ÑıÐµÑĤÑģÑı": 5132,
      "ĠÐºÐ°Ð»ÐºÑĭ": 5133,
      "ĠÐ°Ð¹ÑĭÐ»ÑĭÐ½Ð´Ð°Ð³Ñĭ": 5134,
      "ÑģÑĮ": 5135,
      "Ð¸ÐºÐ¾Ð²": 5136,
      "ĠÐ¼Ð¸Ð»Ð´ÐµÑĤÐ¸Ð½": 5137,
      "Ð³Ð°Ð½Ñĭ": 5138,
      "ĠÐ¾ÐºÑĪÐ¾ÑĪ": 5139,
      "Ġp": 5140,
      "ÐºÐ°Ð¿": 5141,
      "ÑıÐ¼": 5142,
      "-ÑĢ": 5143,
      "ĠÐ°Ð»ÐµÐºÑĤÐµÐ½": 5144,
      "ĠÐ±Ð°ÑĪÑĭÐ½Ð°Ð½": 5145,
      "ĠÐ¼Ð¾Ð¹": 5146,
      "Ð³Ð°Ð½Ð´Ð°": 5147,
      "ÑģÑĤÑĭÐº": 5148,
      "ÐµÑĦ": 5149,
      "ÑĤÐ¸Ð¼": 5150,
      "ĠÐ»ÐµÑĩ": 5151,
      "ĠÑĤÐ°ÑĢÑĭÑħÑĭ": 5152,
      "120": 5153,
      "Ð½Ð¸Ð½": 5154,
      "ĠÐ¡Ð¿": 5155,
      "ĠÐ²Ð·": 5156,
      "ÑĥÑģÐ°": 5157,
      "ĠÐ°ÑģÐºÐµÑĢÐ»ÐµÑĢ": 5158,
      "Ð°Ð¹Ð±ÑĭÐ·": 5159,
      "ĠÐ¸ÑĪÑĤÐµÐ»Ð¸Ð¿": 5160,
      "-Ð¿ÑĢÐµÐ¼ÑĮÐµÑĢ": 5161,
      "ÑĭÒ£Ð³ÑĭÐ·": 5162,
      "-Ð¶ÑĭÐ»Ð´Ð°Ð³Ñĭ": 5163,
      "ĠÐ¿ÑĢÐ¾Ð´": 5164,
      "ĠÐ²Ð°Ðº": 5165,
      "ÑĩÐ¸Ð»Ð¸Ðº": 5166,
      "ĠÐ´Ð¾Ð»Ð±Ð¾Ð¾ÑĢÑĥÐ½": 5167,
      "ÑıÑĤÐµÐ»ÑĮ": 5168,
      "ĠÐĲÑģÐºÐ°ÑĢ": 5169,
      "Ð¸ÑĨÐ¸": 5170,
      "ĠÐºÐ°ÑĢÑĤ": 5171,
      "ĠÐ°ÑıÐ±Ð°Ð¹": 5172,
      "Ð¾Ð¾ÑģÑĥ": 5173,
      "ÐŃÐ¡": 5174,
      "06": 5175,
      "ĠÑģÑĭÐ·": 5176,
      "ÑĭÐºÑĤÐ°": 5177,
      "ĠÐ¾ÐºÑĥÑıÐ»Ð°ÑĢ": 5178,
      "46": 5179,
      "ĠÑĪÐ¸Ð»ÑĤÐµÐ¼": 5180,
      "Ð°ÑģÑĮ": 5181,
      "ÑģÒ¯Ð½Ð´Ó©": 5182,
      "ÐµÐºÑĤÐµÐ¿": 5183,
      "ĠÐĲÐ¹ÑĭÐ»": 5184,
      "ÑĤÑĤÐµÑĢÐ´Ð¸Ð½": 5185,
      "Ð°ÐºÑĤÑĭÐº": 5186,
      "ĠÑĭÒ£Ð³": 5187,
      "ÑĢÐ°Ñī": 5188,
      "os": 5189,
      "ĠÐŁÑĥÑĤÐ¸Ð½": 5190,
      "ĠÐºÐ°Ð´ÑĢ": 5191,
      "--": 5192,
      "ĠÐĿÐ¸Ðº": 5193,
      "ĠÐ±ÐµÐ¹ÑĤÐ°Ð¿": 5194,
      "Ð±Ð°Ðº": 5195,
      "ĠÐºÐ¾Ð»Ð³Ð¾": 5196,
      "ÑĥÑĥÑģÑĥÐ½Ð´Ð°": 5197,
      "ĠÐ²ÐµÐ´": 5198,
      "ĠÐ±Ð¸ÑĢÐ¸ÐºÑĤ": 5199,
      "Ò¯Ð»Ò¯Ðº": 5200,
      "Ð°ÑĨÐ¸ÑıÑģÑĭÐ½ÑĭÐ½": 5201,
      "ĠÓ©Ð»ÐºÓ©Ð´Ó©Ð³Ò¯": 5202,
      "ĠÐĸÑĭÐ»": 5203,
      "ĠÐĲÑĤÐ°Ð»Ð³Ð°Ð½": 5204,
      "ĠÐŃÑĤÐ¾": 5205,
      "ĠÐ¶Ò¯ÑĢÐ³Ò¯Ð·Ò¯Ð¿": 5206,
      "ÑĭÑĪÑĭÐ½": 5207,
      "ĠÓ©Ð»ÐºÓ©Ð³Ó©": 5208,
      "ĠÓ©Ð½Ò¯Ðº": 5209,
      "-ÑĩÐ°ÑĢÐ°": 5210,
      "ĠÐ½Ð°ÑĤÑĭÐ¹Ð¶Ð°Ð»ÑĥÑĥ": 5211,
      "Ð°ÑĢÐ¾Ð²": 5212,
      "ĠÑĪÑĤÐ°Ð±": 5213,
      "ÑĢÐ¾Ð¼": 5214,
      "ĠÐºÐ°ÑĤÐ°": 5215,
      "ĠÐ¸Ð¼Ð°ÑĢÐ°ÑĤ": 5216,
      "ĠÐºÐµÐ·Ð´ÐµÑĪÐµÑĤ": 5217,
      "Ð¾Ð»Ð¿Ð¾Ð½": 5218,
      "ĠÐ¼Ð°ÑģÐµÐ»ÐµÐ»ÐµÑĢÐ¸": 5219,
      "ĠÐºÓ©Ð·Ò¯": 5220,
      "ÐļÐ°Ð·": 5221,
      "ĠÑģÐ°Ð»Ð´Ñĭ": 5222,
      "ĠÑįÑģÐµÐ¿ÑĤÐµÐ¹ÑĤ": 5223,
      "ĠÐŁÐ¾Ð»": 5224,
      "ĠÐ¿ÑĢÐµÐ´ÑģÑĤÐ°Ð²": 5225,
      "Ð¸ÑĩÐ¸Ð½ÐµÐºÐµÐ¹": 5226,
      "ĠÐºÑĥÐ¿": 5227,
      "ÑĨÐ¸Ð°Ð»Ð´ÑĭÐº": 5228,
      "ĠÐļÒ¯Ð½": 5229,
      "ĠÐļÐ°": 5230,
      "ĠÐĳÐ¸Ð»Ð¸Ð¼": 5231,
      "Ð¾Ð±Ñĥ": 5232,
      "ĠÐ¡ÑĥÐ»ÑĤÐ°Ð½": 5233,
      "ĠÑĪÐµÐº": 5234,
      "ÑģÐ¿Ò¯ÑĢÒ¯Ð¼": 5235,
      "ĠÑĤÐ¸Ð¿": 5236,
      "ĠÐļÑįÑį": 5237,
      "Ð¸ÑĢÐ¾Ð²Ð°Ð½": 5238,
      "ĠÐĳÐ°ÑĪÐºÐ°": 5239,
      "ĠÐ°Ð³ÐµÐ½ÑĤÑĤÐ¸Ð³Ð¸Ð½Ðµ": 5240,
      "ĠÐºÑĥÑĤÑĤÑĥÐºÑĤ": 5241,
      "Ð±Ð¸Ð½": 5242,
      "Ó©Ð¼Ó©Ð½ÐºÒ¯": 5243,
      "ĠÐ±Ð¾Ð»Ð³Ð¾Ð½Ð´Ð¾": 5244,
      "ĠÐĲÐ¿": 5245,
      "ĠÐºÐ°Ð»ÐºÑĤÑĭÐ½": 5246,
      "ĠÐ¼Ð°ÑĤÐµÑĢÐ¸Ð°Ð»Ð´Ð°ÑĢ": 5247,
      "ĠÑıÐ½Ð²Ð°ÑĢ": 5248,
      "ĠÐ¶ÐµÐº": 5249,
      "ÑĩÑĭÐ»ÑĭÐ³ÑĭÐ½": 5250,
      "ÑıÐ¶": 5251,
      "Ð¼Ð°Ð½Ð¾Ð²": 5252,
      "Ð³Ð°Ð¼Ð±": 5253,
      "ÐŁÑĢÐµÐ·Ð¸Ð´ÐµÐ½ÑĤ": 5254,
      "ĠÓ©Ð»Ð³Ó©Ð½": 5255,
      "ĠÑĢÑĥÑħ": 5256,
      "ĠÑĦÐ¾Ð½Ð´Ñĥ": 5257,
      "www": 5258,
      "ÑĪÑĥÐ»": 5259,
      "Ð¸ÑıÐ´Ð°Ð½": 5260,
      "Ð´Ð¾Ð¿": 5261,
      "ÐµÐ´ÑĢ": 5262,
      "-ÑĤÐ¾": 5263,
      "ĠÐ°Ð²Ð¸": 5264,
      "Ð¸ÑĢÐ¸Ð¼": 5265,
      "ĠÑģÑĤÐ¾Ð»": 5266,
      "ĠÐ¶ÑĭÐ»ÑĥÑĥ": 5267,
      "ĠÐ°Ð¹ÑĭÐ»ÑĭÐ½ÑĭÐ½": 5268,
      "ĠÐºÐµÐ»ÑĤÐ¸ÑĢÒ¯Ò¯": 5269,
      "ÐµÑĤÐ¸Ð½ÐµÐ½": 5270,
      "ĠÐ±Ð¾Ð¾ÑĢ": 5271,
      "Ð¸Ð»Ð¸Ðº": 5272,
      "ĠÐ¼Ð°Ð¶": 5273,
      "ĠÑĤÓ©Ð¼Ó©Ð½Ð´Ó©": 5274,
      "ĠÑĢÐµÐ±": 5275,
      "ĠÑĢÐ°Ð·ÑĢ": 5276,
      "ĠÑĤÐ°Ð°ÑģÐ¸ÑĢÐ¸Ð½": 5277,
      "Ð°Ð´Ð°Ð³Ñĭ": 5278,
      "Ð°Ð¼Ð°Ð»": 5279,
      "85": 5280,
      "ĠÐŃÒ£": 5281,
      "ĠÐ¾Ð»ÑĤÑĥÑĢ": 5282,
      "ĠÐ¿Ð°Ð¹Ð´Ð°Ð»ÑĥÑĥ": 5283,
      "ĠÐĳÐ°Ð±": 5284,
      "ĠÐ¤ÑĢÑĥÐ½Ð·Ðµ": 5285,
      "Ð´ÑĭÐ¹": 5286,
      "Ð´Ò¯Ð³Ò¯Ð½": 5287,
      "ĠÐ±Ð¾ÑĢÐ±Ð¾ÑĢÑĥÐ½ÑĥÐ½": 5288,
      "ĠÐ±Ð°Ñı": 5289,
      "ĠÑĤÑĭÐ½ÑĩÑĤÑĭÐº": 5290,
      "ĠÐŃÐºÐ¸Ð½ÑĩÐ¸": 5291,
      "ÑĥÑģÐºÐ°": 5292,
      "ĠÐĳÐ¸ÑĪÐºÐµÐºÑĤÐ¸Ð½": 5293,
      "ÑĥÑģÐº": 5294,
      "?!": 5295,
      "-ÑĤÒ¯Ð·": 5296,
      "ĠÐ°ÑĢÐ°ÑģÑĭÐ½Ð´Ð°Ð³Ñĭ": 5297,
      "ĠÐ¾ÑĦ": 5298,
      "ĠÐľÐ°Ð½Ð°": 5299,
      "ÐŁÐ¾Ñĩ": 5300,
      "ĠÑĤÑĥÐ·": 5301,
      "ĠÐļÐµÑĢ": 5302,
      "ĠÒ®Ñĩ": 5303,
      "Ð°Ð¼Ð¸ÑĢ": 5304,
      "ĠÐºÐµÑĢÐµÐºÑĤÒ¯Ò¯": 5305,
      "ĠÑĥÑİÐ¼Ð´Ð°ÑĢ": 5306,
      "Ð³Ð°Ð½ÑĭÐ½": 5307,
      "ĠÐ·Ð¾Ð¼Ð±ÑĥÐ»": 5308,
      "ÐºÐ°Ð½Ñĭ": 5309,
      "ĠÐ½ÐµÑģÐº": 5310,
      "Ð°Ð¹ÑĤÐµ": 5311,
      "ĠÐºÓ©ÑĢÑģÓ©ÑĤÐºÒ¯ÑĩÑĤÓ©ÑĢÒ¯": 5312,
      "ÐµÐ½ÐºÐ¾": 5313,
      "ĠÐ°Ð»Ð±Ð°Ð³Ð°Ð½": 5314,
      "ĠÐ±Ð°ÑĪÐº": 5315,
      "ĠÐľÐ¸Ð½": 5316,
      "ÑģÐºÐ¸Ñħ": 5317,
      "ĠÐºÐ°ÑĢÑĪ": 5318,
      "ĠÐºÐ¾Ð¼Ð¿Ð°Ð½Ð¸ÑıÑģÑĭ": 5319,
      "ÑĥÑĤÑĮ": 5320,
      ".Ðĸ": 5321,
      "ĠÐ¼Ò¯Ð¼ÐºÒ¯Ð½ÑĩÒ¯Ð»Ò¯Ð³Ò¯": 5322,
      "ĠÐ°Ð»Ð°Ð±ÑĭÐ·": 5323,
      "-ÑıÐ½Ð²Ð°ÑĢÑĭÐ½Ð°": 5324,
      "ÐļÐ¾Ð¼": 5325,
      "ÑģÐ°Ð½Ð´ÑĢ": 5326,
      "49": 5327,
      "ĠÐ°ÑĤÐ°Ð¼": 5328,
      "ĠÐ±Ð¸Ð»Ð±ÐµÐ¹": 5329,
      "ĠÐºÐ¾Ð¼Ð¼ÐµÐ½ÑĤ": 5330,
      "ĠÑĤÓ©ÑĢÓ©Ð»Ð³Ó©Ð½": 5331,
      "Ð½Ð¸Ð¹": 5332,
      "ĠÐºÓ©ÑĤÓ©ÑĢÒ¯Ð»": 5333,
      "Ð¿ÐµÐ¹ÑĤ": 5334,
      "...Ċ": 5335,
      "ĠÐ¶Ð°ÑĢÐ°Ð½Ð´Ð°ÑĢÐ´ÑĭÐ½": 5336,
      "Ð¸ÑĤÐµÐ»ÑĮÐ½Ð¾": 5337,
      "Ð°Ð¹ÑĭÐ»": 5338,
      "ĠÐĲÑĤÐ°Ð¼Ð±Ð°ÐµÐ²Ð´Ð¸Ð½": 5339,
      "ÑĥÑĢÐ³": 5340,
      "ĠÐºÓ©Ð±Ò¯": 5341,
      "ÐµÐºÑĤÐ¸": 5342,
      "Ð½Ð¸ÑĨ": 5343,
      "ĠÑĩÐ°ÑĢÐ°": 5344,
      "ĠÐĶÐ¶": 5345,
      "ĠÐŁÑĢÐ¸": 5346,
      "Ð°Ð»ÑĮÐ½Ð¾Ð¹": 5347,
      "ov": 5348,
      "ĠÑĤÐ¾Ð¾Ð»Ð¾ÑĢ": 5349,
      "ĠÑĩÐ°Ð±ÑĥÑĥÐ»": 5350,
      "ĠÐĳÐ¸ÑĪÐºÐµÐºÑĤÐµÐ³Ð¸": 5351,
      "Ð´ÐµÑĢÐ¶": 5352,
      "ĠÐ°Ð´Ð¼Ð¸Ð½Ð¸ÑģÑĤÑĢÐ°": 5353,
      "Ð³Ð¾ÑĢ": 5354,
      "ĠÐºÐ°Ð´ÑĭÑĢ": 5355,
      "ĠÐºÐ¾Ð´ÐµÐºÑģÐ¸Ð½Ð¸Ð½": 5356,
      "ĠÑĩÐµÐ³": 5357,
      "ÐļÐ°Ðº": 5358,
      "ĠÑįÑĤÐ½": 5359,
      "Ð¾Ð¿ÑĢÐ¾Ñģ": 5360,
      "ĠÐĺÐ±": 5361,
      "ĠÐ¾Ð¹Ð½Ð¾": 5362,
      "ÐµÐºÑģ": 5363,
      "ĠÐ±ÐµÑĢÐµÐ¼": 5364,
      "ĠÐºÐ¾Ð¼Ð¼ÑĥÐ½": 5365,
      "ĠÐ±ÐµÑĢÐ±ÐµÐ¹": 5366,
      "ĠÓ©ÑģÒ¯Ð¿": 5367,
      "ĠÐ±Ð¾Ð»Ð¼Ð¾Ðº": 5368,
      "ĠÐºÑĭÐ»ÑĥÑĥÐ³Ð°": 5369,
      "ÐļÐ½ÑĭÐ½": 5370,
      "-Ð°ÑĪ": 5371,
      "ÐµÐ¹Ñģ": 5372,
      "ĠÐ¸ÑĪÐºÐµÑĢÐ»ÐµÑĢ": 5373,
      "ĠÐĳÐ°ÑĤÑĭÑĪ": 5374,
      "ÑĤÑĭÑĪ": 5375,
      "-ÐºÐ»Ð°Ñģ": 5376,
      "77": 5377,
      "Ð°Ð°ÑĢÑĭÐ½": 5378,
      "ÑĥÑĢÐ½Ð°Ð»": 5379,
      "ĠÓ©Ð»ÐºÓ©Ð»Ó©ÑĢÐ´Ò¯Ð½": 5380,
      "ĠÐ¿Ð¾Ð¼Ð¾Ñī": 5381,
      "ĠÑĦÐ¾Ð½Ð´": 5382,
      "ÑĨÐµÐ²": 5383,
      "ĠÐ¿ÑĢÐ¾ÑģÑĤ": 5384,
      "ĠÑįÐ»Ð´Ð¸": 5385,
      "ĠÑĥÐ·Ð°Ðº": 5386,
      "ÑĤÑĭÐ¿": 5387,
      "ĠÑģÐ½": 5388,
      "ĠÓ©Ð·Ð³Ó©ÑĢÑĤÒ¯Ò¯": 5389,
      "ĠÐ¾Ò£Ð¾Ð¹": 5390,
      "ĠÐ»ÑĥÑĩÑĪ": 5391,
      "Ð¾Ð³ÑĢÐ°ÑĦÐ¸Ñı": 5392,
      "ĠÐ³ÐµÐ½ÐµÑĢ": 5393,
      "Ð°ÑıÐ²": 5394,
      "ĠÐ¾Ð¹Ð»Ð¾Ð¿": 5395,
      "ĠÑģÑĭÐ¹Ð»Ð°Ð½Ð³Ð°Ð½": 5396,
      "ĠÐºÐ»Ð°ÑģÑģ": 5397,
      "Ð¾Ð¼ÐµÐ½": 5398,
      "ĠÓ¨Ð·Ð±ÐµÐºÑģÑĤÐ°Ð½Ð´ÑĭÐ½": 5399,
      "66": 5400,
      "ĠÑĤÓ©Ð³": 5401,
      "ĠÐ´ÑĢÑĥÐ³Ð¸": 5402,
      "ĠÑĭÐ½": 5403,
      "ÐºÐ¸Ð¹": 5404,
      "ÑĩÐ°Ð½": 5405,
      "ĠÑĥÐºÑĥÐ³ÑĥÐ½": 5406,
      "ĠÐ±ÐµÑĢÐ¸ÑĪ": 5407,
      "ĠÐ°Ð¹Ð»ÑĭÐº": 5408,
      "ÑĤÒ¯Ðº": 5409,
      "-Ð°Ð¿ÑĢÐµÐ»": 5410,
      "Ð¸ÑıÐ·": 5411,
      "ĠÐ¿Ð°Ð¹ÑĭÐ·Ð³Ð°": 5412,
      "ĠÐ¸Ð½Ð´ÐµÐºÑģÐ¸": 5413,
      "ĠÑģÑĤÑĢÑĥÐºÑĤÑĥÑĢ": 5414,
      "ĠÐ¼ÐµÑĩ": 5415,
      "Ð°Ð¹Ð»Ð¾Ð¾": 5416,
      "ĠÑĤÐ°Ð»Ð°Ð¿ÐºÐµÑĢÐ»ÐµÑĢ": 5417,
      "ÐµÑĢÑħ": 5418,
      "Ð°Ð¹Ð´ÑĭÐ½": 5419,
      "ÑģÑĤÑĭ": 5420,
      "Ð°ÑıÑģÐ¸Ð¹": 5421,
      "Ð°Ð»Ð¸ÑĦ": 5422,
      "ĠÐĳÐ¸Ð¹": 5423,
      "ĠÐ¶ÑĥÐ³": 5424,
      "ĠÐ¾ÑĪÐ¾Ð½Ð´ÑĥÐºÑĤÐ°Ð½": 5425,
      "Ó©Ð»Ó©ÑĢÒ¯Ð½Ò¯Ð½": 5426,
      "Ð¾Ð»ÑĥÑĥ": 5427,
      "ĠÐ¾Ð±Ð»ÑĥÑģÑĥÐ½Ð´Ð°Ð³Ñĭ": 5428,
      "ĠÐºÐµÑģÐ¸Ð¿ÑĤÐ¸Ðº": 5429,
      "ĠÐºÐ°Ð°ÑĢÐ¼Ð°Ð½": 5430,
      "Ð¸Ð»Ð¾Ð²": 5431,
      "ĠÐºÐ°Ð¹ÑĤÐ°ÑĢ": 5432,
      "Ð¾Ð¼ÐµÑĤÑĢ": 5433,
      "ÑĭÐ¼Ð¸": 5434,
      "ĠÑįÐºÐ¾Ð½Ð¾Ð¼Ð¸ÐºÐ°": 5435,
      "ĠÐ±Ó©Ð»Ò¯Ð½Ò¯Ð¿": 5436,
      "Ð°ÑĨÐ¸Ð¸": 5437,
      "ÑģÑĤÐ¸Ð½": 5438,
      "ÑĩÒ¯Ð»Ó©ÑĢÐ´Ò¯Ð½": 5439,
      "ÑĢÐµÐº": 5440,
      "Ð°Ð±Ð¾ÑĢ": 5441,
      "ĠÐ¼Ð°Ð°Ð½Ð¸ÑģÐ¸": 5442,
      "ĠÐ¶Ð°Ð¼": 5443,
      "ĠÐºÐ°ÑĢÐ¼Ð°Ð»Ð´Ñĭ": 5444,
      "ÑĥÑĥÐ»ÑĥÐ³Ñĥ": 5445,
      "ĠÐĴÐ»Ð°Ð´Ð¸Ð¼Ð¸ÑĢ": 5446,
      "ĠÐ´Ð¾ÐºÑĤ": 5447,
      "ĠÐ²Ð°ÑĢÐ¸Ð°Ð½ÑĤ": 5448,
      "ĠÑģÐµÐ½ÑĤ": 5449,
      "ĠÐ²Ð°ÑĢÐ¸Ð°Ð½": 5450,
      "ĠÐ¾ÑİÐ¼": 5451,
      "ÑĶ": 5452,
      "ĠÐºÐµÐ»ÑģÐµ": 5453,
      "Ð°Ð»ÑĮÐ½ÑĭÐµ": 5454,
      "ĠÐŀÑĤ": 5455,
      "Ð¾Ð½ÑĤ": 5456,
      "ĠÑģÑĥÐ´ÑĮÑı": 5457,
      "ĠÐ¶Ð°ÐºÑĤÐ°": 5458,
      "ĠÑįÐ½Ðµ": 5459,
      "Ð»Ò¯Ðº": 5460,
      "ĠÐŀÐļ": 5461,
      "ĠÐ¿ÑĢÐ¾ÑĦÐµÑģÑģÐ¾ÑĢ": 5462,
      "Ð½Ð¾ÑģÑĤÑĮÑİ": 5463,
      "Ð´Ò¯Ò¯Ð»Ò¯Ðº": 5464,
      "Ð¾Ð»ÐµÐ²": 5465,
      "ĠÐ¼ÐµÐºÐµÐ¼ÐµÐ»ÐµÑĢ": 5466,
      "ĠÑĢÐµÑĦÐ¾ÑĢ": 5467,
      "ĠÑĩÐ°ÐºÐ°Ð½": 5468,
      "ĠÐ¸ÑĪÑĤÐµÑĢÐ´Ð¸": 5469,
      "ĠÐ¾Ñİ": 5470,
      "ĠÐ¿Ð°ÑĢÑĤÐ¸ÑıÑģÑĭ": 5471,
      "ĠÑĪÐµÐºÑĤÒ¯Ò¯": 5472,
      "ĠÐ±ÑĥÐ´Ñĥ": 5473,
      "ĠÐ±ÐµÑĢÐ±": 5474,
      "ĠÐĸÐµÒ£": 5475,
      "ĠÒ¯ÑģÑĤÒ¯Ð½Ó©": 5476,
      "ĠÐ´ÐµÐºÐ°Ð±ÑĢ": 5477,
      "ÐµÐ·Ð´": 5478,
      "ĠÑĤÐ¾Ð»ÑĥÐºÑĤ": 5479,
      "ĠÐ²Ð¸ÑĢÑĥÑģ": 5480,
      "ĠÐ¸ÑĪÐ¸Ð½Ðµ": 5481,
      "ĠÑĥÑĩÑĥÑĢÐ´Ð°Ð³Ñĭ": 5482,
      "ĠÐµÑīÐµ": 5483,
      "ÐµÑĤÑĮ": 5484,
      "Ð¼Ñĥ": 5485,
      "Ð½Ð¾Ð¼Ñĥ": 5486,
      "Ó¨Ð»": 5487,
      "ĠÑĢÐµÐ°Ðº": 5488,
      "ĠÐ°ÑĩÑĭÐ»Ð³Ð°Ð½": 5489,
      "ĠÐ¾ÑģÐ¾Ð±": 5490,
      "ĠÐ¼Ð¼": 5491,
      "ĠÐĳÐ°ÑĪÐºÑĭÑĢÑĤÑģÑĤÐ°Ð½": 5492,
      "ĠÑĭÐºÑĤÑĭÐ¼Ð°Ð»": 5493,
      "ĠÐºÐ»ÐµÑĤ": 5494,
      "ĠÑĤÐ°Ð»ÐºÐ°Ð»": 5495,
      "ĠÐ¸ÑĪÑĤÐµÐ¹": 5496,
      "ÑĤÑĤÐ°ÑĢÑĭ": 5497,
      "ÑĤÑĤÐ°ÑĢÐ´ÑĭÐ½": 5498,
      "ĠÐ°Ð´Ð°Ð¼Ð´Ð°ÑĢÐ´Ñĭ": 5499,
      "ĠÐ¼Ó©Ó©Ð½Ó©ÑĤÑĤ": 5500,
      "ĠÐºÑįÑįÐ´Ðµ": 5501,
      "ĠÐ¶ÑĭÐ»Ð´ÑĭÐ·": 5502,
      "ĠÐĶÐµÐ¼ÐµÐº": 5503,
      "ĠÐºÐ¸ÑĪÐ¸Ð½Ð¸Ð½": 5504,
      "ĠÐ±Ó©Ð»Ò¯Ð³Ò¯Ð½": 5505,
      "ĠÐ¸Ð¹Ð³Ð¸Ð»Ð¸ÐºÑĤÒ¯Ò¯": 5506,
      "ram": 5507,
      "ĠÐ¿Ð°ÑĢÑĤÐ¸ÑıÐ½ÑĭÐ½": 5508,
      "ÑģÒ¯Ð½Ð´Ó©Ð³Ò¯": 5509,
      "Ð³ÑĭÑĩ": 5510,
      "ĠÐĲÐ»ÑĤÑĭÐ½": 5511,
      "Ð½ÐµÐµ": 5512,
      "Ð°Ð»ÑĮÐ½ÑĭÑħ": 5513,
      "ĠÐ¶ÑĭÐ»Ð´Ð°": 5514,
      "ĠÒ¯Ð¹ÑĢÓ©ÑĤ": 5515,
      "ĠÐ±Ð¸ÑĢÐ´Ð¸ÐºÑĤÒ¯Ò¯": 5516,
      "ĠÐĲÐ»Ð±ÐµÑĤÑĤÐµ": 5517,
      "ĠÐ¼Ð°ÑģÑģÐ°Ð»ÑĭÐº": 5518,
      "ĠÐ¶ÑĥÐ±Ð°Ð¹": 5519,
      "ĠÐ°Ð´Ð²Ð¾Ðº": 5520,
      "ĠÐ°ÑĢÐ´Ð°": 5521,
      "ÑĩÐ¸ÑĤ": 5522,
      "Ð°ÑģÑģ": 5523,
      "ÐļÐ¾ÑĢ": 5524,
      "SBN": 5525,
      "Ð´ÑĭÐºÑĤÑĭ": 5526,
      "ĠÑĥÐ½ÑĥÑĤ": 5527,
      "ĠÐºÐ°ÑĤÐ°ÑĢÑĭÐ½Ð´Ð°": 5528,
      "ÐµÐ¼Ð°": 5529,
      "ÑħÐ°": 5530,
      "Ó©Ó©ÑĩÒ¯": 5531,
      "ÂŃ": 5532,
      "ÑĥÐ»ÑĥÑĪÑĥ": 5533,
      "ÑĭÐ¹ÐºÐ°ÑĤ": 5534,
      "ĠÐ¸Ð¼Ð¿ÐµÑĢ": 5535,
      "ÑįÐº": 5536,
      "ÐĸÐ°Ò£Ñĭ": 5537,
      "Ð´Ó©ÑĢÐ´Ò¯": 5538,
      "ĠÐļÐ°Ð¼ÑĩÑĭ": 5539,
      "ÐµÐ½Ð´": 5540,
      "Ð¸ÑĤÐµÐºÑĤ": 5541,
      "ĠÑģÑĥÑĢÐ°Ð¿": 5542,
      "ÑĤÐ¾Ð¼Ñĥ": 5543,
      "ĠÑĤÐ°ÑĢÐ°Ð¿ÑĤÐ°Ð½": 5544,
      "Ð´ÑĥÐ³": 5545,
      "ĠÐ¶Ð°ÑĢÐ°ÐºÐ°ÑĤ": 5546,
      "ĠÓ©ÑĤÒ¯Ð½Ò¯Ñĩ": 5547,
      "58": 5548,
      "um": 5549,
      "ĠÑįÑģÑĤÐµÐ»": 5550,
      "ĠÑģÐ»ÑĥÑĩÐ°Ðµ": 5551,
      "Ġd": 5552,
      "ĠÐ¼ÑĭÐ½Ð°": 5553,
      "ĠÐ´Ð¸Ð½Ð°Ð¼Ð¸ÐºÐ°ÑģÑĭ": 5554,
      "ĠÐ±Ð¸Ð»Ð´Ð¸ÑĢÐ¸Ð¿": 5555,
      "ÑĥÑĥÐ»Ð°ÑĢÑĭ": 5556,
      "ĠÐ´ÐµÐ¼Ð¾Ð³ÑĢÐ°ÑĦÐ¸ÑıÐ»ÑĭÐº": 5557,
      "ĠÐºÑĥÐ¹Ð¼": 5558,
      "Ð¼Ð°ÑĤÑĭ": 5559,
      "ĠÑĪÐ°Ð°ÑĢÑĭÐ½Ð°": 5560,
      "ÑĨÐ¸ÑıÑģÑĭÐ½Ð°": 5561,
      "ĠÓ©ÑĢÑĤÑĤ": 5562,
      "ĠÐ°Ð½ÑĭÐºÑĤÐ°Ð»Ð´Ñĭ": 5563,
      "Ó©Ð±Ò¯Ð·": 5564,
      "]Ċ": 5565,
      "ĠÐ°ÑĤÑĭÐ½Ð°Ð½": 5566,
      "Ð°Ð»Ð°ÑĢÐ´Ð°": 5567,
      "ĠÐļÓ©ÑĢ": 5568,
      "ĠÑĤÐµÐ¾ÑĢ": 5569,
      "Ð¢ÑĥÑĢÐ³ÑĥÐ½": 5570,
      "ÑģÐºÐµÑĢÑĤÐµ": 5571,
      "Ð¸ÑĤÐ¾ÑĢ": 5572,
      "ĠÐ°Ð»ÑĥÑĥÐ½Ñĥ": 5573,
      "ĠÐĿÐµ": 5574,
      "ĠÐ¶Ð°Ð½ÑĭÐ±Ð°ÑĢ": 5575,
      "ĠÐ¡Ð¾Ð²ÐµÑĤ": 5576,
      "ÑĤÐµÑĢÐ´Ð¸": 5577,
      "ĠÐ¾Ð¹Ð½": 5578,
      "ĠÓ¨Ð·Ð³Ó©ÑĩÓ©": 5579,
      "ÑĭÑģÐº": 5580,
      "ÑĪÐ°ÑĤ": 5581,
      "ĠÑĩÓ©Ð»": 5582,
      "ĠÐºÐ°Ð½ÑĩÐ°Ð»ÑĭÐº": 5583,
      "Ġm": 5584,
      "ĠÑĤÑĢÐµÐ±": 5585,
      "ĠÑģÐ°Ñħ": 5586,
      "ĠÐĲÐ»Ð¸": 5587,
      "ĠÐ°Ð·Ð°Ð¹ÑĤ": 5588,
      "Ð±Ó©Ð¹ÑĤ": 5589,
      "ĠÐ±ÐµÑĢÒ¯Ò¯ÑĩÒ¯": 5590,
      "ĠÐ¡Ð°ÑĢÑĭ": 5591,
      "ĠÐºÐ°ÑĢÐ´Ð°ÑĢ": 5592,
      "ĠÐ±ÑĥÐ·ÑĥÑĥ": 5593,
      "Ð¼Ó©Ð»Ó©ÑĢ": 5594,
      "Ð²Ð°Ð½": 5595,
      "Ð´ÐµÑĪ": 5596,
      "ĠÐ°ÑĢÐ°Ð»ÑĭÐ³ÑĭÐ½Ð´Ð°": 5597,
      "ĠÐ±ÑĭÐ»Ð¾": 5598,
      "ĠÐ²Ð°Ð¼": 5599,
      "ĠÐ»ÐµÐ³": 5600,
      "ĠÐ¼Ð°ÑĤÐµÑĢÐ¸Ð°Ð»Ð´ÑĭÐº": 5601,
      "ĠÓ©Ð½Ò¯ÐºÐºÓ©Ð½": 5602,
      "ĠÐ±Ð°ÑĪÑĤÐ°Ð»Ð°ÑĤ": 5603,
      "ĠÐ¸ÑģÐ»Ð°Ð¼": 5604,
      "ĠÐ°ÑĢÐ°Ð±": 5605,
      "ĠÑĥÑĩÑĥÐ¿": 5606,
      "ĠÐłÐ¾ÑģÑģÐ¸ÑıÐ½ÑĭÐ½": 5607,
      "ĠÑĥÐºÑĥÐºÑĤÐ°ÑĢÑĭÐ½": 5608,
      "ĠÐ¢Ð¾Ð¼": 5609,
      "ĠÒ¯Ð¹Ð»": 5610,
      "ÑģÑĭÐ»": 5611,
      "ĠÐ¸Ð¼Ð¿": 5612,
      "ĠÐ±Ð¸Ð¹Ð»Ð¸ÐºÐºÐµ": 5613,
      "ĠÐ¿ÑĢÐ¸Ð¼ÐµÐ½": 5614,
      "ĠÑģÐµÐ³Ð¸Ð·": 5615,
      "ĠÐ±Ð°ÑĪÑĩÑĭÑģÑĭÐ½ÑĭÐ½": 5616,
      "ĠÐ±Ð°Ð¶Ñĭ": 5617,
      "Ġ|": 5618,
      "ĠÐ°ÑĤÐºÐ°ÑĢÑĥÑĥÑĩÑĥ": 5619,
      "ĠÐ»Ð¸Ð½": 5620,
      "ĠÐºÐµÐ»Ð¸ÑĪÐºÐµÐ½": 5621,
      "ĠÑĤÐ°Ð°ÑģÐ¸ÑĢÐ¸": 5622,
      "ĠCOVID": 5623,
      "ĠÐ¾Ð·": 5624,
      "Â»Ċ": 5625,
      "ĠÐ°ÑĤÐ°ÑĤ": 5626,
      "ĠÐºÐ¾ÑĪÑĥÐ¿": 5627,
      "ĠÐ°Ð¹Ð¼Ð°Ð³ÑĭÐ½Ð°": 5628,
      "ÑĤÑĭÐº": 5629,
      "ĠÐ°Ð»Ð´ÑĭÐ½Ð°": 5630,
      "ĠÐ¶Ð°Ð½ÑĭÐ½Ð´Ð°": 5631,
      "ĠÐ£ÐºÑĢÐ°Ð¸Ð½": 5632,
      "ĠÐ¶ÐµÑĤÐ¸Ð¿": 5633,
      "ÑĩÐ¸Ð»ÐµÑĢ": 5634,
      "ĠÐ¼ÐµÐ·Ð³Ð¸Ð»Ð¸Ð½Ð´Ðµ": 5635,
      "ĠÐ°ÑģÑĤÑĭÐ½Ð´Ð°": 5636,
      "ĠÑĥÑģÐ»Ð¾Ð²": 5637,
      "ĠÐ°Ð¼": 5638,
      "Ð¾Ð±ÑĢ": 5639,
      "ĠÐºÐ°Ð³ÑĭÐ»": 5640,
      "Ð¸ÑĤÐ¸": 5641,
      "Ð´ÑĭÐ³ÑĭÐ½Ð´Ð°": 5642,
      "ĠÐ¼ÑĥÐ½Ð¸ÑĨÐ¸Ð¿": 5643,
      "Ð³Ð°Ð·Ð¸ÐµÐ²": 5644,
      "Ð°ÑĤÐ±ÐµÐº": 5645,
      "ÐļÐ¾Ð»Ð´Ð¾Ð½": 5646,
      "ĠÐ¼Ð¸Ñģ": 5647,
      "ĠÐļÐ¾ÑĢÐµÑı": 5648,
      "ĠÐ¶Ð°Ð»Ð³Ð°Ð½": 5649,
      "ĠÐ¸Ð·Ð´ÐµÐ¿": 5650,
      "ĠÐĺÐ»Ð¸Ð¼": 5651,
      "ĠÐľÐ¸Ð½Ð¸ÑģÑĤÑĢÐ»ÐµÑĢ": 5652,
      "Ð°Ð»ÑĮÐ½Ð¾Ð³Ð¾": 5653,
      "ÑĩÑĭÐ½": 5654,
      "ĠÓ©Ð·Ò¯Ð±Ò¯Ð·": 5655,
      "ĠÑĤÒ¯ÑĪÒ¯ÑĢ": 5656,
      "ĠÐ¼Ð¸Ð½Ð¸ÑģÑĤÑĢÐ¸Ð½Ð¸Ð½": 5657,
      "ĠÐ¿ÑĢÐµ": 5658,
      "ĠÐ¼Ð¸Ð½ÐµÑĢ": 5659,
      "ÑģÐ°Ò£": 5660,
      "Ð¾Ð´Ñĭ": 5661,
      "ĠÐ°Ð¹ÑĤÑĭÐ»ÑĭÐ¿": 5662,
      "103": 5663,
      "ĠÐºÐ»ÑĥÐ±": 5664,
      "Ð¾ÐºÑģ": 5665,
      "ÑĩÑĥÐ»ÑĥÐº": 5666,
      "ĠÐ¸ÑİÐ½": 5667,
      "ĠÐºÐ¾ÑĪÐºÐ¾Ð½": 5668,
      "ĠÐ¼ÑĭÐ¹Ð·Ð°Ð¼Ð´ÑĥÑĥ": 5669,
      "ĠÐ¶ÐµÑĤÐµÑĤ": 5670,
      "ĠÐ½ÐµÐ¾Ð±ÑħÐ¾Ð´Ð¸Ð¼Ð¾": 5671,
      "ÑĦÐ¸ÑĢ": 5672,
      "ÐµÐºÑĤÒ¯Ò¯": 5673,
      "ess": 5674,
      "ĠÐ²ÑģÐµÐ³Ð¾": 5675,
      "ĠÑĤÓ©ÑĪ": 5676,
      "ĠÑįÑĢÐºÐµÐº": 5677,
      "ĠÐ°Ð»ÑĭÑĪÑĤÑĭ": 5678,
      "ĠÑĤÐ°ÑĢÐ¼Ð°Ð³": 5679,
      "ĠÐ§ÑĭÒ£Ð³ÑĭÐ·": 5680,
      "ĠÐ¶ÐµÑĤÐµÐºÑĩÐ¸Ð»Ð¸Ð³Ð¸": 5681,
      "Ð¸ÑģÑĤÐ¸Ðº": 5682,
      "ĠÐºÑĭÑĢÐ´Ð°Ð°Ð»Ð´Ð°ÑĢ": 5683,
      "ĠÑĤÐ°ÑĪÑĤÐ°Ð¿": 5684,
      "ĠÐ¼ÑĥÐ·ÑĭÐºÐ°Ð»ÑĭÐº": 5685,
      "ĠÑĤÐµÐ»ÐµÐºÐ°Ð½": 5686,
      "ÐŁÐ¾ÑĩÑĤÐ°": 5687,
      "ĠÐºÐ¾Ð¾Ð¿ÑģÑĥÐ·Ð´ÑĥÐ³ÑĥÐ½": 5688,
      "Ð´ÐµÐ½Ð¸Ñı": 5689,
      "ĠÑĥÐ³ÑĥÐ¿": 5690,
      "ĠÐ°Ð¹Ð»Ð°Ð½ÑĭÐ¿": 5691,
      "ĠÑĢÑĥÐ±Ð»": 5692,
      "Ġb": 5693,
      "Ð¾Ð²Ð°ÑĤÑĮ": 5694,
      "ĠÑĤÒ¯Ð½ÐºÒ¯": 5695,
      "ĠÐłÐ°Ñħ": 5696,
      "Ð±ÑĭÐ·Ð´Ñĭ": 5697,
      "ĠÐºÐµÐ¿Ð¸Ð»": 5698,
      "ĠÑįÑģÐºÐ¸": 5699,
      "ĠÐļÐ°ÑĤ": 5700,
      "ĠÐ¿ÐµÑĢÐ¸": 5701,
      "Ð´ÑĭÐºÐºÐ°": 5702,
      "ĠÑĤÑĭÐ³ÑĭÐ·": 5703,
      "ĠÐ¿Ð°ÑĢÐ»Ð°Ð¼ÐµÐ½ÑĤÑĤÐ¸Ð½": 5704,
      "ub": 5705,
      "Ò¯ÑĤÑĤ": 5706,
      "ĠÑĤÒ¯Ð·Ò¯Ð¼": 5707,
      "ĠÐºÓ©ÑĢÒ¯Ð½Ò¯ÑĪ": 5708,
      "ĠÐĿÐ°ÑĢ": 5709,
      "ĠÐ¼Ð°Ð¶Ð±ÑĥÑĢ": 5710,
      "ĠÑįÐºÐ¾Ð½Ð¾Ð¼Ð¸Ðº": 5711,
      "ÑĨÐ¸ÑıÐ´Ð°": 5712,
      "ĠÐ¶ÑĭÐ³Ð°Ñĩ": 5713,
      "Ð´Ð¾Ð³Ð¾Ð½": 5714,
      "ĠÐºÒ¯ÑĤÒ¯Ð¿": 5715,
      "ĠÐ£Ð·": 5716,
      "ĠÐ¢Ð°ÑĪÐºÐµÐ½": 5717,
      "ÐµÑĢÐ±Ð°Ð¹": 5718,
      "ĠÐ°Ð³ÑĢ": 5719,
      "ÑĭÐ³ÑĭÐ½Ð°Ð½": 5720,
      "ĠÐ°Ð»Ð³Ð°Ð½Ð´Ð°": 5721,
      "ĠÑħÐ¾ÑĢÐ¾ÑĪ": 5722,
      "ĠÐ°ÑĢÐ°Ð»Ð°ÑĪ": 5723,
      "ĠÑĤÐµÑĢÐ¸ÑĪÑĤ": 5724,
      "ÑĭÐºÑĤÑĭÑĢ": 5725,
      "ĠÐ¾Ð½Ð°": 5726,
      "ÐĳÑĥÐ»Ð°Ðº": 5727,
      "ul": 5728,
      "Ð½Ð¸Ð³Ð¸": 5729,
      "Ð¸ÐºÐºÐµÐ½": 5730,
      "ĠÐ¶Ð°Ð¹Ñĭ": 5731,
      "ĠÐĳÐ°ÑĪÐºÑĭÑĢÑĤÑģÑĤÐ°Ð½Ð´ÑĭÐ½": 5732,
      "ÐºÐ°Ð¹": 5733,
      "ĠÑĤÐµÑĢÐ¼Ð¸Ð½": 5734,
      "ĠÐ´Ò¯Ð¹Ð½Ó©Ð½Ò¯Ð½": 5735,
      "ĠÐ¿Ð¾Ðº": 5736,
      "Ð¾Ð´Ð¾Ð½": 5737,
      "Ð¢ÑĥÑĢÐ³ÑĥÐ½Ð´Ð°ÑĢÐ´ÑĭÐ½": 5738,
      "Ð¶Ð¸Ð½": 5739,
      "ÑĳÐ½": 5740,
      "Ð´Ð°Ð½ÑĭÐ¿": 5741,
      "ÐµÑĪÐµÑĤ": 5742,
      "ĠÑĥÐºÑĥÐºÑĤÐ°ÑĢÑĭ": 5743,
      "ÐĶÐµÐ¼Ð¾Ð³ÑĢÐ°ÑĦÐ¸ÑıÑģÑĭ": 5744,
      "-Ð°": 5745,
      "Ð¸ÑĢÐº": 5746,
      "Ò¯Ð»Ò¯Ò¯Ð´Ó©": 5747,
      "ÑĭÐºÑĤÐ°ÑĢÐ´ÑĭÐ½": 5748,
      "Ð±ÐµÑĢ": 5749,
      "ĠÐ¡ÑĥÑĢ": 5750,
      "ĠÑģÒ¯Ð¹Ð»Ó©ÑĪÒ¯Ò¯Ð»Ó©ÑĢ": 5751,
      "ĠÐ¢ÑĥÑĢÐ³ÑĥÐ½Ð´Ð°ÑĢÑĭ": 5752,
      "ĠÐ°Ð¶ÑĭÑĢÐ°ÑĤ": 5753,
      "ĠÐŀÐļÐĲÐ¢Ðŀ": 5754,
      "ÑĥÐ¼Ð°": 5755,
      "68": 5756,
      "ĠÑĩÓ©Ð¿": 5757,
      "ĠÐºÐ¾Ð½ÑģÑĤÐ¸ÑĤÑĥ": 5758,
      "ĠÐ¿ÐµÐ½Ñģ": 5759,
      "ĠÑĦÐ°ÐºÑĤÑĭÐ»": 5760,
      "ĠÐĳÐ¨Ðļ": 5761,
      "ĠÐºÐ¾Ð·": 5762,
      "Ð³Ò¯Ñĩ": 5763,
      "ĠÐĶÒ¯Ð¹Ð½Ó©Ð»Ò¯Ðº": 5764,
      "ĠÑĤÐ°ÑĢÐ°Ð³Ð°Ð½": 5765,
      "130": 5766,
      "ĠÐ¼Ó©Ó©Ð½Ó©ÑĤÒ¯": 5767,
      "ĠÐ¼Ð¸ÑģÐ°Ð»Ñĭ": 5768,
      "ĠÐ¾Ð¹Ð»Ð¾Ð¹": 5769,
      "ĠÐ°ÑĢÐ³Ð°ÑģÑĭÐ·": 5770,
      "ÑģÐ¾ÑĨÐ¸": 5771,
      "ĠÐĶÒ¯Ð¹ÑĪ": 5772,
      "ĠÒ¯Ð¹Ð´Ò¯Ð½": 5773,
      "ĠÐºÐ¾ÑĢÐ³Ð¾Ð½": 5774,
      "ĠÐ´ÑĥÐ±": 5775,
      "ĠÑĤÐ¸Ð»Ð¸Ð½": 5776,
      "ĠÑģÑħ": 5777,
      "Ð·Ð³Ò¯Ð»": 5778,
      "ĠÐ½ÑĥÑĢ": 5779,
      "ĠJ": 5780,
      "ĠÐºÐµÑĤÒ¯Ò¯": 5781,
      "ĠÐºÐ¾Ð¼Ð¿Ð°Ð½Ð¸ÑıÑģÑĭÐ½ÑĭÐ½": 5782,
      "030": 5783,
      "ĠÐºÑĥÑĢÑĥÐ»Ð³Ð°Ð½": 5784,
      "ĠÑįÑįÑĢ": 5785,
      "Ð´Ò¯Ð·": 5786,
      "ĠÐĲÐ¼Ð°Ð½": 5787,
      "ĠÐ´Ð¾Ð¿": 5788,
      "Ð¢Ð°Ð»": 5789,
      "ĠÐŃÐ¼Ð½Ðµ": 5790,
      "ĠÐĳÒ¯Ð³Ò¯Ð½ÐºÒ¯": 5791,
      "ÐºÐ¸Ñħ": 5792,
      "ĠÐºÐ¸ÑĤÐµÐ¿ÑĤ": 5793,
      "ĠÐ´Ð°Ð¶Ðµ": 5794,
      "ĠÑĪÐ¸ÑĢ": 5795,
      "ĠÐ±Ò¯ÑĤÒ¯ÑĢÐ³Ó©Ð½": 5796,
      "ÑĹ": 5797,
      "ĠÑģÓ©Ð·ÑģÒ¯Ð·": 5798,
      "ĠÐ°Ð»Ð´ÑĭÒ£ÐºÑĭ": 5799,
      "ĠÐ´Ð¸ÑĢÐµÐºÑĤÐ¾ÑĢ": 5800,
      "Ð±Ð°ÑģÐ°": 5801,
      "ÑİÑīÐ¸Ðµ": 5802,
      "41": 5803,
      "ĠÐ¶Ð°ÑĢÐ°Ð½Ð´Ð°ÑĢÑĭ": 5804,
      "ĠÐ¶ÑĭÐ¹ÑĭÐ½ÑĤÑĭÐºÑĤ": 5805,
      "ĠÐ¶Ð°ÑģÐ°Ð»Ð¼Ð°": 5806,
      "ĠÐ¡ÐµÐ½": 5807,
      "ĠÑĤÐ¾Ð¿ÑĥÑĢ": 5808,
      "Ò¯Ð»Ó©": 5809,
      "ĠÐ¶Ð°Ð·Ð°": 5810,
      "Ð»Ð¸Ð¼Ð¿Ð¸Ð°Ð´Ð°": 5811,
      "ĠÐ¸ÑĪÑĤÐµÑĤÒ¯Ò¯": 5812,
      "ĠÑĤÑĥÐ¼": 5813,
      "ĠÐ¸Ñģ": 5814,
      "ĠÐĶÐ»Ñı": 5815,
      "ĠÐ¨ÑĤ": 5816,
      "ĠÑģÐ°Ð½Ð°": 5817,
      "ĠÐ°ÑĢÐ±": 5818,
      "ĠISBN": 5819,
      "Ð°Ð·Ð¸Ñı": 5820,
      "ĠÐºÐµÑģÐºÐ¸Ð½": 5821,
      "ĠÐ¶Ð¾Ð³Ð¾ÑĢÑĥÐ»": 5822,
      "Ð¾Ð¾Ð¿ÑģÑĥÐ·Ð´ÑĥÐº": 5823,
      "ÐĳÑĥÐ³Ð°": 5824,
      "ĠÑįÐºÐµÐ½Ð´Ð¸Ð³Ð¸": 5825,
      "ĠÐ·Ð°Ð¼Ð°Ð½Ð±Ð°Ð¿": 5826,
      "ĠÐºÐ°Ð»ÑĭÒ£": 5827,
      "ÑĥÒ£ÑĥÐ·": 5828,
      "-Ð¾ÑĢ": 5829,
      "Ð³ÑĥÑĢ": 5830,
      "ĠÑģÒ¯Ð·": 5831,
      "Ð´Ð¸Ð¼ÐºÐ¸": 5832,
      "ÑĥÐºÑĥÐ»": 5833,
      "ĠÐ°Ð¹ÑĢÑĭÐºÑĩÐ°": 5834,
      "ĠÐºÑĭÑĢÐ³ÑĭÐ·Ð´ÑĭÐ½": 5835,
      "ĠÐ½ÐµÑĢÑģÐµÐ½Ð¸": 5836,
      "-Ð¢Ð°ÑĪ": 5837,
      "ÑģÑĤÐ¾": 5838,
      "ĠÑĤÐ°Ð°Ð½Ñĭ": 5839,
      "ĠÑĤÐ¸ÑĤ": 5840,
      "-Ó©Ð·": 5841,
      "ĠÐ¾ÐºÑĢ": 5842,
      "im": 5843,
      "ĠÐ·Ð°ÑıÐ²": 5844,
      "ĠÐ¼Ð¾ÑİÐ½": 5845,
      "ĠÑĩÐ°Ð¼": 5846,
      "ĠÐĸÐ°ÑĪ": 5847,
      "ĠÑģÐµÐ±ÐµÐ¿ÑĤÐµÑĢ": 5848,
      "Ð¸ÑĩÐµÑģÐºÐ¸Ñħ": 5849,
      "ĠÐ°Ð´Ð°Ð¼Ð´Ð°ÑĢÐ³Ð°": 5850,
      "ĠÑĤÒ¯ÑĢÐ»Ó©ÑĢÒ¯": 5851,
      "ĠÓ©ÑģÐ¿Ò¯ÑĢÒ¯Ð¼": 5852,
      "ĠÑģÐ²ÑıÐ·": 5853,
      "42": 5854,
      "ĠÑĪÐ°ÑĢ": 5855,
      "ÑģÐ°Ò£ÑĭÐ·": 5856,
      "Ð°Ð»ÑĭÐ½ÑĭÐ½": 5857,
      "ĠÐºÐ°Ð¹Ð½": 5858,
      "ĠÑģÑĤÐ°ÑĤÑĮ": 5859,
      "Ð°Ð°Ð½": 5860,
      "ĠÐ¶Ò¯ÑĢÐ³Ò¯Ð·Ð³Ó©Ð½": 5861,
      "ĠÐºÐ¸ÑĩÐ¸Ð½ÐµÐºÐµÐ¹": 5862,
      "ÑĭÑĪÑĥÑĥÐ´Ð°": 5863,
      "ĠÐ±Ð¸ÑĢÐ³ÐµÐ»Ð¸ÐºÑĤÐµ": 5864,
      "ĠÐºÐ¾Ð¼Ð¼ÐµÐ½ÑĤÐ°ÑĢÐ¸Ð¹": 5865,
      "Ð¸ÑĢÐ¾Ð²Ð°ÑĤÑĮ": 5866,
      "ĠÐĲÐ»ÐµÐºÑģÐ°Ð½Ð´ÑĢ": 5867,
      "ĠÐºÐµÐ»Ð¸ÑĪÐ¸": 5868,
      "ĠÑĨÐ²ÐµÑĤ": 5869,
      "ĠÓ©ÑĢÑĤ": 5870,
      "Ð°ÑĢÑĤÑĥÑĥ": 5871,
      "ĠÐ¶Ò¯Ð·Ó©Ð³Ó©": 5872,
      "ÐºÐ¾Ð»": 5873,
      "Ð¸ÑģÐ°": 5874,
      "ĠÐ±Ð¸Ð·Ð´Ð¸": 5875,
      "ĠÑģÐ¸Ò£Ð¸ÑĢÐ³ÐµÐ½": 5876,
      "Ð°Ð°ÑĤÑĭÑĢ": 5877,
      "57": 5878,
      "ĠÐ¶ÑĥÐºÑĤÑĥÑĢ": 5879,
      "ĠÐ´Ò¯Ðº": 5880,
      "ÑĤÑĤÐµÑĢÐ¸": 5881,
      "ĠÐ±Ó©Ð»Ò¯ÑĪÑĤ": 5882,
      "67": 5883,
      "ec": 5884,
      "ĠÐºÐ¾Ð»Ð´Ð¾Ð½ÑĥÐ»Ð³Ð°Ð½": 5885,
      "ĠÐ¿ÑĢÐ¾Ð¿": 5886,
      "ĠÐ¶Ð°Ð°Ð½": 5887,
      "Ġof": 5888,
      "-Ð·": 5889,
      "ĠÑģÑĥÑİ": 5890,
      "Ð¾Ð²ÑĭÑħ": 5891,
      "ÑĪÑĤÐ¸": 5892,
      "ĠÑĤÓ©Ð»Ó©Ð½": 5893,
      "ĠÐ¶Ò¯Ð·Ò¯Ð½Ð´Ó©": 5894,
      "Ð´Ð°Ð½Ð´ÑĭÑĢÑĥÑĥ": 5895,
      "ĠÐĲÐ»ÑĮ": 5896,
      "ÑĳÑĤ": 5897,
      "ĠÐ¼Ð°Ð·Ð¼": 5898,
      "-Ð±Ò¯Ð»Ó©Ð»Ò¯Ðº": 5899,
      "ĠÐ¿Ð¸ÐºÐ¸ÑĢÐ¸Ð½": 5900,
      "ĠÑĪÐ°Ð°ÑĢÐ´ÑĭÐ½": 5901,
      "ĠÐ±ÐµÑģÐ¿": 5902,
      "ĠÐºÑĭÐ·Ð¼Ð°ÑĤÑĭÐ½Ð°": 5903,
      "ow": 5904,
      "Ð¾Ð´Ðµ": 5905,
      "ÐµÑħÐ½Ð¸ÐºÐ°Ð»ÑĭÐº": 5906,
      "ÑĨÐ¸ÑıÐ»Ð¾Ð¾": 5907,
      "ĠÐºÑĥÑĢÐ°Ð»Ð´ÑĥÑĥ": 5908,
      "ĠÐ´ÐµÐ½Ðµ": 5909,
      "Ð»ÑĥÐºÑĤÑĥ": 5910,
      "Ð¸ÑĩÐµÑģÐºÐ¸Ðµ": 5911,
      "ÑįÑĢÐ¸": 5912,
      "ÐºÑĤÑıÐ±ÑĢÑĮ": 5913,
      "ĠÐ°ÑıÐ»Ð´Ð°ÑĢÐ´ÑĭÐ½": 5914,
      "ÑĭÐ´ÑĭÐº": 5915,
      "Ð´Ð°Ð»Ð´Ñĭ": 5916,
      "ĠÐ°ÑĤÐºÐ°Ð½": 5917,
      "ĠÐºÐ°Ð´Ð¸Ð¼ÐºÐ¸": 5918,
      "Ð¿Ð°Ðº": 5919,
      "ĠÑĤÐ°Ð»Ð°ÑĪ": 5920,
      "ĠÐ½Ð°Ð°ÑĢÐ°Ð·": 5921,
      "Ð¾Ð²Ð´Ñĥ": 5922,
      "ĠÐ¢ÑĭÑĪÐºÑĭ": 5923,
      "ÑĢÐ°Ð½ÑĨ": 5924,
      "ÐµÐ½Ðµ": 5925,
      "ÐµÐ²Ð¸Ñĩ": 5926,
      "Ð²Ð¾ÑĢ": 5927,
      "ÑĭÐºÐºÐ°": 5928,
      "ĠÐ°Ð±Ð°Ð»Ð´Ð°": 5929,
      "ĠÐľÐ¾Ð½": 5930,
      "ĠÐ¶ÐµÑĢÐ´Ð¸": 5931,
      "Ð½Ð¾ÑĪ": 5932,
      "ÑıÑħ": 5933,
      "ĠÐľÐ¸Ð»": 5934,
      "Ð±Ð°Ð²": 5935,
      "ĠÐ¶Ò¯ÑĢÐ³Ò¯Ð·Ò¯Ð»Ð³Ó©Ð½": 5936,
      "ĠÐºÐ°ÑĤÑĤÐ°Ð¼": 5937,
      "ĠÐ°ÑĤÐºÐ°ÑĢÐ³Ð°Ð½": 5938,
      "ĠÐ´Ð¸Ð·": 5939,
      "ÐļÐ¾Ð½": 5940,
      "ĠÂ©": 5941,
      "ru": 5942,
      "ĠÐĲÑĪ": 5943,
      "ĠÐ²Ð»": 5944,
      "ĠÐ±Ð°ÑĪÑĭÐ½": 5945,
      "ĠÐºÑĭÑĩ": 5946,
      "ĠÑģÓ©Ð·Ò¯": 5947,
      "ĠÐ°Ð²Ð³ÑĥÑģÑĤ": 5948,
      "Ð·Ð³Ò¯Ð»ÑĤÒ¯Ðº": 5949,
      "ĠÐ¶Ð¾Ð±": 5950,
      "pp": 5951,
      "ÑĢÐ¸ÑģÑĤ": 5952,
      "ĠÑįÑĢÑĤÐµ": 5953,
      "ĠÐ¸Ð½ÑĦÐ¾ÑĢÐ¼Ð°": 5954,
      "ĠÐ±ÑĭÑĪ": 5955,
      "ĠÐ¼Ð¾Ð¼": 5956,
      "ĠÐ¼ÐµÐ¶": 5957,
      "ĠÐ±Ó©Ð»Ò¯Ð½Ð³Ó©Ð½": 5958,
      "Ð°ÑģÐ¼Ð°": 5959,
      "ĠÐºÐ°ÑĢÐ°ÑĪ": 5960,
      "Ð¸ÑĤÐµÑĢ": 5961,
      "Ð°Ð½ÑĮ": 5962,
      "Ó©Ð¹ÑĤ": 5963,
      "189": 5964,
      "ĠÐ¿Ð°ÑĢÐ°": 5965,
      "Ð¸ÑĪÐ¸Ð½": 5966,
      "ĠÐĺÐ»": 5967,
      "ĠÐ¾ÐºÑĥÑĤÑĥÑĥ": 5968,
      "ÐµÐ»Ð¸Ð½": 5969,
      "Ð°ÑĤÐµÐ»ÑĮÐ½Ð¾": 5970,
      "ĠÐ¶ÐµÑĤÑĤÐ¸": 5971,
      "ÐµÑĩÑįÑį": 5972,
      "ĠÐĺÐĺÐľÐ´Ð¸Ð½": 5973,
      "ĠÐĲÐ¼ÐµÑĢÐ¸ÐºÐ°": 5974,
      "ĠÑĤÐµÐ»ÐµÑĦ": 5975,
      "eb": 5976,
      "ĠÐ´ÐµÐ¿Ð°ÑĢÑĤ": 5977,
      "ĠÐ±Ð¸Ð»ÐµÑĤ": 5978,
      "Ð´Ò¯Ò¯Ð»Ò¯Ð³Ò¯": 5979,
      "ĠÐºÐ¸Ñģ": 5980,
      "ĠÑĤÐµÐ½": 5981,
      "Ð¸Ð¼ÐµÑĢ": 5982,
      "802": 5983,
      "Ð¸Ð¶": 5984,
      "ĠÐ¾Ð´Ð¸Ð½": 5985,
      "ĠÐ¢Ð°Ð¼": 5986,
      "ĠÐºÑĢÐ°Ñģ": 5987,
      "ĠÐ°Ð¼Ð°Ð½": 5988,
      "ĠÐ±Ð¾Ð»Ð³Ð¾Ð½Ð´Ð¾Ð¹": 5989,
      "ĠÑįÐ¼ÐµÑģÐ¿Ð¸": 5990,
      "ĠÐļÑĭÑĤÐ°Ð¹Ð´ÑĭÐ½": 5991,
      "ĠÐºÐ¾Ð¼Ð¼ÐµÑĢ": 5992,
      "ĠÑĤÐµÑħÐ½Ð¸Ðº": 5993,
      "ĠÑĤÐ°ÑĤÑĭÐºÑĤÑĥÑĥ": 5994,
      "Ġf": 5995,
      "Ð³Ð°ÑĢ": 5996,
      "Ð³ÑĢÐ°": 5997,
      "ĠÑĭÑĢÑĩÑĭ": 5998,
      "ĠÑĤÑĥÑĢÐ¸Ð·Ð¼": 5999,
      "ĠÐ¼Ò¯Ð¼ÐºÒ¯Ð½Ð´Ò¯Ðº": 6000,
      "ĠÑĥÐ·ÑĥÐ½": 6001,
      "ĠÐľÐ°Ð°Ð»ÑĭÐ¼": 6002,
      "ĠÐ±Ð°ÑĪÑĤÐ°Ð»": 6003,
      "ĠÐ¶Ò¯ÑĢÐ³Ò¯Ð·Ò¯Ð»Ó©ÑĤ": 6004,
      "ÑİÑīÐ¸Ñħ": 6005,
      "Ð²Ð°ÑĤÑĮ": 6006,
      "115": 6007,
      "ĠÑĢÐ°ÑģÑĤ": 6008,
      "ĠÐºÑĥÑĢÐ°Ð¼ÑĭÐ½Ð°": 6009,
      "ĠÐ½Ð°ÑĩÐ°ÑĢ": 6010,
      "Ó©Ó©Ð»": 6011,
      "ĠÐºÐ¾Ð½ÑĦÐµÑĢÐµÐ½": 6012,
      "ĠÐ¿Ð°Ð¹ÑĭÐ·Ñĭ": 6013,
      "ĠÐºÐ°ÑĪ": 6014,
      "Ð°ÑİÑĤ": 6015,
      "ĠÐºÐ²Ð°ÑĢÑĤ": 6016,
      "ĠÐ¼ÐµÐ¹Ð¼Ð°Ð½": 6017,
      "Ð´ÐµÐ´Ð¸": 6018,
      "ĠÐ¶ÐµÑĤÐ¸ÑĪÑĤÒ¯Ò¯": 6019,
      "Ð±Ó©Ð»": 6020,
      "ÑģÑĤÑĢÐ¾": 6021,
      "43": 6022,
      "ĠÑĩÐ¾Ðº": 6023,
      "ĠÐºÐ»Ð¸Ð¼": 6024,
      "Ð¶Ð°Ð¹": 6025,
      "ÐºÐ°Ñħ": 6026,
      "ĠÑĤÒ¯ÑĢÐ¼Ó©": 6027,
      "ĠÑĤÑĥÑĢÐ³ÑĥÐ½Ð´Ð°ÑĢÑĭ": 6028,
      "ĠÑĤÓ©ÑĢÐ°Ð³Ð°ÑģÑĭÐ½ÑĭÐ½": 6029,
      "ĠÐ¶Ð°ÑģÐ¾Ð¾": 6030,
      "ĠÐ¡Ò¯Ð¹": 6031,
      "ÐĿÐ°": 6032,
      "ĠÐºÐ°Ð¹Ð´Ð°": 6033,
      "ĠÐ¢Ò¯ÑĢÐºÐ¸Ñı": 6034,
      "-ÑĩÐ°": 6035,
      "Ð»ÐµÑĢÐ´Ð¸": 6036,
      "ÑĥÑĪÑĤÑĥÑĥ": 6037,
      "Ð¾ÑĩÐºÐ¾ÑĢ": 6038,
      "ĠÐļÐ°ÑĢÐ°ÐºÐ¾Ð»": 6039,
      "ĠÐºÐ¾Ð¾Ð¼Ð´ÑĥÐ½": 6040,
      "ĠÐ°Ð³ÑĭÐ¼": 6041,
      "ĠÐ¼Ò¯Ð½Ó©Ð·Ð´Ò¯Ò¯": 6042,
      "Ð¼Ð°ÑģÑĭÐ½": 6043,
      "ĠÐ¶Ð°Ð³ÑĭÐ¼": 6044,
      "ĠÐ¼Ð°Ð°Ð»ÑĭÐ¼Ð°ÑĤÑĤÐ°": 6045,
      "ĠÑĭÑģÑĭÐ¼": 6046,
      "ĠÓ©Ð·Ð´Ó©ÑĢÒ¯Ð½Ò¯Ð½": 6047,
      "ĠÐ²Ð¸Ð´": 6048,
      "Ð°ÐºÑĤÐ°ÑĢÐ´Ñĭ": 6049,
      "ĠÐ±ÐµÐ»Ðµ": 6050,
      "ĠÐºÐ¾ÑĢÐ¿": 6051,
      "ĠÐºÑĥÐ´Ð°Ð¹": 6052,
      "ĠÐ°ÑĤÑĤ": 6053,
      "ĠÐºÐ¾Ð¼Ð¸ÑģÑģÐ¸ÑıÐ½ÑĭÐ½": 6054,
      "ÑĤÐ²ÐµÑĤ": 6055,
      "Ð¼Ð°ÐºÑĩÑĭ": 6056,
      "ÑĤÐµÐº": 6057,
      "Ð»Ò¯Ò¯": 6058,
      "ĠÐ±ÑİÐ´Ð¶ÐµÑĤ": 6059,
      "Ð²Ð¸Ð¶": 6060,
      "ĠÑĩÐµÑĢÐµÐ·": 6061,
      "ĠÐ±Ð¾Ð»ÑĥÑĥÐ³Ð°": 6062,
      "ÑĨÐ¸Ð°Ð»": 6063,
      "Ð´Ð°Ð»Ð°ÑĤ": 6064,
      "ĠÓ©Ð·Ð´Ó©ÑĢÒ¯": 6065,
      "95": 6066,
      "Ð°Ð¿ÑĤÐ°ÑĢ": 6067,
      "ĠÐ±Ò¯ÑĤÐºÒ¯Ð»": 6068,
      "ĠÐ§Ð¾Ð»Ð¿Ð¾Ð½": 6069,
      "ÐµÑĢÐ´Ð¸Ðº": 6070,
      "ĠÐ¼Ð°ÑģÐµÐ»ÐµÐ»ÐµÑĢÐ´Ð¸": 6071,
      "ĠÑĥÐ¼ÑĤ": 6072,
      "600": 6073,
      "ĠÑģÑĥÑĤÐºÐ°": 6074,
      "ĠÑĢÐµÐ±ÐµÐ½": 6075,
      "Ð¢Ò¯ÑĢÐº": 6076,
      "ĠÐĲÐºÐ°ÐµÐ²": 6077,
      "ĠÑĢÐ°Ðº": 6078,
      "ÐµÑĪÐ¸Ð¿": 6079,
      "ĠÑĢÐ°ÑģÑģ": 6080,
      "ĠÐºÐ°Ð»ÑĭÑĪÑĭ": 6081,
      "ĠÐºÐ¾Ð¼ÑĥÐ·": 6082,
      "ĠÐĲÐºÑĭÑĢÐºÑĭ": 6083,
      "ĠÐ´Ð°Ð¹ÑĭÐ½Ð´Ð°Ð»Ð³Ð°Ð½": 6084,
      "Ò¯Ð½Ð´Ó©Ð¹": 6085,
      "ĠÐ²Ð¾Ð¿ÑĢÐ¾Ñģ": 6086,
      "ĠÐ¼ÐµÐºÑĤÐµÐ¿ÑĤÐ¸Ð½": 6087,
      "ĠÐ¢ÐµÐºÐµÐ±Ð°ÐµÐ²": 6088,
      "Ð¾Ð³Ð¾Ð»": 6089,
      "ĠÐ§ÐµÐº": 6090,
      "ĠÐ¸Ð»Ð¸Ð¼Ð´ÐµÑĢÐ¸Ð½Ð¸Ð½": 6091,
      "Ð¸Ñī": 6092,
      "ÑģÐµÐ¼": 6093,
      "ĠÐ¶Ð°Ð¼Ð°": 6094,
      "ĠÐ±Ð°ÑĪÑĭ": 6095,
      "Ð»Ð°ÑĢÑĭÐ½Ð°": 6096,
      "ĠÐ·Ð°Ð½": 6097,
      "ĠÑĤÑĥÑĥÐ³Ð°Ð½Ð´Ð°ÑĢÑĭ": 6098,
      "ĠÑģÒ¯ÑĤ": 6099,
      "ĠÐ¶Ð¾Ð¾Ð¿ÑĤÑĥÑĥ": 6100,
      "Ð´Ð¸ÐºÐºÐµ": 6101,
      "ĠÐ¡Ð°Ð¹": 6102,
      "ĠÐºÑĭÐ¹Ð½": 6103,
      "ÐµÐ½Ð½ÑĭÑħ": 6104,
      "ĠÑĤÓ©Ð»Ó©Ð¿": 6105,
      "ĠÐºÑĭÐ·Ð¼Ð°ÑĤÑĤÐ°ÑĢ": 6106,
      "ĠÐ¾ÐºÑĥÑĢÐ¼Ð°Ð½": 6107,
      "Ð°ÑĨÐ¸ÑıÑģÑĭ": 6108,
      "ĠÐ±Ð°ÑĪÑĤÐ°Ð»Ð´Ñĭ": 6109,
      "ĠÐºÐµÐ»Ð±ÐµÐ¹ÑĤ": 6110,
      "ĠÐºÐ¾Ð»Ð´Ð¾Ð¿": 6111,
      "ĠÐ¿Ð¾Ð¿ÑĥÐ»ÑıÑĢ": 6112,
      "ĠÑĤÑĥÑİ": 6113,
      "ĠÂ©Ċ": 6114,
      "ĠÐ¶Ð°Ð·ÑĥÑĥÑĩÑĥ": 6115,
      "ĠÐ¼Ð°ÑģÐµÐ»ÐµÑģÐ¸Ð½": 6116,
      "ĠÐ±Ó©Ð»Ò¯Ð¼Ò¯": 6117,
      "ĠÐ¼Ð°Ð½Ð´": 6118,
      "ĠÐ±Ð°Ð»Ð´Ð°ÑĢÐ´Ñĭ": 6119,
      "Ð±ÑĭÐ·Ð´ÑĭÐ½": 6120,
      "ĠÐ±Ð¾Ð»Ð±Ð¾ÑģÑĥÐ½": 6121,
      "ĠÐ¶Ð¾Ð³Ð¾ÑĢÑĥÐ»Ð°ÑĤÑĥÑĥ": 6122,
      "ÑıÑĤÑģÑı": 6123,
      "ÐµÐ´Ð¸Ð½": 6124,
      "Ð´Ð°Ð½ÑĭÐ½": 6125,
      "ÐµÑĤÑĤÐµÑĢÐ¸": 6126,
      "Ð¾Ð¼Ð°ÑĤ": 6127,
      "Ð¾ÑĩÐ½Ð¾": 6128,
      "ĠÐºÐ°Ð¹ÑĤÐ°Ð»": 6129,
      "ĠÐŀÑĪÑĤ": 6130,
      "ĠÑįÐ»ÐµÐ¼ÐµÐ½ÑĤÑĤ": 6131,
      "ĠÐ¶Ð°Ð³Ñĭ": 6132,
      "ĠÐºÐ°ÑĤÐ¼": 6133,
      "ÑĥÑĢÐ¸": 6134,
      "ĠÑĩÓ©Ð¹ÑĢÓ©Ñģ": 6135,
      "ÑĪÐµÐ¼Ð±Ð¸": 6136,
      "Ð°ÑĢÑħ": 6137,
      "ĠÐ½ÐµÐº": 6138,
      "ĠÐºÑĭÐ»Ð°": 6139,
      "ĠÐ¼ÑĥÐ¶": 6140,
      "ĠÐ´Ð¾Ñģ": 6141,
      "ĠÐ°ÑĥÐ´Ð¸": 6142,
      "ÑĥÐ¼Ð´ÑĥÐ½": 6143,
      "ĠÐºÐ°ÑĢÐ°Ð¶Ð°ÑĤÑĤÐ°ÑĢÑĭ": 6144,
      "Ð¸ÑģÑĤÐ¸ÐºÐ°Ð»ÑĭÐº": 6145,
      "ĠÐ¼ÑĥÐ½Ð¸ÑĨÐ¸Ð¿Ð°Ð»Ð´ÑĭÐº": 6146,
      "ĠÐ´Ð°ÑĢÑĭÐ»Ð¾Ð¾": 6147,
      "Ð°Ð½Ð´ÑĭÐº": 6148,
      "ĠÑĥÑģÑĤÐ°Ð½Ð¾Ð²": 6149,
      "ĠÒ¯Ð·Ð³Ò¯Ð»ÑĤÒ¯Ðº": 6150,
      "ĠÑĥÑĩÑĥÑĢÐ»Ð°ÑĢÐ´Ð°": 6151,
      "ĠÐºÒ¯Ð»": 6152,
      "ĠÐ²ÐµÑĢÑģ": 6153,
      "ÐĳÐ°ÑĪ": 6154,
      "ĠÐ°Ð²ÑĤÐ¾Ð±": 6155,
      "ĠÐ¿Ð°Ð»": 6156,
      "ĠÐĳÐ£Ð£Ð½ÑĥÐ½": 6157,
      "Ð¸Ð¼Ð´Ð¸Ð½": 6158,
      "ĠÐºÐ¾Ð»Ð´Ð¾Ð½ÑĥÐ¿": 6159,
      "Ð¸Ð»Ð¸ÐºÑĤÒ¯Ò¯": 6160,
      "ÐĲÐ±": 6161,
      "ĠÒ¯Ð¹Ò¯Ð½Ó©": 6162,
      "ÑģÐºÓ©Ð½": 6163,
      "ĠÐ¼Ð°Ð°Ð»ÑĭÐ¼Ð´Ð°Ð´Ñĭ": 6164,
      "ĠÐ¶Ð¸Ð³Ð¸": 6165,
      "ĠÐ¶Ð°ÑĤÐ°Ð¼": 6166,
      "ĠÐ¶Ð°ÑĪÐ°Ð¹ÑĤ": 6167,
      "Ó¨Ð¼Ò¯ÑĢ": 6168,
      "ĠÐ¿ÑĢÐ¾ÐºÑĥÑĢÐ°ÑĤÑĥÑĢÐ°": 6169,
      "ĠÑĢÐ°Ð·Ð²Ð¸ÑĤ": 6170,
      "ÐĲÐļÐ¨": 6171,
      "ĠÐ¼Ð¾Ð¹Ð½": 6172,
      "ĠÑĥÐ±Ð°Ð´Ð°": 6173,
      "____": 6174,
      "ĠÐ°Ð»ÑĥÑĥÐ´Ð°": 6175,
      "ĠÐºÐ¾Ð»Ð¸Ñĩ": 6176,
      "ÐĳÐ°Ð¹": 6177,
      "Ð°Ð»Ð¸ÐµÐ²Ð´Ð¸Ð½": 6178,
      "Ð°ÑĤÐ¾ÑĢÑĥ": 6179,
      "Ð¾Ð²ÑĭÐµ": 6180,
      "Ð°Ð»ÑĭÐ½Ð°": 6181,
      "Ġ*": 6182,
      "ĠÐľÑĭÐ½Ð´Ð°": 6183,
      "ĠÐ¤Ð¸Ð½": 6184,
      "ĠÑģÐ¸ÑģÑĤÐµÐ¼Ð°": 6185,
      "ĠÐºÐµÒ£ÐµÑĪÑĤÐ¸Ð½": 6186,
      "ĠÑĤÐ¸ÐµÑĪÐµÑģÐ¸": 6187,
      "Ð¾ÑģÑĥÐ´Ð°ÑĢ": 6188,
      "ĠÐºÑĭÐ·ÑĭÐºÑĤÑĥÑĥ": 6189,
      "ĠÐ±Ð°Ð¹ÐºÐ¾Ð¾": 6190,
      "ĠÑįÐ½ÑĨÐ¸ÐºÐ»Ð¾Ð¿ÐµÐ´Ð¸Ñı": 6191,
      "Ð±Ó©": 6192,
      "ĠÑĤÑĥÑĥÑĢÐ°ÑģÑĭÐ½Ð´Ð°": 6193,
      "ĠÑĩÐµÑĩÒ¯Ò¯": 6194,
      "ĠÐºÐµÒ£ÐµÐ¹ÑĤ": 6195,
      "ĠÑĤÐ°Ð½Ð´Ð°Ð¿": 6196,
      "ĠÐļÐ°ÑģÑĭÐ¼": 6197,
      "250": 6198,
      "ĠÐºÐ»Ð¸Ð½": 6199,
      "ĠÐ¸Ð»Ð´ÐµÑĤ": 6200,
      "ĠÐļÐ¾Ð¶": 6201,
      "ĠÐ´ÐµÑĪ": 6202,
      "ĠÐ¢ÑĥÑĥ": 6203,
      "ÐºÑĥÑı": 6204,
      "ĠÑĤÑĥÐ½": 6205,
      "ĠÐ´ÑĥÑĪÐ¼Ð°Ð½": 6206,
      "ĠÐ¼Ð½Ð¾Ð³": 6207,
      "ĠÐľÐ°Ð»": 6208,
      "ĠÐºÑĭÐ·Ð¼Ð°ÑĤÑĤÐ°ÑĪ": 6209,
      "ĠÐºÐ¸Ð½Ð¾": 6210,
      "ĠÐ»Ð¸ÑĨÐµÐ½Ð·": 6211,
      "ĠÑĩÐµÑĩÐ¸Ð¼Ð¸Ð½": 6212,
      "Ð£ÑĩÑĥÑĢÐ´Ð°": 6213,
      "ĠÐĲÐºÑĭÐ»Ð±ÐµÐº": 6214,
      "ĠÐ¿ÑĢÐ¾ÐºÑĥÑĢÐ¾ÑĢ": 6215,
      "ĠÐ±Ð¸Ð»Ð¸Ð¿": 6216,
      "ĠÑĭÒ£Ð³Ð°Ð¹Ð»ÑĥÑĥ": 6217,
      "ĠÑĤÐ°Ð°Ð½ÑĭÑĪ": 6218,
      "ĠÐ°ÑģÐ¼Ð°Ð½": 6219,
      "com": 6220,
      "Ð»Ð°Ð¼": 6221,
      "Ð¾ÑĢÑĤÑĤÑĥÐ½": 6222,
      "ĠÐ¾ÑģÑĤ": 6223,
      "ĠÐ¡Ð¾ÑĤ": 6224,
      "ĠÐĺÑģÐ°": 6225,
      "ÑĥÑĪÑĤÑĥÐ½": 6226,
      "ĠÑĤÒ¯ÑĪÑĤÒ¯": 6227,
      "Ð°ÐºÑĤÐ°ÑĢÐ´ÑĭÐ½": 6228,
      "ĠÐļÐ¾Ð¾Ð¼": 6229,
      "ĠÐ¼Ð¸Ð»Ð´ÐµÑĤÑĤÐµÐ½": 6230,
      "ĠÓ©ÑĤÐ¿Ó©Ð¹": 6231,
      "ĠÐ³ÐµÐºÑĤ": 6232,
      "ĠÐºÑĭÐ·Ð¼Ð°ÑĤÐºÐ°": 6233,
      "ĠÐ°Ð²ÑĤÐ¾ÑĢÑĥ": 6234,
      "ĠÐºÑĭÑĢÐ³ÑĭÐ·Ð´Ð°ÑĢÐ´ÑĭÐ½": 6235,
      "ÐµÐ½ÑĤÐºÐµ": 6236,
      "ĠÓ©ÐºÐ¼Ó©ÑĤÒ¯Ð½Ò¯Ð½": 6237,
      "ÑĩÐ¸Ð½": 6238,
      "ĠÑģÑĥÑĥÐ³Ð°": 6239,
      "ĠÐ¶ÑĭÐ»ÑĥÑĥÐ»ÑĥÐº": 6240,
      "ĠÑĤÐ°Ð¿ÑĤÐ°": 6241,
      "ĠÐ¼Ð°ÑĢÑĤ": 6242,
      "ĠÐºÐ°Ð¼ÑĤÑĭÐ¹ÑĤ": 6243,
      "ÑĢÐµÑģ": 6244,
      "Ð¼ÐµÑģÑĤ": 6245,
      "ĠÐºÑĭÐ·Ð¼Ð°ÑĤÑĭÐ½": 6246,
      "ĠÑĤÒ¯Ð·Ð´Ó©Ð½": 6247,
      "ĠÐ¼ÐµÐ´Ð¸ÑĨÐ¸Ð½Ð°": 6248,
      "ĠÐ±Ð¸Ð·Ð´Ðµ": 6249,
      "ĠÐ¶Ð°ÐºÑĤÑĭÑĢ": 6250,
      "ĠÑĤÓ©Ð»Ó©Ó©": 6251,
      "ĠÐ¼Ð°Ð½Ð°Ñģ": 6252,
      "ĠÑĦÐ¸Ð»ÑĮÐ¼": 6253,
      "ÐµÐ½Ð½ÑĭÐµ": 6254,
      "ĠÐ±Ð¸ÑĢÐ¸Ð½Ðµ": 6255,
      "Ð°Ð³ÑĢ": 6256,
      "ÑĤÐ¸ÑĦ": 6257,
      "ÑģÐ°Ð»": 6258,
      "ĠÐ±Ð°Ð½ÐºÑĤÑĭÐ½": 6259,
      "ÑĢÐ°Ð¸Ð½": 6260,
      "ĠÓ¨Ð½": 6261,
      "69": 6262,
      "ĠÐ²Ð°Ñģ": 6263,
      "ĠÐ°ÑįÑĢÐ¾Ð¿Ð¾ÑĢÑĤ": 6264,
      "ĠÑįÑģÐµ": 6265,
      "ĠÐ¼Ð¸Ð½Ð¸ÑģÑĤÑĢÐ»ÐµÑĢ": 6266,
      "ÑįÐ¹": 6267,
      "ĠÑĩÑĭÐ³Ð°ÑĢÐ¼Ð°ÑĩÑĭÐ»": 6268,
      "ÐµÑĢÐ±Ð°Ð¹Ð¶Ð°Ð½": 6269,
      "ĠÑįÐ³ÐµÐ¼ÐµÐ½": 6270,
      "ÐµÐºÐµÐ½": 6271,
      "ÑĥÑı": 6272,
      "ÐµÐ¼ÐµÑĤÐµÐ¹": 6273,
      "ĠÑģÐ°ÑĢÑĭ": 6274,
      "ĠÐ¿Ð¾Ð·Ð²Ð¾Ð»": 6275,
      "ĠÐ°Ð½Ð³Ð»Ð¸Ñģ": 6276,
      "Ð¸Ð±Ð¸ÑĢ": 6277,
      "ĠÐ¶Ð°Ð»Ð¿ÑĭÑģÑĭÐ½Ð°Ð½": 6278,
      "ĠÑĩÐ°ÐºÑĭÑĢÑĭÐ¿": 6279,
      "ÐĲÐĽ": 6280,
      "Ð°ÑĤÑĤÐ°ÑĢÐ³Ð°": 6281,
      "ĠÐ¸ÑģÐ¿Ð¾Ð»ÑĮÐ·": 6282,
      "ÑģÐ¸Ò£": 6283,
      "Ð³Ò¯Ð·": 6284,
      "Ð¸ÑıÑģÑĭÐ½Ð°": 6285,
      "ĠÑĦÐ¾ÑĢÐ¼Ð°": 6286,
      "ĠÐ´Ð¾Ð»Ð»Ð°ÑĢÐ³Ð°": 6287,
      "ĠÑģÐµÐ±Ñı": 6288,
      "ĠÐľÑĥÐ½ÑĥÐ½": 6289,
      "ĠÐ³Ð°ÑĢ": 6290,
      "ĠÐ¸Ð½ÑģÑĤÐ¸ÑĤÑĥÑĤÑĥÐ½ÑĥÐ½": 6291,
      "ĠÐ¿Ð°Ð½Ð´ÐµÐ¼": 6292,
      "-ÑįÐºÐ¾Ð½Ð¾Ð¼Ð¸ÐºÐ°Ð»ÑĭÐº": 6293,
      "ÑĤÐµÑĪÑĤ": 6294,
      "Ð±ÐµÑģÑĤ": 6295,
      "ĠÐºÒ¯Ð±Ó©": 6296,
      "ĠÐ³Ð°": 6297,
      "ĠÐ¾Ð±ÑıÐ·": 6298,
      "ĠÑĩÐ°ÐºÑĭÑĢÑĭÐ¼": 6299,
      "Ð½Ð¸ÐºÐ¸": 6300,
      "ĠÓ©ÑĩÒ¯ÑĢ": 6301,
      "ÑĥÑīÐµÑģÑĤÐ²": 6302,
      "ĠØ": 6303,
      "Ð²Ð¸Ð½": 6304,
      "ÐļÐ°Ð·Ð°Ðº": 6305,
      "Ð¸Ð¼Ð¸Ð½": 6306,
      "ĠÑįÐºÑģÑĤÑĢ": 6307,
      "Ó©ÑĤÑĤÒ¯": 6308,
      "ĠÐºÐ°Ð½Ð°Ð°ÑĤÑĤÐ°Ð½": 6309,
      "ĠY": 6310,
      "ĠÑĩÐ°ÐºÑĭÑĢÐ´Ñĭ": 6311,
      "ĠÑĪÐ°Ð¹Ð»Ð°Ð½Ð³Ð°Ð½": 6312,
      "ĠÐ¿Ð¾ÐºÐ°Ð·": 6313,
      "Ð¼Ð°Ð»Ð°ÑĢÑĭÐ½": 6314,
      "Ð¾Ð³ÑĢÐ°Ð¼Ð¼": 6315,
      "ĠÐ¶ÐµÑĤÐµÐºÑĤÐµÐ³ÐµÐ½": 6316,
      "ĠÑĤÐ¾Ð³ÑĥÐ·": 6317,
      "ĠÐ±Ð¾Ð»ÑĥÑĥÐ´Ð°": 6318,
      "ÐµÐ½ÑĤÑĢ": 6319,
      "ĠÑħÐ¾ÑĤ": 6320,
      "Ó©Ð»Ó©ÑĢÐ´Ò¯Ð½": 6321,
      "ĠÑĥÑİÐ¼Ñĥ": 6322,
      "ĠÐľÑĥÑħÐ°Ð¼Ð¼ÐµÐ´": 6323,
      "ĠÑĢÐ°Ð±Ð¾ÑĤÑĭ": 6324,
      "ĠÓ©Ð»ÐºÓ©Ð´Ó©Ð½": 6325,
      "ĠÑĤÐ¾Ð»ÐºÑĥÐ½": 6326,
      "ĠÓ©Ð½Ó©ÐºÑĤÓ©ÑĪÑĤ": 6327,
      "ĠÓ©Ð»ÐºÓ©Ð»Ò¯Ðº": 6328,
      "ĠÐ¶ÑĥÐ¼Ð°": 6329,
      "ĠÐºÑĭÑĢÐº": 6330,
      "Ò¯Ò¯ÑģÒ¯Ð½Ð´Ó©": 6331,
      "ĠÐºÑĥÑĢÐ³Ð°Ðº": 6332,
      "ĠÐ¶Ò¯ÑĢÓ©Ðº": 6333,
      "Ð½Ð¾Ñģ": 6334,
      "ÑĥÑģÑĥÐ¿": 6335,
      "ĠÐĺÑĤÐ°Ð»": 6336,
      "ĠÐĲÑĦÑĢ": 6337,
      "ĠÐ¼Ó©Ò£": 6338,
      "ÐĲÐ·Ð°ÑĤÑĤÑĭÐºÐºÐ°": 6339,
      "ĠÐ°Ð¹Ð³Ð°": 6340,
      "ĠÐ¾ÑĢÐ³Ð°Ð½Ð´Ð°ÑĢ": 6341,
      "ĠÐ¿ÑĢÐ¾ÑĤÐ¾ÐºÐ¾Ð»": 6342,
      "Ð¸ÑıÑģÑĭÐ½Ð´Ð°": 6343,
      "ĠÐ¿Ð°Ð»Ð°ÑĤ": 6344,
      "ÑĨÐ¸ÑıÐ»Ð°ÑĢÑĭ": 6345,
      "ĠÐ¢Ð°ÑĢ": 6346,
      "ĠÐ¿Ð¾Ð·Ð¸ÑĨÐ¸Ñı": 6347,
      "ĠÑįÑģÐµÐ±Ð¸Ð½ÐµÐ½": 6348,
      "ĠÐºÓ©Ð¿ÑĩÒ¯Ð»Ò¯Ð³Ò¯": 6349,
      "ÑģÐºÐ¸Ðµ": 6350,
      "188": 6351,
      "Ð½Ð°Ð¼": 6352,
      "Ð·Ð°ÑĤ": 6353,
      "Ð²Ðµ": 6354,
      "ĠÐĲÐ½Ð´ÑĭÐºÑĤÐ°Ð½": 6355,
      "ĠÐĲÐ±ÑĭÐ»": 6356,
      "Ð¾Ð²Ð³Ð¾": 6357,
      "ĠÐĶÐ°Ð³Ñĭ": 6358,
      "ĠÐĳÑĢÐ¸ÑĤÐ°Ð½Ð¸Ñı": 6359,
      "ĠÐĴÐ°ÑĪ": 6360,
      "ĠÐŁÑĢÐµÐ·Ð¸Ð´ÐµÐ½ÑĤÐ¸": 6361,
      "ĠÐºÑĥÑĤÐºÐ°ÑĢ": 6362,
      "ĠÑģÐ¾Ð´": 6363,
      "ĠÐĳÐ¾Ð»Ð¾ÑĤ": 6364,
      "ĠÑĩÓ©Ð¹ÑĢÓ©": 6365,
      "ĠÑĩÑĥÑĢ": 6366,
      "ĠÐ²ÑĭÑĢ": 6367,
      "ĠÑĥÑİÐ¼Ð´Ð°ÑĢÐ´ÑĭÐ½": 6368,
      "Ð°Ð±Ð°ÐµÐ²": 6369,
      "ĠÐºÐ¾Ð¼Ð¸ÑĤÐµÑĤÐ¸": 6370,
      "ĠÐŀÐ¾Ð³Ð°Ð½ÑģÑĤÐ°Ð½": 6371,
      "ĠÐ°ÑĤÑĭÐ½": 6372,
      "ĠÒ¯Ð¹Ð´Ó©": 6373,
      "ÐľÑĭÐ½Ð´Ð°Ð½": 6374,
      "ĠÐ°ÑĢÐ°ÐºÐµÑĤÐ¸": 6375,
      "ÑģÐ¾Ð½": 6376,
      "ĠÑĦÐµÑģÑĤÐ¸Ð²": 6377,
      "ÐµÑĪÑĤÐ¸": 6378,
      "ĠÐºÐ°Ð±Ð¸Ð½ÐµÑĤÐ¸Ð½Ð¸Ð½": 6379,
      "op": 6380,
      "ĠÐłÐ°Ð·": 6381,
      "ĠÐ¡ÑĭÑĢ": 6382,
      "ĠÐ¼ÐµÑħÐ°Ð½Ð¸Ð·Ð¼": 6383,
      "Ð¼Ð°Ð¼": 6384,
      "Ð¡ÐĶÐŁ": 6385,
      "ews": 6386,
      "ĠÑĥÐ±Ð°ÐºÑĤÑĭÑģÑĭ": 6387,
      "ĠÐ³ÑĢÑĥÐ¿": 6388,
      "Ð»Ð¾Ð½": 6389,
      "ĠÐ´Ð°Ð°Ð½Ð°": 6390,
      "ĠÐĶÐ¸Ð½": 6391,
      "ĠÐ´Ò¯ÐºÓ©Ð½": 6392,
      "ĠÐĲÐ»ÑĭÐ¼": 6393,
      "ĠÐ°Ð¹ÑĤÑĭÐ»Ð´Ñĭ": 6394,
      "Ð»ÐµÐ¹": 6395,
      "ĠÑĤÐ¸Ð³Ð¸Ð»": 6396,
      "ĠÐ·Ð°Ð±Ð¾Ð»ÐµÐ²": 6397,
      "ÑĥÐµÑĤÑģÑı": 6398,
      "ĠÐ³ÑĢÐ°ÑĦ": 6399,
      "ĠÐ·Ð½Ð°Ñĩ": 6400,
      "ĠÐ¿ÑĢÐ¾Ð³ÑĢÐ°Ð¼Ð¼Ð°": 6401,
      "ÑĦÐµÑĢÐµÐ½Ð´ÑĥÐ¼": 6402,
      "Ð¼Ð°ÑĤÐ¾Ð²Ð´ÑĥÐ½": 6403,
      "ĠÑĤÐ¾ÑģÑĥÐ¿": 6404,
      "ak": 6405,
      "ĠÐ¶ÐµÐ½Ñī": 6406,
      "ĠÐ±ÐµÑĢÐ¸Ð»Ð¸Ð¿": 6407,
      "ĠÐ±Ð¾Ð»ÑĮÑĪÐµ": 6408,
      "Ð¾Ð³ÐµÐ½": 6409,
      "ĠÐ½ÐµÑĤ": 6410,
      "ĠÐ±Ð¸ÑĢÐ¸Ð½Ð´Ðµ": 6411,
      "ĠÑĤÐ°Ð°Ð½ÑĥÑĥ": 6412,
      "ĠÐºÐµÐ»Ð¸ÑĪÐµÑĤ": 6413,
      "ĠÐºÑĭÐ·Ð´ÑĭÐ½": 6414,
      "ĠÐĲÐ»Ð³Ð°Ñĩ": 6415,
      "ĠÐ±Ð°Ð»Ð´Ð°ÑĢÐ³Ð°": 6416,
      "Ð»ÑĥÐ³Ñĥ": 6417,
      "ÐķÑģÐ»Ð¸": 6418,
      "ÐºÐ°Ð¼": 6419,
      "ÐºÓ©ÑĢ": 6420,
      "Ð¾ÐºÐ¾Ð½": 6421,
      "ĠÓ©ÑĤÐºÓ©ÑĢÒ¯Ð»Ò¯Ð¿": 6422,
      "ĠÐºÑĢÐ¾Ð²": 6423,
      "Ð´Ð¸ÐºÑĤÐµÐ½": 6424,
      "Ð¢Ðł": 6425,
      "ÑĢÐ°Ð¶Ð´Ð°Ð½": 6426,
      "ĠÑģÐ¸Ð·Ð³Ðµ": 6427,
      "ĠÐºÐ¸ÑĢÐµÑĪÐµ": 6428,
      "ĠÐ°Ð¹ÑĭÐ½ÑĭÐ½": 6429,
      "ĠÐ¼Ð°ÑĪÐ¸Ð½Ð°": 6430,
      "Ð°Ð»Ð´Ð°ÑĢÑĭ": 6431,
      "-ÑĤÑĥÑĢ": 6432,
      "ĠÐºÐ°ÑĢÐ°Ð¼Ð°": 6433,
      "ĠÐ²ÑģÐµÑħ": 6434,
      "ĠÐĻ": 6435,
      "ĠÑģÐ°ÑĤÑĥÑĥ": 6436,
      "Ð½Ð°Ð·Ð°ÑĢ": 6437,
      "ĠÐ¡Ð°Ð¿Ð°ÑĢ": 6438,
      "ĠÐ½Ð°ÑĢÐº": 6439,
      "ĠÐ±Ð°ÑĪÑĭÐ½Ð°": 6440,
      "ĠÐºÑĭÐ¹Ð¼ÑĭÐ»ÑĭÐ½ÑĭÐ½": 6441,
      "ĠÑģÐ¾Ð²ÐµÑĤ": 6442,
      "ĠÐŁÐ°Ðº": 6443,
      "ĠÑĤÐ°ÑĢÐ¼Ð°Ð³ÑĭÐ½Ð´Ð°": 6444,
      "ÑĥÑĥÑģÑĥÐ½ÑĥÐ½": 6445,
      "ĠÐļÐ¸ÑĤ": 6446,
      "Ð¸ÑģÑĤÑĢ": 6447,
      "ĠÑĤÒ¯Ð½Ò¯": 6448,
      "Ð°ÐºÑĤÐµÑĢ": 6449,
      "ĠÐºÐ¾Ð¼Ð°Ð½": 6450,
      "ĠÐ¶Ð°Ð°Ð¿": 6451,
      "ĠÑįÐ³ÐµÑĢÐ´Ðµ": 6452,
      "Ð¸Ð»Ðµ": 6453,
      "ĠÐ¼ÐµÐ½ÑĩÐ¸Ðº": 6454,
      "ĠÐ½ÐµÑģÐºÐ¾Ð»ÑĮÐºÐ¾": 6455,
      "-ÐĿ": 6456,
      "ĠÐļÑĥÐ¼ÑĤÓ©ÑĢ": 6457,
      "ĠÐ»Ð¾Ð³": 6458,
      "ĠÐ±Ð°ÑĤÐ¸ÑĢ": 6459,
      "ĠÑĤÐ¾Ð¿ÑĤÑĥÐ½": 6460,
      "ation": 6461,
      "ĠÐĸÐľÐļ": 6462,
      "Ð´ÐµÐ¹ÑĤ": 6463,
      "ĠÐ²Ð¸ÑĤ": 6464,
      "ĠÑĤÐµÐ±": 6465,
      "ĠÐºÒ¯Ð½Ð´Ò¯Ð·": 6466,
      "ÙĲ": 6467,
      "Ð¼Ð°Ð¹": 6468,
      "Ð³Ð¸Ñĩ": 6469,
      "ĠÐºÒ¯ÑĩÒ¯": 6470,
      "ĠÑģÐµÐ»": 6471,
      "ÑĥÐ»ÑĥÐº": 6472,
      "ÐºÐ¾Ðµ": 6473,
      "Ð´Ð¾Ð¼": 6474,
      "ĠÑģÐ¾Ð¼Ð´Ñĥ": 6475,
      "56": 6476,
      "ĠÐ½Ð°Ð±": 6477,
      "ĠÐĲÐ±Ð´Ñĭ": 6478,
      "ÑĢÐ°Ð½ÑĨÑĥÐ·": 6479,
      "ĠÐłÐµÑģÐ¿ÑĥÐ±Ð»": 6480,
      "ĠÑĥÐºÐºÐ°Ð½": 6481,
      "ĠÐ¾ÑĤÐºÑĢ": 6482,
      "ĠÐ´ÐµÐ³ÐµÐ½Ð´Ð¸": 6483,
      "-ÑĪ": 6484,
      "ĠÐĲÑĢÐ°Ð±": 6485,
      "ĠÐ¢Ò¯ÑĢÐºÐ¸ÑıÐ½ÑĭÐ½": 6486,
      "ĠÑģÐ°Ð½Ð°ÑĢÐ¸Ð¿": 6487,
      "ĠÐļÐ¾Ð¾Ð¿ÑģÑĥÐ·Ð´ÑĥÐº": 6488,
      "ÑĭÐ³Ð°ÑĢ": 6489,
      "ĠÐ·Ð°ÑĤÑĤÐ°ÑĢ": 6490,
      "ÐµÑĢÐ¾Ð²": 6491,
      "ĠÐ±Ð¾Ð»ÑĥÑĪÐºÐ°Ð½": 6492,
      "ab": 6493,
      "Ð´Ó©ÑĪÑĤ": 6494,
      "ÐµÐ½ÑĤÐ¾Ð²": 6495,
      "ĠÑģÒ¯Ð¹Ò¯Ò¯": 6496,
      "ĠÐ°ÑĢÑħÐ¸ÑĤÐµÐºÑĤ": 6497,
      "ĠÐ¼ÐµÐºÑĤÐµÐ¿ÑĤÐµ": 6498,
      "ĠÑįÑįÐ»ÐµÐ³ÐµÐ½": 6499,
      "ĠÐ±Ð°Ð»Ð°Ð½Ñĭ": 6500,
      "ĠÐļÐ°Ð¼ÑĩÑĭÐ±ÐµÐº": 6501,
      "Ó©ÑĢÐ³Ó©": 6502,
      "ĠÐ¶Ð°ÑĢÑĭÑıÐ»Ð°Ð´Ñĭ": 6503,
      "ĠÑĩÑĭÐ³Ð°ÑĢÐ¼Ð°ÑĩÑĭÐ»ÑĭÐº": 6504,
      "ĠÑĢÐµÐ·ÑĥÐ»ÑĮÑĤ": 6505,
      "ĠÐ´ÐµÑĢ": 6506,
      "ĠÐ¿ÑĢÐ¸Ð·": 6507,
      "ĠÐ±Ð¸ÑĢÐ¸Ð³": 6508,
      "Ð´Ó©ÑĢÒ¯Ð½Ó©": 6509,
      "Ð°Ð»Ð¾": 6510,
      "ĠÐ°ÑĤÑĭÐ¿": 6511,
      "ĠÐ°Ð¹Ð»Ð°Ð½Ð³Ð°Ð½": 6512,
      "ĠÐ¶Ð°ÐºÑĪÑĭÑĢÑĤÑĥÑĥ": 6513,
      "ĠÐ¸ÑĤ": 6514,
      "ĠÐºÓ©ÑĩÒ¯ÑĢ": 6515,
      "ĠÐļÐ¾Ð¹": 6516,
      "ĠÐĵÐŃÐ¡": 6517,
      "ĠÑįÐºÐ¸Ð½": 6518,
      "ĠÐ±ÐµÑĢÐ¸ÑĪÑĤÐ¸": 6519,
      "ĠÑģÐ°ÐºÑĤÐ°Ð³Ñĭ": 6520,
      "ĠÐ¶ÐµÑĤÐ¸ÑĪÑģÐ¸Ð·": 6521,
      "ÐºÓ©Ð½Ò¯": 6522,
      "ĠÐ¶ÑĭÐ¹ÑĭÐ½Ð´Ð°": 6523,
      "Ð¡ÑĤ": 6524,
      "ĠÐºÐ¸ÑĤÐµÐ±": 6525,
      "ĠÓ©Ð»ÐºÓ©Ð»Ó©ÑĢÐ´Ó©": 6526,
      "ook": 6527,
      "ĠÑĦÐ¸ÑĢ": 6528,
      "ĠÒ¯ÑģÑĤÒ¯Ð½Ð´Ó©": 6529,
      ".ÐĲÐ»": 6530,
      "ĠÐ¶ÐµÑĤÐºÐ¸Ð»Ð¸ÐºÑĤÒ¯Ò¯": 6531,
      "ĠÐºÑĭÐ·Ð¼Ð°ÑĤÐºÐµÑĢÐ»ÐµÑĢÐ¸Ð½Ð¸Ð½": 6532,
      "ĠÐºÑĭÐ¼Ð±Ð°ÑĤ": 6533,
      "Ð°Ð½Ð¾": 6534,
      "Ð±Ñī": 6535,
      "ĠÐºÑĭÐ»Ð¼ÑĭÑĪÑĤÑĥÑĥ": 6536,
      "ÑĭÑĢÐ·": 6537,
      "ĠÐ¶Ð¾Ð»Ð´Ð¾ÑĪ": 6538,
      "Ð»Ð¸ÐºÑĤÐ¸Ð½": 6539,
      "ĠÐºÐ°ÑĢÐ¼Ð°Ð»ÑĭÐ¿": 6540,
      "ĠÑĩÐ¸Ð¹": 6541,
      "ĠÐ¶ÐµÒ£Ð¸Ð¿": 6542,
      "ÐĳÐ¸Ð·Ð´Ð¸Ð½": 6543,
      "ĠÐŃÐ½ÑĨÐ¸ÐºÐ»Ð¾Ð¿ÐµÐ´": 6544,
      "ÐºÑĤÐ°Ð½": 6545,
      "ĠÐĸÐ°Ð¿Ð°ÑĢÐ¾Ð²Ð´ÑĥÐ½": 6546,
      "ĠÐ¿Ð°ÑģÐ¿Ð¾ÑĢÑĤ": 6547,
      "ĠÐĲÐŀ": 6548,
      "Ð¸ÑĤÑĥ": 6549,
      "ĠÑĤÒ¯ÑĪÒ¯Ð½Ò¯Ðº": 6550,
      "ĠÓ©Ð½Ð´Ò¯ÑĢÒ¯Ò¯": 6551,
      "ĠÐ±Ó©Ð»Ò¯Ð³Ò¯Ð½Ð´Ó©": 6552,
      "ĠÐļÑĭÑĢÐ³ÑĭÐ·ÑģÑĤÐ°Ð½Ð´Ð°Ð½": 6553,
      "ÑĥÐ±ÐµÑĢÐ½": 6554,
      "ĠÐºÐ¸ÑĩÐ¸": 6555,
      "Ð¸ÑģÑĤÐ¸ÐºÐ°": 6556,
      "ĠÐ¼Ð°Ð°Ð»Ð´Ð°": 6557,
      "ĠÐ¾ÑĪÐ¾Ð½Ð´Ð¾": 6558,
      "ĠÐ»Ð°Ð±Ð¾ÑĢ": 6559,
      "ĠÐºÓ©Ð·Ó©Ð¼Ó©Ð»Ð´Ó©Ó©": 6560,
      "ĠÒ¯Ð¼Ò¯ÑĤ": 6561,
      "ĠÐ¼Ð¾Ð±Ð¸Ð»": 6562,
      "ĠÑĤÐ°ÑĢÐ¼Ð°Ð³Ñĭ": 6563,
      "ĠÐ°Ð½ÑĩÐ°": 6564,
      "ĠÐ±Ð¸Ð¹Ð»Ð¸ÐºÑĤÐ¸": 6565,
      "Ð±Ð¾Ð¹": 6566,
      "Ò¯ÐºÑĤÓ©ÑĢÒ¯Ð½": 6567,
      "ÐļÐ°ÑĢÐ°": 6568,
      "Ð³ÑĥÑĩ": 6569,
      "ĠÐºÐ¾Ð½ÑĦ": 6570,
      "ĠÐ¶Ð¾ÐºÐ¿": 6571,
      "ĠÑģÓ©Ð·Ò¯Ð½": 6572,
      "ĠÑĤÒ¯Ð·Ò¯Ð»Ò¯Ð¿": 6573,
      "ĠÑĥÑĪÑĥÐ½": 6574,
      "ÐļÐ¾Ð»Ð´Ð¾Ð½ÑĥÐ»Ð³Ð°Ð½": 6575,
      "ĠÐ¢Ó©Ð¼Ó©Ð½ÐºÒ¯": 6576,
      "ĠÐĳÐ°Ð°ÑĤÑĭÑĢ": 6577,
      "ĠÐ°ÑĢÐ°ÑģÑĭÐ½Ð°Ð½": 6578,
      "ÑĥÐ¼Ð´Ñĥ": 6579,
      "ĠÐŃÑĢÐºÐ¸Ð½": 6580,
      "ĠÐ¿ÑĢÐ¾ÑĨÐµÑģÑģÑĤ": 6581,
      "59": 6582,
      "ÑĦÐ°Ð»ÑĮ": 6583,
      "Ð¸Ð²Ð°ÑĤÑĮ": 6584,
      "ĠÑįÑĢÐºÐ¸Ð½ÐµÐ½": 6585,
      "ĠÐĿÐ°Ð·Ð°ÑĢ": 6586,
      "ĠÐ´Ò¯Ð¹Ð½Ó©Ð³Ó©": 6587,
      "ĠÐĸÐµÑĤÐ¸": 6588,
      "Ð¼Ó©ÐºÑĤ": 6589,
      "ÑİÑģ": 6590,
      "ĠÐ¾ÑĢÐ´Ñĥ": 6591,
      "ĠÐ¨ÐµÑĢ": 6592,
      "ĠÐļÐµÒ£ÐµÑĪÐ¸Ð½Ð¸Ð½": 6593,
      "ÐºÐ¸Ðµ": 6594,
      "Ð¼Ó©ÑģÒ¯": 6595,
      "ĠÐ¼Ð°Ð¼Ð»ÐµÐºÐµÑĤÑĤÐµÑĢÐ´Ð¸Ð½": 6596,
      "ĠÐĳÑĥÑĢ": 6597,
      "ĠÐºÐµÑĤÐµ": 6598,
      "Ð¾ÑĨ": 6599,
      "Ð¾Ð¿Ð¾Ð»": 6600,
      "ĠÐºÐ°Ð±ÑĭÐ»Ð³Ð°Ð½": 6601,
      "ĠÐºÒ¯Ð½Ò¯Ð½Ó©": 6602,
      "ĠÑĪÐ°Ð¹Ð»Ð¾Ð¾Ð´Ð¾": 6603,
      "ĠÐ°Ð¹Ð¼Ð°Ð³ÑĭÐ½Ð´Ð°Ð³Ñĭ": 6604,
      "ÐµÐ³Ð¸Ð½Ðµ": 6605,
      "ĠÐ¶Ð¾Ð»ÑĥÐ³ÑĥÑĪÑĥÑĥ": 6606,
      "ĠÐ¿Ð¾ÑĤÐµÐ½": 6607,
      "Ð½Ð¸Ñħ": 6608,
      "ĠÑĩÑĥÐºÑĥÐ»": 6609,
      "ÑĮÐµ": 6610,
      "Ð¾Ð±Ð¸Ð»ÑĮ": 6611,
      "ĠÐºÐ°Ð¹ÑĤÐ°ÑĢÑĭÐ¿": 6612,
      "ĠÐ¼Ò¯Ð»ÐºÑĤ": 6613,
      "ĠÐĵÐ¾Ð»": 6614,
      "ÑĥÐ¼ÑĥÐ½": 6615,
      "ĠÐĳÐµÐ»Ð³Ð¸Ð»ÐµÐ¹": 6616,
      ".Ðĺ": 6617,
      "ĠÐ¾Ð¾": 6618,
      "ĠÐ½ÐµÑĢÐ²": 6619,
      "ĠÐ¡Ð°Ð±": 6620,
      "ĠÑĦÐµÐ²ÑĢ": 6621,
      "ĠÐºÐ°Ð»Ð³Ð°Ð½ÑĭÐ½": 6622,
      "ĠÐ¼Ð°Ð¼Ð»ÐµÐºÐµÑĤÐºÐµ": 6623,
      "ĠÐ¼Ð¸ÐºÑĢ": 6624,
      "Ð»ÑıÐµÑĤ": 6625,
      "ĠÐ·Ð°ÐºÐ¾Ð½": 6626,
      "ĠÐ¼ÐµÐ½Ñı": 6627,
      "ÑĥÑģÑĥÐ½": 6628,
      ".-": 6629,
      "ÐµÑĩÐµÐ½Ð¸Ðµ": 6630,
      "ĠÐ²Ð¾Ð»": 6631,
      "ĠÐ¼ÐµÑģÑı": 6632,
      "ĠÐ¿ÐµÐ½": 6633,
      "ĠÐ½Ð°Ð½": 6634,
      "ĠÑįÑĢÐ¸ÑĤ": 6635,
      "ĠÐ±Ð°Ð³": 6636,
      "ĠÐ¿Ð¾Ð»Ñĥ": 6637,
      "ĠÑģÑĥÐ»": 6638,
      "ĠÐ¸ÑĪÑĤÐµÑĢÐ¸Ð½Ðµ": 6639,
      "ĠÐºÓ©ÑĩÒ¯Ð¿": 6640,
      "88": 6641,
      "ĠÐ¸Ð½Ð¶": 6642,
      "ĠÓ¨ÐļÐľ": 6643,
      "ĠÐ¶Ð°ÐºÑĤÐ¾Ð¾": 6644,
      "ĠÑĢÐ¾ÑģÑģ": 6645,
      "ĠÑĭÑģÑĭÐº": 6646,
      "ĠÐºÐ¾Ð»Ð´Ð¾Ð½Ð³Ð¾Ð½": 6647,
      "ĠÐ¼Ð°ÐµÐ³Ð¸Ð½Ð´Ðµ": 6648,
      "ĠÐ¢Ò¯ÑĢÐºÐ¼Ó©Ð½": 6649,
      "ĠÐ´ÐµÐ¿Ð°ÑĢÑĤÐ°Ð¼ÐµÐ½ÑĤ": 6650,
      "Ó©Ð»Ó©Ðº": 6651,
      "ĠÑģÒ¯Ð¹Ð»Ó©ÑĪÒ¯Ð¿": 6652,
      "ÑĤÐ°ÑĨÐ¸Ñı": 6653,
      "ĠÐ´Ð¾ÐºÑĤÐ¾ÑĢÑĥ": 6654,
      "ĠÐ±Ð¾Ð»Ð¾ÑĢÑĥÐ½": 6655,
      "ĠÐ¸Ð½ÑģÐ¿": 6656,
      "ush": 6657,
      "ĠÓ¨Ð»ÐºÓ©": 6658,
      "ĠÑįÐ¼Ð³ÐµÐ³Ð¸": 6659,
      "ri": 6660,
      "Ð¸ÐºÑĤÐµÑĢÐ´Ð¸": 6661,
      "ĠÑĤÐµÐ¹Ð»Ó©Ó©": 6662,
      "ĠÐ¼Ð½Ð¾Ð³Ð¾": 6663,
      "Ð´ÐµÑĢÐ´Ðµ": 6664,
      "ĠÐ¼ÐµÐºÑĤÐµÐ¿ÐºÐµ": 6665,
      "ĠÐ¶ÐµÑĤÐµÐºÑĩÐ¸Ð»ÐµÑĢÐ¸": 6666,
      "ĠÐ·Ð°Ð²Ð¸Ñģ": 6667,
      "Ð²ÐµÐ½": 6668,
      "ĠÐºÐµÑĤÐ¸ÑĪÐºÐµÐ½": 6669,
      "ĠÐºÐ°Ð»Ð´ÑĭÐ¼": 6670,
      "ĠÐ¸ÑģÐºÑĥÑģÑģÑĤÐ²": 6671,
      "ĠÐĺÑģÐ¿": 6672,
      "ĠÐºÐ°ÑĤÑĭÑĪÐ°ÑĤ": 6673,
      "ĠÓ©ÑĤÐºÓ©ÑĢÐ³Ó©Ð½": 6674,
      "Ġthe": 6675,
      "ĠÐļÐ¾ÑĩÐºÐ¾ÑĢ": 6676,
      "ĠÐ±ÐµÑĢÐ¸ÑĪÐºÐµÐ½": 6677,
      "ĠÐºÐµÐ»Ò¯Ò¯": 6678,
      "ĠÐ¶Ð¾Ð»Ð´Ð¾": 6679,
      "ÐĳÐ¸ÑĢÐ¸Ð½ÑĩÐ¸": 6680,
      ".).": 6681,
      "ĠÑįÑĦÐ¸ÑĢ": 6682,
      "ĠÐ¿ÑĥÐ»": 6683,
      "ĠÐºÐµÐ»Ð°ÑĤÐºÐ°Ð½": 6684,
      "Ð½Ð¸Ð¼": 6685,
      "ĠÐ³Ð¸Ð¿": 6686,
      "ĠÐ·Ð¾Ð½": 6687,
      "-ÑĤÐ°Ð¶": 6688,
      "Ð»Ð°Ð½Ð°ÑĤ": 6689,
      "ĠÐ°Ð¹Ð¼Ð°ÐºÑĤÐ°": 6690,
      "ĠÑĤÐºÐ°Ð½": 6691,
      "ĠÑĤÑĥÑĢÐ³Ð°Ð½Ð´ÑĭÐ³ÑĭÐ½": 6692,
      "ÑĢÐµÐ½": 6693,
      "ÐķÐł": 6694,
      "ĠÐ°ÑĢÑĤÑĭÐ½Ð°Ð½": 6695,
      "Ð°Ð´Ð°Ð½Ð¸ÑıÑĤ": 6696,
      "-ÐĴ": 6697,
      "Ò¯Ò¯Ð»": 6698,
      "ĠÐ¶ÑĭÐ¹ÑĭÐ½ÑĤÑĭÐ³ÑĭÐ½Ð´Ð°": 6699,
      "ĠÐºÐ¸ÑĤÐµÐ¿ÑĤÐµÑĢ": 6700,
      "ĠÐ¡Ð°Ð»Ð°Ð¼Ð°ÑĤÑĤÑĭÐº": 6701,
      "ĠÐ±Ð¾Ð»Ð¾Ð±Ñĥ": 6702,
      ");Ċ": 6703,
      "ĠÐĸÐ°Ð»Ð¿Ñĭ": 6704,
      "Ð½Ð¸ÑĤ": 6705,
      "ĠÐ²ÐµÑī": 6706,
      "ĠÐ¸Ð½ÑģÑĤÐ¸ÑĤÑĥ": 6707,
      "Ð°ÑĤÑĭÐ¹Ð¶Ð°Ð´Ð°": 6708,
      "ĠÐ°Ð»ÑĭÑĪÑĭ": 6709,
      "Ð°ÐºÑĤÐ°Ð¿": 6710,
      "Ð³Ð¸Ð¿": 6711,
      "ĠÐļÐ°Ð¿": 6712,
      "ÐĲÐ²": 6713,
      "ĠÐ¸ÑĪÐ¸Ð½Ð¸Ð½": 6714,
      "ĠÐ´Ð¸Ð°Ð³": 6715,
      "ĠÐ³Ð¾Ð²Ð¾ÑĢ": 6716,
      "ÐľÐ°Ð°Ð»ÑĭÐ¼": 6717,
      "Ó©Ð±Ó©": 6718,
      "ĠÐ°Ð»Ðº": 6719,
      "ĠÐ½Ð¸Ñħ": 6720,
      "ĠÐļÓ©": 6721,
      "ĠÐ³Ð´Ðµ": 6722,
      "ĠÓ©ÑĤÒ¯Ò¯": 6723,
      "ÐµÑģÐºÐµÑĢ": 6724,
      "ÐµÐºÑĤÐµÑĢÐ´Ð¸Ð½": 6725,
      "Ð¼Ð°ÑĤÑĤÑĥÑĥ": 6726,
      "ĠÐºÑĥÑĢÑĥÐ¿": 6727,
      "ĠÐĿÐ¾Ð¾": 6728,
      "ĠÐºÐµÐ»ÑĤÐ¸ÑĢÐ¸Ð»Ð³ÐµÐ½": 6729,
      "ĠÑĤÐ°Ð¼Ð°ÐºÑĤÐ°Ð½": 6730,
      "ĠÐĺÑģÐ°ÐºÐ¾Ð²": 6731,
      "Ð³Ð°Ð¼": 6732,
      "ÑĨÑĭ": 6733,
      "ÐĸÐ¾Ð»": 6734,
      "ĠÐºÒ¯ÑĩÒ¯Ð½Ó©": 6735,
      "Ð½Ð¾Ð·": 6736,
      "ĠÐ¶ÑĭÐ»Ð´Ð°ÑĢ": 6737,
      "ĠÐ¢ÐµÒ£": 6738,
      "ĠÑģÐ¾Ð¾ÑĤÐ²ÐµÑĤ": 6739,
      "ĠÐ·Ð°Ð²Ð¾Ð´": 6740,
      "ĠÐ¿ÐµÑĢÐµÐ´": 6741,
      "ĠÐŃÐ¼Ð³ÐµÐº": 6742,
      "ĠÐºÐ¾ÑĢÑĢÑĥÐ¿ÑĨÐ¸Ñı": 6743,
      "ĠÐ½ÐµÑĢÑģÐµÐ»ÐµÑĢ": 6744,
      "ÐļÐ°Ð½": 6745,
      "ĠÐ³Ð¾Ð´Ñĥ": 6746,
      "ĠÐºÐ¾Ð»Ð´Ð¾Ð½ÑĥÑĥÐ³Ð°": 6747,
      "ĠÂ»": 6748,
      "ĠÐ¸ÑİÐ»": 6749,
      "Ð°Ð»Ð¸Ð·Ð¼": 6750,
      "ĠÐĸÑĭÐ¹ÑĭÐ½": 6751,
      "ĠÐłÐ°Ñģ": 6752,
      "ĠÐ£Ð½": 6753,
      "ÑģÑĤÑĢÐ¾Ð¹": 6754,
      "âĢ¢": 6755,
      "ĠÑģÐ°Ð»Ð°ÑĤ": 6756,
      "ĠÐ´Ò¯Ð¹Ð½Ó©Ð´Ó©Ð³Ò¯": 6757,
      "Ð»Ð¾Ð¶": 6758,
      "ĠÑĩÐ°Ð¿": 6759,
      "ĠÐ²ÑĭÑģÐ¾Ðº": 6760,
      "62": 6761,
      "ÐºÐ°Ð¼Ð¸": 6762,
      "ĠÑģÐ¸ÑģÑĤÐµÐ¼Ð°ÑģÑĭÐ½": 6763,
      "ÑĪÐ°ÑĢ": 6764,
      "Ð¸Ð¼Ð´Ðµ": 6765,
      "ÐµÐ³Ð¾Ð´": 6766,
      "ĠÑĤÐ°ÑĢÑĤÐ¸Ð±": 6767,
      "ÑĥÐ»Ð»Ð°": 6768,
      "ĠÓ©Ð·Ð´Ó©ÑĪÑĤ": 6769,
      "ĠÐ¼Ð°Ð°Ð»ÑĭÐ¼Ð°ÑĤÑĤÑĭÐº": 6770,
      "Ð·Ð¸": 6771,
      "Ð±ÐµÑĤ": 6772,
      "ĠÐ¼ÑĭÐ¹Ð·Ð°Ð¼Ð³Ð°": 6773,
      "ĠÐ´Ð°Ð¹": 6774,
      "ĠÐ¿ÑĢÐ¾ÑĨÐµÐ´": 6775,
      "ÑĥÐ¼Ð°Ð½Ð¸ÑĤÐ°ÑĢÐ´ÑĭÐº": 6776,
      "ÐºÐ°Ñĩ": 6777,
      "Ð´Ð¾ÑĢÐ´Ñĥ": 6778,
      "ÐºÑĭÐ·": 6779,
      "ĠÐĳÐ°ÐºÑĭÑĤ": 6780,
      "Ð¾Ð²ÐºÐ°": 6781,
      "ĠÑĤÑĥÑĢÑĥÑĥ": 6782,
      "ĠÑģÒ¯Ð¹Ð»Ó©Ð³Ó©Ð½": 6783,
      "ĠÐĺÑĢÑĤÑĭÑĪ": 6784,
      "Ó¨Ð·Ð±ÐµÐº": 6785,
      "54": 6786,
      "ĠÐ¶Ð¾Ð»Ð³Ð¾": 6787,
      "ĠÐ¸ÑĪÑĤÐ¸Ð½": 6788,
      "ĠÑħÐ°ÑĢ": 6789,
      "ĠÑĤÐ¾Ð¾Ð»ÑĥÑĥ": 6790,
      "Ð³ÐµÑĢÐ¸": 6791,
      "ĠÐ¾Ð¾ÑĢÑĥÐ¿": 6792,
      "ĠÐĳÐµÐ¹ÑĪÐµÐ½": 6793,
      "ÑĥÐ»Ñı": 6794,
      "Ð¶ÐµÑĢ": 6795,
      "ĠÐ°Ð»ÑģÐ°": 6796,
      "ĠÐ²ÐµÐ±": 6797,
      "ĠÑĩÐµÐ±ÐµÑĢ": 6798,
      "ĠÐ´Ð¾Ð³": 6799,
      "ĠÐºÐ°Ð¼ÐµÑĢ": 6800,
      "ĠÐºÑĥÑĢÐ°Ð¼ÑĭÐ½Ð´Ð°": 6801,
      "ĠÐ±ÐµÑĢÐµÐ½ÐµÑģÐ¸": 6802,
      "ĠÐºÑĭÑıÐ»": 6803,
      "ĠÑģÑĭÐ¼Ð°Ð»": 6804,
      "Ð´ÑĭÑĢÐ³Ð°Ð½": 6805,
      "ÑĬÐµÐºÑĤ": 6806,
      "ĠÑģÐ°Ð»Ð°Ð¼Ð°ÑĤÑĤÑĭÐº": 6807,
      "ÐµÑĤÐ¸ÐºÐ°Ð»ÑĭÐº": 6808,
      "ÑĥÐ³ÑĥÑĪ": 6809,
      "ĠÑĤÐµÐ¼Ð¿ÐµÑĢÐ°ÑĤÑĥÑĢÐ°ÑģÑĭ": 6810,
      "ĠÐ±ÐµÑĢÐ±ÐµÐ¹ÑĤ": 6811,
      "Ð¢Ð°ÑĢÑĭÑħ": 6812,
      "ĠÐ¸Ð·Ð¼ÐµÐ½": 6813,
      "ĠÐĲÐ²ÑģÑĤÑĢ": 6814,
      "ĠÐľÐµÐ´Ð¸": 6815,
      "Ð¸Ð»Ð¾": 6816,
      "ĠÐ²Ð¸Ð·": 6817,
      "180": 6818,
      "Ð¾Ð»Ð±Ð¾Ð¾ÑĢ": 6819,
      "ĠÑģÑĥÑĥÐ½ÑĥÐ½": 6820,
      "ĠÐºÐµÐ·ÐµÐ³Ð¸Ð½Ð´Ðµ": 6821,
      "ÐµÐ½ÑĤÐ¸": 6822,
      "ĠÐ½Ð°ÑĩÐ°ÑĢÐ»": 6823,
      "ĠÐ´ÐµÐ²": 6824,
      "ĠÐłÐ¾ÑģÑģÐ¸Ð¸": 6825,
      "ĠÐºÐ°Ð½Ð´Ð¸": 6826,
      "ĠÑħÐ¸Ð¼Ð¸ÑıÐ»ÑĭÐº": 6827,
      "Ġ=": 6828,
      "ÑĤÓ©Ð½": 6829,
      "ĠÐ´Ò¯Ð¹Ð½Ó©Ð´Ó©": 6830,
      "ers": 6831,
      "ĠÐ¢Ð°Ð±": 6832,
      "ĠÐºÒ¯Ð½Ð´Ò¯Ð½": 6833,
      "ĠÐ¿Ð°Ð´ÑĭÑĪ": 6834,
      "ĠÐºÐ¾Ð»Ñĥ": 6835,
      "ĠÐ¸ÑĪÐºÐ°Ð½Ð°": 6836,
      "ĠÐ¶Ð°ÑĢÐ°ÑĤÑĭÐ»ÑĭÑĪ": 6837,
      "ĠÐ°Ð¹Ð»Ð°Ð½Ð°": 6838,
      "ĠÐ¿ÑĢÐ¾ÑģÑĤÐ¾": 6839,
      "ÑģÐ»ÐµÐ´": 6840,
      "Ð¸ÑģÐ¸Ð½ÑĩÐµ": 6841,
      "Ð³Ð¾Ð¾": 6842,
      "ĠÐºÐ°Ð¼ÑĤÑĭ": 6843,
      "ou": 6844,
      "ÐĸÐ°ÑĢ": 6845,
      "ÑĤÒ¯Ð¿": 6846,
      "ĠÐļÓ©Ð»": 6847,
      "ĠÑĪÐ°Ð°ÑĢÑĭÐ½Ð°Ð½": 6848,
      "Ð£ÑĢ": 6849,
      "ĠÐ±Ð¾Ð¶": 6850,
      "ĠÑĩÑĭÐ³ÑĥÑĥÐ³Ð°": 6851,
      "Ð»ÐµÐ³": 6852,
      "ÐºÒ¯ÑĢ": 6853,
      "ĠÐ±ÑĥÐ»Ð°ÐºÑĤÐ°ÑĢ": 6854,
      "Ð¸ÐºÑĤÐµÑĢÐ¸": 6855,
      "ÐºÒ¯Ð½Ð´Ó©": 6856,
      "ĠÐ²Ð°Ð¶": 6857,
      "ĠÐľÐ°Ñħ": 6858,
      "ĠÐ±Ð¾Ð»Ð±Ð¾Ð³Ð¾Ð½": 6859,
      "ĠÐ¼Ð°ÑĤÐµÐ¼Ð°ÑĤ": 6860,
      "ĠÐĳÐ°ÑĢÐ´ÑĭÐº": 6861,
      "ĠÒ¯Ð³Ò¯": 6862,
      "ĠÑģÐ°Ð±Ð°Ðº": 6863,
      "ĠÑģÐ¾Ò£ÐºÑĥ": 6864,
      "ĠÐĲÐ¹ÑĤÐ¼Ð°ÑĤÐ¾Ð²": 6865,
      "ĠÑĩÐ°ÑĢÐ°Ð»Ð°ÑĢ": 6866,
      "Ð³ÑĥÐ»": 6867,
      "ÑİÐ¶": 6868,
      "ĠÑĢÐµÑĦÐµÑĢÐµÐ½Ð´ÑĥÐ¼": 6869,
      "ĠÒ¯ÑģÑĤÒ¯Ð½Ó©Ð½": 6870,
      "ĠÑģÑĭÑĢÑĤÐºÑĭ": 6871,
      "ĠÐºÐ°ÑĢÐ¶Ñĭ": 6872,
      "ĠÐŀÐºÑĤÑıÐ±ÑĢÑĮ": 6873,
      "-Ð¼Ð¸Ð½Ð¸ÑģÑĤÑĢÐ¸": 6874,
      "ĠÐºÑĥÑĥÐ³ÑĥÐ½": 6875,
      "ĠÐ°ÐºÑĭÑģÑĭÐ·": 6876,
      "ÐµÐ»ÐµÐ¿": 6877,
      "ĠÑĢÐµÐ¿": 6878,
      "ÑĥÐ·Ð°Ðº": 6879,
      "Ð£Ð»ÑĥÑĤÑĤÑĥÐº": 6880,
      "ĠÐļÐ¾Ð¼Ð¿": 6881,
      "-Ð¶Ð°Ð¹": 6882,
      "ĠÐ±Ð¸Ð»Ð´Ð¸ÑĢÐ¸ÑĪÐºÐµÐ½": 6883,
      "ĠÑģÐ°Ð»Ð°": 6884,
      "Ð¾ÑĢÐ´Ñĥ": 6885,
      "ÑĩÑĭÐ»ÑĭÐºÑĤÐ°ÑĢ": 6886,
      "ÐŀÑĪÐ¾Ð»": 6887,
      "ĠÑįÑĤÐ¸": 6888,
      "ĠÐ±Ð°Ð°ÑĢÐ´ÑĭÐº": 6889,
      "ĠÐ¢Ð°ÑĢÑĭÑħ": 6890,
      "ĠÐĸÐ°Ð¿": 6891,
      "ĠÒ¯Ð¹Ð³Ó©": 6892,
      "ÐķÐĿ": 6893,
      "ĠÑĤÐ°Ð¶ÑĢÑĭÐ¹Ð±Ð°": 6894,
      "ÐºÑĤÐ°ÑĢ": 6895,
      "ĠÐ±ÐµÑĢÒ¯Ò¯Ð½Ò¯Ð½": 6896,
      "ĠÐ£ÑİÐ¼": 6897,
      "ĠÑģÑĤÑĢÐ°Ð½": 6898,
      "ĠÐ¶Ð¸Ð±ÐµÑĢÐ³ÐµÐ½": 6899,
      "Ð³Ò¯Ð½": 6900,
      "ĠÐ¿ÑĢÐ¸Ð±": 6901,
      "ĠÐºÒ¯Ð¼Ò¯ÑĪ": 6902,
      "ÑĭÑĪÑĤÐ°": 6903,
      "ĠÑĤÑĥÑĢÐ´Ñĥ": 6904,
      "ÑĥÐ½Ð¾Ð²": 6905,
      "ÑģÑĤÐ°Ð½Ð°": 6906,
      "ĠÑĥÑĩÑĥÑĢÐ»Ð°ÑĢ": 6907,
      "ĠÐ¸ÑĪÐµÐ½Ð¸Ð¼Ð´Ò¯Ò¯": 6908,
      "Ð°Ð»Ð°Ð¼Ð°Ð½": 6909,
      "ĠÐĶÐ°ÑģÑĤÐ°Ð½": 6910,
      "Ð¡Ð¿": 6911,
      "ĠÐļÐ¾Ð½ÑģÑĤÐ¸ÑĤÑĥÑĨÐ¸ÑıÐ»ÑĭÐº": 6912,
      "ĠÑĤÐ¸ÑĢÒ¯Ò¯": 6913,
      "Ð¾Ð¼ÑģÑĤÐ²": 6914,
      "Ð°ÑĤÑĤÑĭÐºÑĤÑĭÐ½": 6915,
      "ĠÑĥÑģ": 6916,
      "ĠÐ°ÑĤÐ°Ð»ÑĭÑĪÑĭ": 6917,
      "ĠÐ´Ð°ÑĢÑĭÐ³ÐµÑĢÐ»ÐµÑĢ": 6918,
      "ĠÐ¿Ð¾Ð´ÑĢ": 6919,
      "ĠÐ¨Ð°ÑĢ": 6920,
      "ÐµÐ½ÐµÑĨ": 6921,
      "Ð¾Ð»Ñĥ": 6922,
      "ĠÐ¾ÐºÐµ": 6923,
      "ĠÐ»Ð¸ÑĪ": 6924,
      "ĠÑĭÐ»Ð°Ð¹ÑĭÐºÑĤ": 6925,
      "ĠÑģÓ©Ó©Ð³Ò¯": 6926,
      "ĠÐ°ÑĤÐºÐ°ÑĢÑĭÐ¿": 6927,
      "Ð²ÐµÐ¹": 6928,
      "ÑĢÐ¾ÑĦ": 6929,
      "Ð¸ÑĩÐµÑģÐºÐ¾Ð¹": 6930,
      "ĠÐ±Ð¸ÑĢÐ³ÐµÐ»ÐµÑĪÐºÐµÐ½": 6931,
      "ĠÐļÐ¸Ð¼": 6932,
      "ÐµÐ½ÑĤÑĭ": 6933,
      "Ð´Ð¾Ð±": 6934,
      "ĠÐºÓ©ÑĢÒ¯Ò¯Ð³Ó©": 6935,
      "ĠÐļÓ©Ð·": 6936,
      "ĠÒ¯ÑĢ": 6937,
      "Ð³Ð¾ÑĤÐ¾Ð²": 6938,
      "Ð¾Ð»Ð¾ÑĢÐ´Ñĥ": 6939,
      "186": 6940,
      "ÙİÙ": 6941,
      "-ÑĤÐ°Ð¶Ð¸Ðº": 6942,
      "ĠÑĤÐ°Ð»Ð°Ð½": 6943,
      "-Ð¶Ð°Ð·Ð°": 6944,
      "ĠÐºÐ¾Ð¶": 6945,
      "ĠÐ¼Ð°Ð¼Ð¸Ð»ÐµÐ»ÐµÑĢ": 6946,
      "ĠÑĭÐ¹ÑĭÐº": 6947,
      "ÑĭÐ¼Ð°": 6948,
      "ĠÐºÓ©Ð¼": 6949,
      "ĠÐ¶Ð°ÑĤÑĭÑĪÐºÐ°Ð½": 6950,
      "ÑĤÑĤÐ°ÑĢÐ´Ñĭ": 6951,
      "ĠÐºÐ¾ÑĢÑĢÑĥÐ¿ÑĨÐ¸ÑıÐ³Ð°": 6952,
      "ĠÐ°Ð»Ð±ÐµÑĤÑĤÐµ": 6953,
      "ĠÐ°ÑĢÐ°ÐºÐµÑĤÑĤÐµÑĢ": 6954,
      "ÐµÑģÐºÐµÑĢÐ¸ÑģÐ¸Ð½ÑĩÐµ": 6955,
      "ĠÐ¿Ð»Ð°ÑģÑĤ": 6956,
      "ĠÐºÐµÐ»Ð±ÐµÐ¹": 6957,
      "ĠÑģÐ°ÐºÑĤÐ°Ð»ÑĭÐ¿": 6958,
      "Ð«ÐĿ": 6959,
      "ĠÐ¿ÑĢÐ¾Ð²Ð¸Ð½": 6960,
      "ĠÐ³Ð»Ð°Ð²": 6961,
      "ĠÐ¾Ð³": 6962,
      "ĠÐĳÑįÑį": 6963,
      "ĠÐľÑįÑĢ": 6964,
      "ĠÐ¼ÑĭÑĢÐ·Ð°": 6965,
      "ĠÐ³ÑĢÐ°": 6966,
      "ĠÐ¶ÑĭÐ»ÑĭÐ½Ð°": 6967,
      "ĠÐºÐ¾Ð¼Ð¸ÑģÑģÐ¸ÑıÑģÑĭÐ½ÑĭÐ½": 6968,
      "ĠÐĸÐ°Ð¼": 6969,
      "ÑĥÑĤÑģÑĤÐ²": 6970,
      "ĠÐºÓ©ÑĩÐ¼Ó©Ð½": 6971,
      "ÐĺÐ·": 6972,
      "ĠÐ¾ÑĤÐ»Ð¸Ñĩ": 6973,
      "ĠÐ±Ó©Ð»Ò¯Ðº": 6974,
      "ĠÒ¯Ð¹Ð»Ó©Ð½": 6975,
      "-ÑĤÒ¯Ð»Ò¯Ðº": 6976,
      "ĠÐºÓ©ÑĢÒ¯Ð½Ò¯ÑĪÑĤ": 6977,
      "ĠÐ¼ÐµÐ»Ð´ÐµÑĪÑĤ": 6978,
      "ĠÑģÑĭÐ½Ð³Ð°": 6979,
      "-Ð¡Ð°Ð¹": 6980,
      "ĠÐºÑĭÑĪ": 6981,
      "ÐĳÐ°Ð»": 6982,
      "ĠÓ©Ð¹": 6983,
      "ĠÐºÐ¾Ð¼Ð¿Ð°Ð½Ð¸ÑıÐ½ÑĭÐ½": 6984,
      "ĠÐ´ÐµÐ¿ÑĥÑĤÐ°ÑĤÑĤÐ°ÑĢÑĭ": 6985,
      "Ð¾ÑĢÐ´Ð¸Ð½": 6986,
      "ĠÑĢÐ°Ð´Ð¸Ð¾": 6987,
      "ÐļÐ°Ð¹": 6988,
      "-Ð¾ÐºÑĤÑıÐ±ÑĢ": 6989,
      "ĠÑįÐ¼ÐµÑģÑĤ": 6990,
      "ĠÐ±Ð°ÑĪÑĤÐ°Ð»ÑĭÐ¿": 6991,
      "ĠÐºÓ©ÑĢÑģÓ©ÑĤÓ©ÑĤ": 6992,
      "Ð½Ð°ÐºÐ¾": 6993,
      "ĠÑĩÐ°Ð»Ð³ÑĭÐ½": 6994,
      "ĠÑĪÐ°Ðº": 6995,
      "ĠÐ±ÐµÐ»Ð³Ð¸Ð»ÐµÑĢÐ¸": 6996,
      "ĠÐ¿ÑĢÐ¾ÑĦÐµÑģÑģÐ¸Ð¾Ð½": 6997,
      "ĠÐ¼ÐµÐ¹ÐºÐ¸Ð½": 6998,
      "ÐĸÐµÑĢ": 6999,
      "ĠÐ±ÐµÐ»Ð³Ð¸ÑģÐ¸": 7000,
      "ĠÐ¶Ó©Ó©": 7001,
      "ĠÐ±Ð¸Ð»Ò¯Ò¯": 7002,
      "ĠÐ¶ÑĭÐ½Ñĭ": 7003,
      "ĠÐ¸Ð¶": 7004,
      "ĠÐºÐ¸ÑĢÐµ": 7005,
      "ĠÐĴÑĭ": 7006,
      "ĠÐ¡ÐµÐ¹": 7007,
      "ĠÐ°Ð¹Ð¼Ð°ÐºÑĤÐ°ÑĢÑĭÐ½Ð´Ð°": 7008,
      "ĠÐºÐ¾ÑĪÑĥÐ»": 7009,
      "Â»)": 7010,
      "ĠÑĤÒ¯Ð·Ð´Ò¯": 7011,
      "ĠÐ°Ð¹Ð¼Ð°ÐºÑĤÐ°ÑĢ": 7012,
      "ĠÐ´ÐµÑĪÐµÑĤ": 7013,
      "ÐµÑģÐ¸Ð½ÐµÐ½": 7014,
      "ÐļÐ»": 7015,
      "ĠÐ´Ð¾ÐºÑĥÐ¼ÐµÐ½ÑĤÑĤÐµÑĢÐ´Ð¸": 7016,
      "ĠÐ½ÐµÐ¾Ð±ÑħÐ¾Ð´Ð¸Ð¼": 7017,
      "Ð°Ð»Ð¸ÑĨÐ¸Ñı": 7018,
      "ĠÐ²Ð½Ð¸Ð¼": 7019,
      "ÑĦÑĢ": 7020,
      "ĠÐ¼Ð°Ð°Ð»ÑĭÐ½Ð´Ð°": 7021,
      "ĠÐºÐ¾ÑĢÐ³Ð¾Ð¾ÑĩÑĥ": 7022,
      "Ñ³Ð½": 7023,
      "ĠÐ¿Ð¾ÑģÐ»ÐµÐ´": 7024,
      "ĠÑĦÐ¸Ð½Ð°Ð½ÑģÑĭÐ»ÑĭÐº": 7025,
      "Ð¾ÑĢÐ¾Ð²": 7026,
      "87": 7027,
      "ĠÐ±Ð°Ð³ÑĭÑĤÑĤÐ°": 7028,
      "700": 7029,
      "Ð¸Ð»Ð»": 7030,
      "Ð¸ÑĪÐºÐµ": 7031,
      "ĠÐ¾Ð±Ð»ÑĥÑģÑĥÐ½Ð°": 7032,
      "ĠÓ©Ð·Ð³Ó©ÑĢÒ¯Ò¯Ð»Ó©ÑĢ": 7033,
      "996": 7034,
      "ÑĤÑĤÐµÐ½": 7035,
      "ĠÐ´Ð¾Ð»Ð±Ð¾Ð¾ÑĢÑĥÐ½ÑĥÐ½": 7036,
      "ĠÐ¿ÑĢÐ¾ÑĤÐ¸Ð²": 7037,
      "ÑĨÐ¸ÑıÐ»Ð°ÑĢÐ´Ñĭ": 7038,
      "ĠÑĩÐ°ÑĢÐ°Ð»Ð°ÑĢÐ´Ñĭ": 7039,
      "Ð´Ð¸ÐºÑĤÐ¸Ð½": 7040,
      "ĠÐºÐµÑģÐµÐ¿ÐµÑĤÐ¸Ð½ÐµÐ½": 7041,
      "Ð¸ÐµÐ¼": 7042,
      "ÐµÑĪÐ¸": 7043,
      "ĠÐ¢ÑĥÑĢÑģÑĥÐ½": 7044,
      "-ÐºÑĭÐ»ÑĭÐ¼Ð´Ð°": 7045,
      "ĠÐ´ÐµÑģÐµ": 7046,
      "ĠÐ½Ð°Ðº": 7047,
      "Ð¸ÑĪÐ¸Ð¿": 7048,
      "ĠÐ±ÐµÐºÐµÑĢ": 7049,
      "ĠÑĤÐ¾Ð±ÑĥÐ½ÑĥÐ½": 7050,
      "ĠÐ¤ÐµÑĢ": 7051,
      "ÑĭÐºÑĤÑĭÑıÑĢ": 7052,
      "ĠÐ±ÐµÑĢÑģÐµ": 7053,
      "ĠÐ¶Ð°Ð»Ð±ÑĭÑĢ": 7054,
      "ĠÑĢÐ°Ð·Ð¼ÐµÑĢ": 7055,
      "ĠÐºÐµÐ½ÐµÐ½": 7056,
      "ĠÐ¼Ò¯Ð½Ó©Ð·Ð´Ó©": 7057,
      "ĠÐ¸Ð½ÑĤÐµÐ»": 7058,
      "ĠÐºÐ¾Ðº": 7059,
      "ÑıÐµÑĤ": 7060,
      "Ò¯ÑĢÓ©Ðº": 7061,
      "Ð¸ÑģÐº": 7062,
      "ĠÐ¿Ð°Ð¹Ð³Ð°Ð¼Ð±": 7063,
      "Ò£Ò¯Ð·": 7064,
      "ĠÐ¼ÐµÐ½ÑĩÐ¸": 7065,
      "-ÐĲÑĢ": 7066,
      "ĠÐ¼ÑĭÑĪ": 7067,
      "ĠÐºÐµÐ·Ð´ÐµÐ³Ð¸": 7068,
      "ĠÐĳÐ°": 7069,
      "ĠÐºÐ°ÑĦÐµÐ´ÑĢ": 7070,
      "ĠÐºÑĭÑĩÐºÑĭÐ»": 7071,
      "ÐĳÐ°ÑĤ": 7072,
      "ĠÑĦÐµÑĢ": 7073,
      "ĠÐļÐłÐ½ÑĭÐ½": 7074,
      "ÐµÐ½Ð½Ð¾ÑģÑĤÐ¸": 7075,
      "ÐĸÐ°ÑĪ": 7076,
      "ĠÐ¡Ð¾ÑİÐ·": 7077,
      "ĠÑįÐ¶": 7078,
      "ĠÐ´Ð°ÑĢÑĭÑıÐ»Ð°ÑĢÑĭ": 7079,
      "ĠÐ°Ð»Ð´ÑĭÐ³Ð°": 7080,
      "ĠÑĢÐµÑģÐ¿ÑĥÐ±Ð»Ð¸ÐºÐ°": 7081,
      "Ð¾Ð¼Ð°": 7082,
      "ÐµÑĩÐ¾ÑĢÐ°": 7083,
      "ĠÐ¶Ð°ÑĤÐºÐ°Ð½Ð´ÑĭÐ³ÑĭÐ½": 7084,
      "ÑĩÒ¯ÑģÒ¯": 7085,
      "ĠÐ¿ÑĢÐµÑģÑģ": 7086,
      "Ð´ÑĥÐºÑĤÑĥ": 7087,
      "Ġ//": 7088,
      "ÑĪÑĤÑĥ": 7089,
      "ÐºÐ°ÑĢÐ°": 7090,
      "ĠÑĤÑĢÐ°": 7091,
      "ĠÑĥÐ½Ð¸Ð²ÐµÑĢÑģÐ¸ÑĤÐµÑĤÐ¸": 7092,
      "ĠÐ³Ð¾Ð´": 7093,
      "ĠÐ½ÐµÐ³Ð¸Ð·Ð´Ó©Ó©": 7094,
      "Ò¯Ð¼Ð´Ò¯": 7095,
      "ÐļÑĥÑĢ": 7096,
      "ĠÑģÑĤÐ¾ÑĢÐ¾Ð½": 7097,
      "ĠÐ´Ð°ÑĢÑĭÐ»Ð°Ð½": 7098,
      "ĠÐ¸ÑĩÐ¸Ð½Ð´ÐµÐ³Ð¸": 7099,
      "ĠÑıÐ·": 7100,
      "ĠÑįÐºÐ¾Ð»Ð¾Ð³Ð¸ÑıÐ»ÑĭÐº": 7101,
      "Ò¯ÐºÑĤÓ©ÑĢÐ´Ò¯": 7102,
      "ĠÐ´Ð¸Ð¿Ð»Ð¾Ð¼Ð°ÑĤ": 7103,
      "Ð¾ÑĢÐ¾ÑĤ": 7104,
      "ĠÐĳÑĥ": 7105,
      "ĠÐºÐ°ÑĤÑĤÐ°Ð»Ð´Ñĭ": 7106,
      "Ð»ÑĥÐ³ÑĥÐ½": 7107,
      "ĠÑĥÐºÐ°Ð·": 7108,
      "ÐľÑĥÑĢ": 7109,
      "ĠÐºÐ¾Ð»Ð´Ð¾Ð½ÑĥÐ»": 7110,
      "ĠÐ´Ð¾ÐºÑĥÐ¼ÐµÐ½ÑĤÑĤÐµÑĢ": 7111,
      "Ð°Ð²ÑĪ": 7112,
      "Ð¾Ð»Ð¾ÑĢÑĥ": 7113,
      "ĠÐ¡ÑĥÑĥ": 7114,
      "Ð³Ð°Ð½Ð´Ð°ÑĢ": 7115,
      "Ð°ÑĤÑĤÐ°Ð³Ñĭ": 7116,
      "ĠÐĲÑĢÐ¼": 7117,
      "ĠÑĪÐ°Ð¹Ð»Ð¾Ð¾Ð½ÑĥÐ½": 7118,
      "ĠÑģÐ»ÐµÐ´ÑĥÐµÑĤ": 7119,
      "ĠÐ±Ð¸ÑĢÐ´ÐµÐ½": 7120,
      "ĠÐºÐ¸ÑĢÐ³Ð¸Ð·Ð³ÐµÐ½": 7121,
      "ĠSt": 7122,
      "ĠÑĤÐ°Ð»Ð°Ð°": 7123,
      "ĠÐļÐ°Ð½Ð°": 7124,
      "ĠÑģÑĥÑĢÐ°ÐºÐºÐ°": 7125,
      "ÑĩÐ°ÐµÑĤÑģÑı": 7126,
      "ĠÐ³Ð¾ÑģÑĥÐ´Ð°ÑĢ": 7127,
      ".com": 7128,
      "Ð¸ÑĢÑįÑįÐº": 7129,
      "Ð»Ð¸ÑĨ": 7130,
      "ĠÐºÐ¾Ð½ÑĤÑĢÐ¾Ð»": 7131,
      "ĠÐ»Ð°Ð±Ð¾ÑĢÐ°ÑĤÐ¾ÑĢ": 7132,
      "ÐµÐ½Ð¾": 7133,
      "Ð¾ÑĢÐ°Ð½": 7134,
      "ĠÑĤÒ¯Ð·Ò¯Ò¯Ð³Ó©": 7135,
      "ĠÑģÑĭÐ¹Ð»ÑĭÐº": 7136,
      "ĠÐļÑĢÐ°Ñģ": 7137,
      "ĠÑĩÑĭÐ³ÑĭÑĪÑĭ": 7138,
      "ÐµÐ½ÑĤÑĤÐ¸Ð½": 7139,
      "Ð¸Ð»ÐµÑĢÐ´Ð¸Ð½": 7140,
      "ĠÐ²ÐµÑĢ": 7141,
      "ĠÑģÐ²Ð¾Ð¹": 7142,
      "ÑĥÑĪÐºÐ°": 7143,
      "ĠÐºÓ©Ð¼Ó©Ðº": 7144,
      "Ð¸Ð²Ð°ÐµÑĤ": 7145,
      "ĠÐŁÐµÑĢ": 7146,
      "ĠÐĶÐ¾Ð½": 7147,
      "ĠÑĤÐ¸Ð³": 7148,
      "Ò¯ÑĪÒ¯Ð¿": 7149,
      "urm": 7150,
      "ÑģÑĭÐ·Ð´Ð°Ð½": 7151,
      "ĠÑĦÐ¾Ð½Ð´ÑĥÐ½ÑĥÐ½": 7152,
      "Ð°Ð»Ð¸ÑģÑĤ": 7153,
      "ĠÑĥÑİÐ¼Ð´ÑĥÐ½": 7154,
      "Ð«ÑģÑĭÐº": 7155,
      "ĠÐ°ÑĪÐºÐ°Ð½": 7156,
      "ĠÐ°Ð´Ð°Ð±Ð¸Ð¹": 7157,
      "ĠÑĩÑĭÐ³ÑĭÑĪÑĤÑĭ": 7158,
      "Ò¯ÑĤÐºÒ¯Ð»": 7159,
      "Ð¾ÑĢÐ³Ð¾Ð½": 7160,
      "ĠÐļÐ¸ÑĢ": 7161,
      "ÑĭÐ³ÑĥÑĥ": 7162,
      "ĠÐ°Ð¹Ð¼Ð°ÐºÑĤÐ°ÑĢÐ´Ð°": 7163,
      "ĠÐ·Ð°Ñī": 7164,
      "Â°Ð¡": 7165,
      "Ð¾Ð²Ð¾Ð³Ð¾": 7166,
      "ĠÐ±Ð°ÑĪÐºÐ°ÑĢÐ¼Ð°Ð»ÑĭÐ³Ñĭ": 7167,
      "ĠÐ°Ò£Ð³ÐµÐ¼": 7168,
      "ĠÑįÐ¼Ð½ÐµÐ³Ðµ": 7169,
      "ĠÐ²ÑĢÐ°Ñĩ": 7170,
      "ĠÐ¶ÐµÑĤÐµ": 7171,
      "Ð±ÑĭÐ·Ð³Ð°": 7172,
      "ÑĭÑĪÑĤÑĭÐ½": 7173,
      "ĠÑįÑĤÐ°Ð¿": 7174,
      "ÐµÐ¿ÑĥÑĤÐ°ÑĤ": 7175,
      "ÐºÑĭÑĩÑĤ": 7176,
      "ĠÐºÓ©Ð·Ð´Ó©Ð¹": 7177,
      "ĠÑģÐ°Ð»ÑĤÐ°Ð½": 7178,
      "ÑĢÐ¾Ñģ": 7179,
      "ÑĢÐ°Ð½ÑģÐ¿": 7180,
      "ĠÑĢÐµÐ³Ð¸Ð¾Ð½": 7181,
      "ĠÐ¾ÑĤÐ¿": 7182,
      "187": 7183,
      "Ð±Ð¾Ð¾": 7184,
      "ĠÑģÐºÐ°Ð·": 7185,
      "Ð´Ð°ÑĪÑĤÑĭÑĢ": 7186,
      ".ÐĿ": 7187,
      "ĠÑĭÑĢÐ³Ñĭ": 7188,
      "od": 7189,
      "ĠÐ²Ð¾ÑģÐ¿": 7190,
      "ĠÐºÐ¾Ð¾ÑĢÐ´Ð¸Ð½": 7191,
      "ĠÐºÑĥÑĥÐ³ÑĥÐ½ÑĤ": 7192,
      "52": 7193,
      "ĠÙ": 7194,
      "ĠÐ°ÑģÑģÐ¾ÑĨÐ¸": 7195,
      "ĠÐ¿ÐµÐ´Ð°Ð³Ð¾Ð³Ð¸ÐºÐ°Ð»ÑĭÐº": 7196,
      "ĠÑĭÑĢÐ°Ð°Ð·ÑĭÑĩÑĭÐ»ÑĭÐº": 7197,
      "Ð½Ð¸Ðµ": 7198,
      "ĠÑĩÐ°ÑĤ": 7199,
      "ine": 7200,
      "Ð²ÐµÑĢÐ´": 7201,
      "ĠÐ¶Ð¸Ð·Ð½Ð¸": 7202,
      "ĠÑĪÐ°Ð¼": 7203,
      "ĠÐºÐ¾Ð»ÑĥÐ½Ð°": 7204,
      "ĠÐ±ÑĥÐ»Ð°Ð³Ñĭ": 7205,
      "ÐļÐŀ": 7206,
      "ĠÐ±Ð°ÑĢÐ±Ñĭ": 7207,
      "ĠÐ¿ÑĢÐ¾ÐµÐºÑĤ": 7208,
      "ĠÑģÐ¾Ð±ÑģÑĤÐ²ÐµÐ½": 7209,
      "ĠÑĢÐµÐºÐ¾Ð¼ÐµÐ½": 7210,
      "ĠÐ´ÑĥÑĥ": 7211,
      "ĠÑģÑĤÑĥÐ´ÐµÐ½ÑĤÑĤÐµÑĢ": 7212,
      "ĠÐ°ÑĤÐ°Ð°Ð½Ð´Ð°ÑĪÑĤ": 7213,
      "ĠÑģÐ¸Ð¼Ð²Ð¾Ð»": 7214,
      "ÐļÑĥÐ¼ÑĤÓ©ÑĢ": 7215,
      "ÑĩÑĭÐ»Ð°ÑĢÑĭÐ½ÑĭÐ½": 7216,
      "ĠÓ©ÑĢÐºÒ¯Ð½Ð´Ó©": 7217,
      "ĠÐ¶ÐµÑĤÐºÐ¸ÑĢÒ¯Ò¯": 7218,
      "Ð¸Ð½Ð´Ð¸Ð½": 7219,
      "ÐµÐ¹Ð¼": 7220,
      "ĠÐĲÑĦÐ³Ð°Ð½": 7221,
      "ÑĭÑģÑĭÐ½": 7222,
      "ĠÐºÐ¾Ð½ÑģÑĤÐ¸ÑĤÑĥÑĨÐ¸ÑıÐ»ÑĭÐº": 7223,
      "urmush": 7224,
      "ÐµÐ»ÐµÑĤ": 7225,
      "ÐµÐ³Ð´Ð°": 7226,
      "ĠÐ¨Ð°Ð°ÑĢÐ´ÑĭÐ½": 7227,
      "ĠÓ©Ò£Ð´Ò¯Ò¯": 7228,
      "Ð°ÑĢÐ°Ð»ÑĭÐº": 7229,
      "Ð¡Ð¾": 7230,
      "ĠÑįÑĤÐ¾Ð¹": 7231,
      "Ð°ÑĤÐ°ÑĤ": 7232,
      "Ð»ÑĥÐ¶": 7233,
      "ĠThe": 7234,
      "ĠÐ¾ÐºÑĪÐ¾Ð¹ÑĤ": 7235,
      "ĠÐºÒ¯Ð±Ó©Ð»": 7236,
      "ĠÐºÐ°ÑĢÐ¼Ð¾Ð¾": 7237,
      "ĠÑĭÐºÑĤÑĭÑıÑĢ": 7238,
      "ĠÐ³ÑĢÐ°Ð¶Ð´Ð°Ð½": 7239,
      "ĠÐĳÐµÐ»Ð°ÑĢ": 7240,
      "ÑįÐ¼": 7241,
      "ÐŀÑİÐ½": 7242,
      "ĠÐ°Ð±Ð°Ð»ÑĭÐ½": 7243,
      "Ð£Ðº": 7244,
      "ĠÑįÑĤÐ¾ÑĤ": 7245,
      "ĠÐºÐµÒ£ÐµÑĪÑĤ": 7246,
      "ĠÐ´ÐµÒ£Ð³ÑįÑįÐ»Ð¸": 7247,
      "ĠÑģÐ¾Ð¾ÑĤÐ²ÐµÑĤÑģÑĤÐ²": 7248,
      "ĠÑĪÐ°ÑĢÑĤÑĤÐ°": 7249,
      "ĠÑģÐµÐ½Ð¸": 7250,
      "ĠÐĲÐ»ÑĤÐ°Ð¹": 7251,
      "ĠÑĢÐµÐ°Ð»Ð´ÑĥÑĥ": 7252,
      "ĠÑĥÑĤÑĥÐ¿": 7253,
      "ÑģÐºÐ¾Ð¼": 7254,
      "ĠÐºÐ¾Ð¼Ð¼ÐµÑĢÑĨÐ¸ÑıÐ»ÑĭÐº": 7255,
      "Ð´Ð¸ÐµÐ²": 7256,
      "ĠÐºÑĢÐµÐ´Ð¸ÑĤ": 7257,
      "Ð°Ð±Ð¸Ð»": 7258,
      "ĠÐ¶Ð°Ð¹ÑĭÐ½Ð´Ð°": 7259,
      "ĠÐºÒ¯Ð¹Ó©Ó©": 7260,
      "ĠÐ±Ð°ÑģÑĭÐ¼Ð´ÑĥÑĥ": 7261,
      "ĠÐĳÐ¾ÑĢ": 7262,
      "ĠÐºÐµÐ·Ð´ÐµÑĪ": 7263,
      "ĠÐ¼Ð¸Ð½Ð¸ÑģÑĤÑĢÐ»Ð¸Ð³Ð¸Ð½Ðµ": 7264,
      "ÑĢÐµÐ±": 7265,
      "ĠÓ©ÑģÐºÓ©Ð½": 7266,
      "ÐŀÐº": 7267,
      "ĠÐ°Ð¿ÑĤÐ°": 7268,
      "ĠÐºÐ¾Ð½ÐºÑĥÑĢ": 7269,
      "ĠÑįÐ»ÑĩÐ¸ÑģÐ¸": 7270,
      "ĠÑģÑĤÑĢÐ¾": 7271,
      "ĠÑĦÑĢÐ°ÐºÑĨÐ¸ÑıÑģÑĭÐ½ÑĭÐ½": 7272,
      "ĠÑĤÑĥÑĢÐ³Ð°Ð½Ð´Ð°": 7273,
      "ĠÑĤÐ¸Ð»Ð´ÐµÑĢ": 7274,
      "ĠÐľÐ°ÑĤÑĢÐ°Ð¸Ð¼Ð¾Ð²": 7275,
      "ĠÐ±Ð¾Ð¶Ð¾Ð¼Ð¾Ð»": 7276,
      "ĠÐ±Ð¾Ð»ÑĥÑĪÑĥÐ½": 7277,
      "Ð¾Ð½Ð¾Ð¼Ð¸ÐºÐ°": 7278,
      "ĠÐºÐ°Ð³Ñĭ": 7279,
      "ĠÑĢÐ°Ð¹Ð¾Ð½Ð³Ð¾": 7280,
      "ĠÑĥÑģÐ»Ð¾Ð²Ð¸Ñı": 7281,
      "ÑģÓ©Ð½": 7282,
      "ĠÑĢÐµÐ¼": 7283,
      "ĠÐ±Ð°ÑģÐºÑĭÑĩ": 7284,
      "ĠÐĿÐ°ÑĤÑĭÐ¹Ð¶Ð°Ð´Ð°": 7285,
      "ĠÑĤÐ°ÑıÐ½ÑĭÐ¿": 7286,
      "ÐºÐµÐ½Ð¸": 7287,
      "ĠÐ°Ð´Ð¸Ñģ": 7288,
      "ĠÑĤÒ¯ÑĢÑĤÐº": 7289,
      "ĠÐºÐ¸ÑĪÐ¸Ð»ÐµÑĢ": 7290,
      "ĠÐ·Ð¾ÑĢÐ´ÑĥÐºÑĤ": 7291,
      "ĠÐ¶Ð°ÑĪÑĭÑĢÑĥÑĥÐ½": 7292,
      "ĠÑģÑĤÐ¾Ð¸ÑĤ": 7293,
      "Ð°Ð¹Ð¼Ð°Ð½": 7294,
      "ĠÐ°Ð¹Ð´Ð°Ð½": 7295,
      "ĠÐ¿ÑĢÐ¾Ð³ÑĢÐ°Ð¼Ð¼Ð°ÑģÑĭ": 7296,
      "ĠÐ¼Ð¾": 7297,
      "ÑĤÐ°Ð³Ð°Ð½": 7298,
      "ĠÐŁÐ°Ð½": 7299,
      "ĠÐ¶Ð°ÑĪÑĭ": 7300,
      "ĠÐŃÑĩ": 7301,
      "ĠÐ£Ð»Ð°Ð½": 7302,
      "ĠÑģÑĥÐ¼Ð¼Ð°": 7303,
      "ĠÑĤÐ°ÑĢÐ¸ÑĦ": 7304,
      "ĠÐ¼Ð¸Ð½Ð¸Ð¼": 7305,
      "63": 7306,
      "ĠÐ°Ð»Ð°Ðº": 7307,
      "ĠÐĲÐ·Ð¸Ð·": 7308,
      "ĠÑĥÑİÑĪÑĤÑĥÑĢÑĥÐ»Ð³Ð°Ð½": 7309,
      "ÐµÐ´ÐµÐ½Ð¸Ñı": 7310,
      "ĠÐ¸Ð¼ÐµÐµÑĤ": 7311,
      "ÑĥÑĪÑĤÑĥÐº": 7312,
      "ĠÐºÐ°ÑĢÐ¼Ð°Ð³Ð°Ð½": 7313,
      "Ñ³ÑĢ": 7314,
      "Ó©Ð³Ó©ÑĤ": 7315,
      "ĠÐºÑĭÐ·Ð´Ð°ÑĢ": 7316,
      "Ð±ÐµÑĢÐ³": 7317,
      "ĠÑĢÐ¾Ð»ÑĮ": 7318,
      "ĠÐ±ÑĭÐ»ÑĤÑĭÑĢ": 7319,
      "-Ð±Ð¸ÑĢÐ¸Ð½Ðµ": 7320,
      "64": 7321,
      "ĠÐ±Ó©Ð»Ð¼Ó©": 7322,
      "ve": 7323,
      "ĠÐ¶Ð°Ð±ÑĭÑĢÐ»Ð°Ð½": 7324,
      "ĠÐĸÐµÑĤ": 7325,
      "ĠÐ°Ð¶Ñĭ": 7326,
      "ĠÑģÐ°Ð½Ðº": 7327,
      "ĠÑģÒ¯Ð¹Ð»Ó©Ð¿": 7328,
      "-Ð¾ÑĢÑĥÐ½": 7329,
      "ĠÐ¼Ð°ÐºÑģÐ¸Ð¼": 7330,
      "ĠÐ¶ÑĭÐ¹ÑĭÐ½ÑĭÐ½": 7331,
      "ÑĭÐ¼Ð´ÑĥÑĥ": 7332,
      "ĠÐ´ÐµÐ¿ÑĥÑĤÐ°ÑĤÑĤÑĭÐº": 7333,
      "ÑģÐ¸Ð¾Ð½": 7334,
      "Ð¸ÑĩÐµÑģÐºÐ¸Ð¹": 7335,
      "ĠÑįÐ¼ÐµÑģÐ¼Ð¸Ð½": 7336,
      "ÐµÐ½Ð½Ð¾Ð¹": 7337,
      "ĠÐľÐ°ÑĪ": 7338,
      "ĠÐ¡Ò¯ÑĢÓ©ÑĤ": 7339,
      "ĠÐºÐ¾Ð¼Ð¿Ð¾Ð½": 7340,
      "ĠÐºÐµÐ·ÐµÐºÑĤÐµÐ³Ð¸": 7341,
      "ĠÐ±Ð°ÐºÑĩ": 7342,
      "Ġhttp": 7343,
      "ĠÐ¿Ð¾Ð»Ð¾Ð¶": 7344,
      "140": 7345,
      "-Ð¼Ð°": 7346,
      "800": 7347,
      "ĠÐºÑĭÐ·Ð´Ñĭ": 7348,
      "ĠÑĤÐ°ÑĢÑĤÐ¸Ð±Ð¸": 7349,
      "Ð´Ð¸ÐºÑĤÐµÑĢ": 7350,
      "ĠÑĩÐµÑĤÑĤ": 7351,
      "ĠÐ¶ÐµÑĤÐµÐºÑĩ": 7352,
      "ÐµÐ»Ð¸Ñĩ": 7353,
      "Ð³Ð°Ð¿": 7354,
      "ĠÐ¶Ð°ÑĢÐ°": 7355,
      "ĠÐ²ÑĭÐ·": 7356,
      "Ð¾ÐºÐµÐ»": 7357,
      "ĠÑĩÐµÐºÑĤÓ©Ó©": 7358,
      "Ð²Ð°Ð»": 7359,
      "ĠÐ±ÐµÑĢÐ¸ÑĪÐ¸": 7360,
      "Ð°ÑĤÐ¾ÑĢÐ»Ð¾ÑĢ": 7361,
      "ĠÑģÐµÐ±ÐµÐ¿ÑĤÐµÐ½": 7362,
      "ĠÐ¢Ð°Ð¹": 7363,
      "ĠÐ»Ð°": 7364,
      "002": 7365,
      "ĠÐ¡ÑĭÐ´ÑĭÐº": 7366,
      "ĠÐ°Ð¹ÑĤÑĭÑĪÐºÐ°Ð½": 7367,
      "ĠÑįÐ½ÐµÑĢÐ³ÐµÑĤÐ¸ÐºÐ°": 7368,
      "ĠÐ£Ð»Ñĥ": 7369,
      "ĠÐĸÑĥÑģÑĥÐ¿": 7370,
      "ĠÐºÐ°Ð»ÑĥÑĥ": 7371,
      "ĠÐ¨Ð°Ð¼": 7372,
      "ĠÐ¿Ð°Ð¹Ð´Ð°Ð»Ð°Ð½ÑĭÐ¿": 7373,
      "ĠÐ¶Ð°Ð°ÑĤÑĭÐ½Ð´Ð°": 7374,
      "ĠÐ°ÐºÑĤÑĥ": 7375,
      "Ò¯Ð½Ó©ÑĤ": 7376,
      "Ð³Ð¸Ð»Ðµ": 7377,
      "Ð¸Ð³ÐµÑĢ": 7378,
      "ĠÐºÓ©ÑĢÒ¯Ð½Ó©ÑĤ": 7379,
      "ĠÐĿÐ¸ÐºÐ¾Ð»": 7380,
      "ÑĢÐ¾Ð²": 7381,
      "Ð°Ð³Ð¾": 7382,
      "ÐĺÑĪ": 7383,
      "ĠÐ¿ÑĢÐ¾Ð³": 7384,
      "ĠÐºÑĭÐ»ÑĭÑĪÐºÐ°Ð½": 7385,
      "Ð´ÑĭÐºÑĤÐ°ÑĢÐ´Ñĭ": 7386,
      "ĠÐºÐ¾Ò£ÑĪÑĥ": 7387,
      "-Ð¨": 7388,
      "ĠÐĲÐ»Ð¼Ð°ÑĤÑĭ": 7389,
      "Ð´ÐµÐ³ÐµÐ½Ð´Ðµ": 7390,
      "Ò£Ð°ÑĢ": 7391,
      "ĠÑģÐ°Ð¹ÑĤÑĭ": 7392,
      "ĠÑģÐ°Ð³Ð°": 7393,
      "ĠÐ¿ÑĢÐµÐ´Ð¿ÑĢ": 7394,
      "ĠÐ¸Ð·Ð¸Ð»Ð´Ó©Ó©Ð»Ó©ÑĢ": 7395,
      "ĠÐºÐ°Ð¼ÑĤÑĭÐ³Ð°Ð½": 7396,
      "Ð°Ð»Ð¾Ð¾": 7397,
      "Ð»Ð°ÑĢÐ´Ð°Ð½": 7398,
      "ĠÐºÐ¾ÑĢÐºÑĥÑĤ": 7399,
      "ĠÐ¶Ò¯ÑĢÐ³Ò¯Ð·Ò¯Ð»Ò¯Ð¿": 7400,
      "ĠÑĩÐµÐ³Ð¸Ð½Ð´Ðµ": 7401,
      "ĠÓ©ÑĤÐºÓ©ÑĢÒ¯Ð»Ð³Ó©Ð½": 7402,
      "ĠÐ°Ð³ÐµÐ½ÑĤÑĤÐ¸Ð³Ð¸Ð½Ð¸Ð½": 7403,
      "ĠÐºÐµÐ¼ÑĩÐ¸Ð»": 7404,
      "ĠÐ³ÑĢÐ°Ð´Ñĥ": 7405,
      "ĠÐ°Ð¹Ð½": 7406,
      "ĠÐŁÐ¾Ð´": 7407,
      "ĠÐºÓ©ÑĢÒ¯Ð½Ò¯Ð¿": 7408,
      "ĠÐļÐ°Ñĩ": 7409,
      "ĠÑĢÐ°Ð·Ð»Ð¸Ñĩ": 7410,
      "ĠÑģÐ¾ÑģÑĤÐ¾ÑıÐ½": 7411,
      "ĠÐľÐµÐºÑĤÐµÐ¿": 7412,
      "ÐĲÐ´Ð°Ð¼": 7413,
      "ĠÐ±Ð°Ð»Ð±Ð°Ð½": 7414,
      "ÐĶÒ¯Ð¹Ð½": 7415,
      "Ð°ÑĤÑĭÐ½Ð°": 7416,
      "ĠÐ¿ÑĢÐ¸ÑĩÐ¸Ð½": 7417,
      "ĠÐ°Ð¹Ð¼Ð°Ðº": 7418,
      "ĠÐ¢ÑĭÐ½": 7419,
      "ÑıÑģ": 7420,
      "ĠÐ´Ð°Ò£": 7421,
      "ĠÐºÐ¾Ð»Ð´Ð¾": 7422,
      "ĠÐ°ÑĩÐºÐ°Ð½": 7423,
      "Ð»Ð°Ð³Ð°Ð½": 7424,
      "Ð´ÐµÐ½Ð¸Ðµ": 7425,
      "ĠÐ°Ð¹ÑĤÑĭÑĪÑĤÑĭ": 7426,
      "ĠÐ°Ð»Ð³Ð°Ð½ÑĭÐ½": 7427,
      "ĠÐ´ÐµÐ¼Ð¸Ð»Ð³ÐµÑģÐ¸": 7428,
      "Ð°Ð°": 7429,
      "ÑĩÑĭÐº": 7430,
      "ĠÐĲÑıÐ»": 7431,
      "ÑģÑĥÐ°Ð»Ð´ÑĭÐº": 7432,
      "ĠÑģÐ°ÑıÑģÐ°ÑĤÑĭ": 7433,
      "ĠÐ¾Ð¹Ð»Ð¾Ð¹Ð¼": 7434,
      "ĠÐºÐ¸Ð¹Ð¸Ð½ÑĩÐµÑĢÑįÑįÐº": 7435,
      "ÐµÐ¹ÑģÐ±": 7436,
      "ĠÐĳÐ¸ÑĢÐ¸ÐºÐºÐµÐ½": 7437,
      "ĠÐ¶Ð°ÑĤÐºÑĭÑĢ": 7438,
      "ĠÑĥÑĢÐ¾Ð²": 7439,
      "ÐĳÐ¸ÑĪÐºÐµÐºÑĤÐµ": 7440,
      "ĠÐ°ÐºÑĭÑĢÑĭÐ½": 7441,
      "ĠÐºÐµÐ¹": 7442,
      "ĠÐºÐ¸Ð»Ð¾Ð³ÑĢÐ°Ð¼Ð¼": 7443,
      "ĠÐ¼Ð¸Ò£Ð³Ðµ": 7444,
      "ĠÐºÐµÐ·Ð¸Ð½Ð´Ðµ": 7445,
      "ĠÑĤÐ¸ÑĤÐ¸ÑĢ": 7446,
      "ĠÐļÐ¡ÐĶÐŁ": 7447,
      "ÑĩÑĭÐ»ÑĭÐºÐºÐ°": 7448,
      "ĠÐ¾Ð±Ð»Ð°ÑģÑĤÐ¸": 7449,
      "ĠÓ©Ð½Ò¯ÐºÑĤÒ¯ÑĢÒ¯Ò¯Ð³Ó©": 7450,
      "ĠÑĭÐ·": 7451,
      "ĠÑĤÑĥÑĢÐ°": 7452,
      "Ð£ÑĪÑĥÐ»": 7453,
      "ĠÐ¶ÑĥÑĢÑĤ": 7454,
      "ĠÑĢÐµÐ´": 7455,
      "Ð¾Ò£ÑĥÐ·": 7456,
      "ĠÑĤÒ¯Ð¹Ò¯Ð½": 7457,
      "ĠÐ°ÑĢÑĤÐ¸ÑģÑĤÐ¸": 7458,
      "Ð°Ð»ÑĥÑĥÑĩÑĥ": 7459,
      "ÐĺÐĿ": 7460,
      "ĠÐ¼ÐµÐ»": 7461,
      "ĠÐ¾ÑĤÑĩ": 7462,
      "ĠÐ¾ÑĤÐ²ÐµÑĤ": 7463,
      "ĠÑģÐ¾ÑĤÑĥÐ½ÑĥÐ½": 7464,
      "ÑģÐ°Ð¼Ð±Ð»": 7465,
      "ÐļÐ»Ð¾Ð¾Ð¿": 7466,
      "ĠÐ¼Ð°Ð°Ð½Ð¸Ð´Ðµ": 7467,
      "ĠÓ©Ð»ÑĩÓ©Ð¼Ò¯": 7468,
      "ĠÐºÐ°ÑĤÐµÐ³Ð¾ÑĢÐ¸Ñı": 7469,
      "ĠÐ¿Ð¸Ðº": 7470,
      "Ð¸Ð±Ð¾": 7471,
      "ĠÑįÐºÑģÑĤÑĢÐµÐ¼": 7472,
      "ĠÐ¶ÑĭÐ»ÐºÑĭ": 7473,
      "Ð¾ÑģÑĤÑĥÐº": 7474,
      "ÑĭÐ²Ð°ÐµÑĤ": 7475,
      "ĠÑĤÐ°Ð¿ÑĤÐ°ÐºÑĭÑĢ": 7476,
      "ĠÑĭÐ½ÑĤÑĭÐ¼": 7477,
      "ĠÐ¼Ð¸Ò£Ð´ÐµÐ³ÐµÐ½": 7478,
      "Ð´Ð¸Ð»": 7479,
      "ĠÐ±Ð¾Ð»ÑĮ": 7480,
      "Ð¡Ð¸Ð·": 7481,
      "ÑĭÑĢÐ¼Ð°": 7482,
      "ĠÐ¸Ð¶Ð°ÑĢÐ°": 7483,
      "ĠÐ¡Ð¾Ð³": 7484,
      "Ð´ÑĭÐºÑĤÑĭÐ½": 7485,
      "ÐĲÐ»ÑĤÑĭÐ½": 7486,
      "ĠÐ¶Ò¯Ð³Ò¯ÑĢÑĤ": 7487,
      "ĠÐ±Ð¸Ð»Ð´Ð¸ÑĢÐ³ÐµÐ½Ð´ÐµÐ¹": 7488,
      "ĠÐ±ÐµÑĢÐ¸ÑĪÐµÑĤ": 7489,
      "ĠÑĤÒ¯Ð·Ò¯Ð»Ó©ÑĤ": 7490,
      "ĠÐ¼ÑįÑį": 7491,
      "Ð¾Ð³Ð¾Ð½Ð´Ð¾": 7492,
      "ĠÑĩÐµÐºÑĤÐµÐ»Ð³ÐµÐ½": 7493,
      "Ð¾ÑĤÐµÑĢ": 7494,
      "ĠÑħÐ¾Ð»": 7495,
      "ex": 7496,
      "Ó©Ð´Ò¯": 7497,
      "ĠÐ°Ð·ÐµÐ¼": 7498,
      "ĠÐ±Ð°Ð¹Ð»Ð°Ð½ÑĭÑĪÑĭ": 7499,
      "ĠÐºÑĭÑģÐºÐ°ÑĢÑĤ": 7500,
      "ÑģÑĤÑĥÐ¿": 7501,
      "âĢĻ": 7502,
      "ÐºÑĥÑİ": 7503,
      "ĠÑĤÐ°Ð±ÑĭÐ»Ð´Ñĭ": 7504,
      "ĠÐºÒ¯ÑĢÓ©ÑĪÑĤ": 7505,
      "ĠÐĿÐ¸ÑıÐ·": 7506,
      "oc": 7507,
      "og": 7508,
      "-Ð¶ÑĭÐ»ÐºÑĭ": 7509,
      "ĠÐ¶Ð°ÐºÑĭÐ½ÐºÑĭ": 7510,
      "ĠÑĪÐ°Ð»": 7511,
      "ĠÐºÐµÑĤÐ¸ÑĪÐ¸": 7512,
      "ĠÑĤÐ°ÑĢÐ°Ð¿ÐºÐ°": 7513,
      "Ð¸ÑĪÐ¸Ð½Ðµ": 7514,
      "ĠÑģÐ°Ð½Ð¸ÑĤÐ°ÑĢÐ´ÑĭÐº": 7515,
      "Ð´Ò¯Ò¯Ð»Ò¯Ð³Ò¯Ð½": 7516,
      "ĠÐľÐ°Ð½Ð°ÑģÑĤÑĭÐ½": 7517,
      "ĠÐºÐ¾Ð»Ð´Ð¾Ð¾Ð³Ð¾": 7518,
      "Ð°ÑĪÑĤÑĭÑĢÑĥÑĥ": 7519,
      "ĠÐºÑĭÐ»ÑĭÐ½Ð°ÑĤ": 7520,
      "ĠÐ¸Ð½ÑĤÐµÑĢÐ½": 7521,
      "ĠÐºÐ¸ÑĩÐ¸Ð½Ðµ": 7522,
      "Ùı": 7523,
      "ĠÐºÐ¾Ð»ÑħÐ¾Ð·": 7524,
      "ĠÐºÐ¾ÑĤÐ¾ÑĢÑĭÑħ": 7525,
      "-ÑģÐµÐ½ÑĤÑıÐ±ÑĢ": 7526,
      "ĠÑģÐ´ÐµÐ»Ð°ÑĤÑĮ": 7527,
      "ĠÐ¶Ð¾Ð¼": 7528,
      "ĠÐ°Ð´Ð¸Ð»": 7529,
      "ĠÐ¸ÑĪÐºÐ°Ð½Ð°ÑģÑĭÐ½ÑĭÐ½": 7530,
      "ĠÐ¶ÐµÑĢÐ»ÐµÑĢÐ´Ðµ": 7531,
      "ĠÐ°ÑĤÐ°Ð¿": 7532,
      "ĠÐĶÐ°Ð½Ð¸Ñı": 7533,
      "ĠÐ±ÑĥÐ»Ð°Ð³ÑĭÐ½": 7534,
      "ĠÐºÐ¾Ð¼Ð°Ð½Ð´Ð°ÑģÑĭ": 7535,
      "ĠÑģÑĤÑĢÐ°Ñħ": 7536,
      "ĠÐ°ÑĪÑĭÐ¿": 7537,
      "ÑİÑīÐ¸Ð¹": 7538,
      "ĠÐ°ÑĤÐ¾Ð¼": 7539,
      "ĠÐºÐ°Ð»ÑĭÑĪÑĤÑĭ": 7540,
      "ĠÐłÐµÐ¹Ð½": 7541,
      "ĠÐºÒ¯Ð½Ó©Ó©": 7542,
      "ĠÐ°Ð´Ð¸ÑģÑĤÐµÑĢ": 7543,
      "Ð¸Ð¼Ð¾ÑģÑĤÐ¸": 7544,
      "ĠÐ³ÐµÑĢ": 7545,
      "Ð¿ÐµÐ³ÐµÐ½": 7546,
      "ĠÐ¼ÑįÑĢÐ¸": 7547,
      "ĠÐºÐµÑĤÒ¯Ò¯Ð³Ó©": 7548,
      "ĠÐ¶Ò¯ÑĢÐ³Ò¯Ð½": 7549,
      "ĠÑģÐ°Ð½ÑĭÐ½": 7550,
      "ĠÐºÑĥÑĢÐ°Ð¼Ð°": 7551,
      "ÑĭÐ»Ð´ÑĭÐ·": 7552,
      "ÑĥÑĦÑĤ": 7553,
      "ĠÐ½ÐµÐ³Ð¸Ð·Ð´Ðµ": 7554,
      "ĠÐ¶ÐµÑĢÐ¸Ð½ÐµÐ½": 7555,
      "ĠÒ¯Ð¹Ò¯Ð½Ð´Ó©": 7556,
      "ĠÐ°Ð»Ð¼Ð°ÑĪÑĥÑĥ": 7557,
      "Ð¸ÑĩÐµÑģÐºÐ¾Ð³Ð¾": 7558,
      "ĠÐ¤ÑĢÐ°Ð½ÑĨÐ¸Ñı": 7559,
      "ĠÐ±ÐµÑĢÐµÐ±Ð¸Ð·": 7560,
      "Ð´Ð¾ÑĢÐ¾Ð²": 7561,
      "ĠÑģÐ»Ð¾Ð²": 7562,
      "ÐµÐ½Ð½ÑĭÐ¹": 7563,
      "ĠÑģÐ¸ÑģÑĤÐµÐ¼Ð°ÑģÑĭÐ½ÑĭÐ½": 7564,
      "ĠÐ¼Ð¾Ð¶ÐµÑĤÐµ": 7565,
      "ĠÐºÐ¾ÑĢÑĢÑĥÐ¿ÑĨÐ¸ÑıÐ»ÑĭÐº": 7566,
      "ĠÑĤÐ°ÑĢÑĤÐ¸Ð¿ÑĤÐµ": 7567,
      "ĠÑĤÐ°Ð°Ð½ÑĭÑĪÑĤÑĭÑĢ": 7568,
      "ĠÑĦÑĢÐ°Ð½ÑĨÑĥÐ·": 7569,
      "ĠÑĤÒ¯Ð·Ò¯Ð»Ò¯ÑĪÒ¯": 7570,
      "ĠÐºÐ°Ð½Ð´Ð¸Ð´": 7571,
      "ĠÐ¿Ð°": 7572,
      "ĠÐ¢ÐµÐ¼": 7573,
      "Ð°ÑĤÐµÐ»Ñı": 7574,
      "ĠÐºÐ¸Ð¼Ð³Ðµ": 7575,
      "ĠÐ°ÐºÐ°Ð´ÐµÐ¼Ð¸ÑıÑģÑĭÐ½ÑĭÐ½": 7576,
      "ĠÒ¯Ð»Ð³Ò¯ÑģÒ¯Ð½Ð´Ó©Ð³Ò¯": 7577,
      "ĠÐ¼Ð¾Ð¹Ð½ÑĥÐ½Ð°": 7578,
      "ÐŁÐ¾": 7579,
      "Ð°ÑĨÐ¸ÑıÐ»Ð¾Ð¾": 7580,
      "ĠÐ¶Ð°Ð±ÑĭÐº": 7581,
      "ĠÓ¨ÑĤÐºÓ©Ð½": 7582,
      "ĠÑĤÐ¾ÐºÑĤÐ¾ÑĤÑĥÑĥ": 7583,
      "ĠÐ´ÐµÐ¼Ð¾ÐºÑĢÐ°ÑĤÐ¸ÑıÐ»ÑĭÐº": 7584,
      "78": 7585,
      "-ÑįÐ½ÐµÐ»ÐµÑĢ": 7586,
      "ĠÐ±ÑĭÐ»Ð¸": 7587,
      "ĠÓ©Ð¼Ò¯ÑĢÒ¯Ð½": 7588,
      "ÐµÑĤÐµÑĢÐ±ÑĥÑĢÐ³": 7589,
      "ĠÑģÐ¾Ð¾Ð»ÑĥÐº": 7590,
      "ÐŃÑģÐºÐµ": 7591,
      "Ð¾Ò£Ð´Ð¾Ð¾": 7592,
      "Ð°Ð¿ÑĢÐ¸Ð¼ÐµÑĢ": 7593,
      "Ð»ÑĥÐ¿": 7594,
      "ĠÑĦÐ¸Ð½Ð°Ð½ÑģÑĭ": 7595,
      "ĠÒ¯Ð½Ð´Ó©": 7596,
      "Ð³Ð¸ÑģÐ¸": 7597,
      "ĠÐ¡Ð¾Ðº": 7598,
      "Ð¸ÐºÑĤÐµÑĢÐ´Ð¸Ð½": 7599,
      "ĠÑģÐ°ÑıÑģÐ°ÑĤÑĩÑĭ": 7600,
      "ÐĸÐ°Ð»Ð°Ð»": 7601,
      "ĠÐ°Ð»Ð³Ð°Ð½Ñĭ": 7602,
      "-Ð±Ò¯Ð»Ó©Ñģ": 7603,
      "ĠÐ¢Ó©Ð»": 7604,
      "Ð£Ð£": 7605,
      "ĠÐ¨Ð°Ð¹Ð»Ð¾Ð¾": 7606,
      "ĠÐ¾ÑĢÐ´ÐµÐ½Ð¸": 7607,
      "ĠÐ½ÐµÐºÐ¾ÑĤÐ¾ÑĢ": 7608,
      "ĠÐĲÐ»Ð°Ð¹": 7609,
      "ĠÐºÐµÐ·ÐµÐºÑĤÐµ": 7610,
      "Ð±ÐµÑĢÐ´Ð¸": 7611,
      "Ð¸Ð·Ð°ÑĨÐ¸Ð¸": 7612,
      "51": 7613,
      "ĠÑĤÐ¸ÑĢÐºÐµÐ¼": 7614,
      "ĠÐ½ÐµÐ±": 7615,
      "Ð¸Ð²Ð°ÐµÑĤÑģÑı": 7616,
      "ĠÐ¼ÑĥÐ½Ð°Ð¹": 7617,
      "ĠÐ±Ð°ÑĪÐ°Ð»Ð°Ð¼Ð°Ð½": 7618,
      "Ð°ÑħÐ¼Ð°ÑĤ": 7619,
      "Ð±Ð¾": 7620,
      "ÐļÓ©Ð¿": 7621,
      "ĠÐłÑĥÑģ": 7622,
      "ĠÑģÐ°Ð»ÑĤÑĤÑĥÑĥ": 7623,
      "Ð´Ð¸Ð³Ð¸Ð½Ð¸Ð½": 7624,
      "ĠÐ±ÑĥÐ·Ð³Ð°Ð½": 7625,
      "ĠÐ³ÑĢÐ°Ð¼Ð¾ÑĤ": 7626,
      "ĠÐ½Ð°Ð°ÑĢÐ°Ð·ÑĭÐ»ÑĭÐº": 7627,
      "ĠÐ³ÑĥÐ±ÐµÑĢÐ½": 7628,
      "ÑĥÐ³ÑĥÐ½Ð°Ð½": 7629,
      "ĠÑĤÐ¾ÐºÑĤÐ¾Ð¿": 7630,
      "ÑĤÐ¾Ð²": 7631,
      "ĠÑĩÐ°ÐºÑĭÑĢÐ³Ð°Ð½": 7632,
      "Ð¸ÐºÐµ": 7633,
      "Ð±Ð°ÑģÑĤÐ°Ð½": 7634,
      "ĠÐºÐ¾Ð¼Ð¿Ð¾Ð·": 7635,
      "Ð´ÑĭÐºÑĤÐ°ÑĢÐ´ÑĭÐ½": 7636,
      "ĠÑĤÐ°ÑĪÑĥÑĥÑĩÑĥ": 7637,
      "ĠÐ±ÑĥÐ´ÑĥÑĤ": 7638,
      "eg": 7639,
      "ĠÐ±Ð°Ò£": 7640,
      "ĠÐ±ÐµÐ»Ð³Ð¸Ð»ÐµÐ¹ÑĤ": 7641,
      "Ð¼Ð°Ð»Ð°ÑĢÐ´ÑĭÐ½": 7642,
      "ĠÐºÓ©ÑĩÓ©ÑģÒ¯": 7643,
      "Ġin": 7644,
      "Ð¾Ð»Ð¶": 7645,
      "ĠÐ¿Ð»Ð¾": 7646,
      "ĠÐ±Ð¸Ð»Ð´Ð¸ÑĢÒ¯Ò¯ÑģÒ¯Ð½Ð´Ó©": 7647,
      "ĠÑģÐ¿Ð¾ÑĢÑĤÑĤÑĥÐº": 7648,
      "ĠÐ°Ð¹Ð¼Ð°Ð³ÑĭÐ½ÑĭÐ½": 7649,
      "ĠÑģÑĨÐµÐ½": 7650,
      "Ð´ÐµÑģÑĮ": 7651,
      "ĠÐ±Ð¸ÑĢÐ¸Ð½Ð¸Ð½": 7652,
      "ĠÐ¶Ð°ÑĢÐ°Ð»Ð³Ð°Ð½": 7653,
      "Ð¼Ð°Ð´": 7654,
      "ÐµÑģÑĤÐ¸Ð½": 7655,
      "ĠÐĸÐ¾Ð»Ð´Ð¾ÑĪ": 7656,
      "ĠÐŀÐ¾Ð±Ð°": 7657,
      "61": 7658,
      "Ð¼Ð¾Ñģ": 7659,
      "ĠÐºÐµÐ·Ð¸": 7660,
      "ĠÐ°Ð¹Ð´Ð°": 7661,
      "ĠÐ¢Ð°Ð»Ð°": 7662,
      "ĠÑģÐ°Ð»Ð°Ð¼Ð°ÑĤÑĤÑĭÐºÑĤÑĭ": 7663,
      ",ĊĊ": 7664,
      "ĠÐ¼ÑĥÐ½ÑĥÐ½": 7665,
      "ĠÐĴÐ°Ð»": 7666,
      "ĠÐ¿Ð°Ð¹Ð´Ð°Ð»Ð°Ð½ÑĥÑĥÐ³Ð°": 7667,
      "Ð¼Ð°ÑģÑĭÐ½ÑĭÐ½": 7668,
      "ĠÑĩÑĭÐ³Ð°ÑĢÐ´Ñĭ": 7669,
      "ĠÐ¼ÑĭÐ¹Ð·Ð°Ð¼Ð´ÑĭÐ½": 7670,
      "ĠÐ°ÐºÑĤÐ¸Ð²Ð¸ÑģÑĤ": 7671,
      "ĠÐ´ÑĢÐ°Ð¼Ð°": 7672,
      "ĠÑĤÒ¯ÑĢÑĤÐºÒ¯": 7673,
      "ĠÐ´Ð¾Ð¾": 7674,
      "ĠÐļÐ¾Ò£": 7675,
      "ĠÐłÐ°Ð¹": 7676,
      "ĠÐºÐµÑĢÐµÐ³Ð¸": 7677,
      "Ð¸Ð½Ð³ÑĤÐ¾Ð½": 7678,
      "ÐŃÐ³ÐµÑĢÐ´Ðµ": 7679,
      "ÑģÑĤÐ°ÑĢ": 7680,
      "Ð°Ð½Ð¸Ñİ": 7681,
      "Ð°Ð»Ð´Ð°ÑĪÑĤ": 7682,
      "ÑĢÐµ": 7683,
      "ĠÐºÑĭÐ·Ð¼Ð°ÑĤÑĤÐ°ÑĪÑĥÑĥ": 7684,
      "ĠÐ°ÐºÑĩÐ°Ð½Ñĭ": 7685,
      "ÑĭÐºÑĤÐ°ÑĢÑĭÐ½": 7686,
      "ĠÑģÑĥÑĢÐ°Ð³Ð°Ð½": 7687,
      "ÑĤÐµÑĢÐ´Ð¸Ð½": 7688,
      "ĠÐ°Ð·Ð°Ð¹": 7689,
      "ĠÐĽÐµÐ¹": 7690,
      "ĠÐºÐµÑģÐ¸Ð»": 7691,
      "ÐµÑĢÑģÐ¾Ð½": 7692,
      "ĠÐ¼ÑĥÑĪÑĤ": 7693,
      "ĠÐ±Ð°Ð»ÑĭÐº": 7694,
      "ĠÐļÐľÐ¨": 7695,
      "Ð³Ð¸Ð»Ò¯Ò¯": 7696,
      "ĠÐ¸ÑģÐºÑĥÑģÑģÑĤÐ²Ð¾": 7697,
      "ĠÐ¾ÑĤÑĩÐµÑĤ": 7698,
      "ĠÑģÑĥÑĥÐº": 7699,
      "ĠÐ¾Ð±ÐµÑģÐ¿": 7700,
      "ĠÑĤÐ°Ð±ÑĥÑĥ": 7701,
      "ĠÐļÑĥÑĢÐ¼Ð°Ð½Ð±ÐµÐº": 7702,
      "ce": 7703,
      "Ð½ÐµÐ¼": 7704,
      "ĠÑģÐ¾Ð½ÑĥÐ½": 7705,
      "ĠÐ±Ð¾ÑĢÐ±Ð¾ÑĢÐ»Ð¾ÑĢ": 7706,
      "ĠÐ³Ð»Ð¾Ð±": 7707,
      "ĠÐºÐ¾Ð»ÑĥÐ½Ð°Ð½": 7708,
      "ĠÑģÑĥÐ½ÑĥÑĪÑĤÐ°Ð³Ð°Ð½": 7709,
      "ÐĲÐ½Ð´Ð°Ð½": 7710,
      "ĠÐºÐ¾Ð°Ð»Ð¸ÑĨÐ¸Ñı": 7711,
      "Ð³ÐµÑĢÐ»ÐµÑĢ": 7712,
      "ĠÑģÐ°Ð¿Ð°ÑĢÑĭ": 7713,
      "ĠÐ¿ÑĢÐ¸Ð³": 7714,
      "ĠÐ¶Ð¾Ð»ÑĥÐ½ÑĥÐ½": 7715,
      "ĠÐºÐ¾ÑĤ": 7716,
      "ÐĶÐ»Ñı": 7717,
      "Ð°Ð»Ð°ÑĢÑĭÐ½Ð°": 7718,
      "ĠÐ¸Ð½ÑĤÐµÑĢÐµÑģ": 7719,
      "ĠÐ¶Ð°ÑĤÑĤÑĭ": 7720,
      "Ð´Ð°ÑĢÑĭÐ½Ð°Ð½": 7721,
      "ĠÑĤÒ¯ÑĪÓ©ÑĤ": 7722,
      "ĠÑģÐ¾Ð¾Ð±Ñī": 7723,
      "ĠÐ°Ð»Ð¼Ð°ÑĪ": 7724,
      "?Â»": 7725,
      "ĠÐºÐ¸ÑĢÐ´Ð¸": 7726,
      "ĠÐ¾ÑĢÑĥÐ½Ð´Ñĥ": 7727,
      "ĠÑģÑħÐµÐ¼": 7728,
      "ÑĩÐµÑģ": 7729,
      "ĠÑģÑĥÐ³": 7730,
      "ĠÐºÐ°Ð¿Ñĩ": 7731,
      "ĠÐºÐ°ÑĢÐ°Ð»ÑĭÐ¿": 7732,
      "ĠÐ±Ð°Ð»Ð»": 7733,
      "Ð°Ð½Ð¸ÐµÐ¼": 7734,
      "ĠÓ©ÑģÑĤÒ¯ÑĢ": 7735,
      "ĠÐ³ÐµÐ·Ð¸": 7736,
      "ÑĥÐ½Ð´": 7737,
      "Ð¾ÑģÐ»Ðµ": 7738,
      "ĠÐ¶Ò¯ÑĢÓ©Ð³": 7739,
      "ĠÐŀÑĪÐ¾Ð½Ð´Ð¾Ð½": 7740,
      "ĠÑĤÑĥÑĢÐ¼ÑĥÑĪÐºÐ°": 7741,
      "ĠÐĺÐ·ÑĢÐ°": 7742,
      "ĠÑģÑĤÑĢÐ°ÑĤÐµÐ³Ð¸ÑıÐ»ÑĭÐº": 7743,
      "ĠÐºÐ°Ð»Ð³Ð°Ð½Ð´Ð°": 7744,
      "ĠÐĸÐ°ÐºÑĭÐ¿": 7745,
      "ĠÓ©ÑģÒ¯Ð¼Ð´Ò¯Ðº": 7746,
      "53": 7747,
      "Ð¸Ð¼Ðµ": 7748,
      "ĠÐ¾ÑĢÐ³Ð°Ð½Ð´Ð°ÑĢÐ´ÑĭÐ½": 7749,
      "ĠÐ°ÑĪÑĭÐºÑĩÐ°": 7750,
      "ĠÐºÐµÐ»Ð³ÐµÐ½Ð¸Ð½": 7751,
      "ÑģÐºÐ¾Ðµ": 7752,
      "ĠÐ¾ÑĪÐ¾Ð½Ñĥ": 7753,
      "ĠÑĤÒ¯Ð½ÐºÒ¯ÑģÒ¯Ð½": 7754,
      "ÐµÐ³Ð¾Ð´Ð½Ñı": 7755,
      "ÑĥÑĢÐµ": 7756,
      "ĠÑįÑģÐºÐµÑĢÑĤ": 7757,
      "ĠÐºÑĭÑģÑĭÐ¼": 7758,
      "Ð½ÐµÐ³Ð¾": 7759,
      "Ð°Ð½ÑĭÐ±ÐµÐº": 7760,
      "ĠÐºÑĭÐ¹Ð¼ÑĭÐ»Ñĭ": 7761,
      "Ð°ÑĤÑĭÐ½Ð°Ð½": 7762,
      "ĠÐľÐ¸Ñħ": 7763,
      "ĠÑĩÑĭÐ³Ð°ÑĢÐ°ÑĤ": 7764,
      "Ð¸Ð´ÐµÐ¼Ð¸": 7765,
      "98": 7766,
      "ĠÐĺÐ¼Ð°Ð½": 7767,
      "ĠÐ¸ÑĪÑĤÐµÐ±": 7768,
      "ĠÐ¶Ð°Ð³ÑĭÐ¼Ð´ÑĥÑĥ": 7769,
      "Ð½Ð¸ÑĢ": 7770,
      "Ð¸Ð»Ð´Ó©Ó©": 7771,
      "ÐµÐ»ÐµÐº": 7772,
      "Ð¾Ð»Ð¾ÑĢÐ´ÑĥÐ½": 7773,
      "ĠÑĩÐ°Ð¼Ð°ÑģÑĭÐ½Ð´Ð°": 7774,
      "-ÑģÐ¾": 7775,
      "ĠÑĤÐ°ÐºÑĭÑĢ": 7776,
      "ĠÐºÐ¾ÑĤÐ¾ÑĢÐ°Ñı": 7777,
      "ĠÐ¿Ð¸ÐºÐ¸ÑĢÐ»ÐµÑĢ": 7778,
      "ĠÑįÑĦÑĦÐµÐºÑĤÐ¸Ð²": 7779,
      "ĠÐ³Ð¾ÑĤÐ¾Ð²": 7780,
      "ÐłÐ¾ÑģÑģ": 7781,
      "ĠÐºÑĭÐ·Ð¼Ð°ÑĤÑĤÐ°ÑĪÑĤÑĭÐº": 7782,
      "Ð°ÑĤÑĭÐ½Ð´Ð°": 7783,
      "ĠÐ²Ð½ÑĥÑĤ": 7784,
      "ĠÐ¶ÐµÑĤÐ¿ÐµÐ¹": 7785,
      "-ÑģÐµÐ·": 7786,
      "ĠÐºÑĥÑĢÑĥÐ»ÑĥÑĪÑĥ": 7787,
      "ĠÐ¿ÑĢÐ¸Ñģ": 7788,
      "ĠÐ¡ÐµÑĢ": 7789,
      "Ð°ÐºÑĤÐ°ÑĢÐ³Ð°": 7790,
      "ĠÐºÑĭÑĢÑģÑĭÐº": 7791,
      "ĠÐ±Ð°ÐºÑĩÐ°": 7792,
      "Ĥ¬": 7793,
      "Ð°ÐµÐ¼": 7794,
      "ĠÐ£ÐºÑĢÐ°Ð¸Ð½Ð°Ð½ÑĭÐ½": 7795,
      "ÑĩÑĥÐº": 7796,
      "ĠÐ¶Ð°Ð¹Ð³Ð°": 7797,
      "ĠÓ©ÐºÒ¯Ð»ÑĩÒ¯Ð»": 7798,
      "ĠÐ¿Ð¸ÐºÐ¸ÑĢÐ¸Ð½Ð´Ðµ": 7799,
      "ĠÑįÐ¼Ð³ÐµÐºÑĤÐµÐ½Ð³ÐµÐ½": 7800,
      "ĠÑģÑĥÐ¿": 7801,
      "ĠÐŀÐ´": 7802,
      "ĠÐĳÐ¸Ð»": 7803,
      "ĠÑĤÑĥÑĢÐ³Ð°Ð½Ñĭ": 7804,
      "Ò¯ÑĪÑĤÒ¯Ð½": 7805,
      "ĠÐľÐ°Ð¼ÑĭÑĤ": 7806,
      "ÐºÑĤÐ°": 7807,
      "ĠÐ¼Ò¯Ð»Ðº": 7808,
      "ĠÐºÑĤÐ¾": 7809,
      "ÑĥÑģÑĤÑĥÐ½": 7810,
      "ĠÑĩÐµÐ±": 7811,
      "ĠÐĲÑģÐºÐµÑĢ": 7812,
      "Ð¶Ð°ÑĢ": 7813,
      "ÐµÑģÑĤÑĮ": 7814,
      "ĠÑĤÐ°Ð»Ð´Ð¾Ð¾": 7815,
      "ĠÐ¶ÐµÑĢÐ´ÐµÐ³Ð¸": 7816,
      "ĠÐ´ÐµÐ»ÐµÐ³Ð°": 7817,
      "ĠÑįÑįÐ»ÐµÐ¿": 7818,
      "ÐºÐ°Ð´ÑĭÑĢ": 7819,
      "Ð°Ð»Ð°ÑĢÑĭÐ½Ð´Ð°": 7820,
      "Ð§Ð¾Ò£": 7821,
      "ÑģÑĥÐ½Ð°Ð½": 7822,
      "ĠÑģÐ¾Ð²ÐµÑĤÑĤÐ¸Ðº": 7823,
      "ĠÐĲÐ±ÑĭÐ»Ð³Ð°Ð·Ð¸ÐµÐ²": 7824,
      "ÑĥÐ³ÑĥÐ½ÑĥÐ½": 7825,
      "ĠÐ°ÐºÑĤÑĭÐ»": 7826,
      "ĠÐºÑĭÐ·Ð¼Ð°ÑĤÐºÐµÑĢÐ»ÐµÑĢÐ¸Ð½Ðµ": 7827,
      "ĠÐºÐµÐ»ÑĤÐ¸ÑĢÐ³ÐµÐ½": 7828,
      "ĠÐ´ÑĥÑĥÑĪÐ°ÑĢ": 7829,
      "li": 7830,
      "ĠÑĦÐ¾ÑĤ": 7831,
      "ÑĥÐºÑĤÐ°": 7832,
      "ĠÐ±ÑĥÐ¹ÑĢÑĥÐº": 7833,
      "ĠÑģÐ¾ÑĢ": 7834,
      "Ð°Ð¼ÑĭÑĢ": 7835,
      "ĠÐ±Ð°ÑıÐ½Ð´Ð°Ð¼": 7836,
      "ĠÐŁÑĢÐµÐ·Ð¸Ð´ÐµÐ½ÑĤÐ¸Ð½Ð¸Ð½": 7837,
      "ĠÐ¼Ð°Ð°Ð½Ð¸Ð³Ðµ": 7838,
      "ÙĴ": 7839,
      "Ð»Ð°ÑĪ": 7840,
      "Ð»ÑıÐ½": 7841,
      "ĠÐ°Ð»Ð°Ð¼": 7842,
      "ÐµÑģÐ¸Ð·": 7843,
      "ÐµÑģÑĤÐ²Ðµ": 7844,
      "ĠÐ°ÑĢÐ°ÐºÐµÑĤÑĤÐµÑĢÐ¸": 7845,
      "ĠÐºÑĭÐ·ÑĭÐºÑĩÑĭÐ»ÑĭÐºÑĤ": 7846,
      "ĠÐŃÑģÐµÐ½": 7847,
      "[Ð¾Ò£Ð´Ð¾Ð¾": 7848,
      "ĠÑĤÐ¸Ð·Ð¼ÐµÑģÐ¸": 7849,
      "ĠÐ¼ÐµÐ»Ð´ÐµÑĪ": 7850,
      "ĠÑĢÐµÑģÐ¿ÑĥÐ±Ð»Ð¸ÐºÐ°Ð½ÑĭÐ½": 7851,
      "ÐĸÐ°Ðº": 7852,
      "ĠÓ¨Ð·Ð³Ó©Ð½": 7853,
      "ĠÑĥÑİÑĪÑĤÑĥÑĢÐ³Ð°Ð½": 7854,
      "ÐµÑĢÐ³ÐµÐ¹": 7855,
      "ĠÐ¶ÐµÐ¿": 7856,
      "Ð±Ð¸Ð»": 7857,
      "Ð°ÑĤÑĭÐ»Ð³Ð°Ð½": 7858,
      "ĠÑĤÐ¸Ð·": 7859,
      "ĠÐľÐ°Ð½": 7860,
      "ĠÐ¶ÐµÒ£Ð¸Ð»Ð´ÐµÑĤ": 7861,
      "Ð¸ÑģÐ¸Ð½Ðµ": 7862,
      "ÑĭÐ»Ð´Ð°": 7863,
      "ÑĥÑĪÑĤÐ°ÑĢ": 7864,
      "ĠÐºÐ°ÑĤÐ°ÑĢÑĭÐ½Ð°": 7865,
      "Ð°ÑĢÐ¸Ð¶": 7866,
      "ĠÐ±ÐµÑģÐ¿Ð»Ð°ÑĤ": 7867,
      "ÑģÑĭÐ½Ð´Ð°Ð³Ñĭ": 7868,
      "ÐļÐ¾ÑĪ": 7869,
      "ĠÐ»ÐµÐº": 7870,
[...]
